<unk>	0
<s>	0
</s>	0
[CLS]	0
[SEP]	0
[MASK]	0
▁.	-3.39568
▁,	-3.60816
▁yog	-4.12736
▁li	-4.13719
▁ua	-4.28996
▁los	-4.32851
▁no	-4.36707
▁tsis	-4.4401
▁yuav	-4.44809
▁tau	-4.4702
▁koj	-4.50158
▁lawm	-4.51994
▁kuv	-4.55464
▁cov	-4.58812
▁thiab	-4.60204
▁hais	-4.6752
▁muaj	-4.70433
▁xwb	-4.71966
▁ces	-4.72664
▁rau	-4.74822
▁mus	-4.8042
▁ib	-4.83767
▁tus	-4.84049
▁mas	-4.86653
▁peb	-4.91569
▁lub	-4.91916
▁tias	-5.07205
▁zoo	-5.10955
▁yeej	-5.1336
▁nws	-5.13401
▁Hmoob	-5.17398
▁tsi	-5.22318
▁lawv	-5.22378
▁nyob	-5.30512
▁	-5.31289
▁kom	-5.41494
▁tuaj	-5.44517
▁neeg	-5.44538
▁kev	-5.4611
▁qhov	-5.47275
▁paub	-5.49231
▁tug	-5.53465
▁es	-5.53752
▁tej	-5.55779
▁tseem	-5.55956
▁ntawd	-5.58946
▁twb	-5.61084
▁xav	-5.6191
▁thiaj	-5.64042
s	-5.64958
▁muab	-5.65431
▁?	-5.6872
▁...	-5.72849
▁twg	-5.73814
▁hmoob	-5.75036
▁txog	-5.75294
▁-	-5.79757
▁yus	-5.81266
▁nej	-5.8313
▁lus	-5.8437
▁"	-5.85273
▁cas	-5.86516
▁le	-5.86934
▁siab	-5.87981
▁sib	-5.91787
▁teb	-5.92073
▁luag	-5.93252
▁Kuv	-5.96335
▁thaum	-6.00311
▁Yog	-6.0292
▁coj	-6.03988
▁uas	-6.0571
▁tas	-6.05949
▁pab	-6.06443
▁vim	-6.10216
▁nawb	-6.11433
▁saib	-6.1286
▁hauv	-6.13441
▁txiv	-6.14154
▁kawg	-6.14798
▁pom	-6.15841
▁tiag	-6.16013
▁tag	-6.18033
▁me	-6.19328
▁puas	-6.22004
▁nrog	-6.24256
▁ho	-6.27165
▁ntau	-6.27398
▁yam	-6.28985
▁yawg	-6.29535
▁noj	-6.29854
▁kiag	-6.31114
▁ntawm	-6.32322
▁hab	-6.32956
▁niam	-6.33332
▁leej	-6.34199
▁sis	-6.35039
▁has	-6.3621
▁(	-6.3866
▁the	-6.40187
▁tub	-6.41398
▁txoj	-6.4274
▁tom	-6.42858
2	-6.4317
▁qab	-6.44334
▁to	-6.44416
▁rov	-6.4484
▁os	-6.45138
▁lwm	-6.45671
▁txhob	-6.51119
▁Koj	-6.51373
▁tim	-6.52813
/	-6.5283
▁kuj	-6.5485
▁lug	-6.5533
▁hnub	-6.55679
▁neej	-6.58308
▁....	-6.59279
▁tawm	-6.61027
▁tuag	-6.6134
▁dab	-6.61473
▁tham	-6.61855
▁ntawv	-6.6252
▁mam	-6.63022
▁tsev	-6.6414
▁rua	-6.65646
▁tso	-6.66834
▁cia	-6.67656
▁ob	-6.67867
▁txawm	-6.68762
▁)	-6.71157
▁tua	-6.7219
▁sab	-6.73046
▁heev	-6.7378
▁siv	-6.74955
▁moog	-6.75881
▁kawm	-6.76201
▁txawj	-6.77174
▁nyiaj	-6.79611
▁sawv	-6.80629
▁ntag	-6.8189
▁ntseeg	-6.82667
▁tsum	-6.83681
▁lam	-6.84501
▁nuav	-6.8496
d	-6.86598
▁Moob	-6.87131
▁tab	-6.88563
▁and	-6.88953
▁qhia	-6.89236
▁tseeb	-6.90581
m	-6.92116
▁2	-6.92579
▁ntuj	-6.93748
▁tsuas	-6.93824
▁Ua	-6.94163
▁coob	-6.96253
g	-6.96319
▁niag	-6.96607
▁xyoo	-6.96653
▁raug	-6.97448
▁:	-6.97956
▁muag	-6.98914
▁Cov	-6.99085
▁kwv	-6.99821
▁hu	-7.00702
▁nplog	-7.00854
▁tswv	-7.01014
▁..	-7.01337
▁tshaj	-7.01676
▁sau	-7.02562
▁dua	-7.03376
▁laus	-7.03663
▁txhua	-7.03693
▁daws	-7.04732
▁poj	-7.05255
▁loj	-7.05273
▁!	-7.06518
▁of	-7.06614
▁tes	-7.07101
▁pheej	-7.07122
▁nwg	-7.08135
▁kws	-7.08321
▁cai	-7.08386
▁hlub	-7.09294
▁ne	-7.09345
▁sim	-7.09627
▁zog	-7.1005
▁Peb	-7.10564
▁tib	-7.10621
▁zaum	-7.12243
▁hluas	-7.12458
▁hos	-7.12874
b	-7.13058
▁yug	-7.1372
▁tsam	-7.13841
▁'	-7.14223
▁3	-7.16057
▁tij	-7.16599
▁npe	-7.16711
▁ntxiv	-7.17658
▁a	-7.1832
▁tsim	-7.18397
▁Thaum	-7.18899
▁you	-7.19044
▁hnov	-7.19063
▁npaum	-7.21054
▁phem	-7.21793
▁nkauj	-7.22088
▁is	-7.22415
▁chaws	-7.22672
▁Nplog	-7.22717
▁puab	-7.23588
▁thov	-7.23835
▁dhau	-7.25019
▁ntej	-7.26326
▁koom	-7.27758
y	-7.28303
▁ub	-7.28315
v	-7.28486
▁ntshai	-7.28914
▁dag	-7.29362
▁Qhov	-7.30155
▁haiv	-7.30472
▁--	-7.31226
▁ntse	-7.32294
▁raws	-7.32581
▁nom	-7.33155
▁1	-7.34043
▁yawm	-7.3499
▁yim	-7.3517
▁chaw	-7.35369
▁ov	-7.36815
▁.....	-7.3771
▁ntev	-7.37988
▁txaus	-7.38225
▁nyiam	-7.38367
▁tseg	-7.38535
▁mob	-7.39105
▁in	-7.39123
▁suav	-7.3974
▁Dr	-7.4063
▁tabsis	-7.40998
▁Hmong	-7.41045
▁I	-7.41286
▁xeem	-7.41886
▁pob	-7.42527
▁seb	-7.42655
▁kam	-7.44255
▁tos	-7.44547
▁thawj	-7.45482
▁ntsib	-7.47272
▁xaav	-7.47308
▁luaj	-7.47714
j	-7.47769
▁khiav	-7.49986
▁meej	-7.49996
▁qub	-7.50139
▁......	-7.50463
▁poob	-7.50936
▁tsaug	-7.5116
▁ntxhais	-7.51626
▁ruam	-7.51669
▁nkaus	-7.51692
▁nyuam	-7.5174
▁nug	-7.52397
▁maj	-7.52482
▁tu	-7.5368
▁daim	-7.54234
▁nyias	-7.54858
▁pem	-7.5515
▁na	-7.55224
▁pub	-7.55283
▁Yaj	-7.55411
▁mej	-7.55615
▁naj	-7.56234
▁leeg	-7.56993
▁dej	-7.57891
▁Vaj	-7.58053
▁nco	-7.58794
▁Nej	-7.59236
▁kho	-7.59279
▁;	-7.60676
▁ntshe	-7.60713
▁txug	-7.61348
▁laug	-7.6138
▁nrhiav	-7.61442
▁haus	-7.62983
▁com	-7.63279
▁caij	-7.64062
▁pov	-7.64139
▁lo	-7.6431
▁Tej	-7.64424
▁pojniam	-7.65017
▁hlob	-7.65113
▁caag	-7.65228
▁dawb	-7.66348
▁tiam	-7.66356
▁kav	-7.67175
▁wb	-7.67716
▁s	-7.68122
▁kheej	-7.68742
ed	-7.68827
e	-7.69578
▁cem	-7.69618
▁mloog	-7.69874
▁as	-7.70058
▁nkawv	-7.70139
▁Tus	-7.70172
▁for	-7.70522
▁tsawg	-7.7085
▁tog	-7.70927
▁ze	-7.70941
▁Tsis	-7.71124
▁txim	-7.71823
▁tebchaws	-7.72233
▁6	-7.72557
▁laiv	-7.7281
▁nyuag	-7.73172
▁nua	-7.73252
▁meem	-7.73263
▁Nws	-7.73463
▁4	-7.73606
▁si	-7.75093
▁neb	-7.76153
▁txhaj	-7.76288
▁txuj	-7.7639
ing	-7.786
▁that	-7.78613
▁zaug	-7.79093
▁ko	-7.80037
▁hov	-7.80071
▁nas	-7.80327
▁tabsi	-7.81043
▁quav	-7.81152
▁Thaib	-7.81275
▁chim	-7.81767
▁haum	-7.81831
▁niaj	-7.82072
▁tsa	-7.82215
▁teeb	-7.82231
▁Born	-7.83021
▁ncaj	-7.83227
▁rooj	-7.83494
▁.......	-7.83727
▁VP	-7.83902
▁taag	-7.8393
4	-7.84133
▁it	-7.85447
▁huv	-7.857
▁puav	-7.86112
▁taub	-7.8654
▁nram	-7.86608
▁kwvtij	-7.86764
▁://	-7.86934
▁rog	-7.87341
▁hom	-7.87558
▁pib	-7.87586
▁nam	-7.87843
▁yuam	-7.87866
▁kuas	-7.88707
▁Suav	-7.88768
▁liab	-7.89069
▁sawvdaws	-7.90201
▁txawv	-7.90219
▁xa	-7.90278
▁saum	-7.91277
▁mog	-7.91536
▁hauj	-7.91884
▁piav	-7.92507
▁hau	-7.92895
▁moob	-7.9291
▁zaj	-7.93065
▁http	-7.93329
▁ntsis	-7.93928
▁txhais	-7.9414
▁ywg	-7.94594
▁be	-7.94622
▁kub	-7.95324
▁pum	-7.95392
▁tshuav	-7.95695
▁deb	-7.96358
▁5	-7.96721
▁nyaj	-7.97429
▁taw	-7.98367
▁Lis	-7.98615
▁taug	-7.99296
▁them	-7.99299
▁YTK	-7.99335
▁mos	-7.9951
▁Lawv	-8.00088
▁xwm	-8.00673
▁aw	-8.00702
▁tshiab	-8.0074
▁ke	-8.00887
▁dabtsi	-8.01635
▁not	-8.02619
▁tuav	-8.03513
▁sij	-8.03765
▁txom	-8.03893
▁phoojywg	-8.04098
▁Txawm	-8.04973
▁qho	-8.05546
▁zos	-8.05665
=	-8.05742
▁cev	-8.05985
▁pw	-8.06228
▁or	-8.06531
▁are	-8.07139
▁mag	-8.07375
▁nyog	-8.07525
▁mov	-8.07704
▁co	-8.08044
www	-8.08121
▁v	-8.08266
▁hav	-8.08329
▁tuab	-8.08452
▁he	-8.08771
▁i	-8.0881
▁ceeb	-8.09009
▁Vim	-8.09029
▁haj	-8.09612
▁yau	-8.09617
▁cais	-8.0976
▁Nyob	-8.10095
▁laj	-8.10452
▁cav	-8.10986
▁ma	-8.11164
▁luas	-8.11304
▁Muaj	-8.11446
▁nim	-8.11454
▁t	-8.12126
▁nyeem	-8.1243
▁hawm	-8.12762
▁feem	-8.1305
▁puag	-8.13661
▁cuab	-8.13858
▁hloov	-8.14107
▁30	-8.14148
▁av	-8.15001
▁phooj	-8.15015
▁miv	-8.15178
▁vaj	-8.156
▁taus	-8.16584
▁Hais	-8.17126
▁).	-8.17943
▁neeb	-8.18238
▁lau	-8.18445
▁tam	-8.18665
▁ntiaj	-8.18749
▁yav	-8.18757
▁qhuas	-8.20052
▁yaam	-8.20705
▁xyuas	-8.21067
▁lis	-8.2136
▁txwm	-8.21688
▁lov	-8.21735
▁10	-8.21945
▁koob	-8.22166
▁YOG	-8.22191
▁leejtwg	-8.22357
▁HMOOB	-8.22677
▁your	-8.22865
▁ntsej	-8.22898
▁Lub	-8.23078
▁ned	-8.23273
▁thaib	-8.23335
ly	-8.23569
▁suab	-8.23966
▁xov	-8.24035
▁nov	-8.24844
▁tsua	-8.24937
▁menyuam	-8.2494
▁Yang	-8.2514
▁yeeb	-8.25218
▁tawg	-8.25302
▁have	-8.25506
▁hlo	-8.25599
▁Ib	-8.25844
▁Zoo	-8.25967
▁b	-8.26269
▁dev	-8.26389
▁liam	-8.26443
▁SCH	-8.26648
▁nav	-8.27053
▁Vajtswv	-8.27225
▁noob	-8.27673
▁las	-8.27818
▁noog	-8.27832
▁lauj	-8.29167
▁xeeb	-8.29195
▁phom	-8.29432
▁nkag	-8.29637
▁nyuj	-8.29834
▁Yawg	-8.30176
▁pawg	-8.30247
▁cuag	-8.3045
▁ncauj	-8.30454
▁ntshaw	-8.31244
▁kab	-8.31434
▁nrho	-8.31751
8	-8.31787
▁Pov	-8.32041
▁tais	-8.32297
▁xub	-8.3235
▁quas	-8.32644
n	-8.32663
▁so	-8.32719
▁paab	-8.32815
t	-8.32986
▁Tub	-8.33072
▁Pao	-8.33157
▁LI	-8.33234
▁txais	-8.33384
▁num	-8.33386
▁dlaab	-8.3362
▁thaub	-8.33719
▁tsoom	-8.34078
▁plaub	-8.34343
▁txhaum	-8.34508
▁this	-8.34668
▁GVP	-8.34779
▁qhuav	-8.34788
li	-8.34979
▁xyov	-8.35035
▁nrug	-8.35084
▁haujlwm	-8.36184
▁nkaw	-8.36303
▁nqa	-8.36597
▁Lao	-8.36676
▁puj	-8.37167
▁txwv	-8.37561
▁Raws	-8.37792
▁by	-8.3798
▁txheeb	-8.38269
▁tig	-8.39388
▁ce	-8.39858
▁do	-8.40092
6	-8.40296
▁xam	-8.40654
▁thaj	-8.41381
▁TseemYeej	-8.41522
▁vp	-8.41736
▁NO	-8.41787
▁toj	-8.4198
▁tawv	-8.42488
▁sub	-8.42554
▁KUV	-8.42603
▁zoov	-8.42695
▁on	-8.42716
▁xaiv	-8.43019
▁B	-8.43331
o	-8.43348
▁zag	-8.43407
▁txhia	-8.43493
▁N	-8.43746
▁Laura	-8.4409
▁m	-8.44105
▁ntaus	-8.44339
▁Yuav	-8.44863
▁nqi	-8.45072
▁qha	-8.45087
k	-8.4521
▁hlwb	-8.4522
▁Yawm	-8.45333
▁hmo	-8.45345
▁qaab	-8.45519
▁ntsoov	-8.4563
▁hwv	-8.4609
▁with	-8.46649
▁nyem	-8.47009
▁npaj	-8.47277
▁Tabsis	-8.47608
▁ha	-8.47665
▁ceg	-8.4801
▁will	-8.48029
▁meskas	-8.48193
▁roob	-8.48211
▁txij	-8.48671
▁hmong	-8.49012
▁caum	-8.49016
▁tshuaj	-8.49088
▁we	-8.49251
▁lees	-8.49868
▁nraug	-8.50505
▁ciaj	-8.50804
▁aws	-8.50866
▁nub	-8.50918
▁Mhoob	-8.51184
▁laud	-8.51834
▁txhawb	-8.52312
▁tsij	-8.52378
▁ntoo	-8.52755
1	-8.52955
▁Luag	-8.53055
x	-8.53259
▁but	-8.53857
▁teev	-8.54379
▁hli	-8.54835
3	-8.54889
▁S	-8.55043
▁ntug	-8.55187
▁blog	-8.55367
▁LOS	-8.55385
▁Tab	-8.55755
▁."	-8.55844
▁tshwm	-8.56063
▁txeeb	-8.56428
▁pej	-8.56444
▁all	-8.56468
▁........	-8.56525
▁ceev	-8.56576
▁MS	-8.5659
▁what	-8.56695
▁Meskas	-8.56729
▁pog	-8.57285
▁M	-8.57444
▁npau	-8.57629
▁plig	-8.57736
▁nrov	-8.58046
▁plaws	-8.58776
▁txiav	-8.58978
▁pauv	-8.59295
▁teg	-8.59826
▁Muas	-8.59892
▁Thov	-8.60281
▁my	-8.60358
▁Yeej	-8.6045
▁&	-8.60564
▁zaub	-8.60632
▁Phwvnyawm	-8.6085
▁Vang	-8.6175
▁=	-8.61907
▁nad	-8.61931
▁HL	-8.62035
▁pes	-8.62167
▁khav	-8.62496
▁tswvyim	-8.62568
▁dav	-8.6263
▁kas	-8.62632
▁teebmeem	-8.6282
▁Txhob	-8.62872
▁".	-8.63279
▁ham	-8.63389
▁nab	-8.63534
▁muam	-8.63922
▁luj	-8.64717
▁nce	-8.64752
▁thuam	-8.64825
▁nyab	-8.64911
▁ca	-8.65263
▁dub	-8.65736
▁tiav	-8.66013
▁xws	-8.66114
▁tshoob	-8.66591
a	-8.66624
▁vam	-8.66696
▁txaj	-8.66729
▁luam	-8.66817
▁tsov	-8.66855
▁tw	-8.66924
▁kua	-8.66958
▁ntes	-8.67073
▁sijhawm	-8.67075
S	-8.67076
▁UA	-8.67187
▁tsav	-8.67778
▁vwm	-8.67923
▁ntsia	-8.68073
▁at	-8.68732
▁rab	-8.69261
▁quaj	-8.69427
▁one	-8.70686
▁Faj	-8.70817
▁khoom	-8.70839
▁can	-8.71005
▁qw	-8.71803
0	-8.72027
▁18	-8.72067
▁tiv	-8.7251
▁nyuaj	-8.72585
▁000	-8.72648
▁youtube	-8.72806
▁yooj	-8.72834
▁qaib	-8.73098
▁from	-8.7369
▁YUAV	-8.74533
▁),	-8.75316
▁paj	-8.75754
▁tsuav	-8.75892
▁nqaij	-8.76154
▁post	-8.76311
▁cua	-8.76649
▁A	-8.76963
▁thoob	-8.76975
▁TAU	-8.7722
▁yaj	-8.77615
▁moos	-8.77745
▁cias	-8.77754
▁Hos	-8.78241
▁g	-8.78536
▁hlau	-8.78779
▁The	-8.78803
▁Post	-8.79215
▁sai	-8.79413
▁TSIS	-8.79704
▁Puas	-8.80174
▁ris	-8.80274
▁nev	-8.8041
▁dhia	-8.80528
▁yom	-8.80542
▁Col	-8.80817
▁KOJ	-8.81112
▁duab	-8.81422
▁piv	-8.81445
watch	-8.81488
▁people	-8.81579
▁khwv	-8.81686
▁thaam	-8.81834
▁T	-8.81908
▁Thoj	-8.8195
▁ncaws	-8.82015
▁Li	-8.82095
▁Paj	-8.82125
▁Dawb	-8.82161
▁dlua	-8.82464
5	-8.82499
▁j	-8.8254
▁8	-8.82809
siab	-8.83085
▁khaws	-8.83086
▁zaus	-8.8326
▁peev	-8.83352
▁txheej	-8.84082
▁sia	-8.84411
▁ntxim	-8.84534
▁Tsi	-8.84578
▁Leej	-8.84668
h	-8.84693
▁ploj	-8.85004
▁lawd	-8.85063
▁Kev	-8.8513
▁ci	-8.85176
▁qhua	-8.85444
▁kaw	-8.85925
▁tsheej	-8.86182
▁MN	-8.86259
▁UN	-8.8646
▁n	-8.86794
▁thab	-8.86881
▁ntxias	-8.86889
▁ncig	-8.86962
▁maam	-8.86994
▁nruab	-8.87061
▁church	-8.87062
▁swb	-8.87219
▁ntxub	-8.87863
▁saub	-8.88187
▁kis	-8.88215
▁tsheb	-8.88438
▁Xyooj	-8.88544
▁P	-8.88556
▁tooj	-8.88598
▁SIV	-8.88719
▁npua	-8.88822
▁haivneeg	-8.89071
▁COV	-8.89093
▁tijlaug	-8.8919
▁Nom	-8.89687
▁they	-8.89735
▁kuam	-8.90213
▁zam	-8.90268
▁khib	-8.90535
▁etc	-8.91085
▁zus	-8.91096
▁Kwv	-8.91412
▁Tswv	-8.91441
▁twm	-8.91523
▁Moobsib	-8.91901
▁Cas	-8.91938
▁7	-8.92055
▁tis	-8.9246
▁ntaub	-8.92702
▁tsuj	-8.92765
▁who	-8.9308
▁maum	-8.93247
9	-8.93571
▁kaj	-8.93665
cas	-8.93735
▁taws	-8.93799
nyuas	-8.93879
▁Los	-8.94019
▁good	-8.94265
▁US	-8.94282
▁time	-8.94645
▁xyaum	-8.94707
▁ncees	-8.94993
▁ntxawm	-8.95289
▁kag	-8.95398
▁MUS	-8.95404
▁nyoog	-8.95412
▁XWB	-8.95946
▁zuj	-8.96036
▁yeem	-8.96218
▁ntsuab	-8.96441
▁Es	-8.96515
▁txhawj	-8.97029
▁THIAB	-8.97291
▁Hnub	-8.97332
▁nrauj	-8.97582
▁ya	-8.97656
▁nyam	-8.97704
▁loo	-8.9805
▁LAWM	-8.98167
▁tswj	-8.98445
▁TSI	-8.98475
▁faib	-8.98489
▁tsab	-8.98527
▁***	-8.98652
▁Lauj	-8.98784
▁tshua	-8.98826
▁e	-8.98955
▁Yus	-8.99004
▁America	-8.99084
▁xij	-8.99594
_	-8.99715
▁Cia	-9.0099
▁tav	-9.01034
▁U	-9.01213
▁sav	-9.01267
&	-9.01329
▁TUS	-9.01399
sis	-9.01548
▁txivneej	-9.01663
▁Tseem	-9.01688
▁nqe	-9.01692
▁cawm	-9.01741
▁9	-9.0209
▁nkaum	-9.021
▁about	-9.02141
▁puv	-9.02206
▁txha	-9.02406
▁12	-9.02536
▁Txiv	-9.02596
▁kos	-9.02762
▁Zab	-9.02834
▁nqis	-9.03022
▁tsiaj	-9.03075
▁tsw	-9.03082
▁xuas	-9.03201
▁zov	-9.0321
▁ntshav	-9.03222
▁MUAJ	-9.03635
▁know	-9.03723
▁ti	-9.03805
▁xob	-9.04085
▁go	-9.04245
▁us	-9.04682
▁IB	-9.04889
▁MAS	-9.05082
▁was	-9.05099
▁cog	-9.05199
▁more	-9.05267
▁USA	-9.05426
▁ntses	-9.05429
▁siav	-9.05524
▁lwj	-9.058
▁there	-9.06001
▁lod	-9.06072
▁pos	-9.06156
▁khov	-9.06453
▁caj	-9.06547
▁LUB	-9.06599
▁dim	-9.07404
▁Laos	-9.07597
▁Charlie	-9.07765
▁if	-9.0803
▁Txawj	-9.08088
▁plab	-9.08285
▁qaum	-9.08338
▁just	-9.08575
▁his	-9.08649
▁qhib	-9.08765
▁txiaj	-9.09109
▁tsuag	-9.09503
▁cawv	-9.09513
▁phiaj	-9.09698
r	-9.10204
▁u	-9.1029
▁xyoos	-9.10374
▁Fajkhaum	-9.10927
▁dr	-9.11303
▁X	-9.11312
▁haib	-9.11484
▁tuam	-9.11798
▁huab	-9.1202
▁Fresno	-9.12703
▁kaus	-9.12751
▁zhen	-9.12752
▁don	-9.12892
▁Tuam	-9.12971
▁any	-9.12976
beHmong	-9.13436
▁tsawv	-9.13534
Y	-9.13611
▁twv	-9.13848
▁ab	-9.13864
▁Hawj	-9.14036
▁our	-9.14049
▁pim	-9.14052
▁like	-9.14119
▁lom	-9.14167
▁cob	-9.1429
▁nuj	-9.14401
▁tshav	-9.14949
▁dig	-9.1518
▁meb	-9.15212
▁pejxeem	-9.15493
▁paus	-9.15591
▁twj	-9.15855
▁thaiv	-9.16098
▁D	-9.16551
▁C	-9.16593
▁DD	-9.16763
▁DYD	-9.16902
▁tshum	-9.17246
▁case	-9.17281
▁yaim	-9.17342
B	-9.17528
▁iab	-9.17664
▁nti	-9.17731
es	-9.18034
▁LPDR	-9.18232
▁zeb	-9.18424
▁laid	-9.18572
▁fab	-9.18711
▁HAIS	-9.18741
▁cab	-9.18816
▁cuav	-9.18835
▁caug	-9.19045
BH	-9.19113
i	-9.19115
▁Zhen	-9.19339
▁20	-9.19728
▁tshaaj	-9.1976
▁Tiam	-9.19819
▁ntseg	-9.19902
▁haistias	-9.19945
tuabneeg	-9.20216
▁Mej	-9.20616
▁am	-9.21161
▁sob	-9.21175
▁mekas	-9.21275
▁ZOO	-9.21506
ng	-9.21528
▁npawg	-9.21819
▁rhuav	-9.21824
▁nplooj	-9.21968
▁cuam	-9.22034
▁need	-9.22054
▁p	-9.22166
▁xab	-9.22185
▁ywm	-9.22302
▁og	-9.22323
▁laam	-9.2245
▁ncuab	-9.22482
▁Hahaha	-9.22513
▁Nwg	-9.22567
▁phau	-9.22628
▁tshawb	-9.22872
▁ntsiab	-9.22887
▁nrab	-9.2337
▁Dej	-9.23389
▁muas	-9.23421
▁pe	-9.23553
▁Xav	-9.23803
▁caw	-9.23904
▁CES	-9.24067
▁Vwj	-9.24089
▁lu	-9.24195
▁Tabsi	-9.24469
▁hlis	-9.24728
▁Paul	-9.24733
▁NWS	-9.24853
▁hnav	-9.25217
▁up	-9.25254
▁other	-9.25409
▁nyiag	-9.25784
▁THE	-9.25811
▁right	-9.25913
▁keeb	-9.26167
▁saab	-9.26235
▁lauv	-9.26498
▁ntaag	-9.26599
▁tsiv	-9.26608
▁dlawg	-9.26709
▁Xiong	-9.26784
▁Lee	-9.26852
lawm	-9.269
▁make	-9.26906
▁Tsab	-9.26919
yog	-9.26923
▁Z	-9.27203
▁Sib	-9.27663
▁Moua	-9.27679
▁Ntaw	-9.27728
▁!!!	-9.27973
▁quaspuj	-9.28063
▁only	-9.2812
▁nyablaj	-9.28192
▁ntu	-9.28355
▁pam	-9.28364
▁vmge	-9.28373
▁nqq	-9.28493
▁ncu	-9.28556
▁Tsuas	-9.28774
▁pas	-9.28819
▁qee	-9.28865
▁very	-9.29347
▁qe	-9.2949
7	-9.29647
▁khu	-9.29694
▁PY	-9.29826
▁tsoob	-9.29908
▁cheem	-9.29988
▁Ces	-9.30068
los	-9.30219
▁hwm	-9.30458
▁txiag	-9.30469
av	-9.30501
▁qau	-9.30601
▁PEB	-9.3063
▁yij	-9.30762
▁their	-9.31067
▁Phiaj	-9.31377
▁You	-9.31744
▁RAU	-9.31791
▁Tseemyeej	-9.32143
▁tawb	-9.32306
▁temsis	-9.32462
▁ntsuag	-9.32761
▁Nyiaj	-9.32772
▁lag	-9.32888
▁lav	-9.329
▁soj	-9.32967
▁Dao	-9.32982
▁ms	-9.33273
▁txuas	-9.33392
▁ntsuj	-9.33434
▁Tou	-9.33753
▁hasta	-9.33832
***	-9.33865
▁qaug	-9.34156
▁roj	-9.3431
▁nrau	-9.34403
▁LAWV	-9.3445
▁Siv	-9.34475
▁Leeg	-9.34539
▁tsho	-9.34566
▁rho	-9.34625
▁qeej	-9.3475
▁Nkauj	-9.35011
▁00	-9.35124
▁yees	-9.35267
▁Tos	-9.35289
▁Looj	-9.3533
▁nai	-9.35456
▁Noogdlej	-9.35461
▁22	-9.35635
▁BLOG	-9.35732
▁tsaam	-9.35769
▁tiamsis	-9.35857
▁Xejthim	-9.3586
▁faj	-9.36054
▁dlaag	-9.36215
▁Thanks	-9.36461
▁yaweh	-9.36525
▁phaj	-9.36856
▁zej	-9.37104
▁Tam	-9.37242
▁zais	-9.37459
▁Ly	-9.37473
213	-9.37647
▁Tooj	-9.37656
▁Phooj	-9.3778
▁hmoov	-9.37802
▁kasmoos	-9.37808
▁tsaus	-9.37814
l	-9.38098
▁Thiab	-9.38289
▁KOM	-9.38525
▁see	-9.38685
▁thooj	-9.38698
▁Twb	-9.38766
▁Ntuj	-9.38784
▁rub	-9.38843
▁out	-9.38887
▁Bee	-9.38894
▁text	-9.39035
▁way	-9.39042
▁hlua	-9.39231
▁Yis	-9.39257
▁ntxov	-9.39259
▁txias	-9.39318
▁talk	-9.39437
▁txia	-9.39513
▁It	-9.39683
▁issue	-9.39861
▁nroog	-9.39886
YIS	-9.39901
▁cam	-9.39934
▁tshab	-9.40024
▁tid	-9.40055
▁how	-9.4015
▁Thaus	-9.40305
▁khawv	-9.40396
▁Phoojywg	-9.40477
▁dlej	-9.40502
▁pluag	-9.40574
▁sov	-9.40613
ab	-9.40617
▁phwvnyawm	-9.40625
▁Niam	-9.40724
▁email	-9.40909
▁Liab	-9.40998
▁Lwm	-9.41143
▁Phwv	-9.41235
▁take	-9.41427
▁Tony	-9.41616
▁nrhav	-9.41678
▁ntxeev	-9.41751
▁Cha	-9.41753
▁.........	-9.41901
▁Pab	-9.4196
▁foom	-9.4199
▁tsob	-9.4214
▁xaus	-9.42235
▁zug	-9.42277
▁aub	-9.4237
▁Saub	-9.42425
▁life	-9.42437
▁yaus	-9.42574
c	-9.42611
▁vaaj	-9.42878
▁Vaaj	-9.42947
▁deev	-9.42966
▁TIAS	-9.43101
▁tsoo	-9.43298
▁lab	-9.4351
▁zeem	-9.43537
quoted	-9.43776
▁phim	-9.43844
▁doctor	-9.43964
▁xeev	-9.4405
▁Muab	-9.44151
▁foob	-9.44778
▁hla	-9.44791
▁Zaum	-9.45037
▁too	-9.45067
▁K	-9.45244
▁kwm	-9.45253
▁tob	-9.45634
▁riam	-9.45636
▁o	-9.45743
▁some	-9.4581
▁Vaajtswv	-9.4592
▁thib	-9.45939
▁ntiav	-9.46244
▁thaus	-9.46351
▁pua	-9.46679
▁ntiajteb	-9.46838
▁xib	-9.46875
▁On	-9.46913
▁txhiab	-9.47485
▁txob	-9.47846
u	-9.4786
▁would	-9.47922
▁said	-9.48049
▁Victor	-9.48077
▁dlhau	-9.48234
▁luv	-9.48491
as	-9.48517
▁od	-9.48696
▁nuv	-9.48818
▁choj	-9.4883
▁Tom	-9.49037
▁nyuab	-9.49175
▁xim	-9.49178
▁H	-9.4924
gate	-9.49316
feature	-9.49384
▁plawv	-9.4942
▁lig	-9.49815
▁think	-9.49987
▁Ceeb	-9.50024
▁ORG	-9.50122
▁support	-9.50177
▁txhom	-9.50362
▁wrote	-9.50737
▁Nyablaj	-9.50819
▁Fab	-9.50846
▁nraim	-9.50847
▁Vajncuab	-9.50975
▁Mail	-9.51436
▁Tug	-9.51553
▁qhuab	-9.51596
▁Haiv	-9.5199
▁paum	-9.52002
related	-9.52059
▁lawb	-9.52135
----------------	-9.5219
▁nyag	-9.52633
▁daj	-9.52667
▁nkawm	-9.5268
▁laib	-9.52862
▁nto	-9.52944
▁mad	-9.53122
▁new	-9.53164
▁1975	-9.53244
▁Miskas	-9.53397
▁Vam	-9.53534
▁LOL	-9.53713
▁k	-9.53741
▁PAB	-9.5381
▁khawb	-9.53822
▁pliag	-9.53857
▁tia	-9.54292
▁pa	-9.5436
▁hle	-9.54546
▁Sub	-9.54546
▁Ntsuab	-9.54638
▁txav	-9.54941
▁He	-9.54999
▁NEEG	-9.55409
▁x	-9.55594
▁Teev	-9.5564
▁kov	-9.55699
er	-9.55817
▁dlawb	-9.55871
▁Chao	-9.55934
▁Thao	-9.55995
lub	-9.56232
▁khaub	-9.56294
▁culture	-9.56307
▁hmoo	-9.56347
▁Koob	-9.56393
▁xaj	-9.56417
▁huam	-9.56493
teb	-9.56559
▁Lostsuas	-9.56621
▁ntus	-9.56768
▁Thai	-9.56828
▁sam	-9.56857
▁ntees	-9.56994
▁qhev	-9.57538
▁Ntxaw	-9.57561
▁lim	-9.57585
▁own	-9.5774
▁peg	-9.578
▁Xeeb	-9.57924
▁tsau	-9.58115
▁hlawv	-9.58198
▁ntsiag	-9.58561
▁dlaim	-9.58611
D	-9.58785
▁dog	-9.58799
▁St	-9.58885
yahoo	-9.59078
▁nees	-9.59081
▁tod	-9.59301
▁MT	-9.59353
▁nkagsiab	-9.59576
▁100	-9.59604
▁human	-9.59869
▁phaum	-9.59921
▁TABSIS	-9.59929
th	-9.59978
▁law	-9.60046
▁then	-9.60118
▁back	-9.60135
▁Neohmong	-9.60367
▁ntsim	-9.60428
▁vauv	-9.60565
▁fwv	-9.60875
▁tibsi	-9.60883
▁Zeb	-9.61015
▁man	-9.61282
▁nraum	-9.61351
▁du	-9.61526
▁HAIV	-9.6162
▁Ob	-9.6178
▁TO	-9.6184
▁an	-9.62111
▁YEEJ	-9.62181
▁txhim	-9.62817
▁PAUB	-9.62866
▁mom	-9.63214
▁kevcai	-9.6322
▁15	-9.63308
▁nawj	-9.6334
▁point	-9.63388
▁phav	-9.63498
▁every	-9.63661
▁teem	-9.6398
▁say	-9.63997
▁khi	-9.64148
▁zem	-9.64288
▁fawm	-9.64629
C	-9.64667
▁totaub	-9.64738
▁NeoHmong	-9.64791
▁tibneeg	-9.65036
▁when	-9.65067
▁kaum	-9.65089
hlub	-9.65113
▁many	-9.65321
▁Xyoo	-9.65505
▁laura	-9.65507
▁txo	-9.6555
▁Me	-9.65935
▁fwm	-9.66021
▁Le	-9.6624
▁SIAB	-9.6636
▁work	-9.66378
▁maag	-9.66429
▁phoo	-9.66482
le	-9.66537
▁XF	-9.66686
▁Saib	-9.66952
▁caiv	-9.67259
▁nag	-9.67277
▁au	-9.6738
▁information	-9.67402
▁thau	-9.67465
▁les	-9.67495
▁yig	-9.67551
moob	-9.67564
▁personal	-9.67722
▁pav	-9.67841
▁RUAM	-9.68079
▁peevxwm	-9.6814
▁zaaj	-9.68225
▁kubxaj	-9.68231
▁11	-9.68582
▁huabtais	-9.68967
▁ziag	-9.69059
▁get	-9.69078
▁qhabnab	-9.69149
▁ntiag	-9.6954
▁LOJ	-9.69583
▁awd	-9.69584
▁Fabkis	-9.69612
▁xiam	-9.70089
▁Tsam	-9.70227
▁nthuav	-9.70268
▁50	-9.70411
▁American	-9.7049
▁yaig	-9.70514
▁taab	-9.70826
▁tshem	-9.70883
▁Tsav	-9.70996
▁Kav	-9.71053
▁than	-9.7112
▁F	-9.71217
▁diam	-9.71346
▁rawv	-9.71356
▁ruaj	-9.71603
▁tebchaw	-9.7174
▁Txhua	-9.71749
▁hlais	-9.71898
▁Yeeb	-9.72106
▁want	-9.72312
▁tshaib	-9.72353
▁TUAJ	-9.72454
▁lino	-9.72553
▁yauv	-9.72592
▁dai	-9.72861
ib	-9.72865
hmoob	-9.72873
▁why	-9.72928
▁Teb	-9.72957
▁tshuam	-9.73137
▁Thaub	-9.7323
▁pauj	-9.73235
▁Has	-9.73264
▁NYOB	-9.73414
▁nais	-9.73534
▁nkuaj	-9.73611
K	-9.73652
▁tshuab	-9.73776
▁L	-9.7379
▁him	-9.73825
▁Ho	-9.73829
▁Lo	-9.74083
▁dlev	-9.74214
▁kaam	-9.74232
▁noogdlej	-9.74286
▁phab	-9.74392
▁ceem	-9.74403
▁uake	-9.74404
▁question	-9.74578
ub	-9.746
▁TSEEM	-9.74776
▁No	-9.74834
▁TUG	-9.74876
▁havzoov	-9.74989
▁Tshaj	-9.74991
▁AV	-9.75143
X	-9.75151
▁xyooj	-9.75152
▁ntxwv	-9.75154
▁LOLz	-9.75467
Moob	-9.7552
▁week	-9.75629
▁her	-9.7568
▁ywj	-9.75686
xeeb	-9.75709
▁tiaj	-9.75997
▁Gen	-9.76109
M	-9.76129
▁nyav	-9.76141
▁Kwvtij	-9.76174
▁KEV	-9.76285
▁Blog	-9.76435
mail	-9.76509
▁looj	-9.76608
▁G	-9.76622
▁here	-9.77047
▁moo	-9.77264
▁txi	-9.77271
▁Xeem	-9.77573
▁tswm	-9.7766
▁hum	-9.77729
▁should	-9.77782
▁movie	-9.7784
▁NkaujNyiag	-9.78064
▁qib	-9.785
▁txhij	-9.78503
▁xum	-9.78508
▁cim	-9.78548
▁Maiv	-9.78598
one	-9.78614
▁thauj	-9.78638
▁agree	-9.78902
▁born	-9.79097
▁nplua	-9.79117
V	-9.79406
▁vajtswv	-9.7944
▁even	-9.79479
▁seem	-9.79548
▁mamli	-9.79568
▁Ab	-9.7969
▁hnab	-9.79897
kuv	-9.80026
▁",	-9.80219
▁share	-9.80429
▁family	-9.8064
▁xyom	-9.80644
▁nra	-9.80938
▁theem	-9.81077
▁txhiaj	-9.81146
▁Y	-9.81148
▁Puab	-9.81371
▁nyoo	-9.81393
▁Choj	-9.81472
If	-9.81565
▁TWB	-9.81573
▁Pos	-9.81657
twg	-9.81709
▁tsib	-9.818
▁person	-9.81846
▁cag	-9.82102
▁keej	-9.82243
▁politic	-9.82306
▁txua	-9.82369
▁rawm	-9.82387
▁CA	-9.82408
▁vaajmoob	-9.8264
▁huas	-9.82644
▁becaus	-9.82783
▁those	-9.82842
▁Mus	-9.82976
▁tsom	-9.83145
▁come	-9.83385
▁ciali	-9.83419
▁xauj	-9.83947
▁VIM	-9.84116
E	-9.84136
▁tagnrho	-9.8424
▁tusiab	-9.84336
▁thim	-9.84337
▁zoj	-9.84422
▁Tijlaug	-9.84447
▁hahaha	-9.84465
▁Neohom	-9.84538
▁plaw	-9.84606
▁100%	-9.84693
▁nyhav	-9.84775
zoo	-9.8535
▁Xej	-9.85435
▁qis	-9.85779
▁This	-9.85785
▁same	-9.85818
▁party	-9.85902
▁Dony	-9.86219
▁xyuam	-9.86243
p	-9.86348
▁zooli	-9.86362
is	-9.86521
▁Nco	-9.86565
▁Tau	-9.86643
▁CIA	-9.86768
▁QHOV	-9.86881
▁ntua	-9.8705
▁Dhau	-9.87098
▁ntsug	-9.87219
▁DAG	-9.87309
▁play	-9.87343
▁nus	-9.87457
▁liaj	-9.87487
▁---	-9.87594
▁NEJ	-9.87631
▁CAS	-9.87639
▁mab	-9.87719
▁leader	-9.87726
▁Vaajmoob	-9.87759
▁thoj	-9.87768
▁nres	-9.87771
▁Tswb	-9.87982
▁history	-9.88081
▁love	-9.8812
▁ntsws	-9.88248
▁communist	-9.88308
▁tamsim	-9.88323
▁koos	-9.88346
▁y	-9.88431
▁ev	-9.88489
▁qus	-9.88864
▁God	-9.88882
▁General	-9.8898
▁smile	-9.88997
▁Cwjme	-9.89154
▁ntxoog	-9.8938
▁puam	-9.89436
▁?.	-9.89493
▁40	-9.89531
▁tsaj	-9.89564
neeg	-9.8967
▁hus	-9.90003
sab	-9.90016
▁Ntshe	-9.90178
lawv	-9.90199
▁su	-9.90305
▁kaav	-9.90342
▁duas	-9.90449
▁What	-9.90458
▁Txoj	-9.90469
▁nkim	-9.90927
▁YOU	-9.91004
▁mis	-9.9105
▁cub	-9.91111
▁Tais	-9.91197
▁political	-9.91365
▁Neeb	-9.91513
ever	-9.91629
▁Thaibteb	-9.91785
▁Npawg	-9.91851
▁Kom	-9.91999
▁de	-9.92077
▁business	-9.92185
▁ntxhov	-9.92319
ob	-9.92396
▁Dab	-9.92447
▁npas	-9.92456
▁Ha	-9.92625
▁AND	-9.92784
kom	-9.929
▁never	-9.92946
▁beer	-9.93021
▁tshev	-9.93066
▁hwj	-9.93079
▁nria	-9.93179
▁freedom	-9.93254
▁Vue	-9.93372
▁Xab	-9.93381
▁ntxhi	-9.93568
▁Maj	-9.9367
▁tse	-9.93789
▁amen	-9.93862
▁court	-9.93963
▁world	-9.94106
▁men	-9.94188
▁YUS	-9.94202
▁tejzaum	-9.94214
▁NOJ	-9.94223
▁over	-9.944
▁ncaim	-9.94431
▁now	-9.94476
▁So	-9.94647
▁yoog	-9.94903
▁MUAB	-9.94927
▁khw	-9.94979
q	-9.95029
▁ntiv	-9.95036
▁Txog	-9.95043
thawj	-9.95145
▁thaij	-9.95185
▁ntsuas	-9.95327
▁nes	-9.95528
▁!!	-9.95537
▁Vientiane	-9.95881
▁religion	-9.95901
▁Neej	-9.95948
▁Neeg	-9.96039
▁xaam	-9.9606
▁oo	-9.96116
▁Neb	-9.96282
▁tauj	-9.96308
▁name	-9.96539
▁state	-9.96572
▁zab	-9.96656
▁nyom	-9.96699
▁l	-9.96753
▁$	-9.96857
▁ntsuam	-9.96874
▁years	-9.96918
▁Her	-9.9695
▁Nai	-9.96975
▁still	-9.96977
▁Yexus	-9.96983
▁Xaiv	-9.97048
▁level	-9.9723
▁respect	-9.97286
▁may	-9.97314
▁We	-9.97528
▁believe	-9.97549
▁ntog	-9.97614
▁day	-9.97694
N	-9.97764
▁qua	-9.97912
▁Npis	-9.98101
▁OS	-9.98124
▁ncaaj	-9.98209
▁Hlob	-9.98211
▁qhab	-9.98214
▁school	-9.98337
▁ntxuav	-9.98345
▁cwj	-9.98365
▁pwm	-9.9843
▁POM	-9.98481
▁YOB	-9.98588
▁TXHOB	-9.98706
▁XAV	-9.99086
▁google	-9.99466
▁se	-9.99487
▁such	-9.99586
▁thing	-9.99797
▁lha	-10.0005
▁caav	-10.0015
▁nro	-10.0021
▁Yesxus	-10.0022
▁hniav	-10.0024
▁true	-10.0036
▁Niag	-10.0045
▁13	-10.0048
▁Tij	-10.0071
▁TXIV	-10.0073
▁zujzu	-10.0089
no	-10.0093
▁weekend	-10.0098
▁general	-10.0118
▁ciam	-10.0122
▁LUS	-10.0139
▁public	-10.0139
T	-10.0147
▁Nam	-10.0158
▁xyoob	-10.0165
▁group	-10.0172
▁were	-10.0172
▁high	-10.0177
▁ME	-10.018
w	-10.023
▁theeb	-10.0232
▁Fa	-10.0236
▁E	-10.0238
▁TEB	-10.0243
▁c	-10.0252
▁14	-10.0279
▁moj	-10.0282
▁had	-10.03
▁pao	-10.032
▁example	-10.0329
▁hiam	-10.0332
▁ES	-10.0348
▁ncua	-10.0356
▁Pheej	-10.0359
▁yaav	-10.0374
tsum	-10.0377
▁news	-10.0396
▁reason	-10.0398
▁Yob	-10.0398
▁story	-10.0399
▁power	-10.0424
▁khob	-10.0434
▁ntsw	-10.0457
▁New	-10.0464
▁vammeej	-10.0476
txwv	-10.0484
▁Yam	-10.0501
▁ntsiv	-10.0508
▁tseemyeej	-10.0521
▁Kuam	-10.0525
kev	-10.053
▁xaa	-10.054
▁call	-10.0544
▁THIAJ	-10.0554
▁thiajli	-10.0559
▁wrong	-10.056
▁computer	-10.0571
▁SIB	-10.0574
▁these	-10.0576
▁she	-10.0583
▁long	-10.0585
▁Poj	-10.059
▁free	-10.0597
▁must	-10.0608
▁Show	-10.0621
▁???	-10.0652
▁HM	-10.0653
▁THAIB	-10.0676
▁Laj	-10.0684
▁TOM	-10.0688
▁d	-10.0697
▁khaus	-10.0697
▁TWG	-10.0698
▁yua	-10.0738
▁mev	-10.0754
txiv	-10.0756
▁chob	-10.0757
▁dleb	-10.0758
ity	-10.0759
▁help	-10.0762
▁police	-10.077
▁Huab	-10.0772
▁Piv	-10.0776
▁Mekas	-10.0789
▁Long	-10.0795
▁kauv	-10.0799
▁hma	-10.08
▁ntaw	-10.0805
▁kuab	-10.082
meem	-10.0821
▁Ya	-10.0841
ies	-10.0844
▁All	-10.0851
liab	-10.0853
▁chij	-10.0853
▁opinion	-10.0859
▁old	-10.0861
am	-10.0879
▁State	-10.0882
▁Nplogliab	-10.0886
▁care	-10.0889
▁ntim	-10.0891
▁naw	-10.0899
▁degree	-10.0907
▁nruj	-10.0913
▁mivnyuas	-10.0931
▁tsiab	-10.0938
culture	-10.0972
▁Christian	-10.0976
▁year	-10.101
▁claim	-10.1014
about	-10.1021
▁community	-10.1032
▁VWM	-10.1032
▁lao	-10.1037
▁Tham	-10.104
▁Teeb	-10.1041
▁zom	-10.1055
▁HMoob	-10.1062
▁qauv	-10.1064
▁J	-10.1071
▁ntxa	-10.1074
▁Human	-10.1074
▁Tamsim	-10.1076
▁sad	-10.1081
▁topic	-10.1101
▁21	-10.1103
▁mo	-10.1108
▁did	-10.1109
loj	-10.1121
▁npog	-10.1123
▁?"	-10.1123
▁nqes	-10.1126
▁caws	-10.1129
▁via	-10.1131
▁Sawv	-10.1133
▁qheb	-10.1133
▁txhajle	-10.1137
▁Niaj	-10.114
▁mav	-10.1173
▁laub	-10.1173
▁16	-10.1173
▁Kawg	-10.1203
▁phauj	-10.1203
▁khawm	-10.1209
▁been	-10.1213
▁Nyaj	-10.1216
▁tabtom	-10.1221
▁ntsi	-10.1222
neej	-10.1224
▁video	-10.1229
▁Txij	-10.123
▁25	-10.1241
▁stupid	-10.1249
▁R	-10.1258
▁Kub	-10.1267
▁member	-10.1277
▁khuam	-10.128
▁Xyov	-10.1287
▁report	-10.1312
▁president	-10.1331
▁tsaws	-10.1352
▁Hide	-10.1359
▁re	-10.1372
▁txau	-10.1384
▁TUAG	-10.1387
▁experience	-10.1394
ING	-10.1395
▁aim	-10.1399
▁tseemceeb	-10.1402
▁HEEV	-10.1403
on	-10.1414
▁much	-10.1417
▁July	-10.1418
▁Yaaj	-10.1434
▁Nyab	-10.1447
▁nqaj	-10.1447
................	-10.1484
▁koomhaum	-10.1493
▁cwjpw	-10.1495
▁debate	-10.1509
xwm	-10.1515
▁hneev	-10.152
▁??	-10.1531
▁qws	-10.1534
wv	-10.1543
us	-10.155
▁nyas	-10.1561
▁Mr	-10.1575
▁rights	-10.1575
▁TAS	-10.1588
zog	-10.1593
▁qaij	-10.1597
▁nqaim	-10.16
▁faus	-10.1611
▁dov	-10.1616
▁Kaub	-10.1624
▁first	-10.1638
▁Chaofa	-10.1646
▁sibtham	-10.1657
▁Nkaw	-10.1662
▁ntswg	-10.168
▁..........	-10.1685
▁npab	-10.1687
▁under	-10.1703
▁phone	-10.1709
▁tsaa	-10.1715
▁/	-10.1717
▁paug	-10.1723
▁brother	-10.1723
▁NIAM	-10.173
▁most	-10.1736
▁mean	-10.1755
▁txomnyem	-10.1758
▁h	-10.1777
f	-10.1787
▁gvp	-10.1789
▁internet	-10.1803
▁txawb	-10.1805
▁VAJ	-10.1814
▁ny	-10.1815
▁Nais	-10.1818
▁Sawvdaw	-10.1841
▁MAG	-10.1842
▁qaub	-10.1843
▁problem	-10.1844
▁Tswvntu	-10.1856
▁Minnesota	-10.1874
▁TXOG	-10.1879
▁plam	-10.1882
▁tws	-10.1904
aj	-10.1905
▁Ying	-10.1907
▁better	-10.1924
G	-10.1927
...	-10.1941
▁OF	-10.1947
▁after	-10.1955
▁Tawm	-10.1969
▁Yug	-10.1971
▁saud	-10.198
▁well	-10.1998
▁yoojyi	-10.2022
▁let	-10.2041
▁WI	-10.2043
▁down	-10.2061
▁O	-10.2071
▁laws	-10.2072
▁raw	-10.2075
▁KIAG	-10.2084
▁Nas	-10.209
▁xuv	-10.2106
▁khuv	-10.2126
▁real	-10.2135
able	-10.214
▁dhuav	-10.2142
▁hawj	-10.2147
▁qos	-10.2155
▁Xavzoo	-10.2158
▁kaws	-10.2162
▁hua	-10.2163
▁xoom	-10.2177
al	-10.2187
▁csy	-10.2188
▁npam	-10.2192
▁live	-10.2193
▁Suabnoog	-10.2204
▁xwv	-10.2215
▁ncej	-10.2231
eeg	-10.2243
▁lomzem	-10.2252
▁SUAV	-10.2269
▁TUB	-10.227
▁Rau	-10.2271
laj	-10.2273
▁COJ	-10.2284
▁paubtab	-10.2287
J	-10.2287
▁nyoos	-10.2289
▁aav	-10.2295
sim	-10.2313
▁use	-10.2325
▁Cob	-10.2383
▁research	-10.2392
▁Uncle	-10.2394
▁Phabej	-10.2395
▁thawjcoj	-10.2397
▁TEJ	-10.2405
▁English	-10.2411
▁give	-10.2412
▁zaws	-10.2413
▁ntsuav	-10.243
▁nrig	-10.2431
▁zwm	-10.2443
▁vog	-10.2451
▁khub	-10.248
▁ntuas	-10.2481
▁yos	-10.2492
▁message	-10.2508
▁Phoo	-10.2512
▁ntshais	-10.2512
▁nkeeg	-10.2525
▁Thawj	-10.2528
▁yang	-10.2541
▁try	-10.2549
▁duav	-10.2551
▁tsawb	-10.2551
qab	-10.2559
▁being	-10.2563
▁bad	-10.2564
▁sa	-10.2568
▁President	-10.2572
▁npav	-10.2576
▁r	-10.2583
▁tsuaj	-10.2593
▁IS	-10.261
▁Xwm	-10.2617
lug	-10.2618
▁500	-10.2626
▁where	-10.2638
▁credit	-10.2654
▁Hom	-10.2655
▁QAB	-10.2672
▁posted	-10.2675
▁Huas	-10.2694
▁caub	-10.2704
▁xis	-10.2705
▁TIAG	-10.2723
▁sure	-10.2728
koj	-10.2738
▁Amelikas	-10.2738
ua	-10.2744
▁Soob	-10.2754
▁peem	-10.2757
▁last	-10.2767
▁into	-10.2772
▁ROV	-10.2803
▁suavdlaw	-10.2806
▁V	-10.2822
▁To	-10.2832
▁197	-10.2833
▁Lam	-10.2835
▁log	-10.2838
▁txheem	-10.2845
▁UAS	-10.2849
▁could	-10.2854
▁THAUM	-10.2854
▁organization	-10.2871
▁caubfab	-10.2872
▁200	-10.2882
▁tev	-10.2894
Hmoob	-10.2918
▁Ntxoov	-10.2925
▁NTAU	-10.2925
▁thanks	-10.2927
▁npoj	-10.2927
▁60	-10.2941
▁hahahaha	-10.2953
▁government	-10.2954
▁mind	-10.2955
▁nquag	-10.2962
▁txag	-10.2966
▁qias	-10.297
▁niv	-10.298
▁hem	-10.298
▁Church	-10.2988
▁Moos	-10.2993
▁KAWG	-10.2993
▁qav	-10.3005
▁LUAG	-10.3007
plig	-10.3019
▁Lees	-10.3022
▁hahahahaha	-10.3032
▁Thailand	-10.3041
▁tshe	-10.3044
▁nhub	-10.3045
▁position	-10.3059
▁dabneeg	-10.3062
▁mentsi	-10.3066
▁txib	-10.309
▁NEEJ	-10.3093
▁Kuj	-10.3094
Lt	-10.3107
▁kim	-10.3108
▁aib	-10.3125
▁In	-10.3128
▁Foom	-10.3135
▁Mas	-10.314
▁tseev	-10.3145
▁hoob	-10.316
▁god	-10.3172
▁ok	-10.3175
▁Nplogteb	-10.3176
▁which	-10.3178
▁show	-10.3178
▁kauj	-10.3181
um	-10.3184
▁ras	-10.3202
▁ualuaj	-10.3229
▁mi	-10.3251
▁ntsa	-10.3252
▁fwj	-10.3267
▁nta	-10.328
▁HMONG	-10.3284
▁May	-10.3285
▁forum	-10.3291
▁neohom	-10.3301
▁..."	-10.331
group	-10.3315
▁uv	-10.3316
▁two	-10.3317
▁Doctor	-10.3318
▁zaag	-10.332
▁nraus	-10.3325
▁others	-10.3332
▁Family	-10.3353
▁qees	-10.3356
▁yas	-10.3372
▁bawg	-10.3373
▁XEEM	-10.3373
▁Wb	-10.3378
▁California	-10.3388
▁zuag	-10.3392
▁Yim	-10.3394
num	-10.3395
▁Anti	-10.3408
▁Aub	-10.3409
▁Cai	-10.3421
▁Oh	-10.3422
yam	-10.3423
▁ki	-10.3434
▁ntsev	-10.3437
▁nkaag	-10.3442
▁plag	-10.3445
▁cauj	-10.3461
▁before	-10.3461
▁learn	-10.3465
▁tum	-10.3478
▁Tiamsi	-10.3479
nother	-10.3492
luag	-10.3492
▁plan	-10.3493
▁txojkev	-10.3497
▁caus	-10.3503
▁hehehe	-10.3512
▁keep	-10.3531
▁different	-10.3532
▁pm	-10.3536
▁again	-10.3542
▁change	-10.3547
▁24	-10.3553
▁Yav	-10.356
▁alway	-10.3568
▁side	-10.3577
▁sch	-10.3586
▁friend	-10.3587
▁w	-10.3587
▁dlub	-10.3599
▁txuam	-10.3602
▁kuamemiab	-10.3604
▁Tuaj	-10.3606
▁tsem	-10.3611
▁daig	-10.362
▁happen	-10.3622
▁Phou	-10.3622
.	-10.3624
▁company	-10.3658
▁thas	-10.3659
▁html	-10.3661
▁laaj	-10.3687
▁ntws	-10.3688
▁LEEJ	-10.3695
▁ntxi	-10.3711
▁tsuv	-10.3727
▁vote	-10.3728
▁tshoj	-10.3734
▁nkaug	-10.3736
▁nqig	-10.3738
▁Dlawb	-10.375
▁hmos	-10.3751
▁dlha	-10.3752
▁does	-10.3752
▁NYIAJ	-10.3771
▁Yajtshajkoob	-10.3786
▁ntuag	-10.3786
eb	-10.3796
▁qoob	-10.3801
▁nruas	-10.381
▁chav	-10.3811
▁How	-10.3814
▁look	-10.3814
▁Australia	-10.382
▁zib	-10.3824
▁Noj	-10.3824
▁NROG	-10.383
▁Zoov	-10.384
▁TAG	-10.3842
▁YAJ	-10.386
▁hehehehe	-10.3863
▁best	-10.3864
▁ask	-10.3865
▁DAB	-10.3866
,	-10.3876
▁tswb	-10.3877
▁ncuav	-10.3879
▁taj	-10.3882
▁plhu	-10.3886
▁Tejzaum	-10.3898
▁zis	-10.3904
dy	-10.3906
▁khau	-10.3906
▁That	-10.3911
▁money	-10.3916
▁words	-10.3927
▁qoos	-10.3938
▁NTUJ	-10.3947
▁Paaj	-10.3951
soc	-10.3961
▁TIM	-10.397
▁kum	-10.3971
▁NOT	-10.3977
▁chiv	-10.398
▁part	-10.3993
▁Av	-10.3994
▁cig	-10.3996
▁system	-10.401
▁Txoov	-10.4012
▁Ruam	-10.4022
▁education	-10.4024
ov	-10.403
▁paul	-10.4031
▁pro	-10.4048
▁Mab	-10.4056
wg	-10.4063
next	-10.4066
▁POV	-10.408
▁retire	-10.4091
▁Jesus	-10.4105
▁please	-10.4106
▁zeej	-10.4118
▁Mong	-10.4128
▁txuag	-10.4141
▁OB	-10.4144
▁W	-10.4149
▁tiab	-10.4162
▁loos	-10.4168
▁vaam	-10.4193
▁Tsoom	-10.4209
▁Muang	-10.4217
▁especially	-10.4221
▁khwb	-10.4221
A	-10.4224
▁TXOJ	-10.4239
▁Universit	-10.4244
▁IN	-10.4248
▁Naj	-10.425
▁yoo	-10.4252
ntuj	-10.4254
▁evidence	-10.4262
▁As	-10.4272
▁secret	-10.4273
eg	-10.4273
ion	-10.4276
▁Ph	-10.4293
▁against	-10.4297
▁Lwj	-10.4299
▁yaum	-10.4306
▁kaub	-10.4307
▁things	-10.4311
▁HK	-10.4313
▁TSWV	-10.4319
▁feeb	-10.4322
▁txov	-10.4331
▁baum	-10.4333
▁uantej	-10.4334
▁txawg	-10.4346
▁ta	-10.4349
▁tsevneeg	-10.4357
▁tha	-10.436
▁yov	-10.4381
▁dablaug	-10.4385
▁ntxia	-10.4391
▁hlab	-10.4396
▁Good	-10.4433
▁matter	-10.4433
tus	-10.4435
▁Ca	-10.4446
▁tho	-10.4448
▁lee	-10.4456
▁hai	-10.446
▁17	-10.4463
▁seev	-10.447
▁america	-10.4471
▁Dag	-10.4481
▁2005	-10.4486
▁HAUV	-10.4513
▁There	-10.4516
ce	-10.4517
▁sawm	-10.4526
▁vibnais	-10.4533
▁Txhiaj	-10.4553
awv	-10.4558
▁turn	-10.4559
▁Txooj	-10.4573
▁nraag	-10.4595
▁aka	-10.4597
▁txhum	-10.4598
▁social	-10.4617
▁members	-10.4631
▁xu	-10.4636
▁Tso	-10.4643
▁kib	-10.4647
▁YAM	-10.4655
▁hno	-10.4663
▁DR	-10.468
▁Yingb	-10.4685
▁Nyiag	-10.4693
mus	-10.4694
▁Qhia	-10.4694
▁kheev	-10.4695
▁ntov	-10.4709
▁theej	-10.4714
▁xf	-10.4715
▁DAWB	-10.4715
▁prove	-10.4717
▁Ntshai	-10.4719
cobfab	-10.4735
▁yaaj	-10.4743
▁understand	-10.4749
▁homphiaj	-10.4753
▁ntsab	-10.4764
▁ntxawg	-10.4764
▁lem	-10.4769
▁lias	-10.4774
▁Q	-10.4779
▁khaav	-10.4794
▁tshwj	-10.4818
▁vij	-10.482
▁ai	-10.4828
-	-10.4834
▁qiv	-10.4839
▁yaw	-10.4855
▁xyaw	-10.4862
▁CAI	-10.4867
▁tshee	-10.4877
▁Vietnam	-10.4891
▁txig	-10.4898
▁Vees	-10.4901
▁qas	-10.4906
▁dollars	-10.4908
▁XA	-10.4911
▁dlaabtsi	-10.4916
▁Kab	-10.4934
▁NA	-10.4947
▁Yias	-10.4953
▁Neo	-10.4958
▁got	-10.4961
thing	-10.4962
▁each	-10.4979
lab	-10.4979
▁future	-10.4979
ment	-10.4981
▁xya	-10.499
LI	-10.4997
▁nplej	-10.5001
▁mail	-10.5015
▁Xeev	-10.5018
▁nplaig	-10.5021
▁More	-10.5042
▁TX	-10.5054
▁laij	-10.5064
▁nchuav	-10.5065
▁mauj	-10.5066
▁kind	-10.5068
ation	-10.5083
▁hotel	-10.5085
▁Sam	-10.5097
cuab	-10.5106
▁vuag	-10.5107
▁28	-10.5115
▁tsaav	-10.5115
▁without	-10.5126
▁haub	-10.514
▁order	-10.5149
▁place	-10.5151
▁nkoj	-10.5155
▁taubhau	-10.5156
▁including	-10.5168
▁Sis	-10.5173
▁sais	-10.5178
▁feel	-10.5188
tas	-10.5193
st	-10.5193
▁pluj	-10.5196
▁sua	-10.5206
oj	-10.5214
▁st	-10.5214
================	-10.5218
▁Kis	-10.5218
▁Rights	-10.5222
▁fuab	-10.5231
kiag	-10.5238
▁link	-10.524
▁word	-10.524
▁hiv	-10.5241
▁Nim	-10.5281
fwv	-10.5284
▁35	-10.5285
▁kaab	-10.5306
▁Cobfab	-10.5317
▁country	-10.5318
▁Mai	-10.5318
▁khaum	-10.5321
ntawd	-10.5324
▁My	-10.533
▁radio	-10.5344
▁xyeej	-10.5365
im	-10.5369
▁Koom	-10.5372
▁Chia	-10.5373
▁using	-10.538
▁SAWV	-10.5381
▁wife	-10.5382
▁nkees	-10.5385
▁Ham	-10.5389
▁million	-10.5392
▁kk	-10.5394
▁lw	-10.5397
▁Feem	-10.5398
▁ntso	-10.54
▁Pleas	-10.5407
▁kod	-10.5415
▁laos	-10.5417
▁hnyav	-10.5426
▁sense	-10.5427
▁POJ	-10.5429
▁poog	-10.543
▁xauv	-10.5436
▁list	-10.5437
▁qes	-10.5439
beMho	-10.5451
▁org	-10.5452
▁qeb	-10.5453
▁!!!!	-10.5457
18	-10.5471
▁TUA	-10.5484
hot	-10.5489
▁npaug	-10.5491
▁ntab	-10.5503
▁NOM	-10.5506
▁King	-10.5512
16	-10.5517
▁tell	-10.5523
▁yws	-10.5538
▁dib	-10.5542
▁qauj	-10.5544
▁nceb	-10.5545
▁kuaj	-10.5553
Kwvtijhmoob	-10.5558
mas	-10.5563
▁"...	-10.5564
▁TSEV	-10.5579
▁hehehehehe	-10.5586
yuav	-10.5588
▁But	-10.5601
▁vision	-10.5611
▁80	-10.5612
▁khab	-10.5617
▁yourself	-10.5623
▁mong	-10.5636
▁toog	-10.5642
▁Loob	-10.5647
▁thwj	-10.5668
gt	-10.5684
▁NAWB	-10.5689
▁Thornsp	-10.569
▁ais	-10.5718
▁really	-10.5737
zag	-10.5744
▁Lus	-10.5755
▁qualify	-10.5756
wb	-10.5758
▁khoo	-10.5758
▁khws	-10.5777
lus	-10.5797
▁IT	-10.5799
▁made	-10.5828
▁txhis	-10.5834
▁hmab	-10.5839
▁mes	-10.585
▁Dub	-10.5853
▁txw	-10.5859
▁ntaj	-10.5861
▁Kas	-10.5862
▁txhab	-10.5864
▁da	-10.5866
▁official	-10.5869
▁NTAWD	-10.5871
be	-10.5871
▁75	-10.589
▁refugee	-10.5895
▁board	-10.5895
▁Tog	-10.591
▁npuab	-10.5913
▁Serve	-10.5914
▁nrawm	-10.5916
▁nkhaus	-10.5916
▁dream	-10.5925
▁end	-10.593
▁hope	-10.593
os	-10.5949
▁ciav	-10.5951
▁Mev	-10.5963
▁nroj	-10.5972
▁nyua	-10.5973
▁nyaum	-10.5989
▁xiong	-10.5992
▁Tu	-10.5995
om	-10.5997
http	-10.5999
▁Meo	-10.6003
▁Tsuj	-10.6005
▁un	-10.6014
▁yo	-10.6018
▁npo	-10.603
▁kujxaj	-10.6032
▁women	-10.6032
▁THOV	-10.6053
▁PHEM	-10.6053
*	-10.6055
▁war	-10.6058
▁For	-10.6062
▁self	-10.607
fa	-10.6072
▁ntais	-10.6083
en	-10.6086
▁yuag	-10.6091
▁ntsig	-10.6092
qaab	-10.6107
▁pus	-10.6133
▁check	-10.6142
▁Pob	-10.615
▁YD	-10.615
suabnoog	-10.6168
▁nqeg	-10.617
▁leg	-10.6178
▁office	-10.6187
F	-10.6191
▁KUJ	-10.6195
▁cha	-10.6215
▁yh	-10.6219
▁funeral	-10.6239
▁FBI	-10.624
H	-10.6243
▁tsuam	-10.6244
▁city	-10.6247
▁HO	-10.6253
▁Tag	-10.6259
▁txwj	-10.626
▁sex	-10.6263
▁Bawg	-10.6264
▁Zaj	-10.6278
▁Government	-10.6286
▁Ywg	-10.6287
▁khej	-10.6289
▁2006	-10.629
▁tamsis	-10.6301
▁defend	-10.6304
▁Freedom	-10.631
▁title	-10.6311
▁Amen	-10.6335
▁haav	-10.6352
▁kem	-10.6357
▁mhoob	-10.6362
▁Yes	-10.6389
▁NTSE	-10.6399
▁interest	-10.6401
laus	-10.6401
▁Year	-10.6405
▁THAT	-10.6429
▁rhawv	-10.6429
▁proof	-10.643
▁nroos	-10.6435
▁kwj	-10.6437
▁nteg	-10.6438
▁tubrog	-10.6444
▁...........	-10.645
▁few	-10.6454
▁TSAM	-10.6456
▁Pathet	-10.6477
▁ntxhiab	-10.6491
▁Colonel	-10.6501
▁democracy	-10.6526
▁meeting	-10.6527
▁PUB	-10.6529
▁TSO	-10.6531
▁laig	-10.6531
▁leaders	-10.6531
ag	-10.6535
▁its	-10.6544
▁hard	-10.6549
▁Tshua	-10.6551
▁rhiab	-10.6552
▁saj	-10.6553
▁nis	-10.6563
▁qeeb	-10.6583
▁lawyer	-10.6588
▁keb	-10.6592
▁Pojniam	-10.6598
▁Message	-10.6599
▁bomb	-10.6599
▁ntsai	-10.66
▁Lor	-10.6603
▁pev	-10.661
yeeb	-10.6619
▁ses	-10.6622
▁ZOG	-10.6624
dawb	-10.6625
▁xyum	-10.6625
▁Tshajplaws	-10.6627
▁ntsha	-10.6627
▁fact	-10.6665
▁dawm	-10.6671
▁Just	-10.6672
▁qhas	-10.6674
▁face	-10.6684
▁fiv	-10.6687
pov	-10.6701
▁Pom	-10.6702
▁yab	-10.6705
▁Thorn	-10.6709
▁Maina	-10.6723
▁xibfwb	-10.6725
og	-10.6731
tseeg	-10.6736
▁Pha	-10.6737
▁twjyw	-10.674
▁Ntawv	-10.6744
▁thaaj	-10.6767
▁Why	-10.6771
tsaug	-10.6774
▁Soua	-10.6779
▁read	-10.6781
▁Mouaton	-10.6786
▁Pobzeb	-10.6796
▁PUAS	-10.6797
▁Jim	-10.6797
▁meaning	-10.6802
▁Kong	-10.6802
tes	-10.6804
▁yis	-10.6814
▁neejtsa	-10.6821
tk	-10.6838
▁Huabtais	-10.6848
▁Tsuav	-10.6849
▁lob	-10.6853
▁home	-10.6865
▁hwjchim	-10.6871
▁keebkwm	-10.6871
kub	-10.6871
▁kajsiab	-10.6879
tsis	-10.6895
▁jpg	-10.6896
▁mejkoob	-10.69
▁OK	-10.6908
▁ej	-10.6911
▁PM	-10.6922
▁phov	-10.6924
▁paaj	-10.6941
▁both	-10.6945
▁hluav	-10.6946
▁Peace	-10.695
▁hoom	-10.6954
▁paim	-10.6955
▁Leejtw	-10.6956
▁Asia	-10.697
▁npaaj	-10.6972
ty	-10.6995
▁open	-10.6999
▁uasi	-10.703
▁MC	-10.7032
▁form	-10.7039
▁nye	-10.704
▁National	-10.7048
▁bible	-10.7049
▁paib	-10.7056
▁niamtxiv	-10.7069
▁done	-10.7072
▁kob	-10.7074
▁millions	-10.7091
xeem	-10.7092
▁tabsim	-10.7118
▁volunteer	-10.7125
▁chance	-10.7125
▁txa	-10.7129
▁Cwj	-10.7137
▁yob	-10.7145
sib	-10.715
▁Congress	-10.715
▁Hnov	-10.7151
▁pay	-10.7166
▁situation	-10.7177
▁SSI	-10.7178
▁tov	-10.7178
▁ntxuag	-10.7179
▁txujci	-10.7181
▁weeks	-10.7193
▁TSEEB	-10.7204
▁dluab	-10.7204
▁TXAWJ	-10.7214
▁nraud	-10.7216
ntawv	-10.7223
▁fabkis	-10.7229
▁txhoj	-10.7231
▁Nchai	-10.7233
▁OV	-10.7234
▁fair	-10.7236
▁betwee	-10.7236
▁poom	-10.7237
licas	-10.7241
▁ntxais	-10.7264
▁tsog	-10.7271
ne	-10.7274
▁Tib	-10.7278
▁hahahahahaha	-10.7279
▁Luas	-10.7283
▁Mam	-10.729
United	-10.731
▁dlaav	-10.7311
▁Phaj	-10.7315
▁KAM	-10.7318
▁la	-10.7318
▁ntxhia	-10.7322
around	-10.7325
LY	-10.7335
▁26	-10.7335
▁nomtswv	-10.7338
▁thank	-10.7359
▁Communist	-10.736
▁fwjchim	-10.736
▁fim	-10.7362
▁kiav	-10.7363
▁yuamkev	-10.7367
▁ntub	-10.7369
▁Luang	-10.738
▁net	-10.7397
R	-10.7399
▁truth	-10.7401
▁yuas	-10.7407
▁website	-10.7415
▁line	-10.7419
tony	-10.7421
▁uncle	-10.7443
▁npuas	-10.7455
nothing	-10.7456
▁private	-10.7466
▁19	-10.7474
▁big	-10.7478
▁kiv	-10.7487
▁seej	-10.7493
▁LWM	-10.75
▁project	-10.7503
▁f	-10.7503
qhov	-10.7509
▁professional	-10.752
▁John	-10.7526
▁TSHAJ	-10.7531
▁cwjme	-10.7534
▁Nres	-10.7546
▁Hauv	-10.755
▁doctors	-10.7568
▁opportunity	-10.7573
▁txaij	-10.7574
▁MUAG	-10.7575
▁term	-10.7584
▁nthe	-10.7585
▁put	-10.7587
hiab	-10.7592
▁52	-10.7594
▁Nkaujnyiag	-10.76
▁something	-10.76
ry	-10.7609
▁Kwm	-10.7629
▁txhav	-10.7638
▁fight	-10.764
▁else	-10.7654
▁Fuab	-10.7654
▁minute	-10.7663
▁npuav	-10.767
▁yes	-10.7674
▁zeemmuag	-10.7682
▁Oz	-10.7682
▁control	-10.7684
▁Bibl	-10.7686
▁Tsheej	-10.7687
▁SAB	-10.7692
▁difference	-10.7708
▁Let	-10.7719
or	-10.7743
uj	-10.7744
hais	-10.7748
▁moov	-10.7754
laug	-10.7758
▁Nyoo	-10.7758
▁txooj	-10.7764
▁FOR	-10.7786
▁AS	-10.7787
▁Wisconsin	-10.779
▁Tsov	-10.78
▁yeebncua	-10.78
▁non	-10.7808
▁YAWG	-10.782
▁TAWM	-10.7822
▁npaud	-10.7825
▁nte	-10.7825
▁Caub	-10.7829
▁answer	-10.7838
▁idea	-10.7843
▁speech	-10.7845
▁Txhais	-10.7845
▁nplaum	-10.7846
▁ntxag	-10.7866
▁rais	-10.7866
▁great	-10.7873
▁idonotknow	-10.7873
▁Lyteck	-10.7874
▁profit	-10.7877
▁canno	-10.7885
▁tsawm	-10.7909
▁phua	-10.7913
iv	-10.7914
▁Yij	-10.7915
▁AM	-10.7922
caag	-10.7924
▁fajkhau	-10.7926
▁past	-10.7929
▁tshau	-10.793
▁goal	-10.7934
▁gau	-10.7934
▁top	-10.7953
▁China	-10.7957
▁kaaj	-10.7958
▁SAIB	-10.7958
▁accept	-10.7967
▁hours	-10.797
iab	-10.7971
▁DC	-10.7976
yim	-10.7979
▁UNHCR	-10.7985
▁TSIM	-10.8002
▁tuas	-10.8003
▁tshaav	-10.8015
▁nplawm	-10.8017
▁yuj	-10.8036
▁taam	-10.8037
▁PKH	-10.8041
▁Peter	-10.8041
▁politics	-10.8042
▁txhuv	-10.8048
▁1000	-10.8054
▁luck	-10.8057
▁Minister	-10.8069
▁NTAWM	-10.807
ness	-10.8071
▁meejmom	-10.8071
▁KAWM	-10.8074
tom	-10.8085
▁Rebecca	-10.8098
▁CHIM	-10.81
▁HLUB	-10.8101
▁*	-10.8101
▁thai	-10.8111
▁heart	-10.8117
▁col	-10.8117
▁peace	-10.8121
▁pleev	-10.8126
▁Ntxwg	-10.8127
▁copy	-10.8127
▁Hm	-10.8143
▁Na	-10.8145
▁find	-10.815
▁Kuamemiab	-10.8154
▁Avang	-10.8155
▁nqus	-10.8158
▁follow	-10.8166
▁zeeg	-10.8167
▁Toj	-10.8169
▁School	-10.8183
▁program	-10.8188
▁kuamem	-10.8213
▁Your	-10.8218
▁kawv	-10.8236
▁dhlau	-10.8243
▁hniaj	-10.8261
▁$1	-10.8264
▁traitor	-10.8269
▁People	-10.8269
▁om	-10.8287
▁nthi	-10.8288
z	-10.8294
▁YEEB	-10.8301
▁Tshuav	-10.8307
▁ntaug	-10.8308
▁toom	-10.8314
▁,,	-10.8319
tau	-10.8327
▁anything	-10.8328
▁someone	-10.8358
▁nroo	-10.836
▁hnia	-10.8361
▁language	-10.8363
awm	-10.8366
▁nplajte	-10.8372
leej	-10.8376
▁tsu	-10.8389
▁legal	-10.8404
▁Amelicas	-10.8415
▁ntaiv	-10.8416
▁nqhi	-10.8437
▁Ntau	-10.8437
▁Tia	-10.8439
▁nqos	-10.8439
▁least	-10.8445
▁NTAWV	-10.8445
▁Coj	-10.8451
▁individual	-10.8451
▁mua	-10.846
▁,"	-10.8473
▁zim	-10.8475
▁Fwv	-10.8475
▁club	-10.8477
▁Hlub	-10.8477
▁DOS	-10.848
▁team	-10.8499
kawg	-10.8508
▁Aib	-10.8509
▁hluag	-10.8524
▁MAM	-10.853
▁qa	-10.8535
▁POB	-10.8535
▁night	-10.8537
wj	-10.8538
▁sign	-10.8552
▁Miao	-10.8563
▁TIAM	-10.8564
▁Laus	-10.857
▁join	-10.8583
▁Sim	-10.8588
▁Tsujsua	-10.8596
aum	-10.8599
▁land	-10.8601
▁haas	-10.8602
▁choice	-10.8622
▁Zag	-10.8624
▁Tim	-10.863
wm	-10.8636
▁stop	-10.8645
▁piam	-10.8648
▁II	-10.8648
▁ncaug	-10.8668
▁societ	-10.8681
▁Phiajzeb	-10.8682
▁npaws	-10.869
meej	-10.8698
▁age	-10.8708
▁Kao	-10.8722
▁doing	-10.8729
▁ped	-10.8734
▁off	-10.8737
▁qhau	-10.8737
▁2012	-10.8739
▁Lycee	-10.8742
▁Dec	-10.8756
▁second	-10.8768
▁RPA	-10.8772
▁NTR	-10.8773
▁agent	-10.8774
groups	-10.8781
▁daum	-10.8784
▁per	-10.8806
▁mem	-10.8816
▁Dev	-10.8819
▁qi	-10.8821
▁nruag	-10.883
▁Ziag	-10.8833
▁attack	-10.8833
paub	-10.8836
▁nias	-10.8845
▁judge	-10.8852
txwm	-10.8857
▁Shoua	-10.8864
29	-10.8865
▁pluaj	-10.8867
▁laim	-10.8873
▁Siab	-10.8873
▁TIA	-10.8888
▁zuaj	-10.8896
▁27	-10.8901
▁Roob	-10.8904
▁khees	-10.8918
▁La	-10.8919
▁ntsaws	-10.8921
▁job	-10.893
▁vaammee	-10.8948
▁lua	-10.8953
▁htm	-10.8956
▁2010	-10.896
▁diav	-10.8962
▁tax	-10.8985
▁christian	-10.8987
▁zaam	-10.8991
▁taig	-10.8993
▁Noog	-10.8999
▁Tshoj	-10.9015
▁College	-10.9018
▁tsag	-10.9018
▁lajlim	-10.9019
O	-10.9024
▁Laug	-10.9033
▁Txiab	-10.9047
▁far	-10.9048
▁neohmong	-10.9049
▁already	-10.9049
▁CAUBFAB	-10.9049
▁San	-10.9052
▁quasyawg	-10.9053
▁ntshaav	-10.9054
▁xovtooj	-10.9071
▁Neng	-10.9071
se	-10.9074
▁Unko	-10.9082
lis	-10.9083
▁29	-10.9087
▁fwb	-10.9095
▁record	-10.9104
▁nyo	-10.9104
▁leem	-10.9104
lwm	-10.9105
▁kuag	-10.9105
▁fawb	-10.9113
niam	-10.9118
▁boj	-10.9119
▁DAWS	-10.9119
▁Faaj	-10.912
rog	-10.9121
▁cause	-10.9131
img	-10.9132
▁ntuav	-10.9136
▁college	-10.9137
▁Don	-10.9139
▁nyooj	-10.9144
▁nqeeb	-10.915
Lq	-10.9154
I	-10.9154
▁23	-10.9159
;	-10.9161
▁phwv	-10.9166
▁cuaj	-10.9174
▁Director	-10.9175
▁ARE	-10.9178
▁maub	-10.9189
▁speak	-10.9199
▁DU	-10.9202
▁kes	-10.9205
▁ntxoov	-10.9205
▁2007	-10.9206
▁above	-10.9206
▁Tsim	-10.9206
▁LFC	-10.9207
▁2000	-10.9228
▁action	-10.9236
▁thought	-10.9236
▁Kajntug	-10.9238
▁limit	-10.9243
▁laag	-10.9249
▁npuaj	-10.9255
ntxhais	-10.9256
▁lais	-10.9259
▁ntxhw	-10.9265
▁tsig	-10.9266
nom	-10.9269
▁rig	-10.9273
▁Nov	-10.9274
▁body	-10.9278
▁CEM	-10.9278
▁practice	-10.9284
▁NC	-10.9297
▁dais	-10.93
RW	-10.9303
▁Ntseeg	-10.9307
▁khaw	-10.931
▁ever	-10.9312
▁TSA	-10.9322
▁Too	-10.9331
▁lpdr	-10.9335
▁thaud	-10.9336
▁qhovtwg	-10.9338
▁KK	-10.934
ej	-10.9343
▁zes	-10.9346
▁Ban	-10.9351
lao	-10.9357
▁2004	-10.9363
▁mission	-10.9366
▁qog	-10.9367
▁70	-10.9367
▁rhaub	-10.9367
▁ROG	-10.9369
▁oib	-10.937
▁nrim	-10.9374
▁MOOB	-10.9375
▁Vinai	-10.9398
▁HNUB	-10.9399
▁Tseeb	-10.9399
▁TSEG	-10.9401
▁enjoy	-10.9403
▁khuj	-10.9403
▁TU	-10.9403
P	-10.9406
▁ntxhai	-10.9409
▁dao	-10.9414
ember	-10.9417
▁tsoos	-10.9422
▁dlaw	-10.9425
▁Moghlu	-10.9428
▁Thank	-10.9429
▁Kawm	-10.9435
▁dejnu	-10.9449
▁chua	-10.9449
▁1980	-10.9464
▁pha	-10.9473
▁awb	-10.9476
▁Pa	-10.948
▁300	-10.9493
▁Nplooj	-10.9499
▁vau	-10.9502
▁pobzeb	-10.9508
▁run	-10.951
▁xaim	-10.9513
news	-10.9518
U	-10.9534
her	-10.9535
▁ntshi	-10.9546
▁Do	-10.9561
▁Samthong	-10.9562
L	-10.9584
▁45	-10.9586
▁vov	-10.9593
▁.,	-10.9597
▁ncau	-10.9602
muaj	-10.9605
▁GM	-10.9605
▁Nraug	-10.9605
▁ku	-10.9616
in	-10.9616
▁hajya	-10.9623
▁phev	-10.9629
▁Bangko	-10.9632
52	-10.9632
▁kaug	-10.9633
▁Lu	-10.9638
ED	-10.9642
▁Xov	-10.9643
▁Hu	-10.9652
ia	-10.9666
▁viv	-10.9667
▁.)	-10.967
▁Txiaj	-10.9672
▁uacas	-10.968
▁..?	-10.9686
tug	-10.9694
yaig	-10.9702
▁tsees	-10.9705
▁meo	-10.9726
▁KUBXAJ	-10.9727
▁nplogteb	-10.9729
▁VT	-10.9747
em	-10.9759
▁number	-10.9759
▁Obama	-10.976
▁Tsev	-10.9761
▁txaaj	-10.9762
▁Ntaj	-10.9772
▁pestsaw	-10.9782
▁Tshu	-10.9793
▁LIS	-10.9801
▁continue	-10.9809
▁yaws	-10.9811
▁Capt	-10.9828
▁start	-10.9833
▁ntwg	-10.9841
ER	-10.9845
▁young	-10.9855
▁povtseg	-10.9864
▁Yawgnomdu	-10.9867
▁until	-10.9879
▁nkau	-10.9881
▁saw	-10.9887
▁kiab	-10.989
▁benefit	-10.9894
▁zij	-10.9901
▁txoos	-10.9902
▁Nab	-10.991
▁HIH	-10.9925
▁NTSEEG	-10.9929
▁chwv	-10.993
▁lesson	-10.993
me	-10.993
▁ntxaws	-10.9932
▁DEJ	-10.9932
▁LAUS	-10.9934
▁special	-10.994
GVP	-10.9945
▁oh	-10.9951
▁LO	-10.9952
▁VDO	-10.9964
▁away	-10.9969
Cj	-10.9971
▁xyab	-10.9977
▁king	-10.9991
awd	-10.9992
▁qhovmuag	-10.9996
▁TIJLAUG	-10.9998
uav	-11.0004
yawm	-11.001
▁tiamsi	-11.0028
▁$10	-11.003
▁Sau	-11.003
▁nplaj	-11.0031
▁Sibtham	-11.0032
▁Sacrament	-11.0033
suC	-11.0035
▁Caubfa	-11.0037
IAG	-11.0038
▁plis	-11.0039
yet	-11.0056
ws	-11.0058
20	-11.006
▁thawb	-11.0069
▁TSUM	-11.0074
▁tibyam	-11.0076
▁rhu	-11.0088
tsev	-11.0095
▁$100	-11.01
▁address	-11.0101
▁vang	-11.0104
▁THAWJ	-11.0104
▁thwm	-11.0111
NTAG	-11.0117
▁zig	-11.014
▁ntsoog	-11.0144
▁Thaj	-11.0146
hmong	-11.0146
▁ruas	-11.0147
▁usa	-11.0166
▁perfect	-11.0171
▁american	-11.0175
▁Nro	-11.0176
▁tshauv	-11.0181
▁lot	-11.0188
▁medal	-11.0206
▁through	-11.021
▁Koos	-11.0214
▁vag	-11.0222
▁quab	-11.0229
tawm	-11.023
an	-11.0231
tub	-11.0238
▁plaab	-11.0242
▁zawm	-11.0243
koob	-11.0245
▁SIM	-11.0248
seb	-11.0253
▁huaj	-11.0255
▁World	-11.0277
fwb	-11.028
▁NKAUJ	-11.0288
▁yias	-11.029
▁yaa	-11.0291
▁Mob	-11.0293
▁movies	-11.03
▁tshais	-11.031
▁generation	-11.0311
stead	-11.0311
▁nrad	-11.0317
▁cuj	-11.032
▁tou	-11.0323
ary	-11.0337
▁huav	-11.0337
▁DUA	-11.0337
▁bee	-11.0343
▁py	-11.0346
▁z	-11.0346
▁Bush	-11.0347
▁director	-11.0349
▁DUB	-11.0353
▁EV	-11.0354
▁TY	-11.036
▁TV	-11.0361
▁came	-11.0362
▁enough	-11.0383
▁naav	-11.0384
▁ntsub	-11.0385
hn	-11.0386
pab	-11.0388
▁ago	-11.0389
▁Haum	-11.0392
▁happ	-11.0399
ev	-11.0399
▁retired	-11.0401
▁dabtsis	-11.0412
▁serious	-11.0418
▁NEOHOME	-11.0419
▁politician	-11.042
▁Rov	-11.0423
▁Vwm	-11.0426
▁quj	-11.0434
▁Mais	-11.0434
▁phlu	-11.0442
▁Law	-11.0443
▁pag	-11.0446
▁ywjpheej	-11.0454
▁plees	-11.0458
tsij	-11.0482
▁together	-11.049
▁leadership	-11.0492
▁NPLOG	-11.0492
▁HH	-11.0497
▁Chee	-11.0497
▁Rwg	-11.0497
▁ceevfa	-11.0501
▁means	-11.0502
▁mu	-11.0504
▁clear	-11.0505
▁hand	-11.0506
▁direct	-11.0506
▁LAM	-11.0509
▁Npliaj	-11.052
▁Mloo	-11.0524
peb	-11.0525
▁PK	-11.0538
▁late	-11.0538
▁nqua	-11.0544
▁DHAU	-11.0549
▁offer	-11.0552
▁xiv	-11.0558
▁q	-11.0561
yeej	-11.0562
▁SY	-11.0563
▁Radio	-11.0563
▁ready	-11.0572
▁DEB	-11.0578
▁MA	-11.0582
▁te	-11.0595
▁dlau	-11.0598
▁bring	-11.06
▁Xaav	-11.06
▁66	-11.0608
▁Tiag	-11.062
▁fa	-11.0623
▁xeebceem	-11.0635
▁Xub	-11.0635
▁Kuamem	-11.0636
▁solution	-11.0638
▁ll	-11.0665
▁pluas	-11.0667
▁npausuav	-11.0672
▁belief	-11.0673
▁service	-11.0673
▁Txuj	-11.0676
▁vwj	-11.0701
▁become	-11.0708
▁fresno	-11.0709
▁dlig	-11.0713
▁po	-11.0713
▁times	-11.0725
▁walk	-11.0726
▁educate	-11.0727
▁bank	-11.0731
id	-11.0731
▁txaum	-11.0734
▁tsham	-11.0753
▁kill	-11.0758
▁ruag	-11.0759
▁cuas	-11.0759
▁npoo	-11.0769
est	-11.0775
▁flop	-11.0782
▁stroke	-11.0784
▁phij	-11.0788
▁yag	-11.0797
▁peeb	-11.0797
tshajplaws	-11.0799
▁comment	-11.0817
▁UTC	-11.0819
▁International	-11.082
▁QHIA	-11.0854
▁KM	-11.0854
▁dlaaj	-11.0856
▁George	-11.0857
▁avang	-11.0861
▁tomntej	-11.0872
▁mobsiab	-11.0877
▁create	-11.0886
▁days	-11.0889
▁Txhim	-11.0894
▁tshai	-11.0895
▁international	-11.0895
▁game	-11.0896
▁Yee	-11.0898
▁xuaj	-11.0902
▁Txos	-11.0905
▁)...	-11.0908
▁Be	-11.091
▁stand	-11.0916
leeg	-11.0925
▁BE	-11.0929
▁funny	-11.0932
▁dulug	-11.0934
▁1976	-11.0939
▁Major	-11.094
▁yuaj	-11.0957
▁woman	-11.0971
▁plog	-11.098
▁Hmo	-11.0982
▁ntxwg	-11.0993
▁set	-11.0997
▁regard	-11.1004
▁statement	-11.101
kaj	-11.1015
▁2008	-11.1015
▁thaab	-11.1019
▁kaas	-11.1023
▁friends	-11.1042
▁TXIM	-11.1048
▁ciab	-11.105
▁Chim	-11.1063
▁DIM	-11.1064
▁XYOO	-11.1067
▁rag	-11.1067
▁nqai	-11.1068
▁rovqab	-11.1083
▁khabnab	-11.1084
▁concern	-11.1084
▁When	-11.1084
▁feet	-11.1089
▁pis	-11.1092
▁neev	-11.1101
ck	-11.1102
▁promote	-11.1108
▁step	-11.1111
▁nhov	-11.1123
▁tshajlij	-11.1124
tias	-11.1135
▁close	-11.1141
▁VIBNAIS	-11.1161
▁faaj	-11.1162
▁Thoob	-11.1163
▁tsavneeg	-11.1166
SIS	-11.1167
▁Yong	-11.1171
▁cib	-11.1174
▁Phab	-11.118
▁NPE	-11.1193
▁national	-11.1197
▁knowledge	-11.1199
▁Loojceeb	-11.12
up	-11.1202
▁thawm	-11.1204
▁khaib	-11.1205
▁SAU	-11.1206
▁...,	-11.1209
▁xaws	-11.121
▁txhos	-11.1214
▁Chue	-11.122
▁toob	-11.1223
▁nr	-11.1227
▁.."	-11.1229
▁possibl	-11.1236
▁challenge	-11.1237
▁Thamkrabok	-11.1238
▁NYIAM	-11.1241
▁txhuas	-11.1245
▁raj	-11.1246
▁heard	-11.1248
▁yoov	-11.1252
▁dead	-11.1263
▁Nyuj	-11.1266
▁Yig	-11.1279
▁Lino	-11.1281
▁taij	-11.1283
▁nceeg	-11.1284
▁wish	-11.1286
less	-11.1292
▁tsaab	-11.1293
▁ntxiag	-11.1297
▁fun	-11.131
▁policy	-11.1316
▁xua	-11.1317
▁death	-11.132
▁xuab	-11.1323
niamtsev	-11.1323
▁posts	-11.1327
▁nyaab	-11.1329
▁txam	-11.1333
▁nqaa	-11.1339
▁THEM	-11.1342
▁36	-11.1342
▁ALL	-11.1349
▁Dong	-11.135
hawm	-11.1355
▁Yag	-11.1356
▁SUB	-11.1356
eng	-11.1361
▁khua	-11.1362
▁maim	-11.1376
▁OR	-11.1378
▁90	-11.1382
▁YT	-11.1383
▁UB	-11.1383
▁citizen	-11.1389
▁consider	-11.1394
▁vacation	-11.1394
▁paag	-11.1402
▁Kos	-11.1408
▁xau	-11.1414
▁Yia	-11.1419
▁Puj	-11.142
▁hear	-11.1426
▁terrorist	-11.1434
▁1960	-11.1435
▁High	-11.1435
▁nplaim	-11.1436
▁ntsejmuag	-11.1437
▁pig	-11.1438
▁ntxaug	-11.1439
▁Daim	-11.1441
▁yah	-11.1441
▁Santa	-11.1446
▁khoob	-11.1471
▁former	-11.1476
▁Moog	-11.1477
▁xwj	-11.1478
ces	-11.1479
▁xyua	-11.1484
▁tai	-11.1491
▁saying	-11.1493
▁include	-11.1498
▁complain	-11.1508
dub	-11.1512
▁qhias	-11.1513
▁HOM	-11.1516
▁move	-11.1517
▁plau	-11.1517
iam	-11.1521
▁LIAB	-11.1521
▁Khej	-11.1524
▁Khab	-11.153
tuag	-11.1537
▁lawj	-11.1548
▁page	-11.1552
▁apply	-11.1554
▁unless	-11.1554
AM	-11.1555
▁Paub	-11.1556
▁Hauj	-11.1557
▁feeling	-11.1561
▁DEV	-11.1562
▁head	-11.1563
toj	-11.1569
▁ntsaw	-11.1573
▁cale	-11.1578
ceeb	-11.1578
▁NE	-11.1583
▁qai	-11.1583
▁CO	-11.1588
▁sauv	-11.1589
lso	-11.1592
▁whole	-11.1599
tsam	-11.1603
Canada	-11.1605
tswv	-11.1606
▁suv	-11.1607
pm	-11.1608
▁ntshua	-11.1608
32	-11.1625
xim	-11.1635
▁Yooj	-11.1635
▁;&	-11.1636
▁father	-11.1639
▁xiab	-11.164
Xf	-11.164
▁vas	-11.1641
ID	-11.1647
▁nraab	-11.1647
sa	-11.1651
▁And	-11.1653
▁meme	-11.1667
---------------	-11.1667
▁camp	-11.1668
▁pebcaug	-11.1669
▁Council	-11.1674
▁th	-11.1681
▁Cheng	-11.1682
▁uali	-11.1683
▁thiv	-11.1684
51	-11.1688
yawg	-11.1692
▁DO	-11.1711
▁khoos	-11.1712
▁mental	-11.1714
▁Commander	-11.1715
▁principle	-11.1715
▁Zuag	-11.1717
▁puavleej	-11.172
▁teej	-11.1723
▁,,,	-11.1728
ong	-11.1731
▁kaag	-11.1743
▁ST	-11.1745
▁MOS	-11.1754
▁Department	-11.1756
▁agenda	-11.1756
▁TXAUS	-11.1756
▁original	-11.1756
▁199	-11.1775
▁fund	-11.1787
▁rawsli	-11.179
▁Noob	-11.1791
▁health	-11.1793
century	-11.1797
▁positive	-11.1797
▁THIS	-11.1799
▁Nyias	-11.1799
▁lolus	-11.1806
▁di	-11.1823
▁sev	-11.1828
military	-11.1839
MOOB	-11.1839
▁either	-11.1843
▁anti	-11.1843
nub	-11.1849
▁hiav	-11.1857
▁Colorad	-11.1863
▁Ntse	-11.1864
▁Chong	-11.1866
▁rule	-11.187
▁Israel	-11.1875
▁xejthim	-11.1879
▁Man	-11.1881
neeb	-11.1885
nov	-11.189
▁ntswj	-11.1898
▁chawj	-11.1903
thread	-11.1909
▁reality	-11.1922
▁later	-11.1922
▁als	-11.1924
▁moua	-11.1927
▁txhu	-11.193
▁fee	-11.193
▁BUT	-11.1937
▁lwv	-11.1939
▁Caag	-11.1964
▁pluav	-11.1968
▁baj	-11.1974
▁view	-11.1988
▁YO	-11.1998
▁Txiabneeb	-11.2004
▁might	-11.2007
▁today	-11.2011
▁Sao	-11.2011
▁ntuv	-11.2013
▁PAJ	-11.2024
▁Catholic	-11.2047
▁Haam	-11.2048
▁cos	-11.2053
▁"?	-11.2056
▁Mim	-11.2061
▁0	-11.2062
▁TUBNTSUAG	-11.2062
▁soon	-11.2068
▁qia	-11.2069
fore	-11.2088
▁Yaweh	-11.2089
▁everything	-11.2089
▁nuvntses	-11.209
▁fai	-11.2127
▁SEB	-11.2132
▁NTEJ	-11.2133
▁Zos	-11.2135
▁$5	-11.2142
▁yoj	-11.2143
▁lead	-11.2144
▁Have	-11.2145
▁serve	-11.2145
▁khuav	-11.2147
dab	-11.2149
nkaus	-11.2159
▁QAIB	-11.2173
▁Teng	-11.2177
▁living	-11.2177
▁ntxeem	-11.2179
▁cooj	-11.218
smiles	-11.2187
▁Tebchaw	-11.219
▁????	-11.2198
▁daw	-11.2201
▁nrag	-11.2212
▁VajNcuab	-11.2216
▁marriage	-11.2216
▁Prabang	-11.2219
▁YOUR	-11.222
▁THAM	-11.222
▁Fwm	-11.2221
▁event	-11.2233
▁mejthaub	-11.2261
▁2011	-11.2262
▁..,	-11.2264
▁charge	-11.2268
▁test	-11.227
moobsib	-11.2276
▁caab	-11.2281
▁KO	-11.2299
▁xaab	-11.23
▁short	-11.2302
▁nice	-11.2303
▁white	-11.2304
▁Maum	-11.2307
▁laajxeeb	-11.2307
▁pastor	-11.2309
▁Cib	-11.231
adison	-11.2313
▁Ana	-11.2322
▁LEES	-11.2326
▁naab	-11.2329
▁zoox	-11.2333
▁MOB	-11.234
▁whil	-11.2343
▁mention	-11.2346
▁CHAWS	-11.2346
▁raab	-11.2346
▁taav	-11.235
▁caaj	-11.235
▁Kaim	-11.235
▁Meliska	-11.2351
▁ncho	-11.2356
zeb	-11.2362
▁mung	-11.2363
▁.-	-11.2368
▁force	-11.2373
kas	-11.2377
▁ZAUM	-11.2378
▁securit	-11.2391
▁kavliam	-11.2392
▁wait	-11.2393
▁KUB	-11.2394
hind	-11.2399
▁ntshiab	-11.2402
haus	-11.2402
ny	-11.242
▁Wat	-11.243
▁represent	-11.2432
▁ghov	-11.2434
▁Aug	-11.2439
▁03	-11.244
▁Ntxhais	-11.244
taub	-11.2444
▁Nag	-11.2455
▁fuam	-11.2457
xwb	-11.2464
▁NPUA	-11.2467
▁maiv	-11.2467
▁nyaav	-11.2479
▁dos	-11.2479
▁1979	-11.248
nyeej	-11.2485
▁nplig	-11.2488
▁5000	-11.2491
▁account	-11.2501
▁QW	-11.2502
▁liag	-11.2513
▁vaajmung	-11.252
Hmong	-11.2523
▁lulug	-11.2523
▁roog	-11.2527
▁hwb	-11.2528
▁dlag	-11.2528
▁stay	-11.2529
nyoog	-11.2534
▁ka	-11.2539
▁............	-11.2561
▁science	-11.2565
▁KHO	-11.2565
▁kaujruam	-11.2565
▁yingb	-11.2566
▁Loj	-11.2568
▁daus	-11.2571
▁LIAM	-11.2571
▁Pham	-11.2587
▁Tas	-11.2597
▁son	-11.2597
▁puaj	-11.2602
▁CE	-11.2603
▁txhaa	-11.2603
▁nyia	-11.2603
▁qhe	-11.2608
▁act	-11.2608
▁purpose	-11.261
▁DAIM	-11.261
▁yu	-11.2612
PajTsab	-11.2619
▁dlov	-11.2627
▁tem	-11.2634
▁France	-11.2654
▁Nub	-11.2665
▁Any	-11.2665
▁confuse	-11.267
▁Phas	-11.2674
▁nyuav	-11.2674
▁normal	-11.268
▁tsoomfw	-11.269
▁lostsuas	-11.2691
▁since	-11.2693
▁Kho	-11.2694
▁NUV	-11.2699
▁decision	-11.2699
▁child	-11.27
▁HNOV	-11.27
▁advice	-11.27
▁php	-11.2701
▁dheev	-11.2701
▁once	-11.2704
▁die	-11.2705
behmong	-11.2711
▁Lig	-11.2717
ers	-11.2718
▁MR	-11.2721
▁within	-11.273
▁Hin	-11.2733
▁strong	-11.2744
▁interesting	-11.2751
▁ntis	-11.2753
▁nib	-11.276
▁rest	-11.2762
▁das	-11.2763
▁TIJ	-11.2766
▁fire	-11.2769
▁npaumli	-11.2787
▁Lyfoung	-11.2789
▁Sivyi	-11.2794
▁nkig	-11.2794
▁moral	-11.2796
▁Suab	-11.2799
▁xo	-11.281
▁Co	-11.2815
Z	-11.2822
kuj	-11.2825
▁Sunday	-11.2835
▁PIAV	-11.2836
▁equal	-11.2837
▁yexus	-11.2837
▁ncaus	-11.2838
▁Sov	-11.2841
▁Cab	-11.2841
▁rwg	-11.2843
▁Pog	-11.2845
nyob	-11.285
▁Se	-11.2864
▁Phu	-11.2877
▁hlaa	-11.288
▁enem	-11.288
▁Vib	-11.2881
▁Blong	-11.2883
▁Cam	-11.2885
Lqy	-11.2886
▁result	-11.2889
tshooj	-11.2889
▁tiamsid	-11.2894
yuam	-11.2896
▁By	-11.2909
hwb	-11.291
▁Kham	-11.2917
▁correct	-11.2919
▁guarantee	-11.2926
▁Idonotknow	-11.2926
▁negative	-11.2926
▁"....	-11.2941
▁dabqhuas	-11.2945
▁voj	-11.297
▁Royal	-11.2972
▁guess	-11.2972
▁COOB	-11.2972
▁qhaj	-11.2977
▁Xob	-11.2978
▁plus	-11.2987
▁hawv	-11.2994
pom	-11.2996
▁thinking	-11.2996
▁Hahahaha	-11.3002
▁mn	-11.3003
▁flip	-11.3008
▁cultural	-11.302
▁Mojthem	-11.302
▁dlim	-11.3021
▁tsuab	-11.3024
kawm	-11.3024
▁Cawv	-11.3024
▁ncoo	-11.3044
▁Num	-11.3054
▁Kiab	-11.306
▁xej	-11.3063
▁2013	-11.3066
erry	-11.3069
▁vue	-11.3071
▁MD	-11.3074
▁standard	-11.3074
▁fuabtais	-11.3074
▁IP	-11.3085
▁txhuam	-11.3085
▁qeeg	-11.3091
▁Kaj	-11.3096
▁blame	-11.3102
iav	-11.3106
▁xus	-11.311
▁lpd	-11.3111
▁Friday	-11.3112
▁nqug	-11.3113
▁YEEM	-11.3113
▁YUG	-11.3114
▁committee	-11.3117
▁grade	-11.3117
▁Rog	-11.3119
▁lawg	-11.3132
lam	-11.3135
▁ni	-11.3141
king	-11.3146
▁Re	-11.3155
▁hub	-11.3166
▁balance	-11.3169
▁Moobleeg	-11.317
▁Nation	-11.3173
▁yuv	-11.3173
▁Tamsis	-11.3186
▁CAN	-11.3197
▁WE	-11.32
▁Askiv	-11.3206
▁restaurant	-11.3206
▁Touby	-11.3207
▁worker	-11.3208
▁PEM	-11.3208
▁jail	-11.3208
▁phiam	-11.3208
▁KAV	-11.3209
▁nteeg	-11.3212
▁tseb	-11.3215
bh	-11.3216
▁deal	-11.3216
▁Xus	-11.3218
muag	-11.3218
▁ON	-11.3222
ilwaukee	-11.3237
nruag	-11.3238
▁nree	-11.3246
▁limhiam	-11.3254
▁moslwj	-11.3257
haum	-11.3259
▁Nyas	-11.3266
▁50%	-11.3285
▁guys	-11.3286
▁interview	-11.3292
▁She	-11.3298
▁Xeng	-11.3303
▁ntsaum	-11.3306
▁Xam	-11.3306
▁xev	-11.3307
▁TES	-11.3309
▁depend	-11.3324
▁book	-11.3325
▁txum	-11.333
▁iav	-11.3333
▁08	-11.3338
▁children	-11.3349
▁Txus	-11.335
▁qoog	-11.3352
▁dam	-11.3357
▁lhub	-11.3357
▁tuj	-11.3365
▁groups	-11.3371
▁article	-11.3385
▁Chi	-11.3389
▁park	-11.3395
▁important	-11.3397
▁Asmeskas	-11.3398
▁TSOV	-11.3398
▁Hmoov	-11.3401
▁Moj	-11.3401
▁phas	-11.3402
▁TXWV	-11.3403
▁except	-11.3406
▁Ntu	-11.3408
▁pwg	-11.3412
▁blood	-11.3415
▁ibtug	-11.3419
▁sister	-11.342
Q	-11.3422
▁phub	-11.3427
unrise	-11.343
▁198	-11.3433
▁label	-11.3435
▁wonder	-11.3443
▁Vaam	-11.3445
▁document	-11.3445
▁Nkaj	-11.3451
▁refer	-11.3453
▁officer	-11.3456
▁fall	-11.3457
▁dis	-11.3458
▁KWV	-11.3458
▁namtxiv	-11.3458
▁lake	-11.3463
▁ed	-11.3465
▁thi	-11.347
▁Mos	-11.348
uv	-11.3482
iOC	-11.3482
pheej	-11.3483
▁AK	-11.3485
▁MEEJ	-11.3493
▁txheev	-11.3494
▁told	-11.3497
▁Is	-11.3512
meC	-11.3521
▁Nong	-11.3524
ntsuab	-11.3525
▁watch	-11.3531
▁focus	-11.3538
ruam	-11.3542
▁professor	-11.3542
▁Phaya	-11.3543
▁khee	-11.3544
▁cousin	-11.3544
▁HE	-11.3545
▁sorry	-11.3546
▁Cher	-11.3547
▁tagkis	-11.3548
▁simple	-11.3549
▁ntiab	-11.3558
▁ntsaj	-11.3562
▁qeg	-11.358
W	-11.3581
▁$20	-11.359
▁easy	-11.3591
▁solve	-11.3593
▁Nruas	-11.3593
▁Krabo	-11.3594
▁Lug	-11.3599
▁luab	-11.3604
▁tshis	-11.3606
▁ciasiab	-11.3606
▁quag	-11.3615
▁Sab	-11.3616
▁NH	-11.3618
▁Well	-11.3621
▁losmas	-11.3622
▁TAW	-11.3627
ther	-11.3631
▁Tong	-11.3631
▁ntos	-11.3631
▁lwg	-11.3632
▁SO	-11.3633
Li	-11.3637
▁See	-11.3638
cov	-11.3639
▁Mar	-11.364
▁CIAJ	-11.3643
▁iblub	-11.3646
▁davhlau	-11.3656
nd	-11.3671
▁guy	-11.3672
geC	-11.368
▁Ywj	-11.3687
▁affair	-11.369
▁subject	-11.3692
▁pheev	-11.3696
▁nyug	-11.3699
▁loojceeb	-11.3699
▁natural	-11.37
▁Who	-11.37
▁Fue	-11.3701
▁zias	-11.3703
▁naag	-11.3709
▁411	-11.3711
▁phuv	-11.3715
▁ntseeb	-11.3715
▁CEG	-11.3721
▁sibpab	-11.3724
▁explain	-11.3739
▁black	-11.3741
▁NTEV	-11.3741
▁LEM	-11.3742
▁ntxuv	-11.3743
▁xampha	-11.3745
▁miao	-11.375
▁house	-11.375
▁claimed	-11.3756
▁pau	-11.3756
▁similar	-11.3759
▁Vajlugku	-11.376
▁tshob	-11.3771
nkauj	-11.3771
▁Hi	-11.3782
aturday	-11.3785
▁charlie	-11.379
▁Tubntsuag	-11.379
▁master	-11.3791
▁CEEB	-11.3792
▁qabhau	-11.3795
▁pawv	-11.3797
voos	-11.3804
ship	-11.3805
▁xuam	-11.3807
▁source	-11.3809
▁ONE	-11.3821
xav	-11.383
choj	-11.3839
▁North	-11.3839
▁insurance	-11.384
▁remember	-11.384
▁LAIB	-11.3843
LOS	-11.3843
▁Xws	-11.3846
▁dau	-11.3847
▁NCO	-11.3858
▁npluav	-11.3873
land	-11.3877
▁xoo	-11.3881
▁Khao	-11.3887
▁Wow	-11.3891
▁cassette	-11.3892
▁npuj	-11.3895
▁pliaj	-11.3899
▁faab	-11.3899
▁TXHUA	-11.3899
▁khuaj	-11.3901
▁eyes	-11.3904
▁qhauv	-11.3906
▁Mes	-11.3912
▁HA	-11.3917
▁Qha	-11.3932
▁sawb	-11.3937
▁lej	-11.3937
▁return	-11.3941
▁Dua	-11.3941
▁main	-11.3943
▁option	-11.3944
▁role	-11.3944
▁khuab	-11.3966
▁nig	-11.3979
▁Npe	-11.3982
▁TOS	-11.3992
▁QUAV	-11.3994
▁clean	-11.3994
▁ZAB	-11.3995
▁ncaw	-11.3998
▁AUB	-11.3998
▁bla	-11.4003
▁101%	-11.4003
▁victims	-11.4006
▁ntswv	-11.4006
▁thev	-11.4011
▁tsha	-11.4018
▁Khu	-11.4024
tsawg	-11.4029
▁suavdaw	-11.404
where	-11.4043
▁NCAJ	-11.4044
▁qhwv	-11.4044
▁hias	-11.4046
▁course	-11.4048
▁kha	-11.4055
▁'.	-11.4056
▁Communit	-11.4058
▁Mee	-11.4064
▁luav	-11.4069
▁32	-11.407
▁ntxo	-11.4072
LAWM	-11.4082
▁196	-11.4082
tim	-11.4084
▁contract	-11.4094
▁Feb	-11.4099
▁Lab	-11.4099
▁Xieng	-11.4101
▁win	-11.4104
▁Coob	-11.4105
▁ibyam	-11.4106
WG	-11.411
▁nras	-11.4114
▁miss	-11.4124
▁POOB	-11.4124
dag	-11.4128
▁31	-11.4138
▁expect	-11.4147
▁QUAJ	-11.4147
▁welfare	-11.4147
▁WILL	-11.4147
▁evil	-11.4148
▁Yawglaus	-11.4153
ung	-11.4155
▁Hmoobdawb	-11.4159
▁iv	-11.416
▁nplim	-11.4167
▁Mis	-11.4172
▁LPR	-11.418
▁ia	-11.419
▁nw	-11.4192
▁hehehehehehe	-11.4195
▁npojyai	-11.4195
nws	-11.4196
▁vab	-11.4198
▁LAOS	-11.4201
▁pod	-11.4206
▁Khw	-11.4208
▁Jan	-11.4212
quav	-11.4214
▁Qee	-11.4216
▁clan	-11.4221
▁kaasmoo	-11.423
ke	-11.4238
▁CARP	-11.4251
▁ticket	-11.4252
▁nqov	-11.4252
▁buy	-11.4252
▁WHO	-11.4255
▁nchav	-11.4256
▁Now	-11.4257
▁HU	-11.426
▁Npua	-11.4262
▁cover	-11.4262
▁chao	-11.4263
▁hliv	-11.4263
▁Chang	-11.4267
▁willing	-11.4275
ttle	-11.4285
Nplog	-11.4285
▁joke	-11.4295
▁Ne	-11.4296
txug	-11.4303
▁LAJ	-11.4304
▁jungle	-11.4304
▁common	-11.4305
▁tugkheej	-11.4306
▁sivyis	-11.4307
▁Ncuab	-11.4312
▁dawj	-11.4313
▁TAB	-11.4318
▁rovlos	-11.4327
▁34	-11.4327
▁Can	-11.4332
▁)?	-11.4335
▁Houa	-11.4338
▁120	-11.4343
▁cost	-11.4353
▁Washington	-11.4357
▁Asmesliska	-11.4357
cai	-11.4357
▁khuvxim	-11.4357
▁ZE	-11.436
▁election	-11.4361
▁2009	-11.4365
▁Beer	-11.4367
▁txhib	-11.4367
▁Ceev	-11.4369
▁Taab	-11.4376
▁tshaw	-11.4378
▁fav	-11.4378
▁ntsais	-11.4384
▁Jun	-11.4386
▁pojntxoo	-11.4387
▁Brig	-11.4411
▁dlog	-11.4416
koom	-11.4418
▁thao	-11.4425
▁ve	-11.4426
▁ntsoo	-11.4432
little	-11.4433
tawg	-11.4442
each	-11.4443
....	-11.4446
$	-11.4447
▁pass	-11.4447
▁phlus	-11.4462
▁certain	-11.4463
▁early	-11.4464
▁Chinese	-11.4465
▁chais	-11.4465
▁medical	-11.4465
▁Tseg	-11.4465
▁version	-11.4466
▁visit	-11.4471
▁hmov	-11.4478
▁Tsum	-11.4481
uam	-11.4482
SGU	-11.4488
▁yt	-11.4512
▁PEOPLE	-11.4517
▁tuabyaam	-11.4519
▁nrhab	-11.452
▁VAM	-11.452
▁Hehehe	-11.4522
▁plhis	-11.4523
▁txojsia	-11.4525
▁nwj	-11.4528
▁Liaj	-11.4536
▁nt	-11.4537
▁qwb	-11.4537
▁theev	-11.4557
▁full	-11.4567
▁.............	-11.457
▁cujpwm	-11.4571
▁Happy	-11.4572
▁contact	-11.4572
▁Best	-11.4575
▁Vp	-11.4575
▁Npuag	-11.4581
▁khiab	-11.4587
▁Dok	-11.4587
▁husband	-11.459
▁Hab	-11.4618
▁confirm	-11.4626
▁XYOOJ	-11.4627
▁Melikas	-11.4629
▁qev	-11.4629
French	-11.4634
▁Asian	-11.4635
▁Tuag	-11.4636
▁phais	-11.4636
▁Wausa	-11.4638
▁ntxhua	-11.4639
▁dob	-11.4639
▁doesn	-11.4642
▁brothers	-11.4643
▁class	-11.4647
▁Xa	-11.465
▁zo	-11.465
▁!.	-11.4651
wd	-11.466
▁Phau	-11.4664
▁tx	-11.4665
▁parent	-11.4674
ybe	-11.4679
▁WITH	-11.468
▁WHAT	-11.468
▁Board	-11.4681
▁nasthis	-11.4682
▁tamsimno	-11.4683
▁zuv	-11.4686
▁crazy	-11.4686
▁dance	-11.4696
▁niab	-11.4697
▁chaofa	-11.4699
▁conference	-11.47
PM	-11.472
▁process	-11.473
▁repeat	-11.4731
pawg	-11.4731
▁soob	-11.4733
▁pejkum	-11.4735
▁vs	-11.4745
▁search	-11.4754
24	-11.4769
▁yogli	-11.4776
▁couple	-11.4791
▁NTXIV	-11.4792
▁Nyeem	-11.4792
▁Tsaav	-11.4792
▁hurt	-11.4792
▁PHD	-11.4793
▁Ntxim	-11.4795
liam	-11.4797
50	-11.4802
▁lho	-11.4805
▁earth	-11.4805
_0	-11.4813
▁intention	-11.4819
▁Kaus	-11.4828
▁ty	-11.4829
▁heaven	-11.4846
▁HOTEL	-11.4847
▁NYABLAJ	-11.4847
▁leave	-11.4849
▁Luj	-11.4858
▁phaab	-11.4863
▁One	-11.4864
hlob	-11.4868
▁ntaux	-11.4874
▁Tha	-11.4877
▁NKAUS	-11.4879
▁pug	-11.4909
▁ts	-11.4911
▁sibhaum	-11.4916
▁paam	-11.4917
erver	-11.492
▁kids	-11.4922
▁yawgnomd	-11.4929
▁Dai	-11.4932
▁NYUJ	-11.4944
▁food	-11.4948
▁POJNIAM	-11.4958
▁candidate	-11.4958
▁Court	-11.4958
▁center	-11.4961
▁Nruag	-11.4963
▁At	-11.4965
ntsis	-11.4996
tsheej	-11.5013
▁economic	-11.5013
te	-11.5014
▁wisdom	-11.5015
▁HDD	-11.5015
▁Education	-11.5015
▁according	-11.5015
▁himself	-11.5016
▁maaj	-11.5024
▁ntw	-11.5031
▁recognize	-11.5034
ang	-11.5051
▁News	-11.5053
▁dluav	-11.5055
▁South	-11.5057
▁NPAUM	-11.5065
ES	-11.5066
▁Naikong	-11.5072
▁july	-11.5073
▁MAUM	-11.5073
▁Yaam	-11.5074
▁KOOM	-11.5075
line	-11.5075
txog	-11.5076
▁www	-11.5081
▁Fro	-11.5094
▁Thorns	-11.5094
awg	-11.5098
nab	-11.5104
▁06	-11.5108
▁...."	-11.5117
▁NUM	-11.5119
▁War	-11.5119
▁seems	-11.512
▁!...	-11.5127
▁Bia	-11.5127
▁Buddha	-11.5129
▁Tzexa	-11.5129
▁Ambassador	-11.5129
▁thia	-11.5129
▁cancer	-11.5129
▁Michiga	-11.513
▁IF	-11.5131
▁xovxwm	-11.5138
▁37	-11.5149
▁Pajyeeb	-11.5163
▁Dep	-11.5169
▁Vw	-11.5174
rhiav	-11.5175
▁provide	-11.5182
file	-11.5184
▁Thornspear	-11.5187
▁SAUB	-11.5191
▁ncav	-11.5193
▁kus	-11.5196
▁based	-11.5196
▁bye	-11.5201
▁East	-11.5202
▁created	-11.5204
MOG	-11.5206
▁npliag	-11.5206
▁nwslub	-11.5219
▁zu	-11.5221
▁muj	-11.5227
▁dlu	-11.5233
▁Vieng	-11.5234
▁NAS	-11.5236
▁mojthe	-11.5238
suab	-11.5239
▁YajTshajKoob	-11.5244
pem	-11.5244
▁NTSHE	-11.5244
▁nature	-11.5245
▁among	-11.5248
▁fij	-11.5249
▁lubneej	-11.5251
▁Vibnais	-11.5253
▁txhub	-11.5256
▁jib	-11.5257
▁YAWM	-11.5261
went	-11.5276
▁mai	-11.528
▁ntxhib	-11.5286
▁sharing	-11.5287
▁final	-11.5297
/0	-11.5299
▁though	-11.53
▁Bill	-11.5301
▁Veteran	-11.5302
▁worry	-11.5302
▁NEOHOM	-11.5302
▁sound	-11.5304
▁koomtsih	-11.5305
▁license	-11.5314
▁RE	-11.5317
▁HAVE	-11.5326
▁leeb	-11.5327
▁thais	-11.5329
▁Xang	-11.5329
▁info	-11.5331
=1	-11.5337
thiab	-11.534
▁coobx	-11.5354
▁present	-11.5356
▁tsus	-11.5356
▁NTSHAI	-11.5359
▁Merced	-11.536
▁pai	-11.536
▁Nyaablaaj	-11.5361
▁TSHIAB	-11.5363
▁Xib	-11.5364
▁nrhia	-11.5364
▁RAUG	-11.5364
▁won	-11.5365
▁ntxhuv	-11.5366
▁left	-11.5367
▁yaiv	-11.5368
ncuab	-11.5368
▁small	-11.5371
▁zas	-11.5378
▁lack	-11.5381
▁txojcai	-11.5385
▁dollar	-11.5385
▁key	-11.5395
▁tagx	-11.5397
▁Las	-11.5411
▁involve	-11.5414
▁saam	-11.5416
▁thom	-11.5417
ust	-11.5421
▁txajmuag	-11.5421
▁PhD	-11.5422
▁theory	-11.5425
▁Dluag	-11.5427
▁02	-11.543
▁sw	-11.5434
▁Hmoobvajusa	-11.5436
Sunrise	-11.5444
▁style	-11.5445
▁detail	-11.5447
▁kw	-11.5451
▁pre	-11.5452
▁covlus	-11.5456
▁dia	-11.5459
▁hot	-11.5465
"	-11.5466
siv	-11.5473
▁Green	-11.5478
▁rather	-11.5479
▁Them	-11.5479
▁Nkias	-11.548
▁ncaig	-11.5483
▁Again	-11.5484
cam	-11.5484
▁Hmoobsib	-11.5491
tebchaws	-11.5497
▁complete	-11.5513
▁save	-11.5513
▁GO	-11.5524
...............	-11.553
▁Xauv	-11.5534
▁PLIG	-11.554
▁lagluam	-11.554
▁plua	-11.5546
▁poor	-11.5547
▁simpl	-11.5549
▁LE	-11.555
▁MESKAS	-11.5553
oog	-11.5563
▁qhaub	-11.557
ic	-11.5573
▁Zam	-11.5576
▁star	-11.5576
▁txiab	-11.5576
▁Yah	-11.5594
▁protect	-11.5598
▁LAURA	-11.5598
▁value	-11.5599
▁1987	-11.56
▁PHOM	-11.5601
▁phob	-11.5604
▁Iab	-11.5615
▁students	-11.5617
2003	-11.5619
▁pws	-11.562
▁risk	-11.5621
▁haavzoo	-11.563
▁lives	-11.5641
▁qhi	-11.5648
▁GOOD	-11.5658
▁SWB	-11.5659
▁QUB	-11.5659
▁HLOB	-11.5659
ee	-11.566
▁Tsua	-11.5661
▁States	-11.5662
▁xoob	-11.5671
▁due	-11.5673
▁nplaw	-11.5679
▁site	-11.5679
▁meet	-11.568
▁reasons	-11.5698
▁khom	-11.5706
kaub	-11.571
▁TAIS	-11.5713
▁Ntxwj	-11.572
▁Faiv	-11.5722
▁paiv	-11.573
▁koog	-11.5746
▁kawmntawv	-11.5751
▁!"	-11.5767
▁MAJ	-11.5779
▁TsoobNiam	-11.578
▁RHIAB	-11.578
▁screen	-11.578
▁forget	-11.578
▁TSAV	-11.5781
▁RIGHT	-11.5783
▁phiv	-11.5783
▁TIB	-11.5783
▁summer	-11.5784
▁busy	-11.5785
▁bill	-11.5787
▁qabzib	-11.5788
▁seconds	-11.579
▁major	-11.5795
▁Min	-11.5797
▁relationship	-11.5799
▁bau	-11.5799
▁Tubcajceszo	-11.5805
▁nu	-11.5807
▁Nce	-11.5812
tseeb	-11.5815
Nancy	-11.5817
▁Vag	-11.5823
▁fit	-11.5829
▁hold	-11.5835
▁Naiphom	-11.5841
▁Cobtsib	-11.5841
▁CSY	-11.5843
▁naiphoo	-11.5846
bH	-11.5853
▁ro	-11.5857
ias	-11.5857
▁01	-11.5859
▁yej	-11.5859
▁dhos	-11.586
▁qig	-11.586
▁txu	-11.5862
▁CAV	-11.5864
▁Hahahahaha	-11.5866
▁Hli	-11.5869
et	-11.5874
▁Tis	-11.5876
▁kee	-11.5887
▁base	-11.5891
▁Vas	-11.5902
▁hmantsuab	-11.5904
▁npib	-11.5906
▁THOJ	-11.5906
▁exist	-11.591
▁Tshiab	-11.5916
▁yi	-11.5918
▁npis	-11.5927
▁Meej	-11.5931
▁ra	-11.5932
edit	-11.5933
dua	-11.5937
▁nkawg	-11.5939
▁listen	-11.5943
▁Tsa	-11.5947
dev	-11.595
LqZ	-11.5956
▁promise	-11.596
▁MI	-11.5962
▁33	-11.5965
▁middle	-11.5966
▁california	-11.5966
▁Txawjvamyia	-11.5966
▁NUG	-11.5966
▁hnug	-11.5967
▁Keeb	-11.5967
▁thawv	-11.5971
▁single	-11.5971
▁npa	-11.5975
US	-11.5977
▁nk	-11.5987
▁qhob	-11.5991
▁Right	-11.5993
▁rw	-11.6002
▁$200	-11.6015
▁train	-11.6018
▁hahahahahahaha	-11.602
▁ZOS	-11.6028
index	-11.6028
IG	-11.6029
▁ibleeg	-11.6029
thaibteb	-11.6031
▁hmuv	-11.6031
▁rhais	-11.6032
▁tswg	-11.6043
ug	-11.6046
▁xawb	-11.6046
ally	-11.6049
iego	-11.605
▁BS	-11.6059
hack	-11.6061
▁maab	-11.6068
▁90%	-11.6069
▁market	-11.6071
▁Thong	-11.6081
▁reveal	-11.609
▁Vietnamese	-11.609
▁HAWM	-11.6091
▁forward	-11.6091
▁kooj	-11.6092
▁govern	-11.6095
▁Chai	-11.6095
▁PDR	-11.6096
▁LAUJ	-11.6097
noob	-11.6098
noj	-11.6101
▁loog	-11.6101
▁yauj	-11.6103
▁Nyuam	-11.6104
▁Kuas	-11.611
▁tubsab	-11.6115
▁UNPO	-11.6116
▁Ncu	-11.6122
▁lol	-11.6126
▁ntsees	-11.6127
▁Hav	-11.6131
▁NY	-11.6132
▁Toulia	-11.6135
10	-11.615
▁comments	-11.6152
▁themselve	-11.6154
▁Sommer	-11.6154
▁snow	-11.6155
▁sas	-11.6157
▁kuav	-11.6158
▁vaajtswv	-11.6159
▁xeb	-11.6159
▁cell	-11.6161
uab	-11.6176
▁ntsaig	-11.6178
▁PH	-11.6183
▁thu	-11.6189
▁HAUM	-11.6192
madison	-11.6194
▁koo	-11.6195
▁nrob	-11.6196
▁author	-11.6196
▁safe	-11.6208
%20	-11.621
▁Ku	-11.6211
▁Youa	-11.6212
▁Prime	-11.6217
▁stabbing	-11.6217
▁24/7	-11.6217
▁suggest	-11.6217
▁SI	-11.6218
▁compromise	-11.6219
▁ple	-11.6219
▁trau	-11.622
ij	-11.622
▁pheem	-11.6222
▁Hwm	-11.6222
▁phaw	-11.6229
au	-11.6229
▁ncia	-11.6238
**	-11.6239
com	-11.6243
ajlaj	-11.6251
▁add	-11.6251
▁month	-11.6251
▁press	-11.6253
(	-11.6264
man	-11.627
▁Mi	-11.6272
▁veteran	-11.6273
▁Not	-11.6275
▁Koo	-11.6276
▁spirit	-11.6281
▁HAUJ	-11.6282
▁Army	-11.6282
▁build	-11.6282
▁pressure	-11.6283
▁Dablaug	-11.6283
▁Rock	-11.6283
▁Paab	-11.6284
▁City	-11.6289
▁bo	-11.6292
▁ncab	-11.6293
▁Tseemfw	-11.6293
▁ideas	-11.6299
▁thuj	-11.6304
▁nqia	-11.6314
▁dhla	-11.6317
▁Xya	-11.6324
▁Tswj	-11.6329
▁nee	-11.633
▁Meb	-11.6337
aking	-11.6338
▁Kheev	-11.6342
▁Monday	-11.6346
▁attention	-11.6346
▁gossip	-11.6347
▁tswjfwm	-11.6347
▁NTXHAIS	-11.6347
▁smart	-11.6348
November	-11.6348
▁LOM	-11.6348
▁SYS	-11.635
▁water	-11.6351
▁BA	-11.6352
▁race	-11.6353
▁Koua	-11.6355
▁having	-11.6356
▁dla	-11.6362
▁looking	-11.6362
▁Phiab	-11.6362
▁dawg	-11.6365
▁NTSIB	-11.6367
KOM	-11.637
▁nuam	-11.6371
▁abuse	-11.6371
▁tsaib	-11.6381
▁muskawm	-11.6386
ta	-11.6389
▁didn	-11.6396
txim	-11.6399
▁-"	-11.6404
▁loob	-11.6407
▁Inc	-11.6413
▁Plog	-11.642
▁nraub	-11.6429
▁majorit	-11.643
▁dlai	-11.6435
▁KAB	-11.6436
seC	-11.6439
40	-11.645
qq	-11.6451
Lao	-11.6466
self	-11.647
▁mistake	-11.6474
▁update	-11.6477
▁TSAUG	-11.6477
▁assume	-11.6477
▁NRAM	-11.6477
▁taamsim	-11.6477
▁Think	-11.6477
▁current	-11.6478
▁crime	-11.6478
▁Detroi	-11.6478
▁txiavtxim	-11.6478
▁Every	-11.648
▁Oib	-11.648
▁txeev	-11.6481
▁tuskheej	-11.6483
▁deg	-11.6485
)	-11.6485
Zhen	-11.6489
teg	-11.6491
▁bias	-11.6495
▁problems	-11.6496
▁Phia	-11.6497
▁Political	-11.6497
▁niamyau	-11.6501
▁tsimnyo	-11.6504
▁super	-11.6504
▁girl	-11.6514
eej	-11.6521
25	-11.6524
▁vav	-11.6526
▁trust	-11.6533
▁Wayn	-11.6533
auj	-11.654
▁Saint	-11.6542
▁TXOM	-11.6543
▁David	-11.6543
▁Police	-11.6544
▁TSUAS	-11.6549
▁miles	-11.6554
▁ywv	-11.6556
▁haislus	-11.6558
▁sexual	-11.6558
ying	-11.6564
▁Ntiaj	-11.6567
HAB	-11.657
ance	-11.657
▁brain	-11.6571
vim	-11.6573
▁pobtw	-11.6575
nuav	-11.6583
▁Nus	-11.6585
▁ex	-11.6587
▁tradition	-11.6588
▁10%	-11.659
▁ntxoo	-11.659
mam	-11.66
used	-11.66
rd	-11.6602
▁HAV	-11.6604
oob	-11.6605
▁ZAUG	-11.661
▁SIJ	-11.661
▁KHIB	-11.661
▁NOOB	-11.6611
▁kwvtxhiaj	-11.6615
head	-11.6623
▁ph	-11.6624
▁txhias	-11.6635
▁khoov	-11.6642
▁55	-11.6642
▁define	-11.6649
▁Tua	-11.665
na	-11.6654
%3	-11.6656
▁abtsi	-11.6656
▁MY	-11.6656
▁rev	-11.6661
▁Miv	-11.6663
▁thuv	-11.6664
▁write	-11.667
▁Liajdawb	-11.6675
▁dirty	-11.6676
▁XAIV	-11.6676
▁clarify	-11.6676
▁ntxwj	-11.6678
▁Muastony	-11.6679
▁HLWB	-11.668
ploog	-11.6682
▁Haub	-11.6684
▁Phanya	-11.6684
▁fail	-11.6685
posting	-11.669
▁Sua	-11.6699
▁seen	-11.6702
hum	-11.6703
thaum	-11.6708
▁roos	-11.6713
▁whe	-11.6713
▁khia	-11.6714
▁swm	-11.6726
▁khauv	-11.6726
▁ntoj	-11.673
▁Npau	-11.6731
▁Iha	-11.6738
▁DKJ	-11.6742
▁TXAWM	-11.6742
niajhnub	-11.6742
▁cheb	-11.6744
▁Nhub	-11.6744
written	-11.6745
▁gain	-11.6745
▁cheeb	-11.6745
▁Tswvyim	-11.6745
▁ntaubntawv	-11.6745
▁Viet	-11.6746
nyog	-11.6747
▁LUG	-11.6747
▁meejpem	-11.6748
▁qov	-11.6749
▁deja	-11.6755
▁xyeem	-11.6755
alone	-11.6755
▁nkaub	-11.6762
▁tshos	-11.6771
▁inside	-11.6771
▁less	-11.6782
HOV	-11.6788
▁bua	-11.6792
▁propose	-11.6797
uas	-11.6799
▁yaug	-11.6799
▁Christ	-11.6804
▁Chief	-11.681
▁connection	-11.681
technology	-11.6811
▁authority	-11.6811
tij	-11.6813
▁trip	-11.6813
▁dlee	-11.6816
▁txoob	-11.6819
▁cheej	-11.6824
▁auv	-11.6831
daws	-11.6833
▁et	-11.6839
▁LT	-11.684
▁discussion	-11.6842
▁hero	-11.6846
ted	-11.6849
lo	-11.6851
▁dluag	-11.6857
▁$2	-11.6857
▁tibsis	-11.6867
▁advance	-11.6877
▁Pubthawj	-11.6878
▁xais	-11.6878
▁blooj	-11.6879
▁lawbdab	-11.688
▁1977	-11.6882
▁pl	-11.6885
▁LAO	-11.6886
▁Khai	-11.6886
mavtais	-11.6887
▁Noi	-11.6889
▁honor	-11.6891
kaum	-11.6896
▁99	-11.6909
▁civ	-11.6924
▁break	-11.6924
1978	-11.6924
fwm	-11.6926
tuaj	-11.6926
IB	-11.6929
▁tsoov	-11.6939
▁LosTsuas	-11.6946
▁study	-11.6947
▁York	-11.6947
▁tshiaj	-11.6949
▁enforce	-11.695
eck	-11.695
▁!,	-11.6951
▁xw	-11.6952
asthiv	-11.6952
▁Hiv	-11.6956
▁TIME	-11.6957
USA	-11.6958
ncauj	-11.6963
▁Nchaiv	-11.6969
▁nphoo	-11.6976
ummer	-11.6976
▁tsiag	-11.6976
▁Even	-11.6981
lwj	-11.6982
▁Xibfw	-11.6984
▁total	-11.6985
re	-11.6989
▁card	-11.699
▁kig	-11.7004
▁compare	-11.7006
▁!!!!!	-11.7007
▁Ma	-11.7013
▁KAVLIAM	-11.7015
▁HND	-11.7015
▁1990	-11.7018
▁Cuab	-11.7024
▁hluasnkauj	-11.703
ONG	-11.703
browse	-11.7033
Lue	-11.7034
14	-11.7037
▁Social	-11.7037
▁vajmoob	-11.7037
▁kavtsi	-11.7049
▁gay	-11.7051
lees	-11.7058
▁Some	-11.7075
▁WH	-11.7082
▁Embass	-11.7084
▁QEEJ	-11.7084
▁HLUAS	-11.7088
▁Kum	-11.7089
▁writing	-11.709
▁MOV	-11.709
ism	-11.7096
tag	-11.7101
▁nquam	-11.7103
koobhmoov	-11.7119
▁intellectual	-11.712
▁Noogqejqaw	-11.7122
▁wants	-11.7123
dr	-11.7126
▁mother	-11.713
tseg	-11.7141
vong	-11.7142
▁preach	-11.7143
▁demand	-11.7151
nyiab	-11.7153
▁Brav	-11.7155
gOC	-11.7155
cause	-11.7155
▁release	-11.7155
▁congress	-11.7156
▁customer	-11.7157
▁npug	-11.7158
▁txheebze	-11.7159
▁yong	-11.7162
▁txoov	-11.7164
▁npuag	-11.7169
▁picture	-11.7169
▁phuaj	-11.7172
sharing	-11.7172
▁nca	-11.7172
▁laum	-11.7173
ities	-11.7177
▁recruit	-11.7184
awb	-11.7202
▁images	-11.721
▁Histor	-11.7214
▁hlav	-11.7222
▁wedding	-11.7225
▁definition	-11.7226
▁religious	-11.7226
▁PIV	-11.7227
▁along	-11.7228
▁npub	-11.7232
tiag	-11.7235
▁date	-11.7239
▁OUR	-11.724
▁Ameka	-11.7241
▁light	-11.7246
▁Phee	-11.7248
▁deserve	-11.7264
▁ntxaa	-11.7265
ntej	-11.7272
▁nyho	-11.7275
▁khauj	-11.7279
..	-11.7288
▁physical	-11.7293
vaj	-11.7295
▁taubhaus	-11.7296
▁representative	-11.7296
▁finger	-11.7296
▁illegal	-11.7296
▁Date	-11.7297
▁price	-11.7298
▁propagand	-11.7298
▁adopt	-11.7298
▁CAWM	-11.7299
ntsuag	-11.7299
▁shall	-11.7301
▁nthab	-11.7304
dkj	-11.7305
▁dlav	-11.7307
▁Fuabtais	-11.7307
▁Phoos	-11.7308
▁Va	-11.731
NO	-11.7318
▁celebrate	-11.7318
▁plia	-11.7322
▁lawyers	-11.7326
new	-11.7331
▁expert	-11.7333
▁suam	-11.7339
der	-11.7344
xyoo	-11.7351
▁ball	-11.7365
▁hleb	-11.7367
▁Chuhu	-11.7367
▁Listhoj	-11.7368
▁Brother	-11.7368
▁VajTswv	-11.7368
▁thabham	-11.7368
▁raise	-11.7369
▁kham	-11.7378
yesxus	-11.7379
▁Pub	-11.7382
▁ceslawv	-11.7393
mob	-11.7402
▁ban	-11.7412
cy	-11.7413
▁PLOJ	-11.7431
ability	-11.7438
▁strategy	-11.7439
▁Suritha	-11.7439
▁exactly	-11.744
▁TEEB	-11.744
▁pilot	-11.744
▁listhoj	-11.7443
▁LUAJ	-11.7443
▁LEEG	-11.7444
▁allow	-11.7445
▁penny	-11.7446
▁HUMAN	-11.7446
▁casino	-11.745
▁paws	-11.745
▁hate	-11.745
▁xas	-11.7456
orry	-11.7458
▁vaub	-11.7461
▁hib	-11.7462
pob	-11.7465
▁toward	-11.7465
▁animal	-11.7473
▁38	-11.7475
▁tee	-11.7478
▁Tsu	-11.7479
▁Bro	-11.7495
▁Cav	-11.7498
tion	-11.75
▁nri	-11.7501
▁mee	-11.7512
▁innocent	-11.7512
▁worth	-11.7512
▁Anyway	-11.7512
▁nploj	-11.7515
▁Mo	-11.7515
▁yiag	-11.7516
▁YES	-11.7519
▁cug	-11.752
▁Nev	-11.752
▁aiv	-11.7527
▁file	-11.7533
IES	-11.7535
▁took	-11.7537
▁xh	-11.7545
▁low	-11.7546
▁Xyu	-11.7549
▁qaus	-11.7551
▁cut	-11.7556
▁Seng	-11.7565
▁npauv	-11.7569
reC	-11.757
▁vib	-11.7571
dlawg	-11.7572
▁media	-11.7575
▁...?	-11.7577
▁Cambodia	-11.7581
▁hands	-11.7583
▁Sob	-11.7583
▁treat	-11.7585
▁investigate	-11.7586
▁Pej	-11.7586
▁soc	-11.7586
▁station	-11.7587
▁ZEB	-11.7589
RTG	-11.7591
▁regardles	-11.7592
▁Chaw	-11.7598
NYUAM	-11.7605
▁Bis	-11.7605
TWG	-11.7608
▁Qho	-11.7622
▁protest	-11.7627
▁zau	-11.7628
uag	-11.7642
▁ntsav	-11.7643
▁table	-11.7645
▁Phabmab	-11.7658
▁sawdaw	-11.7659
▁QOS	-11.766
▁Minneapolis	-11.766
▁TOOJ	-11.766
▁TSUJ	-11.766
▁kotaw	-11.7661
▁spelling	-11.7661
▁Cua	-11.7663
▁99%	-11.7668
▁txhi	-11.767
▁Note	-11.767
▁ethnic	-11.7684
plogliab	-11.7684
▁tsheeb	-11.7688
▁ncha	-11.769
▁poo	-11.7702
▁nqee	-11.7711
▁ntsag	-11.7721
▁peej	-11.7724
▁65	-11.7729
ntxwv	-11.773
▁hl	-11.7731
▁Oshkosh	-11.7732
▁mouth	-11.7733
▁Souphanouvong	-11.7733
▁TSAWG	-11.7734
▁myself	-11.7734
▁choose	-11.7736
▁room	-11.7747
▁thiav	-11.7748
wise	-11.7754
▁MEV	-11.7755
▁pham	-11.7757
▁caam	-11.7767
▁rank	-11.7769
mej	-11.778
▁PW	-11.7795
▁wisconsin	-11.7807
▁JUST	-11.7808
▁block	-11.7808
▁carry	-11.7808
▁mentality	-11.7809
▁KHIAV	-11.7811
▁Keep	-11.7818
▁eat	-11.7823
▁txee	-11.7823
▁Dav	-11.7829
▁?...	-11.7832
28	-11.7835
▁NP	-11.7838
▁meant	-11.7838
LX	-11.784
▁Phong	-11.7844
▁pheeb	-11.7845
ovtshua	-11.7846
▁tshom	-11.7846
55	-11.7855
hauv	-11.7856
▁plhaw	-11.7859
▁thav	-11.7862
▁Ameska	-11.787
▁waste	-11.7872
▁Are	-11.7873
▁town	-11.7875
▁Leng	-11.7878
▁yee	-11.7878
ieC	-11.788
tais	-11.788
▁advisor	-11.7882
▁conclusion	-11.7882
▁KHEEJ	-11.7882
▁attitude	-11.7883
▁DAV	-11.7884
▁tshov	-11.7884
▁CEV	-11.7885
▁Time	-11.7886
▁touch	-11.7887
▁HAUS	-11.7889
▁1970	-11.789
▁welcome	-11.789
▁laab	-11.7891
▁txhaub	-11.7898
▁39	-11.7899
▁deep	-11.7899
▁Yesu	-11.79
▁mias	-11.7909
nyiav	-11.7912
▁SIS	-11.7914
▁rape	-11.7916
▁working	-11.7916
tshiab	-11.7918
▁Ej	-11.7922
hau	-11.7931
▁nrub	-11.7933
▁AG	-11.7933
▁nation	-11.7933
▁Ah	-11.7943
▁Dlha	-11.7953
pao	-11.7954
paj	-11.7955
sitebuilder	-11.7958
▁Association	-11.7958
▁Center	-11.7958
▁status	-11.7958
▁TXAWV	-11.7958
▁txhooj	-11.7959
▁disagree	-11.796
LAWV	-11.796
▁Master	-11.796
▁txeej	-11.7964
▁county	-11.7965
kwvtij	-11.7966
▁huh	-11.7966
▁Twg	-11.7969
▁Doua	-11.7971
▁Ciaj	-11.7975
▁federa	-11.7975
▁register	-11.7981
▁almos	-11.7983
la	-11.7983
▁employee	-11.7986
muab	-11.7989
▁corruption	-11.7998
▁rumor	-11.7999
▁lso	-11.8
▁72	-11.8003
▁va	-11.8008
▁declare	-11.8017
▁Ge	-11.8019
▁logic	-11.8021
▁events	-11.8021
tej	-11.8022
▁rules	-11.8022
PC	-11.8027
▁further	-11.8034
▁TSHUM	-11.8034
▁Vuag	-11.8035
▁discuss	-11.8035
▁!....	-11.8036
▁ZAM	-11.8036
▁Rooj	-11.8036
▁click	-11.8037
▁2002	-11.8038
▁Lav	-11.8038
▁minnesota	-11.8039
Txivneej	-11.8039
▁SCHler	-11.8053
▁paa	-11.8053
▁ye	-11.8054
▁yogkuv	-11.8068
tseem	-11.8071
▁id	-11.8073
▁ntaws	-11.8074
▁Nhia	-11.8075
123	-11.8083
▁150	-11.8084
▁Quav	-11.8085
▁hell	-11.8088
▁drive	-11.8091
usp	-11.8092
▁witness	-11.8094
▁Phak	-11.8097
ei	-11.8103
▁qabteb	-11.8104
▁Free	-11.8106
▁nrw	-11.8107
▁dee	-11.8107
▁insult	-11.8111
▁qualified	-11.8111
▁Appleton	-11.8111
▁rock	-11.8111
▁April	-11.8111
ctober	-11.8111
▁honest	-11.8111
▁request	-11.8112
▁Gary	-11.8112
▁paper	-11.8113
▁vajhuam	-11.8113
ve	-11.812
▁Mua	-11.8126
▁ways	-11.8129
ai	-11.8135
▁..............	-11.8135
nyiaj	-11.8137
▁....!	-11.8137
▁poobsiab	-11.8141
▁gab	-11.8145
txeeb	-11.8156
nk	-11.8163
IA	-11.8169
▁80%	-11.8173
▁sometime	-11.8173
▁$50	-11.8174
▁bro	-11.8175
▁fo	-11.8181
▁owner	-11.8185
▁Maab	-11.8187
▁passport	-11.8189
▁income	-11.8189
▁guilt	-11.819
▁.'	-11.819
uring	-11.8191
dej	-11.8192
▁jesus	-11.8193
▁PIB	-11.8195
▁sibcav	-11.8195
▁type	-11.8198
▁phoom	-11.8199
▁Pe	-11.8201
▁YAU	-11.8201
▁Phauj	-11.8202
▁LP	-11.8208
▁LoojCee	-11.8213
▁tiagx	-11.8215
KUV	-11.8217
▁activit	-11.8218
▁music	-11.8221
▁proposal	-11.8224
rn	-11.8225
▁roojteb	-11.8225
▁?..	-11.8229
▁known	-11.823
===============	-11.8234
▁constitution	-11.8257
▁baby	-11.8258
AG	-11.8259
Michael	-11.8259
▁cheat	-11.8262
▁Oct	-11.8267
▁Lajntxiag	-11.8267
▁local	-11.8267
lOC	-11.8268
▁ZAJ	-11.8268
▁hi	-11.827
▁Txais	-11.8271
▁Ntev	-11.8272
▁German	-11.8274
ndigenous	-11.8286
▁mig	-11.8288
low	-11.8288
▁tsej	-11.829
▁Khang	-11.8293
son	-11.8297
▁proper	-11.83
drive	-11.8303
▁xuvtooj	-11.8303
▁YUAM	-11.8312
ma	-11.8315
▁VN	-11.832
2014	-11.8322
▁space	-11.8325
ig	-11.8327
▁doog	-11.8331
TED	-11.8336
▁found	-11.8338
ring	-11.8341
▁sibtua	-11.8345
▁Doctors	-11.8345
▁impact	-11.8345
▁Committee	-11.8345
▁countries	-11.8346
▁KNOW	-11.8347
▁Txaij	-11.8347
▁Ger	-11.8349
▁responsibilit	-11.8356
▁reading	-11.8359
pim	-11.836
▁nplos	-11.8361
▁400	-11.8361
▁LEE	-11.8363
▁Muam	-11.8373
tog	-11.839
▁Da	-11.84
▁appreciate	-11.8401
▁blind	-11.8403
iaj	-11.8404
▁vees	-11.8408
▁nya	-11.8411
▁ANY	-11.8413
she	-11.8418
▁express	-11.8424
▁Txug	-11.8425
▁defense	-11.8425
▁...!	-11.8425
▁model	-11.8426
▁kawb	-11.8427
▁:)	-11.8427
▁Vej	-11.8427
nt	-11.8428
▁txos	-11.8444
qus	-11.8445
▁?,	-11.8446
▁Rua	-11.845
▁traditional	-11.8451
nam	-11.8457
▁gov	-11.8458
▁Si	-11.846
▁Tx	-11.846
▁Vajmoob	-11.847
▁Boun	-11.8471
▁partner	-11.8482
▁lws	-11.8483
▁txaug	-11.8484
▁xyaws	-11.8486
puj	-11.8495
nrog	-11.8495
▁colonel	-11.8505
▁mebthaub	-11.8506
▁minyua	-11.8507
▁?)	-11.8508
▁AW	-11.8508
▁pepsi	-11.8508
▁Latin	-11.8508
▁VANG	-11.8511
sij	-11.8513
▁skills	-11.8521
riav	-11.8529
▁tsujsua	-11.853
Mong	-11.853
▁Ko	-11.8538
▁vos	-11.8541
▁noun	-11.8548
ha	-11.8558
▁travel	-11.8559
▁Xaab	-11.8563
yaam	-11.857
MEEM	-11.8572
▁advise	-11.8581
▁criminal	-11.8585
Quincy	-11.8586
▁ntlaj	-11.8587
▁YANG	-11.8587
▁minority	-11.8587
▁mivnyuag	-11.859
▁TSAB	-11.8591
▁ncajncees	-11.8591
▁NQA	-11.8591
▁laav	-11.8592
▁MAN	-11.8593
▁SCL	-11.8596
▁yeev	-11.8598
heev	-11.8602
▁sibceg	-11.8602
▁txhaaj	-11.8605
▁04	-11.8608
▁Tuab	-11.8612
▁Blia	-11.8612
wmzeej	-11.8618
▁character	-11.862
▁Deja	-11.8621
mxeeb	-11.8621
AIM	-11.8633
▁sources	-11.8642
▁Thau	-11.8642
▁mim	-11.8654
▁pobtxha	-11.8656
▁ntoob	-11.8659
▁Ntxhoo	-11.866
▁fais	-11.8661
▁invest	-11.8663
▁jump	-11.8667
XejThim	-11.8667
▁pegsuab	-11.8668
▁hamtsi	-11.8668
ze	-11.8669
▁tsuis	-11.8669
▁DAJ	-11.867
▁staff	-11.867
▁fool	-11.8673
▁training	-11.8673
▁xwmtxhee	-11.8686
▁Thia	-11.8692
▁mooj	-11.8698
▁obtug	-11.87
▁Wa	-11.8706
91	-11.8708
mtxom	-11.8711
▁girls	-11.8712
ONE	-11.8723
▁song	-11.8732
ts	-11.8735
▁$500	-11.8737
▁47	-11.8747
▁Dan	-11.8749
▁nimno	-11.8749
▁respond	-11.8749
▁Lawyer	-11.8749
▁RAWS	-11.8749
▁Txaus	-11.875
▁thojnam	-11.875
▁Tsaab	-11.8751
▁NKAWV	-11.8752
▁ID	-11.8754
▁txhaw	-11.8756
▁ntxhab	-11.8758
▁basic	-11.876
▁dejdawb	-11.8766
▁HAU	-11.877
▁np	-11.8772
▁Boua	-11.8776
▁ONL	-11.8776
▁air	-11.878
▁800	-11.8781
▁RUA	-11.8781
co	-11.8785
ice	-11.8785
▁Xyeej	-11.8788
▁haab	-11.879
taw	-11.879
11	-11.8797
kwv	-11.8797
▁HAS	-11.8817
qhuab	-11.8829
▁NRHIAV	-11.8831
▁ROOJ	-11.8831
LuI	-11.8831
▁khavthee	-11.8833
▁MENYUAM	-11.8833
▁NYOG	-11.8834
▁dongdo	-11.8834
▁NEEB	-11.8834
▁phabej	-11.8834
▁Jews	-11.8836
▁1991	-11.8836
▁hnyia	-11.8837
▁front	-11.8843
▁1985	-11.8843
▁teng	-11.8844
nraug	-11.8845
▁prett	-11.8845
▁aus	-11.8845
las	-11.8848
▁specific	-11.8856
▁TZ	-11.8864
▁PRO	-11.8866
▁sibtw	-11.8873
▁NTSES	-11.8875
▁coming	-11.888
▁khis	-11.8884
▁bus	-11.8893
▁xaum	-11.8893
▁txhai	-11.8907
▁foo	-11.8909
▁Txwj	-11.8915
▁constructive	-11.8915
▁Amelivka	-11.8915
▁quarter	-11.8915
▁forgive	-11.8915
▁Plig	-11.8917
▁PHEEJ	-11.8918
▁nujnqi	-11.8918
▁TWM	-11.8918
▁YEES	-11.8919
▁ziab	-11.8919
▁Xoom	-11.892
▁Pany	-11.8929
▁DON	-11.893
▁divorce	-11.8939
▁donate	-11.894
khawv	-11.8941
ah	-11.8954
time	-11.8955
aW	-11.8958
▁ssi	-11.8962
▁sponsor	-11.8968
▁Khouan	-11.8969
photos	-11.8974
▁tuabsi	-11.8978
Liab	-11.898
▁hmloo	-11.8984
▁nawv	-11.899
▁Pheng	-11.8995
▁destroy	-11.8999
▁three	-11.8999
▁truck	-11.8999
▁ritual	-11.8999
▁TXHAWJ	-11.8999
▁NTXUB	-11.9
▁LOD	-11.9001
▁TUAV	-11.9002
▁911	-11.9002
▁chinese	-11.9002
▁Bay	-11.9003
▁152	-11.9006
▁lasvoos	-11.9006
▁passed	-11.9006
▁nruam	-11.901
▁cej	-11.9012
▁Chaleun	-11.902
▁thread	-11.9022
▁Cim	-11.9025
▁Hmob	-11.9025
▁Go	-11.9031
▁ysu	-11.9031
▁npluas	-11.9033
haiv	-11.9034
at	-11.9039
▁sibkoom	-11.9042
▁Tsoomfw	-11.9048
▁Pro	-11.9064
cia	-11.9064
▁meska	-11.9068
▁Shan	-11.9075
▁Hang	-11.9075
more	-11.9081
▁foundation	-11.9084
▁Very	-11.9084
▁Nyuag	-11.9084
▁Fong	-11.9085
▁MUAS	-11.9086
▁tshaab	-11.9087
▁Zaaj	-11.9089
▁Npaj	-11.909
▁bother	-11.909
▁phaib	-11.909
▁quite	-11.9092
qhia	-11.9092
▁txhov	-11.9099
▁YY	-11.91
aub	-11.91
▁pleb	-11.9101
▁nyaaj	-11.9107
▁saws	-11.9109
▁surprise	-11.911
▁txhaus	-11.9111
txuj	-11.9112
▁suaj	-11.9117
▁dlaa	-11.9136
▁India	-11.9143
tuam	-11.9146
▁yai	-11.915
xab	-11.9157
▁verb	-11.9157
xaiv	-11.916
▁NAI	-11.9167
▁VAJTSWV	-11.9169
▁soldier	-11.9169
▁boss	-11.9169
▁TXHAUM	-11.917
▁PLAB	-11.917
▁TAWG	-11.917
ible	-11.9171
▁mlom	-11.9171
▁txaav	-11.9174
▁nyuv	-11.9176
LUB	-11.9178
▁Joe	-11.9184
▁healthy	-11.9185
▁nyos	-11.9188
▁Kou	-11.9188
▁Phub	-11.9189
thaub	-11.9202
phem	-11.9204
▁PUAV	-11.9205
▁qaabhau	-11.9207
▁ntee	-11.9208
▁achieve	-11.9212
ie	-11.9215
▁%	-11.9215
▁mub	-11.922
lhoov	-11.9221
▁Txwv	-11.9221
▁Iraq	-11.9221
▁nyoob	-11.9241
▁contribute	-11.9245
▁works	-11.9245
ubject	-11.9246
un	-11.9249
PAUL	-11.925
nyuj	-11.925
▁Organization	-11.9255
▁effort	-11.9255
▁integrity	-11.9255
▁stress	-11.9256
▁DAUM	-11.9257
▁Laotian	-11.9257
AL	-11.9257
▁CAIJ	-11.9258
▁Sisavang	-11.926
kab	-11.9264
enver	-11.9264
▁TOO	-11.9265
▁tseej	-11.9267
▁signed	-11.9268
▁sibntsib	-11.9272
74	-11.9275
▁hlaub	-11.9279
▁Aw	-11.9286
KPiA	-11.929
▁Chiang	-11.9294
▁hee	-11.9297
▁Noom	-11.9299
▁gone	-11.9301
▁txivneeb	-11.9301
▁koov	-11.9304
▁send	-11.9304
▁Meka	-11.9308
▁Senator	-11.9308
▁haha	-11.9311
▁Politic	-11.9314
▁eh	-11.9315
▁nraa	-11.9318
▁Nao	-11.9326
▁hour	-11.933
▁lai	-11.9337
▁Africa	-11.9339
LuJ	-11.9341
▁fuck	-11.9341
▁NYIAS	-11.9343
▁TAWV	-11.9343
▁phluav	-11.9345
▁PAO	-11.9345
▁yawmyij	-11.9345
▁1995	-11.9346
▁ANTI	-11.9346
▁42	-11.9346
▁plho	-11.9348
▁ethical	-11.935
▁Yuam	-11.935
▁china	-11.9351
nplog	-11.9352
▁PUV	-11.9353
out	-11.9355
▁XWM	-11.9357
▁Genev	-11.9358
abliam	-11.9371
▁NKAUJST	-11.9382
▁yawmtxiv	-11.9383
▁SCHer	-11.9385
▁XI	-11.939
▁xee	-11.9395
▁voo	-11.9404
▁flick	-11.9424
▁Nqua	-11.9424
▁Kha	-11.9424
▁je	-11.9428
▁Japan	-11.943
▁weak	-11.9431
▁RIS	-11.9431
▁referred	-11.9433
▁east	-11.9435
▁pick	-11.9435
▁green	-11.9436
▁nyiajtxiag	-11.9438
▁ntaaj	-11.9439
▁Black	-11.9448
▁maslawv	-11.945
▁voice	-11.9451
liag	-11.9459
ais	-11.9461
▁criticize	-11.9464
▁Or	-11.9467
▁CHAW	-11.9468
tsi	-11.9468
▁cawmsee	-11.9474
aim	-11.9478
▁metub	-11.9483
▁Lajlee	-11.9484
▁Chiv	-11.9489
▁Ministr	-11.9493
▁attend	-11.9517
▁web	-11.9518
▁gave	-11.9519
▁campaign	-11.9519
▁behavior	-11.9521
▁THUAM	-11.9523
Lqx	-11.9524
▁SAUM	-11.9528
▁chair	-11.9528
ko	-11.9528
▁AB	-11.953
▁05	-11.953
muam	-11.9533
▁):	-11.9534
hnub	-11.9535
▁des	-11.9536
▁ntshaa	-11.9538
▁half	-11.954
▁nroov	-11.9541
▁visa	-11.9556
▁Xoua	-11.9557
▁victor	-11.9559
▁xi	-11.9574
▁violate	-11.9579
▁condition	-11.9593
▁posting	-11.9599
kuamuag	-11.96
▁npaus	-11.9603
▁nkua	-11.9603
▁.....!	-11.9606
▁double	-11.9608
LuA	-11.9608
▁NYUAJ	-11.9608
▁Nongkhai	-11.9608
▁NyabLaj	-11.9609
▁chimsiab	-11.9609
▁stage	-11.961
▁hospital	-11.961
▁Nouka	-11.9611
▁box	-11.9612
▁arrest	-11.9614
▁vietnam	-11.9615
he	-11.9615
▁minister	-11.9616
▁code	-11.9617
▁Cais	-11.962
ist	-11.9622
▁km	-11.9623
ntawm	-11.9627
▁NOV	-11.9631
▁tsub	-11.9637
▁$3	-11.9637
▁xyo	-11.9639
▁phd	-11.9649
amp	-11.9649
▁ceskuv	-11.9668
▁hit	-11.9676
▁count	-11.969
▁murder	-11.9695
▁Operation	-11.9698
▁resign	-11.9698
▁remind	-11.9698
▁nick	-11.9698
▁LIKE	-11.9698
▁incident	-11.9698
▁phwj	-11.9699
▁alive	-11.9699
▁target	-11.9699
▁LAV	-11.97
▁CUAB	-11.9702
▁ol	-11.9705
▁Brando	-11.9705
▁chi	-11.9708
roob	-11.9709
▁involved	-11.9714
▁Hahahahahaha	-11.9725
▁ntxua	-11.973
▁tuv	-11.9734
▁mivntsiv	-11.9736
▁cash	-11.9743
▁MTT	-11.9746
hluas	-11.9748
▁hloo	-11.9749
ous	-11.9752
▁Phone	-11.9752
▁ones	-11.9759
AS	-11.9762
▁ugl	-11.9763
▁SD	-11.9771
▁100%.	-11.9775
ra	-11.9779
▁stick	-11.9782
▁Sept	-11.9786
▁hloob	-11.9786
▁faith	-11.9787
▁YESUS	-11.9789
▁dogdig	-11.9789
▁White	-11.9789
▁ROOB	-11.979
▁Pajtsab	-11.979
▁Democrac	-11.9791
▁Taj	-11.9792
▁Txam	-11.9793
▁necessar	-11.9793
▁CAUM	-11.9793
▁Taumd	-11.9796
▁cuv	-11.9798
▁improve	-11.9804
stpaul	-11.9806
▁thij	-11.9808
▁xai	-11.9813
▁Sij	-11.9819
▁09	-11.9825
▁intellectuals	-11.9834
▁Uab	-11.9835
▁pobntse	-11.9836
▁conflict	-11.9844
caug	-11.9848
▁hlauv	-11.9851
TY	-11.9862
cheng	-11.9863
▁Wang	-11.9865
shoua	-11.9866
▁Love	-11.9872
▁Hmoo	-11.9872
▁Lisfoo	-11.9875
▁THAI	-11.9879
▁Religion	-11.988
▁influence	-11.9881
▁flien	-11.9881
▁SOME	-11.9882
▁favor	-11.9882
▁fbi	-11.9883
▁CAIV	-11.9884
▁ROJ	-11.9886
▁funding	-11.9889
▁Liag	-11.9899
▁600	-11.9901
▁dy	-11.9902
▁ros	-11.9902
IS	-11.9902
▁active	-11.9902
▁Kim	-11.9911
▁response	-11.9911
▁TSHUA	-11.9912
▁xwsli	-11.9914
uang	-11.9914
SE	-11.9916
▁khaj	-11.9917
▁KOOB	-11.9919
dlub	-11.9925
el	-11.9928
▁txai	-11.9931
True	-11.9932
▁hahahhaha	-11.9935
▁cees	-11.9936
fab	-11.9939
eem	-11.994
▁ntig	-11.9941
▁grow	-11.9942
▁His	-11.9944
▁khao	-11.9953
▁npauj	-11.9968
▁SUN	-11.997
▁cu	-11.9973
▁VWJ	-11.9973
▁Paris	-11.9973
▁NIAJ	-11.9973
▁monitor	-11.9974
▁NEW	-11.9974
▁nyhuv	-11.9974
▁Last	-11.9976
▁tawj	-11.9978
▁yeebceeb	-11.9979
▁hm	-11.9979
▁TUM	-11.998
▁Nug	-11.998
▁xiav	-11.9983
▁txuv	-11.9983
▁print	-11.9985
▁tubki	-11.9988
▁PHOOJ	-11.999
▁field	-11.9994
▁xom	-12.0005
▁coos	-12.001
▁Qhua	-12.001
ting	-12.0014
nthav	-12.0017
tsim	-12.002
▁AT	-12.0021
▁bis	-12.0026
▁phoos	-12.0032
▁thornsp	-12.0033
▁dabqhua	-12.0038
ter	-12.0043
▁Haus	-12.0046
▁Governor	-12.0066
▁Clinton	-12.0067
▁GENERAL	-12.0067
▁energy	-12.0067
▁Saykao	-12.0067
▁Dear	-12.0067
▁Geu	-12.0067
▁TIAV	-12.0068
▁zamtxim	-12.0069
▁fuas	-12.0069
90	-12.007
▁nkaujnyiag	-12.0071
▁profile	-12.0076
▁xyw	-12.0082
▁caim	-12.0084
pa	-12.0085
teC	-12.0088
▁tree	-12.0088
:	-12.0088
anuary	-12.0089
▁44	-12.009
ywm	-12.0097
▁tape	-12.0097
▁AWS	-12.0098
▁Neohome	-12.0103
▁tshaum	-12.0103
▁NOW	-12.0115
▁affect	-12.012
▁Nyav	-12.0121
▁Yai	-12.0132
▁HOS	-12.0132
▁xaaj	-12.0143
▁flexib	-12.0147
▁1%	-12.0149
▁Qab	-12.0152
▁UW	-12.0153
▁...............	-12.016
▁Public	-12.0161
▁circle	-12.0161
▁Tuesday	-12.0161
▁scholarship	-12.0161
▁Houei	-12.0161
▁figure	-12.0163
▁LUAM	-12.0165
▁ground	-12.0165
▁YOM	-12.0165
▁ntsaa	-12.0165
▁era	-12.0166
▁nabkaj	-12.0167
▁HUAB	-12.0169
▁moment	-12.017
▁ntxee	-12.0173
▁YIM	-12.0175
▁reach	-12.0175
▁daug	-12.0178
▁LWJ	-12.0178
ees	-12.0178
AV	-12.0179
▁bor	-12.0195
ew	-12.0198
▁phwvyaw	-12.0204
▁cij	-12.021
▁qu	-12.0213
book	-12.0216
▁rai	-12.0219
▁Phuv	-12.022
▁critic	-12.0225
▁DIG	-12.0235
▁LA	-12.0236
▁mask	-12.0238
▁HIS	-12.0238
▁beginn	-12.024
thiaj	-12.0241
seem	-12.0245
▁kug	-12.0247
▁naib	-12.0248
Party	-12.0248
▁Hluas	-12.0249
▁chia	-12.0255
poj	-12.0256
▁legitimate	-12.0256
▁Internet	-12.0257
▁NCAUJ	-12.0257
▁Tsawg	-12.0258
▁NUJ	-12.026
▁qaws	-12.026
▁anyway	-12.0261
▁prepare	-12.0264
▁Day	-12.0266
▁Thuam	-12.0266
▁sivyig	-12.0269
▁phej	-12.0274
▁nquab	-12.0277
▁nyov	-12.028
▁niamtij	-12.0281
▁XK	-12.0282
▁kavxwm	-12.0284
si	-12.0284
▁txaws	-12.0284
▁dhua	-12.0291
▁vias	-12.0294
has	-12.0299
opposite	-12.0306
▁Hua	-12.0309
▁engineer	-12.0313
▁nru	-12.0319
▁phib	-12.032
coj	-12.0321
rau	-12.0321
peC	-12.0322
hoom	-12.0325
▁kid	-12.0335
▁txus	-12.0343
txawm	-12.0346
▁tn	-12.0349
▁ameka	-12.0349
▁responsible	-12.0352
▁After	-12.0352
▁folk	-12.0352
▁prevent	-12.0352
▁TUBNTSUAGRUAM	-12.0352
▁happiness	-12.0352
▁bottom	-12.0353
▁piece	-12.0354
▁apartment	-12.0355
▁hnoob	-12.0357
▁haslug	-12.0359
▁Christma	-12.0367
▁terms	-12.0381
▁Nqe	-12.0385
▁dle	-12.0393
▁bit	-12.0393
ION	-12.0393
yees	-12.0396
player	-12.0397
kevcai	-12.0402
taws	-12.0408
ruce	-12.0412
ial	-12.0416
oogle	-12.0417
▁beyon	-12.0424
▁zai	-12.0428
▁Twm	-12.043
▁car	-12.0432
▁chat	-12.0432
▁Luam	-12.0435
▁tasli	-12.0442
photo	-12.0447
▁aud	-12.0448
▁associate	-12.0449
embedded	-12.0449
▁remain	-12.0449
▁pi	-12.0449
▁senator	-12.0449
▁NKAG	-12.045
▁okay	-12.045
▁Laaj	-12.0451
▁justice	-12.0451
▁qualification	-12.0451
▁GED	-12.0451
▁MoobSib	-12.0451
▁DVD	-12.0452
▁NGO	-12.0452
▁NTSUAB	-12.0452
▁Npoos	-12.0455
▁Hwb	-12.0455
▁zawv	-12.0455
▁stories	-12.0456
▁homphaj	-12.0456
▁Tsiaj	-12.0464
ence	-12.047
▁Zaubntsu	-12.0477
▁FRO	-12.0486
ually	-12.0498
rchan	-12.0501
lim	-12.0501
▁Veesca	-12.0502
▁changed	-12.0507
▁maas	-12.0525
hahahahahahahaha	-12.0536
▁advocate	-12.0537
hiaj	-12.0543
▁spiritual	-12.0546
▁MPLS	-12.0547
▁Sheboygan	-12.0547
▁communities	-12.0547
▁proud	-12.0548
▁PUAG	-12.0548
▁SUAB	-12.055
▁nces	-12.0552
▁lady	-12.0552
▁kkk	-12.0555
▁probabl	-12.0559
▁RAB	-12.056
▁quality	-12.0562
▁photo	-12.0564
▁havzoo	-12.0569
▁gauj	-12.0569
▁Lha	-12.0569
▁kj	-12.0571
▁niamtais	-12.0572
▁ZOOV	-12.0575
▁LAW	-12.0579
▁survive	-12.0588
▁txwg	-12.0588
tshoj	-12.061
▁LOOJ	-12.0613
▁nkaj	-12.0616
▁1/10	-12.0621
▁dlo	-12.0622
▁tshawbfaw	-12.0624
ci	-12.0634
nrauj	-12.0639
▁Al	-12.064
▁Sep	-12.0644
▁percent	-12.0646
▁Rhwbliag	-12.0646
▁freezer	-12.0647
▁TSHUAV	-12.0647
▁membership	-12.0647
▁TXEEB	-12.0647
▁NQQ	-12.0647
▁Vaajncuab	-12.0647
▁Air	-12.0648
▁Reply	-12.0648
▁TOG	-12.0649
▁stabber	-12.065
▁Fawm	-12.0651
▁1968	-12.0652
▁James	-12.0653
▁pojnrauj	-12.0656
▁Mouang	-12.0656
▁Mem	-12.0657
▁Militar	-12.0657
▁ncaujlus	-12.0657
united	-12.0658
maum	-12.0669
▁nkais	-12.0672
▁Mov	-12.0675
▁approve	-12.0678
▁plhws	-12.0679
▁HEHEHE	-12.0679
▁1982	-12.068
ful	-12.0685
▁Tiaj	-12.0687
▁xees	-12.0691
▁peaceful	-12.0701
▁txh	-12.0719
▁Hope	-12.0719
▁gettin	-12.0719
▁Bo	-12.0722
ey	-12.0735
▁Nt	-12.0738
▁MLOOG	-12.0741
▁belong	-12.0745
▁delegation	-12.0746
▁suspect	-12.0746
▁environment	-12.0747
15	-12.0747
▁reference	-12.0748
▁film	-12.0749
▁HIAM	-12.0749
ive	-12.0749
▁Tomqab	-12.0751
▁GOD	-12.0753
▁earn	-12.0755
▁Herr	-12.0756
▁fake	-12.0757
▁killing	-12.0757
▁muang	-12.0758
▁xeej	-12.0759
▁operation	-12.0761
nej	-12.0766
▁damage	-12.0768
▁Th	-12.0769
▁ntsov	-12.0778
▁TH	-12.0788
▁UP	-12.079
▁Bloglia	-12.0793
Zeb	-12.0794
▁53	-12.0797
▁thorn	-12.0799
asseng	-12.0805
▁politik	-12.0808
▁donation	-12.0817
qauj	-12.0818
chaw	-12.0821
▁Jon	-12.0823
▁NTS	-12.0826
▁nrhov	-12.083
▁al	-12.0832
ntseeg	-12.0837
▁quote	-12.0839
hli	-12.0842
▁qhaus	-12.0843
▁tusneeg	-12.0845
▁realize	-12.0845
▁tz	-12.0845
▁psycholog	-12.0845
92	-12.0847
▁THINK	-12.0847
▁Dongdok	-12.0847
▁Phajej	-12.0849
▁method	-12.0849
▁West	-12.0849
▁Fang	-12.0858
▁citizens	-12.0864
▁plob	-12.0866
▁hws	-12.0866
SIAB	-12.0871
▁Chav	-12.0873
ORE	-12.0873
▁Tshuaj	-12.0873
▁KAS	-12.0878
lauj	-12.0879
▁seek	-12.0882
▁klos	-12.0893
▁Bon	-12.0895
▁npia	-12.0911
yig	-12.0913
lem	-12.0915
▁nem	-12.0915
loo	-12.0917
▁rawg	-12.0921
uty	-12.0923
▁kan	-12.0925
▁naam	-12.0926
▁LIG	-12.0927
▁organize	-12.0929
▁Cy	-12.0935
IAS	-12.0936
▁color	-12.094
awj	-12.0949
▁threat	-12.0949
▁statue	-12.0949
▁Japanese	-12.0949
▁TXAJ	-12.0949
▁HOW	-12.095
IOC	-12.095
▁raag	-12.0951
▁mark	-12.0951
▁spy	-12.0951
▁sin	-12.0952
▁xeebntxwv	-12.0954
▁Heev	-12.0954
▁impossib	-12.0956
▁REAL	-12.0959
▁north	-12.096
▁xx	-12.0963
ntau	-12.0965
Lis	-12.0966
▁nphau	-12.0967
00	-12.0967
▁lhuas	-12.0967
▁understanding	-12.097
vice	-12.0971
Vaj	-12.0973
▁txho	-12.0974
▁jia	-12.0976
▁qhaib	-12.0979
▁07	-12.0988
▁famili	-12.0992
▁introduce	-12.0995
▁population	-12.0997
HAUM	-12.1006
▁jhai	-12.1016
cuam	-12.1017
▁khas	-12.1029
▁pais	-12.1033
▁Phala	-12.1036
▁south	-12.1038
▁muv	-12.1046
saub	-12.1048
maj	-12.1049
▁TP	-12.1049
▁FREE	-12.1051
▁lc	-12.1052
▁Example	-12.1052
▁pretend	-12.1052
▁criticism	-12.1052
▁NYEM	-12.1053
▁THaum	-12.1053
▁County	-12.1053
▁TSUV	-12.1053
▁soccer	-12.1053
▁Lyfong	-12.1054
▁nyuamqhuav	-12.1055
▁cajdab	-12.1055
▁Email	-12.1057
▁Laib	-12.1063
nyawm	-12.1064
xaj	-12.1064
dlawb	-12.1068
▁Hnubka	-12.107
▁cent	-12.1071
▁Po	-12.1073
▁LIM	-12.1074
▁push	-12.1077
xub	-12.1081
▁pias	-12.1081
==	-12.1085
▁KUA	-12.1086
ham	-12.1086
▁nki	-12.1088
▁NAM	-12.1088
txiaj	-12.1091
▁?????	-12.1094
ntsoov	-12.1099
▁soo	-12.11
▁mr	-12.1101
▁kasmia	-12.1104
▁PE	-12.1109
▁PAUL	-12.1111
▁XAB	-12.1113
▁Xaj	-12.1125
▁kau	-12.1138
▁nia	-12.1153
▁agreed	-12.1155
▁neutral	-12.1156
▁trouble	-12.1156
▁chief	-12.1157
▁violation	-12.1157
▁Florida	-12.1157
Square	-12.1157
▁FABKIS	-12.1157
▁Report	-12.1157
▁NYAJ	-12.1158
▁QHUAS	-12.1158
▁CUAV	-12.1158
▁oz	-12.1159
▁trick	-12.116
▁THERE	-12.116
▁OTHER	-12.1162
▁building	-12.1163
▁sy	-12.1166
▁period	-12.1172
▁shot	-12.118
IR	-12.1181
▁encourage	-12.1184
▁Fwj	-12.1184
▁cis	-12.1185
ntxoog	-12.1186
▁draw	-12.1191
▁techaw	-12.1203
▁Of	-12.1203
▁txhaab	-12.1204
▁sus	-12.1211
ntxawg	-12.1212
▁Lai	-12.1213
▁phwvxe	-12.1215
▁boy	-12.1222
▁chai	-12.1225
▁keev	-12.1226
nto	-12.123
▁foreign	-12.1233
▁convert	-12.1235
suav	-12.1237
huam	-12.1249
killed	-12.125
CMA	-12.1251
▁nyaa	-12.1253
▁western	-12.1253
▁ect	-12.1253
▁bab	-12.1254
▁celebration	-12.1262
▁Thursday	-12.1262
▁argument	-12.1262
▁decide	-12.1262
▁NCAWS	-12.1263
▁council	-12.1263
▁mercenar	-12.1265
▁POST	-12.1265
▁deny	-12.1265
▁capital	-12.1266
▁image	-12.1268
▁1984	-12.1272
▁prefer	-12.1273
qaib	-12.1275
▁lots	-12.1284
oeC	-12.1293
▁teach	-12.1303
▁Special	-12.1304
--------------	-12.1305
▁Force	-12.1306
wiki	-12.1307
▁ntsau	-12.1309
▁area	-12.1313
▁Case	-12.1313
paug	-12.1319
to	-12.1329
tsuag	-12.1329
rely	-12.133
▁thej	-12.1331
▁suggestion	-12.1333
▁dialect	-12.1334
ho	-12.1334
▁YP	-12.1335
▁student	-12.1336
▁koomhu	-12.1336
▁NTSOO	-12.1337
▁stone	-12.1344
▁Assistan	-12.1345
ntshis	-12.1355
▁Marc	-12.1362
▁Chou	-12.1362
▁$25	-12.1362
▁Constitution	-12.1368
▁Science	-12.1368
▁department	-12.1369
▁CHOJ	-12.1369
▁Juab	-12.1369
▁npluanu	-12.1369
▁txiajntsim	-12.137
▁Nyiam	-12.137
▁Txoos	-12.137
RISE	-12.1371
▁bless	-12.1371
▁reply	-12.1371
▁nploos	-12.1375
▁root	-12.1378
▁qabrooj	-12.1378
▁saturday	-12.1378
▁Txheej	-12.1381
article	-12.1388
21	-12.1394
oos	-12.1397
▁59	-12.1404
▁HMO	-12.1407
▁YA	-12.1411
▁nris	-12.1411
▁maina	-12.1423
▁Su	-12.1424
▁fi	-12.1431
▁dad	-12.1434
▁nrooj	-12.1441
▁teacher	-12.1441
▁ceb	-12.1443
▁letter	-12.1447
▁kuvli	-12.1447
▁gas	-12.145
▁Achan	-12.145
▁Hey	-12.1461
foom	-12.1467
▁mid	-12.1469
saib	-12.1471
▁success	-12.1472
▁Tziane	-12.1476
▁Since	-12.1476
▁Indochina	-12.1476
▁First	-12.1476
▁Uas	-12.1476
▁nephew	-12.1477
▁popular	-12.1477
▁PHAJ	-12.1479
▁universit	-12.1479
▁marry	-12.1481
▁SIAV	-12.1481
▁Zaab	-12.1482
▁txham	-12.1491
▁txawjntse	-12.1494
8&	-12.1496
▁Thu	-12.1497
▁xyuav	-12.1498
▁actuall	-12.1499
▁zoonkauj	-12.1501
▁inche	-12.1501
▁Lat	-12.1502
▁xuav	-12.1505
▁TAUB	-12.1509
▁reported	-12.1509
▁laugh	-12.1511
way	-12.1512
▁hlaab	-12.1513
hwm	-12.1515
▁vajtse	-12.1517
▁fill	-12.1522
HUB	-12.1528
▁BUS	-12.1529
▁bride	-12.1546
luam	-12.1558
▁48	-12.1563
▁DownUn	-12.1565
▁pin	-12.1566
▁kej	-12.1567
▁pho	-12.1575
▁says	-12.1576
▁nqag	-12.1578
twb	-12.1579
▁spell	-12.1581
luj	-12.1581
rry	-12.1581
▁recommend	-12.1584
▁Bachelor	-12.1584
▁Faabkis	-12.1584
▁Medical	-12.1584
▁rebecca	-12.1584
▁straight	-12.1584
▁Service	-12.1585
▁NPlog	-12.1585
▁spouse	-12.1585
▁dear	-12.1585
▁adjective	-12.1585
▁doctawm	-12.1586
▁HIGH	-12.1586
▁digmuag	-12.1587
▁safet	-12.1588
▁Phem	-12.1588
▁Officer	-12.1589
clear	-12.1591
▁XZ	-12.1593
EVER	-12.1595
▁Ms	-12.1598
▁Chij	-12.1598
▁cook	-12.1605
▁ntsawv	-12.1608
▁Mhong	-12.1611
▁meejx	-12.1611
▁Phav	-12.1619
▁none	-12.162
▁approach	-12.163
▁Lord	-12.1631
▁Camp	-12.1633
▁dhaw	-12.1636
tsab	-12.1637
oo	-12.1644
▁jee	-12.1646
▁ntsua	-12.1651
▁Ze	-12.1655
▁Tseemy	-12.1657
▁Ka	-12.166
▁marrie	-12.1662
▁rich	-12.1667
hlau	-12.1668
▁plhus	-12.1682
▁With	-12.1685
▁philosoph	-12.1687
▁surrender	-12.1694
▁doubt	-12.1694
▁DOCTOR	-12.1694
▁third	-12.1695
▁NCUAB	-12.1695
▁TEEV	-12.1696
gu	-12.1696
▁SAM	-12.1696
▁KHAV	-12.1696
▁THAJ	-12.1698
▁honey	-12.17
▁ntxuaj	-12.1701
▁dd	-12.1704
▁vaajtsw	-12.1705
tham	-12.1709
▁zum	-12.171
▁Most	-12.1711
▁relatives	-12.1716
unday	-12.1725
▁nwm	-12.1725
yeem	-12.173
▁dl	-12.1734
MA	-12.1737
▁Daj	-12.1752
tsawb	-12.177
▁213	-12.1774
▁ntsias	-12.1779
▁Marx	-12.1781
0&	-12.1798
________________	-12.1799
KOJ	-12.1802
▁TB	-12.1803
▁npla	-12.1804
▁plooj	-12.1805
▁NYEEM	-12.1806
▁Adam	-12.1806
▁FFC	-12.1806
▁Where	-12.1807
▁HLOOV	-12.1807
▁koomtsishaum	-12.1807
▁Dlaab	-12.1807
▁ntas	-12.1808
▁THAUB	-12.1808
▁GET	-12.181
▁Look	-12.1813
▁amelikas	-12.1813
▁copv	-12.1813
▁large	-12.1814
▁Nuj	-12.1819
▁dho	-12.1821
).	-12.1824
qawg	-12.1824
▁Taam	-12.1824
▁develop	-12.1827
txheem	-12.1829
rhav	-12.1833
ntsaag	-12.1837
?	-12.184
▁heem	-12.1845
▁estimate	-12.1849
▁SAI	-12.185
muas	-12.1853
▁Xai	-12.1862
▁BY	-12.1865
Foom	-12.1866
▁Hell	-12.1867
Leeg	-12.1869
▁clip	-12.187
▁ZAUB	-12.187
▁xyem	-12.1873
▁txivtub	-12.1877
▁POWER	-12.1879
▁pure	-12.1879
▁hahahahha	-12.1884
▁plaubhau	-12.1889
▁EVEN	-12.1894
▁Souvanna	-12.1897
▁)"	-12.1899
▁design	-12.1903
UM	-12.1904
txawj	-12.1908
▁TW	-12.191
aib	-12.1911
LqU	-12.1912
it	-12.1917
▁outside	-12.1917
▁William	-12.1918
▁interpretation	-12.1918
▁noogqejqawg	-12.1918
▁HMOOV	-12.1918
▁Attorney	-12.1919
▁available	-12.1919
▁Video	-12.192
▁qoj	-12.1921
▁regular	-12.1921
▁FAB	-12.1923
▁YOOJ	-12.1924
1600	-12.1926
▁parking	-12.1927
▁nteev	-12.1929
Ntxheb	-12.1932
▁Ntsej	-12.1934
▁mix	-12.1934
▁nkoos	-12.1935
▁sacrifice	-12.1937
▁thiag	-12.1939
huab	-12.1942
▁phu	-12.1943
04	-12.1944
su	-12.1944
jeC	-12.1944
▁hawb	-12.195
▁yoglawv	-12.1952
▁Non	-12.1956
▁Quas	-12.1958
▁Raug	-12.1983
hom	-12.1983
plaws	-12.1993
▁mine	-12.1993
▁cross	-12.1996
▁NTOO	-12.2003
npe	-12.2009
da	-12.2012
▁Sa	-12.2018
30	-12.2028
▁predict	-12.2031
▁homework	-12.2031
▁Txaijnrob	-12.2032
▁Watch	-12.2032
▁VUE	-12.2032
93	-12.2032
▁ZOV	-12.2032
▁Life	-12.2032
▁KGB	-12.2033
▁xibhw	-12.2033
▁unko	-12.2033
▁HlubHmoob	-12.2035
▁army	-12.2037
▁95%	-12.2038
▁txivntxawm	-12.2042
pheeb	-12.2044
▁Ntsia	-12.2045
▁kablis	-12.2047
▁BG	-12.2051
75	-12.2053
▁Nomdub	-12.2054
content	-12.2058
dig	-12.2058
▁followers	-12.206
identity	-12.2061
yeeg	-12.2065
jhe	-12.2074
▁haw	-12.2082
teeb	-12.2085
▁ntav	-12.2086
▁xaub	-12.209
gPiA	-12.2091
▁Txawjxa	-12.2092
▁Zong	-12.2092
▁Os	-12.2096
▁Menyuam	-12.2101
▁$1000	-12.2103
aol	-12.2103
▁bastard	-12.2107
▁Tho	-12.2108
tiam	-12.2111
▁Other	-12.2112
▁plhw	-12.2114
▁Tav	-12.2116
mos	-12.2117
dlej	-12.2117
▁tojsiab	-12.2118
Fab	-12.2121
▁Twin	-12.2122
images	-12.2123
▁kip	-12.2127
▁nci	-12.2129
▁offend	-12.2141
▁attorney	-12.2146
▁Group	-12.2147
▁Nou	-12.2148
▁clue	-12.2148
▁camera	-12.2148
▁XEEB	-12.2149
▁hunting	-12.2149
LqB	-12.215
▁sawvcev	-12.215
▁pobkws	-12.2152
kag	-12.2152
▁HMong	-12.2155
▁following	-12.2163
HOSE	-12.2163
say	-12.2166
▁lintawd	-12.2169
▁Say	-12.2177
▁huj	-12.2187
hOC	-12.2199
▁ja	-12.2199
▁caslos	-12.2203
▁Huam	-12.2204
ruly	-12.2205
NTSES	-12.2212
nas	-12.2219
▁Qaib	-12.2221
▁paas	-12.2221
▁maskuv	-12.2222
▁chang	-12.2228
eeb	-12.2229
▁69	-12.223
▁vi	-12.2232
▁npai	-12.2233
▁HOV	-12.224
▁yamli	-12.2245
cua	-12.2246
nyuag	-12.2246
kho	-12.2247
de	-12.2249
▁PA	-12.2255
▁player	-12.2256
the	-12.2257
▁Heaven	-12.2263
▁brgd	-12.2263
▁Business	-12.2263
▁Soviet	-12.2263
▁Captain	-12.2263
▁chicken	-12.2263
▁exercise	-12.2263
▁technique	-12.2263
▁Koomhaum	-12.2263
▁Culture	-12.2264
▁medicine	-12.2265
▁PEJ	-12.2266
▁usual	-12.2267
▁1/2	-12.2268
▁appropriate	-12.227
▁ntsauv	-12.2271
▁Puag	-12.2273
▁Tsib	-12.2274
▁naas	-12.2276
▁bath	-12.2277
▁kwvyees	-12.2277
go	-12.2283
▁Leader	-12.2285
pas	-12.2285
aag	-12.2287
▁OUT	-12.2291
rk	-12.2292
▁wow	-12.2293
▁sit	-12.2296
khi	-12.2296
keo	-12.2298
▁Ntaub	-12.2301
▁Kiabtoo	-12.2302
▁west	-12.2303
▁birthda	-12.2303
▁Xais	-12.2307
▁vig	-12.231
▁acre	-12.2315
▁dhi	-12.2317
▁ler	-12.2326
▁"..	-12.2328
▁nplag	-12.2336
khwb	-12.2338
zug	-12.234
▁Teem	-12.2348
orrow	-12.2353
▁Qhab	-12.2354
▁xoos	-12.2354
▁**	-12.2358
▁ri	-12.2358
▁receive	-12.2359
▁Txo	-12.2362
cities	-12.2365
▁yahoo	-12.2374
docs	-12.2374
▁txomfa	-12.238
▁Judge	-12.238
▁INTERNET	-12.2381
▁Beeveev	-12.2381
▁DHIA	-12.2381
▁river	-12.2382
▁Cross	-12.2382
▁retirement	-12.2382
▁Arkansas	-12.2382
▁fear	-12.2383
▁kabmob	-12.2384
▁npawv	-12.2387
▁hauvpaus	-12.2388
▁osxaum	-12.2388
▁nreg	-12.2389
▁idiot	-12.2392
▁Apr	-12.2392
▁tawd	-12.2393
▁XAM	-12.2394
▁melikas	-12.2395
▁zauv	-12.2396
▁ntxws	-12.2397
▁peebzee	-12.2398
▁accuse	-12.2404
▁Thi	-12.2409
wayne	-12.241
▁SAY	-12.2411
▁Mao	-12.2412
▁door	-12.2417
▁Ntxua	-12.2423
▁ass	-12.2427
▁phus	-12.2429
▁58	-12.245
terrorism	-12.2451
eup	-12.2454
▁PUAB	-12.2456
▁KE	-12.2457
▁yuab	-12.2459
▁WAS	-12.2467
1969	-12.2469
▁tibzoo	-12.2471
THING	-12.2471
▁qham	-12.2475
▁governor	-12.2477
ble	-12.2479
txeem	-12.2479
▁saiv	-12.2479
sam	-12.2484
▁worship	-12.249
cm	-12.2492
▁nts	-12.2492
▁ntxha	-12.2493
▁Ki	-12.2495
▁neighbor	-12.2499
▁WOW	-12.2499
▁Alien	-12.2499
▁WRONG	-12.25
▁Awb	-12.25
▁SCIENCE	-12.25
▁croc	-12.25
▁AGAIN	-12.25
▁Ntsuag	-12.2501
▁limham	-12.2501
▁gift	-12.2502
▁Daus	-12.2505
▁AMEN	-12.2505
▁DOG	-12.2505
▁vuab	-12.2508
▁actions	-12.2511
▁Phouma	-12.2511
▁xyob	-12.2512
▁tank	-12.2516
▁aid	-12.2517
▁english	-12.2517
▁Xwb	-12.2518
IC	-12.2519
ant	-12.2519
▁POLITIC	-12.252
▁bass	-12.2521
▁nkas	-12.2523
▁tseebx	-12.2528
▁PHOO	-12.2529
▁ET	-12.253
▁qhovrooj	-12.2531
▁haukev	-12.2532
▁tsaw	-12.2533
▁Pam	-12.2533
▁Indian	-12.2535
!	-12.2539
txheej	-12.2541
cha	-12.2548
▁DE	-12.2548
▁Kua	-12.2549
▁nyuajsiab	-12.2549
▁facts	-12.2553
▁map	-12.2555
txoog	-12.2555
▁ignore	-12.2561
▁Taub	-12.2566
you	-12.2569
za	-12.2571
▁Xay	-12.2573
▁txaw	-12.2579
▁xyu	-12.2582
▁Saw	-12.2583
▁formula	-12.2585
▁kiss	-12.2587
▁Heu	-12.2588
▁ruav	-12.2591
▁Hej	-12.2598
ntoo	-12.2609
▁interpret	-12.2612
▁dumb	-12.2612
OR	-12.2612
▁TS	-12.2613
▁expense	-12.262
▁recent	-12.262
▁across	-12.262
▁temptation	-12.262
▁threaten	-12.262
▁regret	-12.262
▁NTSHAW	-12.262
▁false	-12.2621
▁Naisphoo	-12.2622
aws	-12.2622
▁Ntsib	-12.2622
▁Khoom	-12.2623
▁slow	-12.2625
▁Vaajlug	-12.2626
▁57	-12.2627
▁Pas	-12.2627
▁ntxheb	-12.2628
▁elders	-12.2631
▁plev	-12.2633
▁missionar	-12.2633
▁ntxhuav	-12.2636
▁nyub	-12.2637
▁comprehensi	-12.2637
▁blablabla	-12.2638
▁shake	-12.2638
▁hoo	-12.2639
▁millionaire	-12.2639
▁ntsawj	-12.264
▁Ntoo	-12.2642
▁Kam	-12.2646
▁suit	-12.2647
=0	-12.2648
▁qaj	-12.2654
▁ncas	-12.2654
▁hmob	-12.2657
▁NCE	-12.2663
▁haam	-12.2665
tong	-12.2678
sh	-12.2687
zos	-12.2695
Yaj	-12.2704
▁fish	-12.2711
twm	-12.2715
tsug	-12.2716
▁ntxab	-12.2719
▁ntia	-12.2727
▁compete	-12.2727
twv	-12.273
▁require	-12.2732
▁harm	-12.2732
▁translate	-12.2737
▁Vau	-12.2739
▁pray	-12.2739
▁advantage	-12.2742
▁teleport	-12.2742
▁Europe	-12.2742
▁NQAIJ	-12.2742
▁chose	-12.2743
▁FEEM	-12.2743
▁huamnab	-12.2743
▁Naiphoo	-12.2743
▁POINT	-12.2743
▁rhab	-12.2744
▁76	-12.2747
▁msu	-12.2748
Lqa	-12.2749
▁khaiv	-12.275
▁CARE	-12.275
Lqt	-12.2752
Dawb	-12.2755
▁ciov	-12.2756
▁diplomatic	-12.2757
▁Caiv	-12.2765
ch	-12.2765
▁hahahha	-12.2767
▁NT	-12.2768
▁WAY	-12.2769
ntev	-12.2775
▁zeg	-12.2776
▁careful	-12.2779
▁Maivna	-12.2783
▁Nav	-12.2785
▁KAJ	-12.2787
▁sur	-12.2789
sOC	-12.2791
▁minor	-12.2802
entral	-12.2804
▁poov	-12.2805
▁Ty	-12.2805
▁Thua	-12.2808
▁participate	-12.2808
▁Dee	-12.2816
▁Pho	-12.2817
feemcoob	-12.2819
▁refuse	-12.282
▁WORK	-12.2829
▁NEV	-12.2833
▁ntxhoo	-12.2836
▁npl	-12.2839
qaum	-12.2848
xay	-12.2849
▁progress	-12.2856
▁nrhu	-12.2856
▁Qau	-12.2857
▁$300	-12.286
▁effect	-12.2863
▁Degree	-12.2865
▁Hotel	-12.2865
▁Sombath	-12.2865
▁NEED	-12.2866
▁Tsimmuaj	-12.2866
▁Ntxhiav	-12.2866
▁Brg	-12.2866
▁NUAV	-12.2867
▁blej	-12.2868
▁hehe	-12.2868
▁ndlav	-12.287
▁TUAM	-12.2873
▁shit	-12.2874
▁HLAU	-12.2875
▁store	-12.2876
▁PC	-12.2884
▁hna	-12.2885
▁,,,,	-12.2888
▁Phoum	-12.2891
▁TAUG	-12.2894
▁Vajlus	-12.2895
HUAV	-12.2896
uaj	-12.2899
▁...)	-12.2908
▁DABTSI	-12.2909
▁sd	-12.2909
iddle	-12.291
nv	-12.291
Former	-12.2923
▁Tshuas	-12.2924
▁fr	-12.2931
▁YWM	-12.2937
ged	-12.294
wvnyawm	-12.295
▁civilize	-12.2954
▁soul	-12.2955
▁Ex	-12.2956
AWM	-12.2958
▁hoos	-12.2958
▁thua	-12.2958
▁elect	-12.2964
▁Phus	-12.2965
AB	-12.297
▁Khwv	-12.2975
▁tivthai	-12.2979
▁nka	-12.2981
▁Khou	-12.2987
▁contradict	-12.2989
▁disappoint	-12.299
▁NQE	-12.299
▁worst	-12.2991
▁racist	-12.2992
▁TWJ	-12.2992
▁movement	-12.2994
▁phlom	-12.2996
▁warning	-12.3
▁thws	-12.3001
▁Plaub	-12.3002
▁san	-12.3007
▁BEER	-12.3011
▁lev	-12.3017
▁MOOS	-12.3018
▁HER	-12.3018
%2	-12.302
hav	-12.3025
▁scam	-12.3037
▁phuam	-12.3038
hov	-12.3039
▁grand	-12.304
▁194	-12.304
▁zwj	-12.3044
ST	-12.3055
▁:):):)	-12.3056
▁fu	-12.3064
gDQo	-12.308
lean	-12.3082
▁Tsiab	-12.3083
▁ZK	-12.3085
▁qabntuj	-12.309
▁evidences	-12.3094
▁met	-12.3094
▁ray	-12.3104
▁PO	-12.3106
ntseg	-12.3108
▁eye	-12.3108
▁tshi	-12.3117
▁Flip	-12.3117
▁budget	-12.3117
▁dlhuav	-12.3118
▁avoid	-12.3118
▁denie	-12.3119
▁Charles	-12.312
▁SCAM	-12.312
yem	-12.3121
▁77	-12.3121
▁internal	-12.3123
▁ntaim	-12.3125
▁LS	-12.3126
▁Qaum	-12.313
ology	-12.313
LqH	-12.3133
▁Dlua	-12.3139
▁gene	-12.3142
▁FACT	-12.3145
▁online	-12.3148
▁khes	-12.3151
▁nkawj	-12.3153
▁Vong	-12.316
▁Luv	-12.3165
caij	-12.3167
▁ABOU	-12.3174
txhia	-12.3176
khib	-12.3179
▁plhaub	-12.318
▁?".	-12.3183
▁sport	-12.3186
▁handle	-12.3187
▁con	-12.3189
▁edu	-12.3192
▁oblub	-12.3194
▁Song	-12.3201
▁drop	-12.3202
▁KOOS	-12.3204
nuj	-12.3209
▁npaw	-12.3216
▁yawglaus	-12.3217
▁qhos	-12.3217
▁Ee	-12.3221
▁Jul	-12.3228
▁Neu	-12.3229
younger	-12.323
ceg	-12.3233
▁ceebtshee	-12.3233
▁78	-12.3242
▁Alaska	-12.3245
▁machine	-12.3245
▁txiabneeb	-12.3245
▁RUB	-12.3245
▁LPB	-12.3247
▁NTUG	-12.3247
▁beside	-12.3248
▁Ncauj	-12.3248
▁direction	-12.3248
▁ourselve	-12.3248
▁tshaam	-12.3249
▁riag	-12.3249
▁Dlej	-12.3256
▁CAJ	-12.3259
▁thoughts	-12.326
free	-12.3264
looj	-12.3265
▁heheheh	-12.3266
▁txawjx	-12.3268
▁beat	-12.3272
▁pen	-12.3278
▁thee	-12.3278
▁Lag	-12.328
phoojywg	-12.3281
moos	-12.3284
hu	-12.3285
tua	-12.3287
▁size	-12.3287
ried	-12.3305
▁Doc	-12.3306
▁Xat	-12.3308
kiv	-12.3308
▁Xia	-12.3313
xam	-12.3318
▁...(	-12.3319
▁phaaj	-12.3331
▁73	-12.3332
▁sao	-12.3335
▁path	-12.3336
▁haivhmoob	-12.3336
nraim	-12.3338
▁sofa	-12.3342
▁ntxai	-12.3344
▁WAR	-12.3346
▁haujsa	-12.3355
▁easi	-12.3357
▁PAS	-12.336
▁Qav	-12.3366
hi	-12.3366
▁Office	-12.337
▁Bank	-12.337
▁Sen	-12.3373
▁Then	-12.3374
▁CHURCH	-12.3375
▁beautiful	-12.3375
▁ideology	-12.3375
▁drink	-12.3375
▁Accord	-12.3375
▁excuse	-12.3375
▁wausau	-12.3375
▁TXIAV	-12.3375
▁protection	-12.3376
▁versa	-12.3376
▁XYOV	-12.3376
▁virus	-12.3378
▁AEON	-12.3379
▁benefits	-12.3379
▁YIG	-12.3381
▁khe	-12.3381
▁nruabnrab	-12.3381
tsav	-12.3384
▁Pawg	-12.3384
▁Rag	-12.3385
▁Ken	-12.3386
▁NEB	-12.3386
▁NAB	-12.3387
▁POG	-12.3393
▁npiab	-12.3394
caus	-12.3394
▁qhuabke	-12.3395
▁bush	-12.3395
▁hnyos	-12.3396
▁publish	-12.3399
how	-12.3402
paum	-12.3402
▁scholars	-12.3407
Teb	-12.3409
▁250	-12.3409
▁haud	-12.3411
▁Secret	-12.3412
▁observe	-12.3414
kos	-12.3417
▁SEE	-12.3424
ti	-12.3434
▁LAU	-12.3439
aid	-12.3439
▁TSW	-12.3442
▁opinions	-12.3446
▁pees	-12.3453
YW	-12.3455
▁Hai	-12.3466
▁divide	-12.3473
phaj	-12.3476
▁fruit	-12.3481
▁yuavluag	-12.3484
mom	-12.3484
▁Hmmm	-12.349
ap	-12.3492
▁plu	-12.3492
▁modern	-12.3493
▁Txaj	-12.3498
▁ndl	-12.3501
▁Park	-12.3503
▁discredit	-12.3506
▁reflect	-12.3506
▁SNOW	-12.3506
▁Foundation	-12.3507
▁reputation	-12.3507
▁KHWV	-12.3507
▁nominate	-12.3507
▁SUPPORT	-12.3507
▁baht	-12.3508
▁YAV	-12.3508
▁nplij	-12.3509
▁financial	-12.351
▁commander	-12.351
▁NYOO	-12.3517
▁invite	-12.3517
▁Securit	-12.3519
▁Sia	-12.3519
and	-12.353
▁NYAB	-12.3532
▁Paum	-12.3532
men	-12.3533
▁peblub	-12.3536
▁nthw	-12.3537
▁speaker	-12.3544
nh	-12.3545
muC	-12.3551
Tek	-12.3552
▁sick	-12.3557
▁schedule	-12.3557
arch	-12.3564
▁LOV	-12.3565
▁Tsoob	-12.3567
▁Tshoob	-12.3568
▁Act	-12.3572
!!!!!!!!!!!!!!!!	-12.3576
NR	-12.3585
▁ji	-12.3586
xiong	-12.3586
▁Tec	-12.3597
▁Secretar	-12.36
▁Hmoog	-12.3606
rabang	-12.3606
▁KL	-12.3618
▁fine	-12.3621
▁Take	-12.3623
▁collect	-12.3626
▁5%	-12.3631
▁corrupt	-12.3631
▁Mormon	-12.364
▁verify	-12.364
▁iliki	-12.364
▁NPAJ	-12.364
▁danger	-12.364
▁catholic	-12.364
▁input	-12.364
▁scientific	-12.364
▁FAIB	-12.3641
▁memtoj	-12.3641
▁DNR	-12.3641
▁Laugtxaw	-12.3641
▁Havzoov	-12.3641
▁often	-12.3642
▁manager	-12.3642
▁vientiane	-12.3643
▁parties	-12.3643
▁Lajhais	-12.3643
Lql	-12.3644
▁daughter	-12.3644
▁separate	-12.3646
▁proclaim	-12.3647
sijhawm	-12.3647
▁700	-12.3647
▁Ncai	-12.3648
▁puavpheej	-12.365
▁Oo	-12.3651
▁FAJ	-12.3654
12	-12.3654
▁ba	-12.3655
▁tiny	-12.3658
▁pasdej	-12.3658
ETC	-12.3659
hnov	-12.3662
▁Kangaroo	-12.3668
▁xyaa	-12.3682
url	-12.3683
image	-12.3687
Southeast	-12.3695
▁Tshe	-12.3698
▁pu	-12.37
given	-12.3701
▁TSIV	-12.3702
nyom	-12.3705
▁51	-12.3708
▁nraj	-12.372
▁swv	-12.372
tshaj	-12.3734
▁billion	-12.3735
▁:"	-12.3739
nyab	-12.374
▁Zaub	-12.374
▁MAV	-12.3742
▁Pev	-12.3743
ating	-12.3744
▁Ciab	-12.3745
▁BEE	-12.375
▁red	-12.3757
▁ameska	-12.3758
▁Tai	-12.3768
pwm	-12.377
HMOOB	-12.3772
▁Second	-12.3775
▁background	-12.3775
▁virgin	-12.3775
▁wikipedia	-12.3775
▁TxawjvamYia	-12.3776
▁Sinwung	-12.3776
▁yopg	-12.3777
▁kpnp	-12.3779
▁khawvkoob	-12.378
phav	-12.378
▁THAB	-12.378
▁OZ	-12.378
▁Kevin	-12.3782
▁PLAM	-12.3784
▁npawm	-12.3785
aung	-12.3787
▁ABC	-12.3787
▁blue	-12.3788
▁lisnom	-12.3788
▁dlab	-12.3788
▁85	-12.3789
▁Nyawm	-12.3795
▁xia	-12.3799
▁Ntsum	-12.38
▁CD	-12.3803
ntsib	-12.3804
ngfu	-12.3804
▁converter	-12.381
pog	-12.3811
▁memor	-12.3815
▁yours	-12.3815
WS	-12.3825
▁ram	-12.3831
▁Defens	-12.3832
▁ml	-12.3832
▁states	-12.3838
▁$$$$	-12.3839
▁unite	-12.3839
▁plas	-12.384
txawg	-12.3841
ntsej	-12.3845
▁videos	-12.3846
▁TL	-12.3857
chim	-12.3866
rel	-12.3872
▁Thaij	-12.3872
▁zaw	-12.3875
▁Taug	-12.3876
▁Pi	-12.3891
▁civil	-12.3893
▁hahahah	-12.3907
▁71	-12.3908
▁adult	-12.3909
▁Korea	-12.391
▁FIRST	-12.3912
▁imagine	-12.3912
▁HELP	-12.3912
▁Aderhol	-12.3912
▁republican	-12.3912
▁XXXXXXXXXXXXXX	-12.3912
▁Vega	-12.3912
▁Jack	-12.3912
▁comprehend	-12.3912
▁Welcome	-12.3913
▁Poob	-12.3913
▁permanent	-12.3915
▁lobby	-12.3915
▁NIM	-12.3915
▁zaab	-12.3916
▁KWVTIJ	-12.3919
▁phi	-12.3919
▁CUA	-12.3922
▁MAB	-12.3922
▁near	-12.3922
▁thailand	-12.3922
▁fws	-12.3924
▁cool	-12.3929
▁rob	-12.3929
▁Mesliska	-12.3931
▁asia	-12.3931
▁----	-12.3936
▁LEGAL	-12.3937
▁complaint	-12.3938
▁pla	-12.3939
▁nplhu	-12.3941
▁LOVE	-12.3944
▁Muag	-12.3945
eemouachaofa	-12.3949
▁Nqai	-12.3958
▁begin	-12.396
▁Ta	-12.3963
▁PAM	-12.3985
xx	-12.3985
▁caused	-12.3997
▁TAUS	-12.3999
▁Phajhau	-12.4
xob	-12.4
▁mobx	-12.4003
▁46	-12.4005
EN	-12.4006
▁Tig	-12.4008
OJ	-12.4008
▁certificate	-12.4014
▁ru	-12.402
▁Tawg	-12.4026
▁knowing	-12.4028
▁art	-12.4029
▁NAJ	-12.403
▁dawv	-12.4038
▁naim	-12.404
▁ntsaub	-12.4046
▁NROV	-12.4051
▁street	-12.4051
▁applie	-12.4051
▁activist	-12.4051
▁paragraph	-12.4051
▁CHEEM	-12.4051
▁resistance	-12.4051
▁lunch	-12.4051
▁BKK	-12.4051
▁Medicine	-12.4051
▁NYUAG	-12.4052
▁Eau	-12.4052
▁shame	-12.4053
▁Ntsuj	-12.4053
▁TAV	-12.4054
▁round	-12.4055
▁sensitiv	-12.4056
▁grant	-12.4058
▁graduate	-12.4059
▁ndlag	-12.4062
range	-12.4062
▁yawmsaub	-12.4065
▁kiam	-12.4065
▁qhovchaw	-12.4068
▁MOUA	-12.407
▁Cuag	-12.4071
▁txhawm	-12.4072
oom	-12.4072
▁NTSUAG	-12.4075
▁TA	-12.408
▁Haib	-12.4081
inner	-12.4081
▁ah	-12.4092
▁application	-12.4095
▁asking	-12.4096
▁Hong	-12.41
liaj	-12.4103
▁npuam	-12.4108
set	-12.4113
uary	-12.4117
usa	-12.4122
▁Hinh	-12.4131
▁Ny	-12.4135
unity	-12.4136
▁Vic	-12.4136
cub	-12.4145
▁victim	-12.4148
▁tsws	-12.415
▁BIG	-12.4153
▁Nis	-12.4156
age	-12.4156
huav	-12.4158
▁scholar	-12.4159
▁Home	-12.4167
AAB	-12.4176
▁propert	-12.4177
▁pain	-12.4179
▁delete	-12.4181
▁dom	-12.4184
▁Phagna	-12.4192
▁Earth	-12.4192
▁morning	-12.4192
▁SCHOOL	-12.4192
▁intelligence	-12.4192
▁NTXIM	-12.4192
▁forgot	-12.4192
▁priest	-12.4193
▁monkey	-12.4194
▁NYIAG	-12.4195
nouvong	-12.4196
▁!!!!!!	-12.4196
▁Like	-12.4198
▁commie	-12.4198
▁central	-12.4199
▁CAB	-12.4202
Lqh	-12.4204
▁nurse	-12.4205
▁loom	-12.4206
orado	-12.4215
OM	-12.4218
=3	-12.4222
▁yib	-12.4224
▁nqaaj	-12.4226
ton	-12.4229
▁emotional	-12.4234
▁huua	-12.4234
▁)....	-12.4242
▁dlaig	-12.4244
▁nyhia	-12.4248
huv	-12.4254
▁Pim	-12.4256
▁Lom	-12.4256
▁content	-12.4257
▁Nos	-12.4265
▁months	-12.4268
older	-12.4274
▁nor	-12.4276
▁Pw	-12.428
▁scientist	-12.4283
▁dem	-12.4291
▁note	-12.4302
▁follower	-12.4303
Indigenous	-12.4304
▁$40	-12.4306
▁Pastor	-12.4306
ntse	-12.4315
rought	-12.4317
DAY	-12.4318
▁??????	-12.4318
ya	-12.432
▁qej	-12.4325
▁kuvlub	-12.4327
acific	-12.4333
▁Vow	-12.4334
▁AMELIVKA	-12.4334
▁Txheev	-12.4335
▁favorite	-12.4335
▁Taamsim	-12.4335
▁NTIAJ	-12.4335
▁Sayasith	-12.4335
▁intend	-12.4336
▁react	-12.4337
▁Tsaib	-12.4338
▁kajntug	-12.4339
47	-12.4339
▁spend	-12.434
▁location	-12.4341
kav	-12.4341
loog	-12.4341
▁zomzaw	-12.4342
▁ruj	-12.4346
▁Xim	-12.4349
▁cher	-12.4353
▁ywjsiab	-12.4356
▁LAUG	-12.4357
▁Dlub	-12.4357
off	-12.4358
▁learning	-12.4368
▁Huv	-12.4369
▁vimkuv	-12.4375
34	-12.4379
▁kais	-12.4391
luaj	-12.4395
video	-12.4399
paid	-12.4407
long	-12.4408
▁NKAUJSTP	-12.4413
▁TUBNTSUAGHMOOB	-12.4419
▁details	-12.442
▁TswvYi	-12.442
▁describe	-12.442
Xyoo	-12.4421
▁zogli	-12.4422
▁PS	-12.4425
▁trash	-12.443
▁Ci	-12.4441
▁XUB	-12.4442
dao	-12.4443
▁kai	-12.4444
IE	-12.4448
▁Hma	-12.4448
uLi	-12.4456
▁TSHO	-12.4456
wanted	-12.4459
▁gun	-12.4461
▁COMMIE	-12.4465
moobleeg	-12.4469
emember	-12.4477
hlwb	-12.4479
▁assumption	-12.4479
▁Chairman	-12.4479
▁uniform	-12.448
▁TXUJ	-12.448
▁RIAM	-12.448
▁Union	-12.448
▁TSIAJ	-12.4481
▁Tsaam	-12.4483
▁zero	-12.4483
▁NTSHAV	-12.4484
▁phajhauj	-12.4484
▁nqaum	-12.4485
▁npaab	-12.4485
▁sacrame	-12.4492
▁TOJ	-12.4493
khiav	-12.4494
▁Khav	-12.4494
upon	-12.4498
rs	-12.4498
▁ntsho	-12.4498
▁career	-12.4499
▁Twv	-12.4499
▁TIV	-12.4501
▁pliab	-12.4505
▁hide	-12.4506
▁nij	-12.4509
tally	-12.4511
▁kv	-12.4511
▁Teg	-12.4512
▁sentence	-12.4514
▁vom	-12.452
qub	-12.452
▁vajhmoob	-12.4523
unknown	-12.4527
▁suffer	-12.4531
▁wise	-12.4533
KM	-12.4535
▁vis	-12.4539
▁rumors	-12.4547
AUL	-12.4547
▁appoint	-12.4552
hl	-12.4554
ITY	-12.4569
▁Np	-12.4577
▁apple	-12.4581
taug	-12.4584
▁nhria	-12.4585
▁Khe	-12.4589
▁fellow	-12.4591
▁bylaw	-12.4591
▁Lak	-12.4594
XX	-12.4599
▁!.....	-12.4602
▁sue	-12.4603
▁vaag	-12.4605
▁Western	-12.4609
▁cau	-12.4611
tsawv	-12.4612
aGF	-12.4613
kam	-12.4613
▁econom	-12.4615
tiab	-12.4616
▁WHITE	-12.4626
▁apolog	-12.4627
▁NKIM	-12.4627
▁fault	-12.4627
▁guest	-12.4627
▁TSHEB	-12.4627
▁$$$	-12.4628
▁TSHOOB	-12.4629
▁wives	-12.463
▁sleep	-12.463
▁subtuam	-12.463
▁chapter	-12.4631
io	-12.4632
▁zawj	-12.4632
▁channel	-12.4635
▁nqhes	-12.4636
came	-12.4638
▁aware	-12.4639
▁Kuab	-12.4641
▁oppose	-12.4643
▁Sayabour	-12.4644
pdf	-12.4644
▁dovca	-12.4644
▁180	-12.4646
ad	-12.4646
▁yaag	-12.4647
txhoov	-12.4653
▁thaumkuv	-12.4658
▁nyaus	-12.466
▁Meng	-12.4663
▁Phan	-12.4664
vaaj	-12.4668
▁ice	-12.4668
▁ordina	-12.467
mong	-12.4679
▁therap	-12.4683
▁lhi	-12.4687
▁HS	-12.4689
LFF	-12.4697
▁argue	-12.4699
▁tamsi	-12.4703
▁Vajhmoob	-12.4707
txiag	-12.4716
▁Xiengkhoua	-12.472
▁TK	-12.472
VP	-12.472
▁Yau	-12.4722
ithay	-12.4726
IV	-12.4728
▁mais	-12.4743
▁MEO	-12.475
▁bark	-12.4752
faab	-12.4754
ily	-12.4756
▁nrhau	-12.4757
▁Vu	-12.476
▁Lim	-12.4762
▁Than	-12.4764
▁SE	-12.4764
▁Xou	-12.4768
▁Health	-12.4772
▁pluam	-12.4772
▁Hartwi	-12.4776
▁COURT	-12.4776
▁OTV	-12.4776
▁mistress	-12.4776
▁mesnyuam	-12.4776
▁BIBLE	-12.4776
▁CHIJ	-12.4776
▁desire	-12.4776
▁expression	-12.4776
▁MOOG	-12.4777
▁TXWM	-12.4777
▁Sisi	-12.4777
▁nyablaaj	-12.4777
▁prejudice	-12.4777
▁NRAB	-12.4777
▁NTSEJ	-12.4778
=1&	-12.4779
▁cancel	-12.4779
▁kingdom	-12.4779
▁LAWB	-12.478
▁motel	-12.4781
▁---------	-12.4784
▁LAUD	-12.4784
▁Village	-12.4784
town	-12.4786
▁Loom	-12.4786
category	-12.4787
▁THEN	-12.4787
▁nploog	-12.4788
▁LF	-12.4789
raham	-12.479
▁Am	-12.4791
/?	-12.4792
▁Thab	-12.4793
▁Yaim	-12.4794
4&	-12.4794
▁plw	-12.4795
▁hlaws	-12.4801
▁ncawg	-12.4803
▁produce	-12.4809
Lqb	-12.4814
▁faim	-12.4815
▁TSIJ	-12.4818
ONEY	-12.482
▁coog	-12.4825
▁Kaw	-12.4832
npais	-12.4833
▁MEAN	-12.4844
▁ntaa	-12.4847
▁MEJ	-12.4851
▁fighter	-12.4853
▁HmoobVaj	-12.4859
▁xaib	-12.4861
tshuaj	-12.4862
mem	-12.4863
▁wa	-12.4864
tawv	-12.4866
search	-12.4875
yaj	-12.4876
▁extra	-12.4893
▁khuas	-12.4912
▁jack	-12.4915
pawj	-12.4924
oalition	-12.4927
▁contribution	-12.4927
▁TSUA	-12.4927
▁pride	-12.4927
ph	-12.4927
▁Wednesday	-12.4928
▁Pejxeem	-12.4928
▁testify	-12.4928
alentine	-12.4928
▁perspective	-12.4928
▁alphabet	-12.4928
▁FREEDOM	-12.4928
▁ENGLISH	-12.4929
▁Namphong	-12.4929
▁Federal	-12.493
▁Tank	-12.493
▁kong	-12.493
▁STD	-12.493
▁PLAWV	-12.493
2000	-12.4931
▁vinai	-12.4932
▁!!,	-12.4932
▁quick	-12.4933
▁mho	-12.4934
▁1966	-12.4935
▁miskas	-12.4937
▁kevxaav	-12.4939
▁askiv	-12.4941
ghia	-12.4941
▁ntshia	-12.4944
▁disease	-12.4945
▁thuav	-12.4948
▁nthos	-12.4958
▁phm	-12.496
UCH	-12.496
pic	-12.4965
▁rhe	-12.4968
mov	-12.4968
▁billions	-12.497
▁49	-12.497
▁NAV	-12.4971
ct	-12.4971
▁hn	-12.4973
▁npu	-12.4974
ll	-12.4977
▁Nqi	-12.4978
▁poos	-12.4979
▁Raw	-12.4982
▁Taag	-12.4983
tooj	-12.4987
▁bar	-12.4996
▁fix	-12.4997
▁qh	-12.4998
LE	-12.5
txob	-12.5
▁oy	-12.5003
▁Thom	-12.501
▁Liv	-12.5013
13	-12.5015
guC	-12.502
▁ged	-12.5026
▁khai	-12.5036
▁origin	-12.5037
▁Men	-12.5037
▁ntximli	-12.5041
▁npaas	-12.5048
wjpheej	-12.5052
xico	-12.5053
▁3000	-12.5055
▁Refugee	-12.5058
▁daib	-12.5061
▁PHAB	-12.5062
tshoob	-12.5064
phom	-12.5065
▁data	-12.5073
day	-12.5074
ATION	-12.5075
ca	-12.5077
▁loyal	-12.508
▁conversation	-12.5081
▁PAWG	-12.5082
hwv	-12.5082
▁reunion	-12.5082
▁NPAM	-12.5082
▁translation	-12.5082
▁festival	-12.5082
▁counter	-12.5082
▁spread	-12.5082
▁broken	-12.5083
▁observation	-12.5083
▁xabdia	-12.5083
▁female	-12.5084
▁1997	-12.5085
▁phlis	-12.5085
▁productive	-12.5085
▁tshiav	-12.5085
▁TAWB	-12.5087
▁Theor	-12.5089
▁TSHEE	-12.5099
▁tsaaj	-12.5101
▁invit	-12.5101
▁NRHO	-12.5102
▁foot	-12.5104
▁kick	-12.5106
▁ntom	-12.5108
▁exchange	-12.512
▁Kee	-12.5129
▁reasoning	-12.5129
▁qaa	-12.5129
19	-12.513
imhiam	-12.5132
LHUB	-12.5135
ajyeeb	-12.5139
▁NTSIA	-12.5144
▁yia	-12.5145
▁muav	-12.5145
Lqn	-12.5145
▁HR	-12.5148
ought	-12.5149
▁nations	-12.5153
tam	-12.5155
ntag	-12.5157
▁AN	-12.5164
loob	-12.5169
ga	-12.517
▁dedicate	-12.5172
▁seeb	-12.5174
MEKAS	-12.5176
▁yard	-12.5177
▁Pum	-12.5179
▁WANT	-12.5186
▁khij	-12.5188
▁Small	-12.5188
▁?....	-12.519
phone	-12.5194
▁KAW	-12.5195
▁Hahahahahahaha	-12.5195
▁195	-12.5199
▁drs	-12.5205
▁xyau	-12.5209
▁mia	-12.5211
vu	-12.5212
▁finish	-12.5225
PX	-12.5226
rua	-12.5227
▁Sex	-12.5235
▁tejno	-12.5235
▁Representative	-12.5237
▁hundred	-12.5237
▁particular	-12.5237
▁compound	-12.5237
▁River	-12.5237
▁throw	-12.5237
▁deport	-12.5237
▁VUAG	-12.5238
▁PAJCAI	-12.5238
▁STUPID	-12.5238
▁turkey	-12.5238
▁Point	-12.5238
▁concept	-12.5238
▁PLUAG	-12.5238
▁Uablag	-12.5238
▁catch	-12.5239
▁Foun	-12.5239
2001	-12.5239
▁firm	-12.5239
▁BLOGLIAB	-12.524
▁khus	-12.5241
▁Tobe	-12.5241
Hamilton	-12.5241
▁nkuj	-12.5242
▁groom	-12.5244
▁thaag	-12.5244
▁TSWJ	-12.5244
tab	-12.5246
▁1999	-12.5247
▁farmer	-12.5247
▁Blogteb	-12.5248
▁TIG	-12.5249
▁79	-12.5249
▁plav	-12.5256
▁rice	-12.5256
▁Nees	-12.5259
▁harmon	-12.5262
▁$4	-12.5263
▁struggle	-12.5267
▁asian	-12.5271
▁WB	-12.5274
▁hahahahah	-12.5276
▁newspaper	-12.5276
▁nploojsiab	-12.5277
▁VM	-12.5278
1967	-12.5279
▁ntseej	-12.5288
▁accident	-12.5289
▁meka	-12.529
▁died	-12.529
▁NTI	-12.5293
▁vaugh	-12.5298
Yeej	-12.5304
▁tone	-12.5307
tawb	-12.5307
▁Sang	-12.5311
txheeb	-12.5315
pub	-12.5326
▁Chuc	-12.5332
ur	-12.5343
▁==	-12.5345
▁Nra	-12.535
olf	-12.5366
TER	-12.5373
plab	-12.5382
ON	-12.5384
43	-12.5387
▁fantas	-12.5388
▁duali	-12.5391
▁LONG	-12.5396
▁Carolina	-12.5396
▁conclude	-12.5396
▁glad	-12.5396
▁Xaivnceb	-12.5396
▁holiday	-12.5397
▁absolute	-12.5397
▁Ntshaw	-12.5398
▁consult	-12.5399
quC	-12.54
▁Txawv	-12.54
▁Texa	-12.5401
▁Khuam	-12.5402
▁HAJ	-12.5403
thuam	-12.5403
▁vajncuab	-12.5404
▁Yej	-12.5406
▁dictionary	-12.5411
LHI	-12.5413
hai	-12.5413
▁vo	-12.5418
▁HLI	-12.5426
▁ntsu	-12.5427
▁Burm	-12.543
depression	-12.5437
▁Hla	-12.5445
▁leejtxiv	-12.5445
▁HERE	-12.5448
▁perform	-12.5451
▁Van	-12.5453
▁phum	-12.5457
thab	-12.5481
▁sun	-12.5488
rg	-12.549
thooj	-12.5495
54	-12.5502
▁ntsoos	-12.5506
▁Thos	-12.5508
▁worse	-12.5513
▁LES	-12.5519
▁views	-12.5531
▁gang	-12.5533
▁LEADER	-12.5538
▁rep	-12.5539
▁relate	-12.5541
▁bigge	-12.5541
▁hin	-12.5545
▁isn	-12.5546
▁duj	-12.5549
▁pobtaw	-12.5554
▁56	-12.5556
▁bangkok	-12.5557
▁discipline	-12.5557
▁pocket	-12.5557
▁Beemoua	-12.5557
▁weakness	-12.5558
npua	-12.5558
▁Professor	-12.5558
▁CEEV	-12.5558
▁$600	-12.5558
▁audience	-12.5558
▁MASTER	-12.5559
▁rally	-12.5559
▁hatred	-12.5559
▁tittle	-12.5559
▁XOV	-12.556
▁NRAUG	-12.556
lias	-12.556
▁Tsawb	-12.556
▁thru	-12.5561
▁nyaablaaj	-12.5561
▁DejNts	-12.5562
▁fuaj	-12.5565
▁thum	-12.5567
▁MONG	-12.5567
▁Ba	-12.5568
▁blua	-12.557
▁tyog	-12.557
▁Forum	-12.5575
▁Port	-12.5576
▁nraw	-12.5577
▁tiom	-12.5577
▁vuas	-12.5577
▁lbs	-12.5578
▁tshawv	-12.5579
▁kutaw	-12.5579
▁Ntujka	-12.5581
▁Nod	-12.5587
▁Nkau	-12.5588
WHP	-12.5591
▁ND	-12.5601
▁yub	-12.5612
▁QAU	-12.5614
lee	-12.5614
▁Khamta	-12.5621
▁priorit	-12.5623
▁Moo	-12.5624
sin	-12.5628
▁tubntxhais	-12.5642
▁ikuv	-12.5643
▁Ntxoo	-12.5644
▁20%	-12.5645
▁Will	-12.5647
▁Nplia	-12.5648
LAND	-12.565
▁43	-12.565
▁der	-12.5651
▁tsislam	-12.5652
ruag	-12.5653
▁ncee	-12.5656
▁yum	-12.5665
HERE	-12.5667
▁tshawj	-12.5669
tsov	-12.5674
NY	-12.5676
▁Kaison	-12.5676
▁review	-12.5679
▁SC	-12.5687
▁nphob	-12.5691
▁fes	-12.5691
AKA	-12.5691
▁phia	-12.5693
tis	-12.5694
▁zi	-12.5698
▁kablia	-12.5704
53	-12.5707
nram	-12.571
94	-12.5713
▁pwv	-12.5719
thong	-12.572
tLS	-12.572
▁universe	-12.5721
▁floor	-12.5721
▁NKAUM	-12.5722
▁NPEEG	-12.5722
▁Hloov	-12.5722
▁deliver	-12.5722
▁TAKE	-12.5722
▁clinic	-12.5723
▁Interesting	-12.5723
▁obama	-12.5723
▁disappear	-12.5723
▁Clair	-12.5724
▁village	-12.5724
▁communication	-12.5724
▁dvd	-12.5725
▁Tsaug	-12.5725
▁juror	-12.5725
▁Mayor	-12.5726
▁pr	-12.5726
▁cwjsoqua	-12.5726
▁books	-12.5727
▁Nraj	-12.5727
▁drug	-12.5727
▁Asmelika	-12.5727
▁milwaukee	-12.5728
kli	-12.5728
▁taa	-12.5731
khong	-12.5731
RUAM	-12.5732
▁1998	-12.5733
▁$3000	-12.5734
▁READ	-12.5735
aij	-12.5736
tOC	-12.574
▁hunter	-12.574
▁heevx	-12.5745
▁zoosab	-12.575
▁LIFE	-12.5751
▁killer	-12.5754
▁nqas	-12.5754
▁tubntsuag	-12.5756
▁wear	-12.5756
▁secretar	-12.5759
=9	-12.576
▁THai	-12.5762
puas	-12.5766
▁khosiab	-12.577
▁xubntia	-12.5774
asmoos	-12.5774
▁sexy	-12.5777
▁75%	-12.5783
xfree	-12.5784
▁Dejdaw	-12.5786
),	-12.5798
▁eliminate	-12.58
▁npeeg	-12.5803
▁topics	-12.5805
▁tri	-12.5807
KEV	-12.5809
iuC	-12.5814
noog	-12.5817
▁kao	-12.582
view	-12.5821
▁access	-12.5826
nyiag	-12.5835
uk	-12.5837
ach	-12.584
▁Ceevfa	-12.5844
ved	-12.5848
▁mess	-12.5853
ino	-12.5854
meo	-12.5856
nce	-12.5857
leC	-12.5871
▁commit	-12.5882
▁regime	-12.5884
▁JESUS	-12.5888
▁ZERO	-12.5888
▁nowaday	-12.5888
▁LOMZEM	-12.5888
▁Enjoy	-12.5888
▁section	-12.5888
▁FOOM	-12.5888
▁LEVEL	-12.5888
▁Hlwb	-12.5889
▁ZAIS	-12.5889
▁CAWV	-12.5889
▁phrase	-12.5889
▁independent	-12.589
▁reaction	-12.589
▁Ncaimtseemnco	-12.589
▁HIM	-12.5891
▁txavtxim	-12.5891
▁reward	-12.5892
▁NOOG	-12.5892
▁nchaav	-12.5894
▁producer	-12.5898
▁OLD	-12.5899
▁RS	-12.59
▁....,	-12.5907
▁plhom	-12.5907
▁Smi	-12.591
giving	-12.5911
▁diaj	-12.5911
Our	-12.5912
▁burn	-12.5915
▁kaim	-12.5915
▁zejzo	-12.5919
▁Qub	-12.5919
▁ibzaug	-12.5926
▁politically	-12.5927
ds	-12.5934
▁74	-12.594
▁SIA	-12.5946
ian	-12.5957
▁Sun	-12.5957
09	-12.5962
dministration	-12.5968
▁yoob	-12.5968
side	-12.5978
▁reli	-12.5987
▁sawd	-12.599
kaus	-12.5998
classified	-12.6001
UG	-12.6007
▁evolve	-12.6014
▁UNITE	-12.6014
▁nqhua	-12.6015
xa	-12.6018
▁exception	-12.6023
dlaab	-12.6023
▁addition	-12.6027
▁Nimno	-12.6032
▁sent	-12.6034
▁xabmai	-12.6035
▁Nin	-12.6037
▁AID	-12.6039
▁De	-12.6042
▁pajpaw	-12.6044
▁Nkaujhmoob	-12.6046
▁Npoj	-12.605
WV	-12.6054
▁Meem	-12.6055
▁Vaugh	-12.6055
▁COMPUTER	-12.6057
▁kitchen	-12.6057
▁difficult	-12.6057
▁iraq	-12.6057
▁previous	-12.6057
▁dangerous	-12.6057
▁Dibiab	-12.6058
ak	-12.6058
▁mormon	-12.6058
▁Quaspuj	-12.6058
▁planning	-12.6058
▁naikhu	-12.6058
▁Vaag	-12.6059
▁cibnyeej	-12.6061
▁afr	-12.6061
▁OH	-12.6062
▁HWM	-12.6062
▁tsaag	-12.6063
▁hiavtxwv	-12.6069
▁pull	-12.6069
khaum	-12.6073
▁Puav	-12.6074
▁Nang	-12.6074
VERY	-12.6076
▁txhog	-12.6076
▁naws	-12.6076
nger	-12.6077
ier	-12.6078
▁Tes	-12.6078
▁Daws	-12.6079
▁nraws	-12.6084
▁vajlug	-12.6089
▁Hlau	-12.6092
▁txhau	-12.6096
▁determine	-12.6096
yob	-12.6097
▁oil	-12.6097
ory	-12.6098
'	-12.61
▁rav	-12.6101
Lqq	-12.6101
▁manage	-12.6105
▁daily	-12.6109
▁CAUS	-12.6117
▁Npab	-12.6121
▁Zaa	-12.6124
xov	-12.6126
▁TSOO	-12.6126
▁Wahou	-12.6128
▁yawb	-12.613
yang	-12.6131
▁Son	-12.6132
nco	-12.614
▁material	-12.6143
▁suicid	-12.6148
▁Rhaw	-12.6149
▁MAKE	-12.6163
shua	-12.6181
Saub	-12.6183
▁hahhahaha	-12.6183
▁cat	-12.6187
tsaig	-12.6188
▁Py	-12.619
▁Meska	-12.6196
ine	-12.6196
▁tabmee	-12.62
all	-12.6205
laaj	-12.6205
▁religions	-12.6213
▁Pak	-12.6216
▁nrua	-12.6217
▁Never	-12.6217
▁Uali	-12.6221
▁evolution	-12.6221
▁oui	-12.6227
amphong	-12.6228
▁ntshoo	-12.623
▁WOULD	-12.623
▁satisfy	-12.623
▁Regard	-12.623
▁mainstream	-12.623
▁TSHAIB	-12.623
▁Conference	-12.623
▁FRESNO	-12.623
▁Lynhiavu	-12.623
▁PHIAJ	-12.623
▁window	-12.6231
▁condemn	-12.6231
▁TRUE	-12.6232
▁BAD	-12.6232
▁Father	-12.6233
▁HSP	-12.6233
▁zaubmov	-12.6233
▁1950	-12.6233
▁development	-12.6235
thana	-12.6236
aw	-12.6236
▁Xyuam	-12.6237
▁Thorps	-12.6237
▁Khib	-12.6237
▁math	-12.624
AIB	-12.6243
▁lawn	-12.6245
▁huag	-12.6245
▁Thim	-12.6246
▁qhu	-12.6247
times	-12.6248
▁ncaa	-12.6249
TES	-12.625
▁rescue	-12.6254
651	-12.6258
▁Lia	-12.6259
▁nkab	-12.6265
il	-12.6268
▁Vaajm	-12.6271
▁cwb	-12.6272
▁doc	-12.6272
▁bat	-12.6274
▁qaim	-12.6274
daus	-12.6275
▁nplaub	-12.6279
▁plov	-12.6282
verage	-12.6282
▁beeveev	-12.6288
ntug	-12.629
log	-12.6291
▁yawj	-12.6293
▁bog	-12.6298
▁blaj	-12.6308
▁LET	-12.6309
▁reduce	-12.631
▁MHoob	-12.6312
NCj	-12.6314
chaws	-12.6316
▁54	-12.6322
▁YOO	-12.6325
tu	-12.6331
bee	-12.6334
nyuam	-12.6339
▁kad	-12.6341
▁mammus	-12.6348
evelopment	-12.6353
them	-12.6354
▁COUNTR	-12.6354
ate	-12.6355
▁region	-12.6359
▁Mouano	-12.6359
mab	-12.6359
▁Khuv	-12.6361
night	-12.6363
▁Tak	-12.6364
▁sawvdaw	-12.6364
DY	-12.6365
LEASE	-12.6365
LWM	-12.6367
▁ntho	-12.6372
▁nchos	-12.6373
▁nplhi	-12.6373
ghais	-12.6375
▁resource	-12.6381
▁thaumkawg	-12.6382
▁Nyaw	-12.6394
west	-12.6396
▁deeg	-12.6396
Xeeb	-12.6397
KIAG	-12.6399
▁pooj	-12.64
▁TURN	-12.6405
▁mountain	-12.6405
▁allegation	-12.6405
▁TXHEEB	-12.6406
▁competition	-12.6406
▁Kingdom	-12.6406
▁intent	-12.6406
▁thoobtsib	-12.6406
▁treatment	-12.6406
WORLD	-12.6406
▁EARTH	-12.6407
▁GROUP	-12.6407
▁NTXIAS	-12.6407
▁MUAM	-12.6407
▁Dara	-12.6407
LqX	-12.6409
▁PUJ	-12.6409
▁---------------	-12.641
▁track	-12.6411
▁LAB	-12.6412
▁nthawv	-12.6412
▁Yaag	-12.6413
▁Did	-12.6414
▁Daum	-12.6415
▁rate	-12.6418
▁hnag	-12.6419
▁Hnia	-12.6419
▁plain	-12.6419
albums	-12.6422
▁Base	-12.6423
▁ntob	-12.6423
▁Oop	-12.6426
▁ntxhe	-12.6427
▁chimx	-12.6427
▁HTT	-12.6432
hiangmai	-12.644
▁Ntaus	-12.6442
▁grave	-12.6444
TEB	-12.6445
▁nyoj	-12.6445
▁telepho	-12.645
▁inform	-12.6454
▁Mivk	-12.6455
rhuav	-12.6456
cawv	-12.6456
▁QH	-12.6457
▁PAY	-12.646
▁Xis	-12.6467
▁spoke	-12.647
sau	-12.6474
▁MIS	-12.6474
▁67	-12.6475
lav	-12.6476
▁gt	-12.6476
▁THING	-12.6485
▁tsooj	-12.6495
auv	-12.651
web	-12.651
pes	-12.6516
▁1500	-12.6522
▁heat	-12.6522
khoom	-12.6524
▁hlas	-12.6528
▁-----	-12.6531
HMOOBRUAM	-12.6533
▁nrhw	-12.6533
TRE	-12.6542
AIV	-12.6544
kim	-12.6545
UV	-12.6547
▁relative	-12.6548
▁devil	-12.6548
nus	-12.6561
▁Ts	-12.6564
▁plaj	-12.6565
lliance	-12.6565
▁WIS	-12.6566
ming	-12.6575
▁mon	-12.6575
▁perhap	-12.6584
▁Republican	-12.6585
▁Region	-12.6585
▁dark	-12.6586
▁buffalo	-12.6586
enant	-12.6587
▁LAKE	-12.6587
▁Sac	-12.6588
▁trial	-12.6589
▁convince	-12.659
▁analyze	-12.6591
▁embass	-12.6592
▁naisphoo	-12.6592
▁Keo	-12.6595
▁Phwvnyaw	-12.6602
ILL	-12.6604
▁KAUB	-12.6605
▁fau	-12.6605
▁thug	-12.6606
▁critical	-12.6609
ka	-12.6611
▁consequences	-12.6613
▁".....	-12.6617
▁osh	-12.6619
▁Vision	-12.662
▁kia	-12.6624
▁tactic	-12.6626
▁Lan	-12.6629
/2010	-12.6633
▁whom	-12.664
nhub	-12.6644
▁TI	-12.6645
▁155	-12.6654
uneral	-12.6654
▁txhaav	-12.6654
▁hahahhahaha	-12.6654
▁mws	-12.6654
▁han	-12.6657
▁cuamtshua	-12.6657
▁Us	-12.6658
▁Khong	-12.6663
▁Ok	-12.6666
show	-12.6681
lu	-12.6684
lig	-12.6687
ike	-12.6691
▁ncov	-12.6692
pw	-12.6713
ling	-12.6716
▁ntshab	-12.6716
RY	-12.6716
▁duaj	-12.6717
kuab	-12.6717
ure	-12.6719
▁Haj	-12.6721
aus	-12.6722
▁tournament	-12.6726
ical	-12.673
▁Leaders	-12.6734
▁Nan	-12.6735
▁:):)	-12.6735
▁txhiam	-12.6737
moj	-12.6754
liv	-12.6754
toua	-12.6763
▁australia	-12.6763
▁valid	-12.6764
▁hohoho	-12.6766
▁SECRET	-12.6766
▁apart	-12.6766
▁survey	-12.6766
▁elaborate	-12.6766
▁potential	-12.6766
▁NYHAV	-12.6766
▁Luther	-12.6766
▁Islam	-12.6766
▁TXHAIS	-12.6766
▁Justice	-12.6766
▁Rhwv	-12.6767
▁attempt	-12.6767
▁DEEV	-12.6768
▁Txajdlis	-12.6768
▁virtual	-12.6769
▁ibtxhis	-12.6769
▁DAO	-12.6769
▁PAUM	-12.6769
▁KWS	-12.6769
▁nhav	-12.677
▁extreme	-12.677
▁NEES	-12.677
▁Rab	-12.6772
▁qoovsua	-12.6772
▁saibx	-12.6773
▁Women	-12.6773
▁HAIB	-12.6774
▁Tiv	-12.6776
▁txhuax	-12.6776
▁Pajcai	-12.6777
▁THIM	-12.6777
▁Heem	-12.6777
▁nkuav	-12.6779
▁Npla	-12.6782
nees	-12.6782
▁Ntshav	-12.6782
▁Xiam	-12.6785
▁JD	-12.6788
▁square	-12.6791
▁86	-12.6792
▁nplais	-12.6793
ekong	-12.6795
▁Khaum	-12.6796
▁demonstrate	-12.68
▁diab	-12.6802
▁hrs	-12.6805
▁Tuav	-12.6805
▁wash	-12.6807
▁pojkoob	-12.6808
▁NK	-12.681
▁lwb	-12.681
Pov	-12.6811
▁planet	-12.6814
▁gover	-12.6815
ol	-12.6817
story	-12.6819
▁Pua	-12.6826
▁Npa	-12.6829
365	-12.6836
▁Abya	-12.6844
▁judgement	-12.6846
▁41	-12.6848
▁reporter	-12.6855
▁qhaab	-12.6855
▁81	-12.6857
ao	-12.6859
▁$30	-12.686
YAWM	-12.6864
▁phee	-12.6865
▁cojdab	-12.6871
nyiam	-12.6871
tsaam	-12.6872
▁Rep	-12.6874
▁host	-12.6877
▁twglos	-12.688
▁70%	-12.6881
pe	-12.6888
▁credibil	-12.689
▁Yo	-12.6892
▁DID	-12.6904
▁male	-12.6911
▁caivplaw	-12.6913
▁Ngu	-12.6915
kis	-12.6917
ning	-12.6917
hiav	-12.6918
▁Phom	-12.6921
Yeeb	-12.6922
▁hahhahah	-12.6926
▁hahhaha	-12.6927
kabxev	-12.6927
▁ncus	-12.6928
▁Laws	-12.693
riday	-12.693
▁heal	-12.6931
▁ring	-12.6931
aG	-12.6931
▁SU	-12.6933
▁rhi	-12.694
frm	-12.6947
▁Russia	-12.6948
▁hmmmmm	-12.6949
▁HAM	-12.695
▁VOTE	-12.6951
▁Khamkeut	-12.6951
▁Great	-12.6951
▁confidential	-12.6951
▁client	-12.6951
▁HAVZOOV	-12.6951
▁tshuag	-12.6952
▁executive	-12.6952
▁Tseev	-12.6952
▁humble	-12.6952
▁Mother	-12.6953
▁Sai	-12.6953
▁Hmooob	-12.6953
▁accurate	-12.6953
▁Blue	-12.6954
▁KASMOOS	-12.6954
▁context	-12.6954
▁discrimination	-12.6954
Lqw	-12.6954
▁Thajkhu	-12.6954
▁Nyajlaj	-12.6955
▁yrs	-12.6955
▁KEEJ	-12.6956
▁match	-12.6956
▁TXAIS	-12.6957
▁khev	-12.696
tswb	-12.6961
▁division	-12.6961
▁COG	-12.6963
▁nkhawb	-12.6964
▁analysis	-12.6965
▁faav	-12.6967
klos	-12.6968
▁founder	-12.6968
▁Nkag	-12.6969
▁structure	-12.697
▁evaluate	-12.6973
▁_	-12.6973
▁")	-12.6975
zza	-12.6976
▁Club	-12.6976
▁Plawv	-12.6977
▁temporar	-12.6978
▁ill	-12.698
▁phlws	-12.6983
▁tasluaj	-12.6984
cab	-12.6994
▁slave	-12.6996
▁COME	-12.6997
▁sports	-12.7002
EJ	-12.7002
tic	-12.7004
▁libert	-12.7011
AAV	-12.7012
kuam	-12.7015
▁dha	-12.7016
eev	-12.7022
ization	-12.7024
sistance	-12.703
txiab	-12.7033
▁PAG	-12.7036
▁nre	-12.7041
xecutive	-12.7043
▁Yawgnom	-12.7044
▁nrha	-12.7048
mo	-12.705
▁OO	-12.705
▁rhau	-12.7059
▁arm	-12.7059
▁multi	-12.7067
MUS	-12.7075
▁sort	-12.7078
savang	-12.7086
▁fast	-12.709
▁Eve	-12.7092
▁skill	-12.7105
txawv	-12.7106
ping	-12.7108
▁Keng	-12.7109
▁nroglawv	-12.711
kawv	-12.7127
▁Cal	-12.713
=5	-12.7137
▁thias	-12.7137
▁bail	-12.7139
▁chu	-12.7139
▁SEX	-12.7139
▁RELIGIO	-12.714
▁Would	-12.714
▁score	-12.714
▁software	-12.714
▁plastic	-12.714
▁VUB	-12.714
▁sweet	-12.714
▁appear	-12.714
▁viagra	-12.7141
▁Csy	-12.7141
▁!!!,	-12.7141
▁committe	-12.7142
▁john	-12.7143
▁thob	-12.7143
▁lajkam	-12.7143
▁STATE	-12.7144
▁PAUV	-12.7144
▁FAMILY	-12.7144
▁driver	-12.7145
my	-12.7145
▁npliaj	-12.7145
▁npws	-12.7146
▁effective	-12.7146
▁npleg	-12.7146
▁Mok	-12.7147
▁NRAUJ	-12.7147
▁skin	-12.7148
▁nrawj	-12.7149
▁BUFFALO	-12.7149
▁1981	-12.715
▁agreement	-12.7152
▁OVER	-12.7153
theeb	-12.7154
▁nthua	-12.7155
▁psychological	-12.7156
ffee	-12.7158
▁Fall	-12.7163
▁qhaim	-12.7169
▁shoppin	-12.7171
▁Haha	-12.7171
▁PHWV	-12.7174
▁Taws	-12.7176
OUS	-12.7182
TS	-12.7185
▁haaj	-12.7187
zaus	-12.7187
▁TXIJ	-12.7188
▁taugkev	-12.719
▁symbol	-12.7193
/07	-12.7195
▁thimxa	-12.7198
▁Npia	-12.7201
▁enter	-12.7205
▁Mu	-12.7209
▁cold	-12.7211
▁Huaj	-12.7215
lag	-12.7219
yoog	-12.7221
▁ten	-12.7221
Farm	-12.7223
radio	-12.7228
chupheng	-12.7231
po	-12.7233
▁neejtsaa	-12.7234
▁yd	-12.7237
files	-12.7237
▁thjia	-12.7239
▁Un	-12.7239
▁LOOJCEE	-12.7242
▁dreams	-12.7242
itarian	-12.7243
▁CH	-12.7246
▁68	-12.725
▁pronoun	-12.7251
▁Sala	-12.7254
▁An	-12.7257
buck	-12.7257
PKM	-12.7267
qha	-12.7268
▁130	-12.7269
ngsy	-12.7273
▁LAI	-12.7273
▁npli	-12.7274
tsuj	-12.7274
▁metal	-12.7277
▁Rhia	-12.728
▁hang	-12.7282
tw	-12.7288
▁lum	-12.7289
rooj	-12.7289
▁dus	-12.7294
▁KIS	-12.7295
▁Sou	-12.7296
tawj	-12.7302
MC	-12.7304
led	-12.7305
▁nak	-12.7308
▁THAN	-12.7311
od	-12.7313
▁Les	-12.7314
▁shoot	-12.7317
▁SHE	-12.7317
▁formal	-12.7318
of	-12.7319
▁Ti	-12.733
▁ntevx	-12.733
▁CHARGE	-12.7332
▁delegate	-12.7332
▁Project	-12.7332
▁obvious	-12.7332
▁Market	-12.7332
▁Chertoua	-12.7332
▁KASXIM	-12.7332
▁Thanksgiving	-12.7333
▁Section	-12.7333
▁explanation	-12.7333
▁hnyuv	-12.7334
▁Beemouachaofa	-12.7335
▁cry	-12.7335
▁THAIV	-12.7336
▁Ave	-12.7336
▁laujkaub	-12.7337
▁Phim	-12.734
▁Read	-12.7341
▁$7	-12.7341
▁session	-12.7343
▁......!	-12.7346
▁Hmu	-12.7349
▁WW	-12.7352
▁zaim	-12.7352
▁Txuas	-12.7355
GAIN	-12.7358
vajusa	-12.7358
▁inter	-12.7361
▁thousands	-12.7366
▁Yogli	-12.7369
▁xxx	-12.7375
▁thiam	-12.7377
ea	-12.7382
MR	-12.7382
▁phlaw	-12.7386
ngry	-12.7388
▁$5000	-12.7391
ish	-12.7393
lais	-12.7394
▁ntseem	-12.7402
▁94	-12.7403
lfc	-12.7406
OG	-12.741
pwg	-12.7414
forms	-12.742
▁daab	-12.7424
▁!!!!!!!	-12.7424
ou	-12.7426
▁Chu	-12.7429
▁cho	-12.743
▁loan	-12.7431
▁caas	-12.7447
▁multipl	-12.7449
YI	-12.7452
VE	-12.7453
▁AR	-12.7453
▁ncw	-12.7454
▁gate	-12.7457
▁kh	-12.7458
▁txhimkh	-12.7458
▁liar	-12.7458
▁feature	-12.7459
▁Uabny	-12.746
zeej	-12.746
ay	-12.7462
▁khiv	-12.7465
ablaj	-12.7476
LqN	-12.7477
▁tshwjxee	-12.7479
phd	-12.7482
txom	-12.7482
ncaug	-12.7484
▁ntswm	-12.7484
▁xat	-12.7485
▁Bouam	-12.7493
▁thos	-12.7498
▁...!!!	-12.7498
▁Vis	-12.75
xiv	-12.7501
▁cum	-12.7501
▁Hoob	-12.7503
▁Ra	-12.7504
▁identif	-12.7505
▁singer	-12.7508
npis	-12.751
thaib	-12.7511
▁Cuam	-12.7511
nkawv	-12.7513
▁DI	-12.7518
=6	-12.752
▁sea	-12.7523
▁Mysterious	-12.7528
▁Pilot	-12.7528
▁dynast	-12.7528
▁initial	-12.7528
▁instinct	-12.7528
▁Official	-12.7528
▁quiet	-12.7528
▁Yeah	-12.7528
▁tribal	-12.7528
▁TXIAJ	-12.7529
▁resolution	-12.7529
▁nplaam	-12.7529
▁YawgLaus	-12.7529
▁investment	-12.7529
▁dawwg	-12.753
library	-12.753
▁accusation	-12.753
▁kauslim	-12.753
▁punish	-12.753
▁TWV	-12.7531
▁friendship	-12.7531
▁surger	-12.7531
▁PIM	-12.7531
▁famous	-12.7532
LqK	-12.7532
▁backward	-12.7532
▁heheheheh	-12.7533
▁Yessu	-12.7534
▁flag	-12.7534
▁BANK	-12.7535
▁SOOB	-12.7536
▁npleem	-12.7536
▁Kws	-12.7536
▁engineering	-12.7537
▁Does	-12.7537
▁talks	-12.7538
▁Xuas	-12.7539
caimtseemnco	-12.7541
▁il	-12.7541
▁chery	-12.7542
iag	-12.7544
▁qhaa	-12.7545
▁Luangpraban	-12.7546
▁practices	-12.7548
ow	-12.755
▁Yaw	-12.7553
▁Khamtai	-12.7556
Liy	-12.7556
▁spot	-12.7557
▁advertise	-12.7558
▁EVERY	-12.756
▁nrhiab	-12.7561
ZW	-12.7563
▁Moobthaibteb	-12.7564
ongmeng	-12.7565
▁op	-12.7574
▁meat	-12.7581
▁replace	-12.7582
▁Nplaj	-12.7583
▁dejsiab	-12.7586
▁zia	-12.7588
hmo	-12.7588
▁Mog	-12.7598
▁ad	-12.7598
▁Cuaj	-12.7598
▁Kia	-12.7601
▁tsamno	-12.7602
nless	-12.7605
list	-12.761
▁nplo	-12.7612
▁Thaks	-12.7617
▁cyber	-12.762
▁pop	-12.7622
personality	-12.7622
tsa	-12.7622
▁Vias	-12.7626
blog	-12.7626
IAB	-12.7627
wood	-12.7629
LiB	-12.7632
▁62	-12.7635
Ly	-12.7637
ler	-12.7639
▁Stop	-12.7641
▁Chanthala	-12.7643
▁sem	-12.765
▁wishe	-12.766
qeej	-12.7662
▁mees	-12.7665
MENT	-12.7679
Kuv	-12.768
▁kavhlau	-12.7681
uY	-12.7685
▁chong	-12.7689
▁yuavtau	-12.7691
▁Nya	-12.7693
▁OD	-12.7694
▁BI	-12.7694
▁thousand	-12.7694
▁Clan	-12.7698
▁Lej	-12.7698
pictures	-12.7701
▁tsauj	-12.7701
▁reform	-12.7705
▁iob	-12.7706
hlo	-12.7711
▁poster	-12.7714
pheng	-12.7716
mfu	-12.7716
▁Txojkev	-12.7717
▁Federat	-12.7717
▁dauv	-12.7721
▁hunt	-12.7725
▁adverb	-12.7728
▁entitle	-12.7728
▁demonstration	-12.7728
▁hamburger	-12.7728
▁curious	-12.7728
▁PhoojYwg	-12.7728
▁BACK	-12.7729
▁CUAM	-12.7729
▁Fund	-12.7729
▁Wrong	-12.773
▁poison	-12.773
▁road	-12.7732
▁FWJ	-12.7732
▁tswjhwm	-12.7732
▁Xum	-12.7733
▁patient	-12.7734
▁vaug	-12.7737
▁transfer	-12.7738
▁fly	-12.774
▁BV	-12.7743
▁....?	-12.7745
▁hw	-12.7745
▁mayor	-12.7747
▁PHUV	-12.7748
▁WELL	-12.7751
pojniam	-12.7756
▁qoo	-12.7756
▁PART	-12.7757
▁tsee	-12.7761
▁pawglug	-12.7762
95	-12.7768
YTT	-12.7768
▁lubtsev	-12.7769
▁qij	-12.777
▁95	-12.7773
▁en	-12.7781
tsuas	-12.7782
hab	-12.7791
▁$2000	-12.7793
▁ntsawg	-12.7795
▁Luck	-12.7795
ouk	-12.7797
▁Gau	-12.7806
▁DAM	-12.7808
▁phlw	-12.7808
Next	-12.7809
▁dlawm	-12.7809
humanright	-12.7815
rize	-12.7817
▁xes	-12.7824
TH	-12.7826
▁Shu	-12.7826
▁successful	-12.7827
niag	-12.7838
post	-12.7843
▁!..	-12.7843
qhua	-12.7849
▁huvsi	-12.7849
▁Yao	-12.7855
▁nquas	-12.7856
▁Khi	-12.7856
ir	-12.7858
▁birth	-12.7862
▁AIM	-12.7862
▁nrogkuv	-12.7869
yeah	-12.7872
city	-12.7874
▁haa	-12.7876
▁..!	-12.7878
Zoo	-12.7879
▁referr	-12.7882
foob	-12.7882
▁plaus	-12.7883
yus	-12.7883
saab	-12.7885
ooblwj	-12.7886
▁bone	-12.7891
▁battle	-12.7898
KPg	-12.7899
▁prison	-12.7903
▁Pav	-12.7904
▁COM	-12.7909
mdub	-12.7915
▁VAAJ	-12.7916
KAWG	-12.7917
▁Zen	-12.7918
▁Tshaaj	-12.7927
sua	-12.7929
▁LY	-12.793
kota	-12.7931
▁SHOULD	-12.7932
▁stuff	-12.7932
▁Hawaii	-12.7932
▁chemical	-12.7932
▁TXHEEV	-12.7932
▁Assembly	-12.7932
▁Lieut	-12.7932
▁McCain	-12.7932
▁CWJ	-12.7933
▁entire	-12.7933
▁fulfill	-12.7933
▁QHUAV	-12.7933
▁earlie	-12.7933
▁kaosiab	-12.7934
▁BORN	-12.7934
▁jhaw	-12.7934
▁LVTL	-12.7934
▁Team	-12.7934
▁Thaam	-12.7935
▁caa	-12.7936
▁nqog	-12.7937
▁KHUAJ	-12.7938
▁Korean	-12.7939
▁function	-12.7939
▁obpeb	-12.7942
▁mnus	-12.7943
nrho	-12.7944
▁64	-12.7944
%26	-12.7945
▁yoom	-12.7945
▁nreb	-12.7946
▁chaav	-12.7946
▁powerful	-12.7948
▁Au	-12.7949
▁democratic	-12.7951
▁Kh	-12.7951
▁kin	-12.7952
▁hmmmm	-12.7953
▁pawm	-12.7957
so	-12.7957
▁,,,,,	-12.7958
▁newhom	-12.7958
▁norm	-12.7966
▁$6	-12.7966
ories	-12.7966
xyooj	-12.7973
▁tasx	-12.7976
ichiga	-12.7981
dee	-12.7988
▁Dov	-12.7989
iane	-12.7989
▁KING	-12.7991
▁jur	-12.7995
▁educational	-12.7998
yaus	-12.7998
yau	-12.8
▁LUV	-12.8003
▁zaumno	-12.8008
▁Xas	-12.8019
▁tsuvtu	-12.8026
▁xy	-12.8032
ntsug	-12.8033
ien	-12.8041
▁xwbx	-12.8042
▁forth	-12.8044
cuag	-12.8047
oops	-12.8047
WM	-12.8049
▁factor	-12.805
=2	-12.8057
▁hnyo	-12.8058
▁farm	-12.8059
OUT	-12.8063
▁nplu	-12.8068
▁Xaivxw	-12.8074
▁Npuas	-12.8075
▁qablos	-12.808
▁Back	-12.8087
▁legac	-12.8089
▁Nruab	-12.8091
78	-12.8096
▁AU	-12.8101
YEEJ	-12.8109
maha	-12.8109
▁101	-12.8112
▁dlaabqhua	-12.8113
▁sum	-12.8114
▁twin	-12.8115
xoom	-12.8117
▁tsismuaj	-12.8119
▁sojntsua	-12.812
▁CAUG	-12.812
▁Vajlug	-12.8121
▁ntxhas	-12.8126
▁mak	-12.8127
▁laaglua	-12.8127
▁tshu	-12.8129
poob	-12.8132
pam	-12.8133
▁india	-12.8138
▁democrat	-12.8139
MESKAS	-12.8139
▁MEMTOJ	-12.814
▁agencies	-12.814
▁Commission	-12.814
▁complex	-12.814
▁WHEN	-12.814
▁Standard	-12.814
▁Valentine	-12.8141
▁professionalism	-12.8141
▁agency	-12.8141
▁permission	-12.8141
▁wild	-12.8141
▁outcome	-12.8141
▁ALASKA	-12.8141
▁COMMUNIST	-12.8141
▁QAUM	-12.8141
▁prime	-12.8142
▁CIM	-12.8142
▁CUAG	-12.8142
▁NCEJ	-12.8142
▁Phonesavan	-12.8142
▁nthoob	-12.8142
▁Xyau	-12.8142
▁province	-12.8143
▁tourist	-12.8144
▁apologize	-12.8144
▁taagnrho	-12.8144
▁hnuv	-12.8145
witz	-12.8145
▁bridge	-12.8147
luas	-12.8148
▁Thum	-12.8148
▁Big	-12.8148
▁barbari	-12.8154
▁zone	-12.8155
▁LIAJ	-12.8155
▁asp	-12.8156
▁1964	-12.8156
▁Nyag	-12.8156
strategies	-12.8158
▁COMMUNISM	-12.8158
▁Lang	-12.8159
▁qwv	-12.8161
▁res	-12.8161
▁lor	-12.8163
KHAIB	-12.8164
▁Noo	-12.8167
▁Ye	-12.8168
arried	-12.8168
▁diploma	-12.8169
nb	-12.8169
▁TAM	-12.817
dhau	-12.8173
▁global	-12.8178
ither	-12.8187
XM	-12.8191
haws	-12.8192
▁taabsi	-12.8194
COM	-12.8194
▁Movie	-12.8202
ball	-12.8204
▁Som	-12.8205
▁Koomtsha	-12.8206
▁plos	-12.8212
ide	-12.8212
▁HMT	-12.8218
eme	-12.8222
khaws	-12.8225
▁mug	-12.8227
▁PhwvNyaw	-12.8228
tsoom	-12.8229
kig	-12.8231
▁nkaujfa	-12.8232
▁Km	-12.8239
coob	-12.824
Thaib	-12.8242
▁1600	-12.8242
siav	-12.8247
ge	-12.8251
▁VaajM	-12.8255
are	-12.8256
▁phaws	-12.8256
deb	-12.8256
▁Txia	-12.8263
▁Mon	-12.8274
▁Kubxa	-12.8279
tujlub	-12.828
▁Serv	-12.8283
body	-12.8283
ancy	-12.8288
▁kiddi	-12.8294
ntxub	-12.8301
▁Hwj	-12.8301
1989	-12.8316
.....	-12.8318
gan	-12.8318
▁Vat	-12.8323
▁saving	-12.8325
▁Ntxhw	-12.8326
▁Nyaab	-12.8327
mim	-12.8327
do	-12.8329
nyeem	-12.8331
▁looks	-12.8333
▁Lyte	-12.8333
▁COB	-12.8334
▁IQ	-12.8336
ngland	-12.8337
▁reserve	-12.8343
▁owe	-12.8347
▁xoj	-12.8349
vog	-12.835
▁Congratulation	-12.8353
▁Lacross	-12.8353
▁ZHEN	-12.8353
▁TALK	-12.8353
▁Taiwan	-12.8353
▁extend	-12.8354
▁felt	-12.8354
▁nko	-12.8354
▁psychologist	-12.8355
▁Language	-12.8355
▁NTXOOG	-12.8355
plaub	-12.8355
▁MLM	-12.8356
▁Kujxaj	-12.8357
▁yw	-12.8358
▁pujntxoog	-12.8358
▁porn	-12.8358
▁vivncaus	-12.8359
▁hmmm	-12.836
▁dws	-12.8363
▁hajtsi	-12.8364
▁Caij	-12.8364
▁ntivtes	-12.8365
▁NAIS	-12.8365
▁lajfai	-12.8366
/50	-12.8366
▁Muslim	-12.8368
▁Phonsavan	-12.8369
▁xyaab	-12.8377
▁novqaab	-12.8378
▁UNCLE	-12.8378
▁ncaajncee	-12.8378
▁Yum	-12.838
▁Kaum	-12.8381
▁statistic	-12.8381
▁kij	-12.8383
▁Najkhoo	-12.8385
▁establish	-12.8385
▁PARK	-12.839
▁koobmoo	-12.839
▁$15	-12.839
ntsa	-12.8392
resources	-12.8393
▁mp	-12.8395
▁fully	-12.8398
▁rug	-12.8402
▁maib	-12.8408
▁npoog	-12.8412
▁rid	-12.8414
erland	-12.8415
▁temple	-12.8417
▁!!!!!!!!	-12.8418
▁Txawjxoo	-12.8421
▁dialects	-12.8424
▁yuglos	-12.8424
▁MOST	-12.8425
▁nhiav	-12.8428
▁automatic	-12.8429
▁nyai	-12.8433
cem	-12.8434
aaj	-12.8438
▁yawv	-12.8444
▁sell	-12.8449
NCEES	-12.8449
zoov	-12.8452
▁command	-12.8458
▁shoe	-12.8459
▁bav	-12.8473
▁Down	-12.8482
▁fat	-12.8482
▁rus	-12.8485
thao	-12.8487
▁Kip	-12.8491
ana	-12.8499
▁hehehehehehehe	-12.8499
▁NOS	-12.85
▁ntxw	-12.8501
LESS	-12.8514
half	-12.8518
▁phlo	-12.8521
▁trap	-12.8524
npab	-12.8527
xxx	-12.8527
PAB	-12.8533
▁taslos	-12.8533
▁corner	-12.8534
▁bird	-12.8534
▁consequence	-12.8535
gen	-12.8536
▁weapon	-12.8536
▁qaabzi	-12.8536
▁neg	-12.8537
=-	-12.8544
zaj	-12.8547
tou	-12.8553
xej	-12.8556
▁nkee	-12.8557
IRS	-12.8557
wn	-12.8562
rlington	-12.8563
▁discover	-12.8563
▁compani	-12.8563
IN	-12.8567
▁VIETNAM	-12.857
▁orgasm	-12.857
▁caabsaab	-12.8571
▁pyramid	-12.8571
▁recommendation	-12.8571
▁xijpeem	-12.8571
▁ZUAJ	-12.8571
▁qoov	-12.8572
▁Pacha	-12.8572
▁unique	-12.8572
▁Foreign	-12.8572
▁connect	-12.8572
▁Asmeliskas	-12.8572
▁Nyuaj	-12.8573
▁password	-12.8574
▁leemcai	-12.8574
▁calendar	-12.8574
▁Buddhism	-12.8574
▁BETTE	-12.8574
▁KHOOM	-12.8575
▁HAWJ	-12.8575
HA	-12.8576
▁Zabdag	-12.8577
▁Foob	-12.8578
▁LyFo	-12.8578
▁xwmkab	-12.8579
▁physically	-12.8579
▁locha	-12.858
▁YUAG	-12.858
▁Tax	-12.858
▁HIV	-12.8581
▁numbers	-12.8581
▁network	-12.8582
▁Cev	-12.8584
▁NTAUB	-12.8584
hia	-12.8585
▁torture	-12.8585
▁84	-12.8587
▁maker	-12.8587
▁reverse	-12.8588
▁chom	-12.8591
idden	-12.8594
▁coin	-12.8594
ouang	-12.8601
▁nplawv	-12.8601
▁thaw	-12.8602
▁seat	-12.8603
▁loose	-12.8603
▁Com	-12.8612
▁DL	-12.8613
▁CHA	-12.8618
▁Peg	-12.8618
▁Cheeb	-12.8619
ANCE	-12.8623
▁Individual	-12.8624
sing	-12.8632
▁Seem	-12.8634
****************	-12.8636
▁phuas	-12.8637
▁churches	-12.8638
▁Roman	-12.8638
▁kees	-12.8643
kept	-12.8645
SA	-12.865
▁Hmonglao	-12.8658
taff	-12.8663
▁Hue	-12.8664
▁cure	-12.8672
▁NTSA	-12.8673
▁koomtxoo	-12.8688
▁resist	-12.869
▁sale	-12.8692
xy	-12.8693
▁Vi	-12.8694
kib	-12.8703
▁ntxhee	-12.8709
UAV	-12.8721
yag	-12.8726
ATF	-12.8728
▁thabhaa	-12.8732
Form	-12.8733
▁TSOOB	-12.8734
txoj	-12.874
zaub	-12.8741
DAWS	-12.8741
bc	-12.8745
▁Xh	-12.8748
▁scare	-12.875
▁za	-12.875
▁indicate	-12.8751
raug	-12.8752
dlua	-12.8756
▁pound	-12.8758
▁product	-12.876
cycle	-12.8761
▁neo	-12.8761
das	-12.877
▁niamtsev	-12.8773
▁)..	-12.8775
▁tshajli	-12.8777
avong	-12.8781
▁admit	-12.8784
dlev	-12.8784
tswj	-12.8785
▁tel	-12.8787
▁Pop	-12.8789
▁Lytec	-12.8792
▁Oklahoma	-12.8793
▁Program	-12.8793
▁ISSUE	-12.8793
▁Jewish	-12.8793
▁Terrorist	-12.8793
▁garage	-12.8793
▁NTOG	-12.8793
▁nongkhai	-12.8793
▁TSUAG	-12.8793
▁ceremon	-12.8793
▁dismiss	-12.8793
▁signature	-12.8794
▁illness	-12.8794
▁involvement	-12.8794
▁mivmiv	-12.8794
▁Tuamlijkoo	-12.8795
▁NAME	-12.8795
zej	-12.8795
▁AGREE	-12.8796
▁tubcajces	-12.8796
▁PEEV	-12.8797
▁Npawv	-12.8797
▁dias	-12.8797
▁Thanouxa	-12.8797
▁concret	-12.8798
▁npwg	-12.8798
▁TSWB	-12.8799
▁NR	-12.8799
tive	-12.88
▁KIM	-12.88
▁PUBLIC	-12.8803
/2011	-12.8804
▁Taw	-12.8804
▁equally	-12.8805
▁lease	-12.8806
▁Satan	-12.8807
▁kawgli	-12.8808
▁Ntxoog	-12.8808
▁CAM	-12.8812
aa	-12.8813
yij	-12.8816
▁Tees	-12.8819
▁taste	-12.8819
golden	-12.8821
▁QHO	-12.8822
▁HmongLao	-12.8823
▁maus	-12.8825
▁gag	-12.8827
▁tip	-12.8828
ssara	-12.883
▁assum	-12.8833
▁ntsus	-12.8845
xaum	-12.8847
nm	-12.8848
▁GOT	-12.885
▁Uatsau	-12.8851
▁zaugli	-12.8852
▁viet	-12.8853
▁DAI	-12.8854
old	-12.8862
▁Ntxia	-12.8864
▁bear	-12.8866
vxwm	-12.887
aiv	-12.8874
▁measure	-12.8876
▁QE	-12.8876
▁-------------	-12.8878
veral	-12.8878
▁Fu	-12.8885
▁ran	-12.8888
moog	-12.8889
▁Khoue	-12.889
▁award	-12.889
que	-12.8891
OOB	-12.8893
▁allerg	-12.8896
▁Asca	-12.8899
06	-12.8904
fe	-12.8906
▁appointe	-12.8906
ABLE	-12.8912
qees	-12.8912
▁lak	-12.8914
OOS	-12.8926
▁82	-12.8928
nna	-12.8937
▁faiv	-12.8938
TSUM	-12.8941
▁maav	-12.8948
▁nrhai	-12.8953
▁Ai	-12.8961
world	-12.8961
toog	-12.8962
▁moon	-12.8964
ku	-12.8968
yard	-12.897
▁Yab	-12.897
xws	-12.8975
ZKY	-12.8976
▁Thoos	-12.8979
▁prediction	-12.8982
▁5$	-12.8982
▁fuabtai	-12.8985
▁ntha	-12.8991
▁PLAY	-12.8991
ros	-12.8994
▁hlu	-12.8994
▁bi	-12.8995
chang	-12.8996
▁xem	-12.9001
▁verse	-12.9003
▁daiv	-12.9006
▁ncuj	-12.9014
▁remove	-12.9016
▁hole	-12.9018
tsiab	-12.9018
▁complicate	-12.902
▁participant	-12.902
▁Reagan	-12.902
▁SMELT	-12.902
▁Misliskas	-12.902
▁empty	-12.902
▁destruction	-12.902
▁txwjnkawm	-12.902
▁xuajmoos	-12.902
Pajnplaimcua	-12.902
▁immediate	-12.902
▁Faajkum	-12.9021
▁adultery	-12.9021
▁Leadership	-12.9021
nuC	-12.9021
▁independence	-12.9021
▁offense	-12.9021
▁gangster	-12.9022
▁orange	-12.9022
▁Today	-12.9022
▁exile	-12.9023
txhob	-12.9024
▁Jay	-12.9024
▁yellow	-12.9024
▁speed	-12.9024
▁CHINA	-12.9025
▁Zajlaug	-12.9026
▁Kauj	-12.9026
▁dovtawm	-12.9028
▁phou	-12.9029
▁AMERICAN	-12.903
▁impress	-12.903
▁Cem	-12.9031
EB	-12.9033
▁CIAM	-12.9033
▁Sue	-12.9035
▁Txiav	-12.9035
host	-12.9037
▁qaav	-12.9038
▁settle	-12.904
▁acting	-12.9041
▁LAG	-12.9045
▁900	-12.9058
▁nyha	-12.9059
▁CI	-12.906
▁faabki	-12.9061
▁yawgnom	-12.9061
▁Pem	-12.9067
menyuam	-12.9069
▁cycle	-12.907
▁trade	-12.9072
▁haug	-12.9079
▁christ	-12.908
vd	-12.9081
ize	-12.9082
herself	-12.9082
lom	-12.9085
▁hlai	-12.9086
▁pebhmoob	-12.9086
▁nc	-12.9087
22	-12.9091
OV	-12.9092
cais	-12.9099
▁Pes	-12.9101
▁LOO	-12.9105
thaj	-12.9108
▁phawv	-12.9109
▁organ	-12.911
▁treasure	-12.9111
▁khais	-12.9111
▁paste	-12.9118
toojcua	-12.9126
▁laajfa	-12.9128
▁LHO	-12.9129
▁nreej	-12.9136
▁Dam	-12.9141
▁tr	-12.9153
▁tablaj	-12.9155
▁Max	-12.9156
hong	-12.9157
xu	-12.9158
▁blow	-12.916
▁Mavta	-12.916
▁Nuv	-12.9171
▁dli	-12.9171
qaug	-12.9171
▁201	-12.9176
▁believer	-12.918
▁tech	-12.9181
Mexico	-12.919
▁paint	-12.9193
Neohom	-12.92
Dok	-12.9201
field	-12.9202
▁Friend	-12.9207
▁HEM	-12.9214
▁Eco	-12.9214
▁sawvkev	-12.9217
▁geo	-12.9219
Tuam	-12.9219
hupheng	-12.9223
▁tea	-12.923
▁receipt	-12.923
▁LIVE	-12.9231
▁mile	-12.9232
▁nyobzoo	-12.9233
yer	-12.9235
▁betray	-12.9238
his	-12.9238
▁fus	-12.9239
▁flow	-12.924
▁61	-12.9246
▁submit	-12.9249
luv	-12.9249
▁lostsua	-12.9251
▁NAJKHAV	-12.9253
▁ocean	-12.9253
▁wikileak	-12.9253
▁enomy	-12.9253
▁XYAUM	-12.9253
▁NKEEG	-12.9253
▁ladies	-12.9253
▁monday	-12.9253
▁thawjx	-12.9253
▁failure	-12.9253
▁yesterday	-12.9253
▁selfish	-12.9253
▁escape	-12.9253
▁Palestine	-12.9253
▁resolve	-12.9253
▁Town	-12.9253
▁flirt	-12.9253
▁Engineer	-12.9253
▁investigation	-12.9253
▁criteria	-12.9253
▁NYAS	-12.9253
▁QAV	-12.9254
▁brand	-12.9254
▁PERSON	-12.9254
▁fuabcua	-12.9254
▁narrow	-12.9254
▁Hill	-12.9254
▁negotiate	-12.9254
▁TRAS	-12.9255
▁brush	-12.9256
▁TSAWV	-12.9256
▁TXHIAB	-12.9258
▁PLAUB	-12.9258
▁Zeej	-12.9259
▁Old	-12.926
▁NEWS	-12.926
▁Noogdej	-12.926
▁petition	-12.9261
▁Koum	-12.9264
▁acceptable	-12.9264
▁mentally	-12.9268
▁tshij	-12.9269
▁shut	-12.9274
▁Moobdlawb	-12.9275
▁serv	-12.9275
▁rent	-12.9276
▁HWJ	-12.9277
▁__________	-12.9277
▁technical	-12.9279
▁damn	-12.9279
▁KOS	-12.9282
▁pack	-12.9282
pb	-12.9282
▁Tawv	-12.9283
▁tseemx	-12.9289
▁notice	-12.9289
arry	-12.9289
▁BM	-12.929
▁sincere	-12.9292
pum	-12.9292
▁Maslis	-12.9293
▁joe	-12.9297
piav	-12.9302
▁Bang	-12.9302
▁bet	-12.9312
▁tru	-12.9313
▁mature	-12.9313
iac	-12.9315
▁guide	-12.9316
▁bang	-12.9319
▁quavntse	-12.9319
▁Sher	-12.9324
ntxawm	-12.9325
tsho	-12.9332
▁pic	-12.9343
▁Hinheu	-12.9345
▁!!!!!!!!!	-12.9346
▁--------------	-12.9346
▁RAW	-12.9351
▁songs	-12.9351
▁Bac	-12.9353
▁Same	-12.9355
▁Sem	-12.9355
les	-12.9357
▁Nok	-12.936
▁Tsha	-12.9374
▁ntxho	-12.9376
hood	-12.9376
▁cy	-12.9387
▁Xyeejts	-12.939
nyaum	-12.9396
▁Bus	-12.9404
▁sibkho	-12.9406
▁emotion	-12.942
▁125	-12.9425
▁__	-12.9427
▁nkoo	-12.943
qhuav	-12.9431
▁named	-12.9432
▁Nplua	-12.9433
yuaj	-12.9436
pobzeb	-12.9439
Ntsuab	-12.9439
▁ZN	-12.9441
One	-12.9441
NIA	-12.9446
thwm	-12.9452
▁quam	-12.9453
▁van	-12.9454
▁scene	-12.9455
▁educator	-12.9455
▁xubx	-12.9459
__	-12.9466
seeb	-12.9468
▁Nosavan	-12.9472
▁buil	-12.9473
▁PHIM	-12.9475
ba	-12.9476
▁Hehehehe	-12.9483
▁island	-12.9486
▁Find	-12.9487
▁ibsij	-12.9489
▁OWN	-12.949
▁SHOW	-12.9491
▁ancestor	-12.9491
▁occasion	-12.9491
▁classify	-12.9491
▁Doyle	-12.9491
▁Isreal	-12.9491
▁clarification	-12.9491
▁TSHAWB	-12.9491
▁crisis	-12.9491
▁Tshwj	-12.9491
▁TXUJCI	-12.9491
▁Forward	-12.9491
▁CAUJ	-12.9492
▁boat	-12.9492
▁talent	-12.9492
▁Ntxub	-12.9493
▁TSHWM	-12.9493
▁HUABTAIS	-12.9493
▁salary	-12.9493
▁curse	-12.9493
YAG	-12.9493
▁Naikhu	-12.9494
▁npwb	-12.9494
▁NTIAV	-12.9494
▁KHAWS	-12.9494
▁NROOG	-12.9495
▁CAUB	-12.9495
▁VIm	-12.9495
▁wheel	-12.9495
▁TEEM	-12.9496
▁unto	-12.9496
▁Come	-12.9496
▁sake	-12.9496
▁Nyabla	-12.9497
▁XUM	-12.9497
▁hlwv	-12.9498
▁Patikan	-12.9498
▁TEM	-12.9499
▁nruaj	-12.9499
▁thuaj	-12.9501
▁Cambodian	-12.9501
▁TABSI	-12.9502
▁Care	-12.9502
▁nplob	-12.9503
▁tsoog	-12.9503
▁Khaab	-12.9506
▁Kevcai	-12.9508
cv	-12.9508
▁====	-12.9509
▁ch	-12.9509
▁minds	-12.9509
khawm	-12.9512
▁TXHA	-12.9512
▁ntsiagto	-12.9514
▁Bla	-12.9515
▁KUAM	-12.9515
▁nplab	-12.9515
cast	-12.9516
▁HAND	-12.9517
opher	-12.9519
▁thawjthiab	-12.9519
▁40%	-12.9526
▁nqib	-12.9528
▁leng	-12.953
tting	-12.9531
▁TE	-12.9533
▁555555	-12.9537
nim	-12.9539
zuag	-12.9541
▁$800	-12.9541
▁AWB	-12.9544
▁xabpha	-12.9546
ntxiv	-12.9547
▁Npl	-12.9556
pi	-12.9559
▁pebhmoobrua	-12.9559
▁NPAU	-12.9559
=7	-12.956
hawj	-12.9564
▁xyee	-12.9564
▁kips	-12.9565
XUS	-12.9566
▁ntoog	-12.9569
KING	-12.9571
▁Npas	-12.9574
hur	-12.9575
▁Pebhmoobrua	-12.958
▁==============	-12.958
sao	-12.9581
tshum	-12.9586
▁Paoze	-12.9586
6000	-12.9591
fg	-12.9597
Paul	-12.9598
▁DAY	-12.9598
▁txauv	-12.9606
nyas	-12.961
▁ip	-12.961
hornspear	-12.9614
▁Vab	-12.9617
ijhawm	-12.9624
▁paubqab	-12.9624
▁nyoojhoo	-12.9626
aav	-12.9627
▁som	-12.9627
txhais	-12.9632
▁Tubcajces	-12.9634
laws	-12.9634
qau	-12.9638
▁ntawn	-12.9641
ERS	-12.9641
=4	-12.9643
af	-12.9644
▁hauvlub	-12.9645
lt	-12.9645
daj	-12.9645
▁Nru	-12.9648
▁Kai	-12.965
ft	-12.9653
▁carp	-12.9653
▁lock	-12.9655
▁believ	-12.9661
PLIS	-12.9663
ht	-12.9667
enty	-12.9669
nawb	-12.9671
mode	-12.9676
ancient	-12.9676
▁TABTO	-12.9678
▁heej	-12.968
TSIS	-12.9681
charter	-12.9681
▁PUA	-12.9688
▁pij	-12.969
▁shop	-12.9693
den	-12.9693
Dag	-12.9695
NG	-12.9696
▁Vibnai	-12.9697
▁gaw	-12.9697
RS	-12.9699
▁guard	-12.97
▁LEG	-12.9701
aug	-12.9716
▁Nta	-12.9717
▁gold	-12.9718
tage	-12.9721
▁Qw	-12.9722
▁mib	-12.9723
▁hlaw	-12.9728
▁ndla	-12.9729
▁trace	-12.9731
▁Dekfangkh	-12.9732
▁Suprem	-12.9735
▁immigrant	-12.9735
▁shift	-12.9735
▁spring	-12.9735
▁summary	-12.9735
▁airport	-12.9735
▁DULUG	-12.9735
▁Easter	-12.9735
▁Self	-12.9735
▁recognition	-12.9735
▁creator	-12.9735
▁superior	-12.9735
▁Martin	-12.9735
▁Member	-12.9735
▁indeed	-12.9735
▁manner	-12.9735
▁nationalism	-12.9736
▁Boum	-12.9736
▁intelligent	-12.9736
▁ghost	-12.9736
▁Nyaaj	-12.9737
▁minneapolis	-12.9737
▁critique	-12.9738
▁mluas	-12.9738
▁northern	-12.9738
▁lecture	-12.9738
▁House	-12.9738
▁NQEEB	-12.9738
▁district	-12.9739
▁QHEV	-12.9739
▁Caj	-12.974
▁ZAG	-12.974
▁grammar	-12.974
▁tubnkeeg	-12.974
▁indian	-12.9741
%	-12.9741
▁ntxheev	-12.9742
▁tshuv	-12.9743
▁Original	-12.9744
▁COL	-12.9744
▁nan	-12.9745
▁DUAB	-12.9746
dont	-12.9746
anthon	-12.9747
▁Kongphan	-12.9749
▁tisbe	-12.9749
▁ntxug	-12.9752
▁Ncaim	-12.9753
▁txoom	-12.9753
▁nhro	-12.9754
▁adam	-12.9754
▁required	-12.9755
▁candy	-12.9757
▁Tsuv	-12.9758
paab	-12.9759
▁Lake	-12.9759
▁khaab	-12.9763
▁haulwm	-12.9764
▁Train	-12.9764
tso	-12.9767
▁Cuav	-12.9768
structive	-12.9768
ority	-12.977
aison	-12.9771
zab	-12.9777
▁Ntxhi	-12.9777
kong	-12.978
▁nkagsab	-12.9788
▁generalize	-12.9788
hajying	-12.9788
▁charter	-12.9789
ent	-12.9789
▁Asmeka	-12.9789
Tshiab	-12.9796
▁IAB	-12.9801
▁ntshaj	-12.9804
▁klawv	-12.9807
▁Late	-12.9808
▁nyamx	-12.9809
UN	-12.9812
▁SAV	-12.9812
▁klawm	-12.9813
taus	-12.9819
▁abandon	-12.9827
▁smell	-12.9827
▁ntai	-12.9828
▁feed	-12.9829
▁asmeska	-12.9832
▁.?	-12.9844
▁nqha	-12.9845
▁roobri	-12.9847
▁idon	-12.9851
▁experts	-12.9857
▁nteb	-12.9857
txag	-12.9858
▁Gov	-12.9858
▁Press	-12.9865
▁nge	-12.9865
MS	-12.9867
▁txab	-12.987
mloog	-12.9873
▁Yoo	-12.9874
sible	-12.9876
▁TXHIAJ	-12.9876
puav	-12.9877
▁Fact	-12.988
▁helps	-12.9882
GAB	-12.9883
▁SAN	-12.9886
▁roll	-12.9886
▁TXO	-12.9888
km	-12.9888
ri	-12.9889
kham	-12.9892
xus	-12.9897
pr	-12.9902
bo	-12.9904
▁Missionar	-12.9904
▁qhovtseeb	-12.9906
▁TT	-12.9911
olar	-12.9912
▁min	-12.9913
▁npi	-12.9914
▁txhe	-12.9916
▁beemoua	-12.9918
▁kevhlub	-12.9918
▁cares	-12.9922
tswvyim	-12.9922
▁revolution	-12.9922
▁Kang	-12.9925
Phwvnyawm	-12.9932
dluag	-12.9932
OS	-12.9934
txhawb	-12.9935
Khaum	-12.9936
ntees	-12.9937
moo	-12.9938
UAJ	-12.9939
▁..)	-12.9941
beer	-12.9942
▁$250	-12.9942
▁subgroup	-12.9944
▁ohy	-12.9945
duab	-12.9946
▁vuj	-12.9951
nug	-12.9951
ND	-12.9952
03	-12.9954
nraab	-12.9954
▁Shi	-12.9962
cheej	-12.9962
active	-12.9969
▁$150	-12.9973
SELF	-12.9976
▁mivx	-12.9976
▁Mad	-12.9977
naj	-12.9981
▁DOV	-12.9982
▁opportunist	-12.9983
▁Affair	-12.9985
▁REASON	-12.9985
▁Sihanou	-12.9985
▁CLAN	-12.9985
▁SORRY	-12.9985
▁succeed	-12.9985
▁violence	-12.9985
▁adapt	-12.9985
▁bullet	-12.9985
▁confidence	-12.9985
▁PRESIDENT	-12.9985
▁Money	-12.9985
ospital	-12.9985
▁invention	-12.9985
▁fivyeem	-12.9985
▁bread	-12.9985
▁Metro	-12.9985
▁Peaco	-12.9986
LqI	-12.9986
▁motor	-12.9987
▁boycott	-12.9987
▁NTSIAB	-12.9987
▁Yaajtshajkoo	-12.9989
▁stamp	-12.999
Lqr	-12.9994
▁teaching	-12.9994
▁Fair	-12.9994
▁'?	-12.9995
▁Hooj	-12.9996
1945	-12.9996
▁TSOB	-12.9997
▁dealer	-12.9998
▁qawv	-12.9998
▁twist	-12.9999
▁anger	-12.9999
▁Tshab	-13
▁ntsauj	-13.0001
▁tshim	-13.0003
nkaum	-13.0003
▁ibqho	-13.0004
▁Khas	-13.0015
▁Loos	-13.0017
▁vais	-13.0018
eu	-13.0018
▁tshoo	-13.0021
38	-13.0022
▁ntwb	-13.0025
▁Yuephe	-13.0025
▁feej	-13.0029
▁band	-13.0029
▁cus	-13.003
▁khovkho	-13.003
▁?'	-13.0036
▁Part	-13.0038
▁luang	-13.004
▁khum	-13.0041
▁Luaj	-13.0044
▁mar	-13.0047
▁cojlos	-13.0048
diB	-13.0051
ef	-13.0055
▁magic	-13.0065
▁Como	-13.0067
hub	-13.0068
▁hauvqhua	-13.007
▁ntxiav	-13.0071
▁Tsw	-13.0073
▁ndlaj	-13.0076
▁ref	-13.0079
mzuag	-13.0079
▁nobody	-13.008
▁ntshau	-13.0081
▁soua	-13.0084
▁mivnyua	-13.0085
OB	-13.0086
▁thoo	-13.0087
blah	-13.0094
▁shaman	-13.0096
▁$$	-13.0096
eration	-13.0096
▁Hummm	-13.0099
▁Mose	-13.01
ris	-13.01
klawv	-13.011
▁buffe	-13.0113
Nasxus	-13.0115
▁Phwvxe	-13.0118
▁auto	-13.0118
bSB	-13.012
▁PLAW	-13.012
khu	-13.0123
▁nhia	-13.0124
aab	-13.0126
▁reject	-13.0127
onto	-13.013
CC	-13.0136
▁Tsoobku	-13.0136
▁$400	-13.0145
▁Red	-13.015
▁nplee	-13.0151
online	-13.0152
▁ASK	-13.0162
know	-13.0163
▁yy	-13.0165
▁ICE	-13.0169
CY	-13.0178
ner	-13.0181
ified	-13.0184
▁discriminate	-13.0186
▁Youtub	-13.0188
music	-13.0189
xij	-13.019
txhij	-13.019
▁$.	-13.0191
▁HATE	-13.0192
ntxhiab	-13.0192
meow	-13.0192
▁nrom	-13.0196
ntxov	-13.0199
▁ntsiaj	-13.021
▁element	-13.0212
lej	-13.0212
Yog	-13.0213
▁Author	-13.0214
▁horse	-13.0218
▁ear	-13.0219
Ao	-13.0221
tojsiab	-13.0223
▁MAIV	-13.0236
▁Cultural	-13.0241
▁bachelor	-13.0241
▁Robert	-13.0241
▁offensive	-13.0241
▁mankind	-13.0241
▁afford	-13.0241
▁QUESTION	-13.0241
▁Institute	-13.0241
▁Asmeslika	-13.0241
▁dragon	-13.0241
▁Kauslim	-13.0241
▁ZEEM	-13.0241
▁wake	-13.0242
LuN	-13.0242
▁EXAMPLE	-13.0242
▁NTXOV	-13.0242
▁DAIG	-13.0242
▁kavtheej	-13.0242
▁flea	-13.0242
▁Final	-13.0242
▁Merritt	-13.0242
▁typical	-13.0242
▁khaublig	-13.0243
▁ultimate	-13.0243
▁Should	-13.0243
▁speculation	-13.0243
▁pia	-13.0244
▁lycee	-13.0244
▁STROKE	-13.0244
▁LC	-13.0245
▁HOME	-13.0245
▁McCo	-13.0245
▁PHAV	-13.0245
▁calm	-13.0247
▁immigration	-13.0247
▁pawgntseeg	-13.0247
monthly	-13.025
▁txaam	-13.025
AUV	-13.0251
▁Khaws	-13.0254
▁MSP	-13.0257
▁Sometime	-13.0258
lib	-13.0258
▁juj	-13.0258
▁KHOV	-13.0259
▁trained	-13.026
BS	-13.026
▁Try	-13.0261
▁NTXA	-13.0262
▁ntxhaw	-13.0264
AWS	-13.0264
WAY	-13.0267
▁Thorsp	-13.0267
puag	-13.0268
361	-13.027
▁Xuv	-13.0274
jxeem	-13.0276
DNA	-13.0278
▁guards	-13.0278
▁Tshau	-13.0279
chong	-13.0279
▁verbal	-13.0282
▁LPD	-13.0283
▁MOO	-13.0286
▁correction	-13.0287
▁hnee	-13.0288
sion	-13.029
-------------	-13.029
▁dress	-13.0291
▁tactics	-13.0291
zus	-13.0292
ndi	-13.0295
▁Lawb	-13.0299
ki	-13.0302
▁pobkub	-13.0303
▁bas	-13.0305
▁chue	-13.0308
▁KN	-13.0315
sama	-13.0318
▁mika	-13.0318
▁popcor	-13.0318
fue	-13.0319
▁Ter	-13.0319
▁pronounce	-13.0322
marketing	-13.0325
over	-13.0329
AIS	-13.0335
PY	-13.0335
????????????????	-13.0337
Lu	-13.0342
kaws	-13.0344
▁GUY	-13.0345
▁phwvnyaw	-13.0346
▁Ni	-13.0348
AUM	-13.0364
▁LAS	-13.0365
▁kay	-13.0368
▁Pre	-13.0369
▁DLAAB	-13.0372
TWO	-13.0379
FWM	-13.0383
▁haws	-13.0389
MAS	-13.039
▁Phasnya	-13.039
▁Ntxi	-13.0392
care	-13.0392
▁cheng	-13.0395
▁193	-13.0395
▁KILL	-13.0399
SAID	-13.0403
▁Bin	-13.0407
tem	-13.0417
▁hauvkev	-13.0419
=_	-13.0423
cyB	-13.0426
iving	-13.0427
tknow	-13.043
▁nyau	-13.043
by	-13.043
▁Power	-13.0433
▁Faki	-13.0435
ification	-13.0439
▁Lau	-13.0441
▁ntx	-13.0442
NEEG	-13.045
tos	-13.0451
youtube	-13.0452
woman	-13.0452
loos	-13.0452
Vision	-13.0453
▁Tshajplaw	-13.0457
▁Fav	-13.0458
ciab	-13.046
▁Him	-13.0461
house	-13.0462
CE	-13.0464
served	-13.0465
▁leak	-13.0466
▁ntshu	-13.0467
363	-13.0469
▁bon	-13.0482
▁hlubx	-13.0483
▁Somphon	-13.0487
▁kung	-13.0492
lauv	-13.0494
▁africa	-13.0498
▁HAI	-13.0498
▁solid	-13.0498
▁lhau	-13.0499
▁QHUA	-13.0502
▁thaug	-13.0504
nyablaj	-13.0504
▁disturb	-13.0504
▁misunderstand	-13.0504
lloween	-13.0504
▁Medal	-13.0504
▁dictatorship	-13.0504
01085/	-13.0504
▁fabrication	-13.0504
▁Keebkwm	-13.0504
▁Country	-13.0504
▁prosecutor	-13.0504
▁Maabdlawb	-13.0504
▁monster	-13.0504
▁unlike	-13.0504
yas	-13.0504
▁Txhawb	-13.0504
▁Caug	-13.0505
LiZ	-13.0505
▁Ntsimtxh	-13.0505
▁Studies	-13.0505
▁CHIANGMAI	-13.0505
▁adjust	-13.0505
▁separatist	-13.0505
▁TXAIJ	-13.0505
▁Labor	-13.0505
LuB	-13.0505
▁Txoovkav	-13.0505
▁labor	-13.0506
▁maintain	-13.0506
▁gathering	-13.0506
ith	-13.0506
▁nrhaab	-13.0506
▁niece	-13.0506
▁fundrais	-13.0506
▁communis	-13.0506
tor	-13.0507
▁Thooj	-13.0507
▁saykao	-13.0507
▁announce	-13.0507
▁aspx	-13.0507
▁opposition	-13.0508
▁HISTOR	-13.0508
▁Kaav	-13.0508
▁script	-13.0509
▁QES	-13.051
▁jhav	-13.051
▁conduct	-13.0511
▁Sad	-13.0511
▁oneself	-13.0511
▁txhwj	-13.0511
▁tavsu	-13.0511
▁Khoos	-13.0511
▁reasonable	-13.0512
▁Phetsara	-13.0512
▁nrhaiv	-13.0516
ijuana	-13.0518
▁hoskuv	-13.052
▁khaim	-13.0521
▁Chair	-13.0522
▁povfwm	-13.0522
▁txhw	-13.0523
▁ruv	-13.0523
▁Puv	-13.0523
▁xeebleej	-13.0528
▁writer	-13.053
pv	-13.0531
▁greed	-13.0531
▁vajvovvajpam	-13.0532
▁hmooob	-13.0537
▁amp	-13.054
poom	-13.054
ane	-13.0541
▁joov	-13.0541
▁finding	-13.0542
▁loud	-13.0543
▁capabilit	-13.0543
▁educators	-13.0544
About	-13.055
▁wi	-13.055
▁makers	-13.055
▁thaws	-13.055
xang	-13.0551
▁Civ	-13.0553
▁khim	-13.0553
▁cow	-13.0554
▁....."	-13.0555
▁?.....	-13.0556
Yob	-13.0556
▁Qua	-13.0558
OHR	-13.0558
▁thovpab	-13.0559
Saddam	-13.0562
lwmtus	-13.0563
▁UNDER	-13.0568
▁ceskawg	-13.0571
user	-13.0575
ver	-13.0575
▁maa	-13.0578
▁pursu	-13.0579
▁vers	-13.0585
▁lhua	-13.0587
▁Hmao	-13.059
▁bam	-13.059
▁kor	-13.0591
▁TSOM	-13.0592
▁teachers	-13.0592
▁Kin	-13.0595
▁Qu	-13.0596
NT	-13.0602
▁loov	-13.0603
▁Sent	-13.0604
▁NPLUA	-13.0605
▁xuj	-13.0605
▁qag	-13.0606
▁Jane	-13.0608
▁Sisou	-13.0609
▁mij	-13.0611
▁Tsob	-13.0612
▁noodle	-13.0621
▁chem	-13.0622
▁accomplish	-13.0623
▁pk	-13.0627
▁Cat	-13.0635
▁soft	-13.0639
▁Kais	-13.064
xis	-13.0642
▁thian	-13.0644
Tony	-13.0645
gx	-13.0646
▁logical	-13.0647
▁Et	-13.0652
lwg	-13.0652
▁lun	-13.0653
hauj	-13.0655
99	-13.0666
tsoob	-13.0668
▁sky	-13.0669
▁Fai	-13.0672
▁Du	-13.0674
ac	-13.0679
▁REPEAT	-13.0682
▁tae	-13.0684
page	-13.0689
uz	-13.0691
▁YWJ	-13.0693
▁peter	-13.0694
bel	-13.0695
NA	-13.0696
▁Pra	-13.0699
",	-13.0708
▁FRANC	-13.0712
▁Tao	-13.0721
ar	-13.0721
CAS	-13.0722
ncig	-13.0722
tsw	-13.0724
▁phoj	-13.073
ors	-13.0734
▁khaug	-13.0739
▁FIGHT	-13.0739
▁AL	-13.074
▁TXI	-13.0742
yaim	-13.0747
rov	-13.075
▁Te	-13.0752
yug	-13.0753
▁Visa	-13.076
stas	-13.076
ue	-13.0761
vang	-13.0762
▁POS	-13.0762
▁broke	-13.0766
UB	-13.0767
cag	-13.0772
▁lay	-13.0773
▁TRAITOR	-13.0773
▁Egypt	-13.0774
▁Centurio	-13.0774
▁PROBLEM	-13.0774
▁Perhap	-13.0774
▁association	-13.0774
▁huvtuabsi	-13.0774
▁violent	-13.0774
▁ignorance	-13.0774
▁SHARE	-13.0774
▁Computer	-13.0774
▁Phouthen	-13.0774
▁Print	-13.0774
▁TCMD	-13.0775
▁minimu	-13.0775
▁implement	-13.0775
▁NRES	-13.0775
▁Hanoi	-13.0775
▁FOOB	-13.0775
▁EDUCATION	-13.0775
▁Tsabmim	-13.0775
▁Txheeb	-13.0775
▁NRUJ	-13.0776
▁gamblin	-13.0776
▁NTUAS	-13.0776
▁desperate	-13.0776
▁ZAUS	-13.0776
▁moron	-13.0776
ermanent	-13.0776
▁NATION	-13.0777
▁NeoHom	-13.0777
▁NTSIS	-13.0778
▁TEBCHAW	-13.0778
▁border	-13.0778
▁Grand	-13.0778
▁Economic	-13.0779
▁vdo	-13.0779
▁Baccalaureate	-13.078
▁KEEP	-13.078
LqC	-13.078
ff	-13.078
▁763	-13.0782
▁rheev	-13.0783
▁cooperate	-13.0785
▁hmongmen	-13.0785
▁tsausntuj	-13.0786
▁dwb	-13.0786
▁Aws	-13.0786
▁pamle	-13.0787
▁Sister	-13.0791
▁Land	-13.0793
▁WWII	-13.0795
▁Hitle	-13.0795
▁activity	-13.0798
txuas	-13.08
▁Real	-13.0802
▁secrete	-13.0803
faj	-13.0803
hmoobrua	-13.0808
▁zajlaug	-13.0809
▁nrhaw	-13.0809
▁communicate	-13.081
▁ntxeeb	-13.081
▁destin	-13.0816
▁engage	-13.0816
net	-13.0818
ied	-13.0821
▁relax	-13.0822
ni	-13.0823
▁Yi	-13.0824
▁plo	-13.083
▁mock	-13.0838
▁FU	-13.0845
▁SEA	-13.0849
▁Personal	-13.085
▁Nqa	-13.0853
ui	-13.0856
bby	-13.0856
▁Xaus	-13.0859
nyuab	-13.0862
▁ntsaus	-13.0865
▁letters	-13.0865
VTE	-13.0872
nan	-13.0873
▁npluj	-13.0873
▁sacrif	-13.0876
▁rhee	-13.0883
▁ntsee	-13.0891
▁tobhau	-13.0891
dison	-13.0894
▁characters	-13.0894
KL	-13.0895
▁Phwvyaw	-13.0896
▁kli	-13.0915
▁zee	-13.0916
▁comfortabl	-13.0921
▁Lw	-13.0922
person	-13.0924
▁Vav	-13.0925
lawg	-13.0929
▁gods	-13.0932
▁hauvsiab	-13.0936
▁visions	-13.0939
▁Pan	-13.094
▁VIS	-13.0941
▁Poo	-13.0945
▁credib	-13.0946
▁warn	-13.0946
rub	-13.0947
▁Hn	-13.0948
IEN	-13.0949
▁pomkev	-13.0951
▁yiv	-13.0952
efore	-13.0954
▁ncai	-13.0954
▁actual	-13.0955
▁Ntses	-13.0957
ntaub	-13.0962
▁povthaw	-13.0963
▁phuab	-13.0963
Lit	-13.0964
▁lawvle	-13.0964
/.	-13.0967
cover	-13.0968
▁qui	-13.097
TURE	-13.097
▁Capital	-13.0977
▁plane	-13.0978
pib	-13.0981
▁Nk	-13.0981
cc	-13.0988
▁hlaug	-13.0988
▁lone	-13.0993
▁hahahahhaha	-13.0995
▁Georgi	-13.1012
▁Wed	-13.1015
koos	-13.1015
▁opponent	-13.1016
▁legend	-13.1017
▁xang	-13.1018
nkawm	-13.1023
▁ees	-13.1026
state	-13.1029
▁Naphi	-13.103
LOJ	-13.1032
yi	-13.1035
ging	-13.104
▁Star	-13.104
▁solutions	-13.1042
▁profession	-13.1043
▁Kj	-13.1043
▁PT	-13.1044
▁alien	-13.1045
skas	-13.1045
kaajsab	-13.1049
lhub	-13.105
▁63	-13.1051
▁engine	-13.1051
▁PERSONAL	-13.1052
▁BECAUSE	-13.1052
▁Madame	-13.1052
▁QUALIFY	-13.1052
▁SOLDIER	-13.1052
▁WORD	-13.1052
▁modify	-13.1052
▁senior	-13.1052
▁crocodile	-13.1052
JvdGU	-13.1052
▁BOSS	-13.1052
▁jealous	-13.1052
▁survival	-13.1052
▁flight	-13.1052
▁cheap	-13.1052
▁hehehhehe	-13.1052
▁EVIDENCE	-13.1053
▁entertain	-13.1053
▁CLAIM	-13.1053
▁bunch	-13.1053
▁VOM	-13.1053
▁booth	-13.1053
▁attached	-13.1053
▁plaig	-13.1053
▁YEARS	-13.1053
▁Province	-13.1054
▁fiction	-13.1055
▁miracle	-13.1056
▁MEM	-13.1056
▁Island	-13.1056
▁ambassador	-13.1057
▁koomntsw	-13.1058
▁tshwv	-13.1058
▁CALL	-13.1058
▁QEB	-13.1058
▁hehehehhe	-13.1059
▁MHOOB	-13.1059
▁significant	-13.1059
▁TSAJ	-13.1059
▁suffering	-13.106
ouC	-13.1062
▁ntxaum	-13.1062
▁NTXHW	-13.1062
▁NTSEG	-13.1063
▁classes	-13.1064
▁adin	-13.1064
EZ	-13.1064
▁Top	-13.1064
▁Vaub	-13.1065
▁Local	-13.1066
memiab	-13.1067
▁hnoos	-13.1068
ized	-13.1068
▁mongkey	-13.1069
▁ristsho	-13.1069
▁mabdawb	-13.107
▁bond	-13.1072
▁Asmiska	-13.1073
HM	-13.1074
▁Hmoobleejtub	-13.1075
ite	-13.1078
tockton	-13.1081
▁remark	-13.1083
▁leading	-13.1083
▁Two	-13.1088
▁TAX	-13.1088
▁Yunna	-13.1089
hos	-13.1091
TSHAV	-13.1093
▁products	-13.1097
taag	-13.1097
txig	-13.1098
▁plauv	-13.1101
▁xajn	-13.1103
▁TJ	-13.1107
AN	-13.1108
lk	-13.1111
▁shape	-13.1111
▁hey	-13.1113
▁pleg	-13.1118
lum	-13.1121
▁attract	-13.1121
▁HAHAHA	-13.1135
▁praise	-13.1136
▁CHANGE	-13.1141
▁ASEA	-13.1144
▁ur	-13.1145
▁covkwvtij	-13.1149
▁zimtxw	-13.1152
▁87	-13.1152
POM	-13.1159
UAG	-13.1161
▁NL	-13.1162
▁taim	-13.1163
▁nyi	-13.1166
▁Najv	-13.1168
ZH	-13.1168
▁Tagki	-13.117
▁15%	-13.117
loojceeb	-13.1172
miao	-13.1175
▁Tshav	-13.1176
▁NTE	-13.1178
▁tsawj	-13.1179
▁Pay	-13.1181
▁Tshajpl	-13.1193
CIALI	-13.1195
▁Tejno	-13.1209
URE	-13.1209
▁pli	-13.1212
▁TOB	-13.1215
yiam	-13.1215
900	-13.1215
ajtsab	-13.1216
▁vet	-13.1221
▁tojroo	-13.1224
▁kablau	-13.1227
LK	-13.1235
BMh	-13.1236
▁Somsava	-13.1236
▁nhya	-13.1236
paubkuv	-13.1236
▁BB	-13.1237
▁nyhoo	-13.1239
▁Hum	-13.1239
▁links	-13.1241
▁Dana	-13.1243
▁nqho	-13.125
▁hmu	-13.1252
mi	-13.1258
▁Mountain	-13.1263
▁sortie	-13.1264
hehehehehehehehe	-13.1267
▁manipulate	-13.127
gT	-13.1272
339	-13.1272
yias	-13.1273
▁WA	-13.1274
▁tolera	-13.1278
LWJ	-13.1285
HEEJ	-13.1291
▁Hmoon	-13.1293
▁inch	-13.1298
▁Prince	-13.1302
▁tshajplaw	-13.1308
xyeej	-13.1309
ster	-13.1312
▁cup	-13.1313
IHdy	-13.1316
▁98	-13.1322
▁nplaaj	-13.1323
txaj	-13.1324
laag	-13.1324
▁ethic	-13.1324
LIAB	-13.1325
▁AMERICA	-13.1326
▁faa	-13.1332
▁Maivkau	-13.1334
ield	-13.1335
▁royal	-13.1336
elfare	-13.1337
▁SYSTEM	-13.1338
▁Shiiyi	-13.1338
▁CALIFO	-13.1338
▁domestic	-13.1338
▁wealth	-13.1338
▁Antho	-13.1338
▁Fairground	-13.1338
▁Croc	-13.1338
▁Beside	-13.1338
▁Unknown	-13.1338
▁chivkeeb	-13.1338
▁Realist	-13.1338
▁LAWYER	-13.1338
▁NRUAB	-13.1338
▁EXPERT	-13.1338
▁Khmer	-13.1339
▁junk	-13.1339
▁indirect	-13.1339
▁liberate	-13.1339
▁Laonork	-13.1339
▁commitment	-13.1339
▁MINORIT	-13.1339
▁Pobntoos	-13.134
▁RAS	-13.134
▁Tsevnee	-13.1341
▁Book	-13.1341
▁institution	-13.1341
▁UNDERSTAND	-13.1342
▁kabtsib	-13.1342
▁Amkha	-13.1343
▁namyau	-13.1343
▁PHONE	-13.1344
▁Chor	-13.1344
ire	-13.1345
▁jews	-13.1345
▁walleye	-13.1345
▁SKS	-13.1348
▁hlw	-13.1352
▁txawjxoom	-13.1353
dwas	-13.1356
▁cuagli	-13.1357
▁comparis	-13.1359
▁pabtha	-13.1359
▁MAJTRA	-13.1361
bodies	-13.1362
▁XIM	-13.1364
▁ceevx	-13.1364
▁mekong	-13.1364
pua	-13.1365
▁Phwnyaw	-13.1365
▁chib	-13.1366
▁Aim	-13.1367
▁organized	-13.1368
PAUS	-13.1369
▁SN	-13.1372
pt	-13.1374
▁thaas	-13.1375
▁organizer	-13.1376
▁Lispov	-13.1377
▁Xy	-13.1378
▁roo	-13.1378
▁Loas	-13.1379
INTO	-13.1385
▁muscle	-13.1385
▁zoozoo	-13.139
▁Xaam	-13.1391
▁WEEK	-13.1392
▁xwg	-13.1394
▁Interio	-13.1394
▁HUV	-13.1394
loskuv	-13.1396
ntiav	-13.1398
▁sang	-13.1401
▁vum	-13.1404
▁xavkom	-13.1405
▁plhe	-13.1405
understood	-13.1406
kiab	-13.1407
▁Moon	-13.1407
▁Yeem	-13.141
xias	-13.1411
nti	-13.1414
▁answers	-13.1419
05	-13.1422
ywj	-13.1428
▁tubse	-13.1435
▁cents	-13.1439
▁Vangvien	-13.144
gc	-13.1449
▁supporter	-13.1456
▁MON	-13.1458
=8	-13.1463
PR	-13.1463
▁twh	-13.1468
▁Plan	-13.1468
▁hahah	-13.1469
ja	-13.1474
AME	-13.1483
▁expire	-13.1485
▁lujx	-13.1488
▁Nka	-13.149
npuas	-13.1493
▁Kv	-13.1496
ska	-13.1501
015	-13.1503
▁deed	-13.1503
▁Ever	-13.1505
▁rhua	-13.1511
nyaj	-13.1511
▁core	-13.1511
▁HI	-13.1515
▁Sat	-13.1515
▁...).	-13.152
▁MOVIE	-13.1532
till	-13.1533
Dr	-13.1535
Fa	-13.1536
Muas	-13.1536
elementary	-13.1538
▁select	-13.1543
haj	-13.1549
▁Both	-13.1549
IAM	-13.1551
▁suavteb	-13.1553
txhaum	-13.156
08	-13.156
cker	-13.1561
nag	-13.1562
▁SA	-13.1563
Lem	-13.1564
▁96	-13.1564
▁!!!.	-13.1566
▁dec	-13.157
▁ntshw	-13.1571
global	-13.1579
Cheng	-13.158
▁sh	-13.1582
▁!!.	-13.1583
▁possess	-13.1586
▁qhovquav	-13.1586
▁sws	-13.1593
▁===	-13.1593
lhob	-13.1597
▁Citizen	-13.1605
lawj	-13.1613
lajkab	-13.1616
law	-13.1618
▁nyu	-13.1619
ez	-13.1619
▁ves	-13.1621
▁Ri	-13.1624
▁Frank	-13.1628
▁Trust	-13.1629
▁DEMOCRAC	-13.1632
▁Festival	-13.1632
▁Which	-13.1632
▁Traitor	-13.1632
▁persue	-13.1632
▁repent	-13.1632
▁oversea	-13.1632
▁brief	-13.1632
▁silent	-13.1632
▁Learn	-13.1632
▁Check	-13.1632
▁equipment	-13.1632
LmA	-13.1632
▁privac	-13.1632
▁winner	-13.1633
▁underage	-13.1633
▁nchaa	-13.1633
▁strike	-13.1633
▁Student	-13.1633
▁pennies	-13.1634
▁Zoua	-13.1634
▁Angola	-13.1634
▁NCIG	-13.1634
▁Hmmob	-13.1634
▁Dien	-13.1634
▁confident	-13.1634
▁seminar	-13.1634
▁regulation	-13.1635
▁weight	-13.1636
▁KUv	-13.1636
▁KABLIAM	-13.1636
une	-13.1637
▁lower	-13.1638
▁KEEB	-13.1638
▁racis	-13.1638
▁nyaib	-13.164
▁polite	-13.164
▁memorial	-13.1642
▁Xyom	-13.1643
▁TOD	-13.1644
▁admitt	-13.1645
▁ntxawv	-13.1648
▁literal	-13.1648
inwung	-13.165
▁sistxuas	-13.1652
LAWS	-13.1654
▁hij	-13.1658
▁piaj	-13.1658
▁89	-13.1658
▁dlob	-13.1659
▁RADI	-13.166
▁TAUJ	-13.1661
light	-13.1664
TEG	-13.1666
lij	-13.1668
txias	-13.1674
▁ibpliag	-13.1674
▁thoos	-13.1675
Lqe	-13.1677
▁speculate	-13.1677
▁qhabna	-13.1678
▁juic	-13.1682
▁npooj	-13.1684
▁dominate	-13.1685
▁bid	-13.1686
garden	-13.1686
pussy	-13.1687
▁Maam	-13.1689
xes	-13.169
tees	-13.1691
AKE	-13.1696
▁taxi	-13.1698
zaum	-13.17
▁FA	-13.17
lau	-13.1701
▁lubcev	-13.1701
dib	-13.1708
▁DA	-13.1709
▁STOP	-13.1724
▁UV	-13.1724
▁yad	-13.1725
▁Mav	-13.1727
sev	-13.1727
▁Ou	-13.1729
▁wide	-13.173
sted	-13.1732
1954	-13.1733
▁practic	-13.1733
meskas	-13.1737
▁LIBER	-13.1739
▁cable	-13.1746
kasmoos	-13.1747
▁cojnoj	-13.1748
▁sibhaumxee	-13.1748
▁det	-13.1749
ec	-13.175
plaim	-13.1756
▁Temsi	-13.1758
nia	-13.1758
▁zoglawm	-13.1759
▁Aud	-13.1766
true	-13.177
▁60%	-13.1772
▁wing	-13.1774
▁comfort	-13.1774
▁fan	-13.1776
KPiAN	-13.1776
xi	-13.178
▁Caw	-13.1782
plag	-13.1785
▁LOOK	-13.1786
▁eve	-13.1787
▁qob	-13.1788
620	-13.1794
▁Dlai	-13.1794
▁Cag	-13.1797
▁Phon	-13.1801
▁Tauj	-13.1805
▁georg	-13.181
npawg	-13.1819
▁commercial	-13.182
▁TSAU	-13.1821
toom	-13.1822
▁spokes	-13.1823
▁BC	-13.1823
▁rise	-13.1824
Jr	-13.1828
▁xuvxw	-13.1829
nqa	-13.1831
▁phan	-13.1834
▁CAUSE	-13.1838
▁Hna	-13.184
▁dlais	-13.1846
sawv	-13.185
▁Yiv	-13.185
key	-13.1853
▁Yor	-13.1854
39	-13.1854
▁error	-13.1855
35	-13.1859
istic	-13.1861
gd	-13.1861
▁slaver	-13.1861
dlaag	-13.1865
959	-13.1866
di	-13.1867
txhiaj	-13.1867
▁plabplaw	-13.1877
▁tool	-13.1877
tbn	-13.188
▁Nyo	-13.1881
▁suprem	-13.1884
702	-13.1886
▁$60	-13.1886
XWM	-13.1887
Rwg	-13.1888
▁myth	-13.189
▁articles	-13.189
ntshiab	-13.1894
▁naha	-13.1902
coming	-13.1902
▁350	-13.1907
▁Support	-13.1914
tsua	-13.1916
▁audio	-13.1917
▁crap	-13.1917
▁****	-13.1921
byB	-13.1922
▁Txawjvam	-13.1928
▁Txua	-13.1929
ves	-13.193
▁Yin	-13.1933
cav	-13.1934
▁Guyan	-13.1934
Pheej	-13.1934
ROUND	-13.1935
▁Mutual	-13.1935
▁SIJHAWM	-13.1935
▁Street	-13.1935
▁strength	-13.1935
▁CONTACT	-13.1935
▁dialogue	-13.1935
▁distinguish	-13.1935
▁Francisco	-13.1935
▁PERFECT	-13.1935
▁TAMSIM	-13.1935
▁hotdog	-13.1935
▁ignorant	-13.1935
▁Jungle	-13.1935
▁Canber	-13.1935
▁permit	-13.1935
▁Angeles	-13.1935
▁classmate	-13.1936
▁doens	-13.1936
▁Saab	-13.1936
▁knock	-13.1936
▁greenbay	-13.1936
▁HAIVNEEG	-13.1936
▁caubmoos	-13.1936
▁RESPECT	-13.1936
▁ton	-13.1936
▁Sadam	-13.1936
▁riov	-13.1936
▁TSWM	-13.1936
▁BEST	-13.1937
▁servant	-13.1937
▁Beginanew	-13.1937
▁ygo	-13.1937
▁Still	-13.1937
▁TXAV	-13.1937
▁TAJ	-13.1938
▁tseeem	-13.1938
▁Dollar	-13.1938
▁Daniel	-13.1939
▁TSHIAJ	-13.1939
▁paajlug	-13.1939
▁Jose	-13.194
▁burger	-13.194
▁download	-13.1941
Khekme	-13.1941
▁Bliatou	-13.1942
▁buddh	-13.1943
▁huabcua	-13.1943
▁emergenc	-13.1944
▁historical	-13.1945
▁fiab	-13.1945
▁93	-13.1946
▁blessing	-13.1947
▁Kabliab	-13.1948
▁dawbpaug	-13.1948
▁Nrau	-13.1948
▁npos	-13.1949
▁KHAWB	-13.1949
▁decades	-13.1951
▁carpe	-13.1953
▁dump	-13.1954
lf	-13.1954
LUS	-13.1955
▁Zone	-13.1964
SX	-13.1965
▁prayer	-13.1965
▁dlhos	-13.1965
xaim	-13.197
unning	-13.1973
▁Make	-13.1974
▁tuias	-13.1978
▁ntugkev	-13.1981
▁rocket	-13.1981
ut	-13.1984
▁weapons	-13.1985
we	-13.1985
▁ceebtoo	-13.1986
▁tshaajplaw	-13.1986
▁suck	-13.1991
lino	-13.1992
ber	-13.1994
▁sibsau	-13.1995
aying	-13.1998
▁hire	-13.1999
▁Deng	-13.2
Yaig	-13.2002
swjhwm	-13.2003
▁thw	-13.2003
oth	-13.2007
%.	-13.2008
▁ana	-13.2016
▁cows	-13.2022
▁Nob	-13.2023
TSWV	-13.2037
▁bu	-13.2042
▁OG	-13.2045
ped	-13.2051
▁edit	-13.2056
▁fam	-13.2066
▁ntawdlos	-13.2073
66	-13.2077
rew	-13.2079
▁timub	-13.2079
AWB	-13.2081
▁DIAM	-13.2081
IM	-13.2083
NH	-13.2085
▁Nyavd	-13.2085
ISA	-13.2089
▁ying	-13.2093
▁Txhoj	-13.2095
▁HN	-13.2098
▁GA	-13.21
xawm	-13.2111
FL	-13.2112
▁Thas	-13.2116
▁Tsavli	-13.2122
vwm	-13.2123
▁1200	-13.2126
artial	-13.2126
▁Ntxw	-13.213
chaofa	-13.2134
ital	-13.215
▁Ther	-13.2154
him	-13.2155
2005	-13.2164
tan	-13.2165
YN	-13.2166
txhua	-13.2168
pp	-13.217
▁30%	-13.2171
▁reconciliat	-13.2173
xas	-13.2175
fortune	-13.2176
▁YU	-13.2182
▁acts	-13.2182
asith	-13.2186
XOB	-13.2186
▁KH	-13.2188
▁approv	-13.2188
BLOG	-13.2195
hloov	-13.2196
Ntuj	-13.2196
▁$120	-13.2198
cal	-13.2199
local	-13.2199
lr	-13.22
txivneej	-13.2204
▁Ees	-13.2207
nyag	-13.2209
▁Khet	-13.2209
▁kou	-13.221
▁consonant	-13.2212
tomntej	-13.2213
▁Fuabtai	-13.2214
▁Hihihi	-13.2215
DAG	-13.2216
▁Txi	-13.2223
mhoob	-13.2227
qw	-13.223
OOJ	-13.2233
▁Kan	-13.2234
▁Iran	-13.2234
▁Mag	-13.2237
▁Kablia	-13.224
▁Wis	-13.2241
▁Saum	-13.2243
▁exact	-13.2245
▁counsel	-13.2247
▁CHRISTIAN	-13.2247
▁Hau	-13.2247
▁GENERATION	-13.2248
▁recipe	-13.2248
▁LABEL	-13.2248
▁sudden	-13.2248
▁SOCIAL	-13.2248
▁NPLAIG	-13.2248
▁joking	-13.2248
▁Abuse	-13.2248
▁Phomvihan	-13.2248
▁JAIL	-13.2248
▁WHOLE	-13.2248
▁Tsachij	-13.2248
▁season	-13.2248
▁plans	-13.2248
▁righteous	-13.2248
▁Greek	-13.2248
uOC	-13.2248
▁BLACK	-13.2248
▁TXHIAJLIS	-13.2248
▁NPWB	-13.2249
▁NTXHOV	-13.2249
▁alternative	-13.2249
▁Khmu	-13.2249
▁Northern	-13.2249
▁Kenne	-13.2249
▁HC	-13.225
▁yeeej	-13.225
▁Distric	-13.2251
▁phabnab	-13.2251
▁CREDIT	-13.2252
▁limpiam	-13.2252
▁ntlag	-13.2253
LqV	-13.2253
▁TXHOM	-13.2254
avior	-13.2254
▁borrow	-13.2255
▁bright	-13.2255
▁bait	-13.2255
hawv	-13.2256
▁mobile	-13.2256
▁Tsaus	-13.2259
▁collective	-13.2262
▁mauv	-13.2262
▁PERSECUTE	-13.2262
Xab	-13.2264
khuam	-13.2266
▁boil	-13.2268
▁luagntxhi	-13.2269
faib	-13.2271
▁zauj	-13.2275
ithout	-13.2278
▁Puam	-13.2279
▁Ce	-13.228
▁LEADERS	-13.2283
▁harrass	-13.2283
▁saav	-13.2283
phiaj	-13.2288
▁tusiav	-13.2288
▁saved	-13.2289
lc	-13.229
Suav	-13.2293
tI	-13.2294
gU	-13.2294
▁dare	-13.2295
▁nchu	-13.2298
▁NOG	-13.2298
▁totall	-13.2303
RFA	-13.2303
▁naus	-13.2305
▁GENE	-13.2307
▁Mary	-13.2309
main	-13.2311
tha	-13.2312
▁HMOO	-13.2313
▁Name	-13.2315
eker	-13.2318
▁Nig	-13.2318
▁tseen	-13.2323
▁Toob	-13.2324
rious	-13.2326
="	-13.2327
sp	-13.2328
haav	-13.233
▁kwjha	-13.233
LG	-13.2332
▁useful	-13.2335
▁joint	-13.234
ese	-13.2341
kg	-13.2342
▁dh	-13.2343
▁piab	-13.2346
▁yeb	-13.2348
▁Hopeful	-13.2349
▁Chan	-13.235
DA	-13.2351
▁Con	-13.2352
YIJ	-13.2353
▁Mission	-13.2353
fishing	-13.2354
▁dc	-13.2357
▁Ev	-13.236
▁scar	-13.2361
va	-13.2362
space	-13.2372
▁TR	-13.238
ieng	-13.2389
▁loojme	-13.239
▁ndlua	-13.2391
ght	-13.2395
▁uaskuv	-13.2398
OOM	-13.2399
▁five	-13.2399
Tub	-13.24
▁PX	-13.2401
▁npho	-13.2405
▁nkaujhmoob	-13.2413
▁peoples	-13.2415
▁que	-13.2416
▁cyberspa	-13.2419
▁TSE	-13.2424
▁develope	-13.2425
▁phle	-13.2431
pauv	-13.2432
▁,..	-13.2434
▁khooj	-13.2435
▁TAI	-13.2435
▁Pivtxw	-13.2439
▁prob	-13.244
▁Tamsisno	-13.2448
▁BZ	-13.2449
inh	-13.2449
▁HMA	-13.2449
▁Acha	-13.2452
ywv	-13.2454
▁Cias	-13.2459
IAV	-13.2459
▁giv	-13.2464
KAUV	-13.2464
valent	-13.2464
krabok	-13.2467
▁NRA	-13.2476
▁pour	-13.2477
formed	-13.2478
▁EN	-13.2482
▁Hmoobvaj	-13.2483
▁zoonraug	-13.2488
▁Txaw	-13.2489
▁PROTEST	-13.2491
▁qwj	-13.2491
▁tough	-13.2494
▁txoh	-13.2498
ooj	-13.2498
▁rovlawm	-13.2499
▁ED	-13.2507
cev	-13.2508
▁herb	-13.2511
▁Lengsavat	-13.2514
▁coup	-13.2516
plawv	-13.2516
board	-13.2517
luang	-13.2522
ntswg	-13.2523
bu	-13.2525
▁203	-13.2525
koov	-13.253
▁christain	-13.2534
chawj	-13.2535
▁ntias	-13.2535
ement	-13.2537
front	-13.2538
Lm	-13.2538
ters	-13.2539
▁hnya	-13.2541
TIC	-13.2543
OC	-13.2546
▁LIST	-13.2547
fu	-13.2549
KAWM	-13.255
▁Souk	-13.2551
▁tajla	-13.2562
▁2500	-13.2563
MN	-13.2566
AUS	-13.2567
sov	-13.2567
▁ou	-13.257
▁YAWEH	-13.257
▁universal	-13.257
▁BOMB	-13.257
▁COMPATRIOT	-13.257
▁Gossip	-13.257
▁sheboygan	-13.257
▁latin	-13.257
▁Brooklyn	-13.257
▁NPAV	-13.257
▁Rule	-13.2571
▁assembly	-13.2571
▁valuable	-13.2571
▁Ntaaj	-13.2571
LuD	-13.2571
▁Host	-13.2571
▁NPAWS	-13.2571
▁Savannakhe	-13.2571
▁European	-13.2571
▁chairman	-13.2571
mer	-13.2572
▁canada	-13.2572
▁rain	-13.2572
▁assessment	-13.2572
▁HOPE	-13.2573
▁everyday	-13.2573
▁vaajpo	-13.2574
▁nruabnra	-13.2575
▁KEM	-13.2575
▁HLAWV	-13.2575
LqE	-13.2576
▁signal	-13.2576
▁instrument	-13.2576
▁Samneu	-13.2577
▁Lonewrit	-13.2578
ara	-13.2578
▁LUCK	-13.2578
▁TXOB	-13.2578
▁kablig	-13.258
▁prosperit	-13.2581
▁estate	-13.2582
cide	-13.2583
▁blaum	-13.2586
▁FACE	-13.2586
▁Fire	-13.2587
▁TUAB	-13.2587
▁Isn	-13.259
▁Huay	-13.2592
ruC	-13.2593
▁Lwb	-13.2595
▁Yas	-13.2595
▁Theem	-13.2596
▁Kun	-13.2596
▁Agree	-13.2597
▁westerner	-13.2597
▁Mika	-13.2598
▁ntsaaj	-13.26
▁RED	-13.26
36	-13.2601
▁ywb	-13.2601
taab	-13.2603
▁FUN	-13.2608
▁REALIST	-13.261
▁Miche	-13.2612
▁ntsaav	-13.2613
▁tie	-13.262
media	-13.262
▁ntxu	-13.2622
▁khem	-13.2623
▁TubPo	-13.2623
▁dekfangkho	-13.2624
pl	-13.2624
▁paig	-13.2624
▁vimlawv	-13.2632
▁tubhluas	-13.2636
▁Xyo	-13.2642
▁primar	-13.2644
▁qhoom	-13.2655
twincities	-13.2662
tsuaj	-13.2667
▁....(	-13.2668
shia	-13.267
▁vin	-13.2671
▁calculate	-13.2671
ld	-13.2672
TIS	-13.2672
▁movtshua	-13.2675
gQ	-13.2675
maim	-13.2678
ud	-13.2683
Nomdub	-13.2684
▁STOR	-13.2691
sia	-13.2694
▁qhoo	-13.2696
▁MEN	-13.2696
TSIM	-13.2697
▁kl	-13.2699
▁thinks	-13.2702
AJ	-13.2706
▁persons	-13.2707
▁LEV	-13.2709
bok	-13.2709
klawm	-13.2712
▁qhaug	-13.2715
41	-13.2721
▁Ask	-13.2725
LINE	-13.2726
▁mloo	-13.2732
▁Fiv	-13.2735
▁Ntsuabxw	-13.2735
PL	-13.2737
▁butt	-13.2739
RE	-13.2741
▁Chaofab	-13.275
venge	-13.2755
▁expose	-13.2755
EEV	-13.2756
▁Zooli	-13.2757
IHR	-13.2762
laib	-13.2769
laos	-13.2774
▁fell	-13.2776
96	-13.2778
▁Hmab	-13.2779
▁nrhee	-13.278
▁sibntau	-13.2786
▁NOI	-13.2788
▁cop	-13.2793
▁Dia	-13.2797
tiv	-13.2798
khawb	-13.2798
▁fabricate	-13.2806
▁dlho	-13.2806
▁YOUTUB	-13.2809
▁polici	-13.2814
right	-13.2819
▁OFF	-13.282
▁Ntshais	-13.2823
tense	-13.2831
▁tshia	-13.2831
▁unit	-13.2834
▁190	-13.2837
▁hahhahahaha	-13.2838
▁phak	-13.2839
ommer	-13.2839
▁sons	-13.284
▁rovmus	-13.2841
▁Tw	-13.2849
khouang	-13.2849
women	-13.2851
display	-13.2851
▁CF	-13.2855
▁hujsa	-13.2857
rb	-13.2866
▁HT	-13.2866
ns	-13.2869
▁crack	-13.288
▁FAG	-13.2886
▁TN	-13.2887
▁Box	-13.289
roit	-13.2894
▁che	-13.2894
hd	-13.2895
▁hnu	-13.2895
▁THANKS	-13.2895
amthong	-13.2895
▁hehehhe	-13.2896
▁Moobt	-13.2897
▁pot	-13.2897
AY	-13.2898
tsib	-13.29
▁assign	-13.2903
▁Republic	-13.2903
▁opportuniti	-13.2903
▁Concord	-13.2903
▁KHHX	-13.2903
▁exploit	-13.2903
▁ADMIT	-13.2903
▁TRUTH	-13.2903
▁trend	-13.2903
▁Noobqes	-13.2903
▁Queen	-13.2903
▁TIBSI	-13.2903
▁Wikileak	-13.2903
▁definite	-13.2903
▁NTSUB	-13.2903
▁washington	-13.2904
▁MATTER	-13.2904
▁genetic	-13.2904
▁proverb	-13.2904
▁DABNEEG	-13.2904
▁dozen	-13.2904
▁imagination	-13.2904
▁obligation	-13.2904
▁PEPSI	-13.2904
▁amazing	-13.2904
▁arrange	-13.2904
▁Dream	-13.2905
▁unpo	-13.2905
▁atleast	-13.2905
▁KHUV	-13.2905
▁Teacher	-13.2905
▁TSEEMSW	-13.2905
▁korean	-13.2905
▁larry	-13.2905
▁HinHe	-13.2905
▁Oreg	-13.2905
▁tubntsuaghmoob	-13.2906
▁guideline	-13.2906
▁1930	-13.2906
ARY	-13.2907
▁CAWS	-13.2908
▁Uj	-13.2908
▁Savanh	-13.2908
▁QUS	-13.2908
▁Ntiv	-13.2909
▁Sahapha	-13.2909
▁oxy	-13.291
▁tuition	-13.291
▁HMANTSUAB	-13.291
▁troops	-13.291
▁Hlubhmoob	-13.291
▁hahahahahah	-13.291
▁spam	-13.2911
▁HUAS	-13.2911
▁acknowledge	-13.2912
▁Naag	-13.2913
▁four	-13.2913
▁juab	-13.2914
▁hill	-13.2914
▁KHAWV	-13.2915
ery	-13.2915
▁Zej	-13.2915
▁lajlee	-13.2919
▁quv	-13.292
SUAV	-13.2921
▁ZEEJ	-13.2921
NCg	-13.2922
▁Khawv	-13.2925
▁tshavntuj	-13.2926
▁Nrauj	-13.293
▁pujyawm	-13.293
ssenger	-13.293
▁Doos	-13.2931
▁Dawm	-13.2932
▁?......	-13.2933
▁Tell	-13.2933
▁MAY	-13.2935
ro	-13.2935
▁peaco	-13.2935
▁lesbian	-13.2936
▁cuabka	-13.2936
▁FL	-13.2937
▁WERE	-13.2937
▁Mae	-13.2939
▁612	-13.294
▁txop	-13.2942
▁resettlemen	-13.2942
rt	-13.2942
▁Phao	-13.2943
▁Yawd	-13.2943
▁flower	-13.2945
▁AA	-13.2945
▁lnk	-13.2945
▁combine	-13.2947
lz	-13.2948
▁Nyom	-13.2949
▁mosX	-13.2951
▁SP	-13.2952
NTAJ	-13.2958
▁mall	-13.2959
lhau	-13.2961
YOG	-13.2963
UJ	-13.2964
txha	-13.2967
▁Phuajxa	-13.2969
▁Huh	-13.2971
▁thoojsiab	-13.2977
anning	-13.2978
mog	-13.2982
▁zob	-13.2982
▁kevkawm	-13.2984
▁graduati	-13.2984
▁kwb	-13.2987
▁yoos	-13.2991
▁SELF	-13.2993
▁txujlug	-13.2994
▁foreigner	-13.2995
▁Bei	-13.3
37	-13.3011
cim	-13.3013
▁nyus	-13.3018
▁AIB	-13.3019
▁broad	-13.3023
paus	-13.303
▁Ro	-13.3037
arma	-13.3039
▁Qhuas	-13.3042
▁Maib	-13.3042
▁Tri	-13.3042
▁Tsus	-13.3043
▁NRAU	-13.3045
mis	-13.3046
ZS	-13.305
for	-13.3051
▁Tsoo	-13.3055
▁nio	-13.3058
▁Txab	-13.306
standing	-13.3062
▁hr	-13.3062
RAWM	-13.3073
Taste	-13.3075
Company	-13.3076
▁Eh	-13.3077
OUR	-13.3079
hev	-13.3081
WB	-13.3081
▁Ntxa	-13.3082
caws	-13.3082
▁Ulia	-13.3086
yaum	-13.3092
▁mor	-13.3094
▁tshw	-13.3099
▁Vajtsw	-13.3099
KOOB	-13.31
▁LOGIC	-13.3111
AR	-13.3112
HAIV	-13.3116
▁Cu	-13.3125
▁txivtsev	-13.3125
EW	-13.3128
registered	-13.3142
▁Sy	-13.3142
eplay	-13.3144
▁suj	-13.3145
▁vaajm	-13.3145
ot	-13.3149
▁exam	-13.315
▁youth	-13.3154
miv	-13.3157
AUJ	-13.3158
logy	-13.3159
▁tejlub	-13.3162
year	-13.3163
ihrw	-13.3163
▁NQI	-13.3165
fong	-13.3166
▁WIN	-13.3166
deev	-13.3168
▁suppl	-13.3168
HWV	-13.3171
not	-13.3172
qaub	-13.3173
dWF	-13.3173
▁TNB	-13.3179
▁)))	-13.3191
english	-13.3196
▁heheheheheh	-13.3199
peg	-13.3205
msg	-13.3207
Koj	-13.3208
▁Phra	-13.321
▁hou	-13.3211
▁Yua	-13.3213
wo	-13.3214
▁Friends	-13.3214
rain	-13.3214
avanh	-13.3215
DT	-13.3218
▁Fo	-13.3219
▁elder	-13.322
▁ASIA	-13.3221
▁160	-13.3223
▁Sing	-13.3223
leev	-13.3226
▁ego	-13.3227
Dub	-13.3229
▁MOM	-13.323
▁Uta	-13.3231
▁jej	-13.3233
cuj	-13.3234
▁temper	-13.3238
▁Tel	-13.3239
▁reg	-13.324
▁teejtu	-13.324
▁shock	-13.3247
▁PEACE	-13.3248
▁NTXEEV	-13.3248
▁ALWAY	-13.3248
▁Click	-13.3248
▁diaper	-13.3248
▁expertise	-13.3248
▁Baptist	-13.3248
▁TxawjVamYia	-13.3248
▁denomination	-13.3248
▁determination	-13.3248
▁GIVE	-13.3248
▁umbrella	-13.3248
▁champion	-13.3248
▁childish	-13.3249
▁Txhawj	-13.3249
▁rebel	-13.3249
▁MEDAL	-13.3249
▁powerball	-13.3249
▁fundamental	-13.3249
▁milk	-13.3249
▁Hzen	-13.3249
▁dok	-13.325
▁DPT	-13.325
▁merced	-13.325
▁Surge	-13.325
▁XUAS	-13.325
▁KLG	-13.325
▁Give	-13.325
▁IRC	-13.3251
▁blank	-13.3251
▁expectation	-13.3251
▁Archive	-13.3251
▁Issue	-13.3252
▁object	-13.3252
▁usage	-13.3252
▁upper	-13.3253
▁BELIEVE	-13.3253
▁Dejtshiab	-13.3253
▁Mn	-13.3253
▁TIAJ	-13.3253
▁Yeebceeb	-13.3253
▁Finding	-13.3254
▁NQES	-13.3254
▁QHUAB	-13.3254
▁LUJ	-13.3254
▁fiav	-13.3255
▁FULL	-13.3255
▁THIAJLI	-13.3256
▁Zwj	-13.3257
Thawj	-13.3257
▁hihihi	-13.3257
▁Kheng	-13.3258
Qo	-13.3258
▁Khaub	-13.3259
▁administration	-13.326
▁...".	-13.3262
▁Huana	-13.3262
▁QWS	-13.3263
▁doctrine	-13.3263
▁Ntxhua	-13.3263
Golden	-13.3263
▁actors	-13.3265
▁york	-13.327
▁Turn	-13.3271
▁agthi	-13.3271
▁elite	-13.3272
▁Qaug	-13.3274
▁nyw	-13.3278
▁Diab	-13.3279
▁Qhuab	-13.3279
▁Ed	-13.3281
▁governments	-13.3282
▁HMONGS	-13.3283
LA	-13.3283
▁Nel	-13.3283
▁Gate	-13.3285
try	-13.3287
▁Bouas	-13.329
▁restrain	-13.3292
▁Pia	-13.3293
▁Faib	-13.3295
xev	-13.3303
khw	-13.3306
0800	-13.3306
▁sej	-13.3308
▁tshawg	-13.331
▁HNO	-13.3311
▁saint	-13.3313
▁Duab	-13.3315
caav	-13.3316
cum	-13.3317
▁researcher	-13.3319
▁brave	-13.3319
ok	-13.332
ore	-13.3324
▁imply	-13.3326
▁reps	-13.3326
▁Han	-13.3327
▁siabntev	-13.333
▁stopp	-13.3332
lawvlub	-13.3333
▁TSHI	-13.3334
▁ntxhwb	-13.3338
▁Vongsavan	-13.3339
nev	-13.3341
lasmas	-13.3341
02	-13.3343
▁Ntsha	-13.3345
▁fem	-13.336
▁xabn	-13.3364
HL	-13.3365
▁Hot	-13.3366
fuam	-13.3366
▁Het	-13.3371
▁nqaag	-13.3376
▁tight	-13.3384
laud	-13.3384
EY	-13.3388
▁nplai	-13.3389
lang	-13.3392
▁Craz	-13.3392
▁Touge	-13.3394
▁TC	-13.3397
▁heevkawg	-13.3397
▁Hehehehehe	-13.3398
▁92	-13.34
rocket	-13.3401
▁boundar	-13.3405
▁beevee	-13.3406
▁eng	-13.3408
sty	-13.3416
▁9%	-13.3417
hj	-13.3419
BASS	-13.3419
tauj	-13.3419
eo	-13.3422
▁intentional	-13.3425
▁yawgkoob	-13.3429
ative	-13.343
▁Nak	-13.343
▁Lij	-13.3432
ility	-13.3434
nts	-13.3439
▁israel	-13.344
kaoly	-13.344
▁55555	-13.3446
▁task	-13.3447
▁excit	-13.3449
▁Blooj	-13.3451
sw	-13.3456
riam	-13.3458
▁temp	-13.3461
▁Paus	-13.3464
tired	-13.3465
ated	-13.3465
lai	-13.3469
▁camps	-13.3471
▁Solomo	-13.3471
▁Npi	-13.3471
tib	-13.3478
▁MO	-13.3482
kua	-13.3482
▁Unit	-13.3486
▁Mung	-13.3508
▁siabzoo	-13.3515
▁muslim	-13.352
▁bitch	-13.3522
▁NTX	-13.3525
yfoung	-13.3531
▁ga	-13.3531
ciaj	-13.3535
/9	-13.3538
leb	-13.3539
quot	-13.3539
mu	-13.3545
▁muaslw	-13.3545
▁jet	-13.3548
xibfwb	-13.3553
▁cobqh	-13.3557
profit	-13.3557
MNZ	-13.3562
▁MB	-13.3566
xyeem	-13.3567
▁PR	-13.357
ngu	-13.3572
ught	-13.3576
▁tshoobko	-13.3577
ADE	-13.3582
mev	-13.3587
▁nyuabx	-13.3589
▁nthaw	-13.359
▁XEEV	-13.3591
▁angel	-13.3594
Lij	-13.3595
▁boon	-13.3595
▁EXP	-13.3595
▁suppose	-13.3595
mboo	-13.3597
▁$80	-13.3598
yav	-13.3598
QN	-13.3601
▁user	-13.3602
▁Change	-13.3602
eginanew	-13.3603
ausuav	-13.3604
dding	-13.3604
imply	-13.3605
relevant	-13.3605
▁Advisor	-13.3605
▁bargain	-13.3605
▁legitimacy	-13.3605
▁BUSINESS	-13.3605
▁breath	-13.3605
▁fashion	-13.3605
▁profanity	-13.3605
▁Website	-13.3605
▁HASTING	-13.3605
▁gender	-13.3605
▁resort	-13.3605
▁civilization	-13.3605
▁prominent	-13.3605
▁disaster	-13.3606
▁Brown	-13.3606
▁Walk	-13.3606
▁Chiangrai	-13.3606
▁tongue	-13.3606
▁baseball	-13.3606
▁NRIG	-13.3606
▁duties	-13.3606
▁toilet	-13.3606
▁NTXAWG	-13.3606
▁NKUAJ	-13.3606
▁Cwjso	-13.3606
▁NEGATI	-13.3606
▁dabntub	-13.3606
▁shadow	-13.3607
▁cruise	-13.3607
▁Nyuab	-13.3607
▁KHWB	-13.3607
▁grandpa	-13.3607
▁Jail	-13.3607
▁Talk	-13.3607
BODY	-13.3607
▁journalist	-13.3607
▁airplane	-13.3607
▁batter	-13.3608
▁Politician	-13.3608
▁FOU	-13.3609
▁vowel	-13.3609
▁mercy	-13.3609
▁ministry	-13.3609
▁THIB	-13.3609
▁NCUAV	-13.3609
▁DOLLAR	-13.3609
▁motivate	-13.3609
▁secure	-13.3609
▁DAIS	-13.361
▁Nebra	-13.361
▁kooshaum	-13.361
▁grill	-13.361
▁Ceebtsheej	-13.361
▁xaslas	-13.361
▁LEARN	-13.361
▁realistic	-13.361
▁txhoob	-13.3611
▁XEJ	-13.3611
▁angle	-13.3611
▁weird	-13.3612
▁NRAWM	-13.3612
II	-13.3612
▁Paajnruag	-13.3612
▁LEAD	-13.3612
▁Ntujceeb	-13.3613
▁25%	-13.3614
▁Npog	-13.3614
▁wall	-13.3615
▁Naikho	-13.3615
▁luangp	-13.3617
▁spoken	-13.3617
▁nujnqes	-13.3617
▁Use	-13.3618
70	-13.3619
▁ORDER	-13.362
raya	-13.362
▁NTXWV	-13.362
mphaj	-13.3621
▁npawj	-13.3622
tian	-13.3622
XEEM	-13.3623
▁procedure	-13.3624
▁plom	-13.3624
cog	-13.3624
▁ciamteb	-13.3625
▁Share	-13.3625
Academ	-13.3626
▁coinciden	-13.3626
▁Rub	-13.3627
▁timmeskas	-13.3627
▁treated	-13.3628
▁lugtxaj	-13.3628
▁Zaam	-13.3629
▁Members	-13.363
LIS	-13.363
▁Stone	-13.363
▁creation	-13.3632
▁Fib	-13.3633
Mhong	-13.3633
▁bed	-13.3633
▁Phoojywgzoo	-13.3634
▁laas	-13.3634
▁Phuan	-13.3635
▁tend	-13.364
▁txhaij	-13.3641
▁CAIS	-13.3641
▁tshws	-13.3641
▁Hie	-13.3641
▁nkuag	-13.3643
▁KHOOV	-13.3644
=20	-13.3646
▁consonants	-13.3646
▁mutual	-13.3647
▁450	-13.3648
▁tools	-13.3648
▁Aiv	-13.3649
ual	-13.3649
▁SUA	-13.3651
▁Nplob	-13.3652
▁suavtawg	-13.3653
▁LEJ	-13.3654
▁Phoufa	-13.3657
▁tiagX	-13.3659
▁Democratic	-13.3662
ajteb	-13.3662
▁Pol	-13.3663
▁pounds	-13.3663
▁tubtxawj	-13.3665
▁pee	-13.3666
▁Lawj	-13.3666
▁Mom	-13.3667
▁Yub	-13.367
NTUJ	-13.3675
▁koospha	-13.3678
▁txausx	-13.3679
▁Yajtshaj	-13.368
gage	-13.368
▁Nonghe	-13.3681
eekend	-13.3684
▁ntxiaj	-13.3686
▁Daw	-13.3688
SIB	-13.3689
▁XAJ	-13.3689
▁Paula	-13.3691
01	-13.3692
▁arrive	-13.3692
▁DOESN	-13.3692
dium	-13.3693
▁Sacto	-13.3693
vauv	-13.3694
▁nga	-13.3694
▁route	-13.3695
▁Pivxa	-13.3696
OMAN	-13.3696
▁piamsi	-13.3697
nuv	-13.37
▁cc	-13.3707
VAS	-13.3707
pajhuam	-13.3714
▁91	-13.3717
▁sys	-13.3721
YM	-13.3724
outhern	-13.3725
▁koomtsis	-13.3725
ncaws	-13.3725
nqe	-13.3728
▁linked	-13.3728
niv	-13.3728
POG	-13.3731
▁Dlaa	-13.3731
▁Ted	-13.3733
▁Der	-13.3737
▁KHU	-13.3739
▁dhuas	-13.3741
58	-13.3754
▁xoomxai	-13.3755
▁tseemmuaj	-13.3756
this	-13.3757
lly	-13.3757
▁Xaysombou	-13.3758
XAIM	-13.3761
▁NKAW	-13.3762
fawm	-13.3768
▁Yu	-13.3769
hour	-13.3771
▁lyte	-13.3776
fi	-13.3779
▁reports	-13.378
DD	-13.3783
YiB	-13.3784
▁oos	-13.3785
▁cave	-13.3786
▁Tse	-13.3792
▁Form	-13.3793
▁YOUNG	-13.3795
▁MHoobVa	-13.3802
▁dualawm	-13.3805
▁mouas	-13.3806
ville	-13.3813
▁quajx	-13.3816
▁tssi	-13.3816
tre	-13.3818
iew	-13.382
fc	-13.3826
▁Thak	-13.3826
▁)-	-13.3835
▁mw	-13.3835
▁Soj	-13.3836
atter	-13.3838
▁clans	-13.384
▁$70	-13.3843
▁Leo	-13.3844
▁Thej	-13.3846
▁274	-13.3849
▁!!!!!!!!!!	-13.3852
unny	-13.3853
▁nerve	-13.3855
▁nqajtaw	-13.3855
▁budd	-13.3856
▁tuabyw	-13.3858
laig	-13.386
asia	-13.386
ncua	-13.3862
_______________	-13.3864
TO	-13.3864
noi	-13.3871
▁egg	-13.3872
ntaus	-13.3872
itty	-13.3875
▁RI	-13.3875
HAUB	-13.3875
▁copie	-13.3877
▁ibhom	-13.3878
▁DES	-13.388
nis	-13.3882
▁LAST	-13.3885
▁xun	-13.3885
nrab	-13.3888
▁kaij	-13.3891
niaj	-13.3891
▁TXIA	-13.3892
▁xyiv	-13.3895
▁xyas	-13.3895
puam	-13.39
▁Tshi	-13.3905
▁Kar	-13.3911
iblub	-13.3913
▁HERO	-13.3914
▁!".	-13.3916
ALLY	-13.3917
▁jar	-13.3921
▁nqo	-13.3921
html	-13.3923
DUB	-13.3925
havzoov	-13.3926
61	-13.3926
JVA	-13.3927
Xeem	-13.3927
Tais	-13.3928
xawj	-13.393
Zab	-13.393
▁Lengsava	-13.3937
▁vu	-13.3938
▁dictator	-13.3939
pj	-13.394
▁Huabtai	-13.3941
zaug	-13.3945
▁historian	-13.3945
▁grat	-13.395
▁Phi	-13.3958
rnsp	-13.3959
▁Nnk	-13.3962
▁ibtxha	-13.3967
▁Rat	-13.3968
▁VINAI	-13.3974
▁AUTO	-13.3975
laim	-13.3975
UA	-13.3975
▁experiment	-13.3975
▁Financ	-13.3975
▁ACCEPT	-13.3976
▁Phoubia	-13.3976
▁RESULT	-13.3976
▁Argentin	-13.3976
▁YEXUS	-13.3976
▁harsh	-13.3976
▁syllable	-13.3976
▁throat	-13.3976
globe	-13.3976
▁JULY	-13.3976
▁FUCK	-13.3976
▁NKIAS	-13.3976
▁registration	-13.3976
▁Potter	-13.3976
▁SivYis	-13.3976
▁Chicago	-13.3976
▁Research	-13.3976
▁CHINES	-13.3976
▁Believe	-13.3976
▁Haujsam	-13.3976
▁amount	-13.3976
IMG	-13.3976
▁elevat	-13.3977
▁controvers	-13.3977
▁Kaysone	-13.3977
▁MILLIONS	-13.3977
▁SECOND	-13.3977
▁draft	-13.3977
▁boyfriend	-13.3977
▁perception	-13.3977
▁huajvam	-13.3977
▁characteristic	-13.3977
▁putting	-13.3977
▁SoobLwj	-13.3977
▁ropv	-13.3977
▁autonom	-13.3977
▁Work	-13.3977
▁recover	-13.3977
▁Xabtham	-13.3977
▁civilian	-13.3978
▁xtou	-13.3978
▁Udon	-13.3978
▁alot	-13.3978
LiH	-13.3978
▁nthxa	-13.3978
▁NYOM	-13.3978
▁presentation	-13.3978
▁OHYO	-13.3979
nOC	-13.3979
▁stranger	-13.3979
▁YEAR	-13.3979
▁although	-13.398
▁ntlav	-13.398
▁Je	-13.398
▁SHIT	-13.398
▁Bar	-13.398
▁cambodia	-13.3981
▁500$	-13.3981
▁tiger	-13.3982
▁invent	-13.3982
▁japan	-13.3983
▁DIB	-13.3984
▁BYE	-13.3985
▁TRY	-13.3985
▁dolas	-13.3985
▁supposed	-13.3986
ME	-13.3986
▁courage	-13.3987
▁paw	-13.3987
caum	-13.3987
▁entertainment	-13.3988
▁nhab	-13.3989
▁Until	-13.3989
▁CHAV	-13.3989
▁ceej	-13.3991
▁Suavdlaw	-13.3992
▁pobtsuas	-13.3994
▁interprete	-13.3995
▁install	-13.3995
▁povkhawv	-13.3996
▁Thonglit	-13.3997
▁NplogTeb	-13.3997
▁Hak	-13.3998
qe	-13.3999
▁kangaroo	-13.4005
▁QHA	-13.4006
ious	-13.4007
▁circumstance	-13.4007
nda	-13.4008
MEM	-13.4009
pos	-13.401
▁thaumntawd	-13.4012
▁ntawj	-13.4012
▁pliv	-13.4013
ture	-13.4013
▁wat	-13.4013
nrhiav	-13.4014
▁kilo	-13.4019
AWJ	-13.4024
tt	-13.4025
nyias	-13.4025
▁motion	-13.4026
▁HEAR	-13.4028
▁nchai	-13.403
▁SEEM	-13.4039
▁nkaujhmoobli	-13.404
haib	-13.4041
op	-13.4046
▁210	-13.4047
▁preacher	-13.4051
▁Txha	-13.4054
▁retard	-13.4055
▁kabntsa	-13.4059
▁Newhom	-13.4064
▁gum	-13.4065
▁ualuam	-13.4072
71	-13.4072
1921	-13.4076
▁detect	-13.4077
▁.....,	-13.4078
▁txhuatug	-13.408
Item	-13.4087
thoj	-13.4088
zeeg	-13.409
abroad	-13.409
wat	-13.4091
▁Cawm	-13.4091
teev	-13.4094
▁Cub	-13.4094
▁Tsem	-13.4096
▁None	-13.4096
▁nplho	-13.4096
operation	-13.4099
▁hopeful	-13.41
▁supplie	-13.4103
KO	-13.4106
▁MIA	-13.4107
▁Cog	-13.4108
▁miab	-13.4108
PA	-13.411
▁EJ	-13.4113
▁????????	-13.4117
▁NkaujSt	-13.412
▁TSAW	-13.412
saam	-13.4122
▁range	-13.4123
▁nrus	-13.4124
▁Yatho	-13.4125
▁stream	-13.4127
▁PhabE	-13.4128
olitburo	-13.4128
▁phoojyw	-13.4128
▁$8	-13.4131
▁par	-13.4134
▁Socie	-13.414
▁sid	-13.4141
tL	-13.4148
▁pool	-13.4149
▁load	-13.4152
▁nkausli	-13.4154
vt	-13.4157
▁til	-13.4157
07	-13.4158
pter	-13.4162
thaam	-13.4164
▁minorit	-13.4165
▁jai	-13.4167
ouager	-13.4171
▁tall	-13.4177
▁Khabna	-13.418
▁Nr	-13.4186
▁phe	-13.4192
▁roman	-13.4194
▁Fay	-13.4194
▁CASE	-13.4195
▁txhee	-13.4195
luib	-13.4198
▁tsawgx	-13.4198
▁depart	-13.4203
CA	-13.4204
▁hihihihihihihi	-13.4206
▁51%	-13.4207
▁assist	-13.4209
▁Get	-13.421
ERD	-13.4212
▁peacefull	-13.4214
ntsuav	-13.4215
Ab	-13.4216
▁legs	-13.4218
84	-13.4221
▁nqiv	-13.4222
▁thong	-13.4227
▁operate	-13.4229
▁nste	-13.423
▁Ntsa	-13.4233
ouby	-13.4233
LCB	-13.4241
txij	-13.4245
▁PHAU	-13.4248
▁tour	-13.4248
maab	-13.425
earthlin	-13.4255
▁SOC	-13.4256
▁FAR	-13.426
▁foe	-13.4266
▁DOES	-13.4269
kuvlub	-13.4271
▁Lauv	-13.4271
▁kuvniam	-13.4271
▁Fil	-13.4282
▁bag	-13.4283
▁Tsiv	-13.4284
▁1800	-13.4286
NIAM	-13.4293
▁NTU	-13.4296
▁Phuaj	-13.4296
Tswb	-13.4302
nkag	-13.4302
huaj	-13.4302
AMA	-13.4303
▁)--	-13.4305
▁Diplom	-13.4306
square	-13.4307
SCL	-13.4308
ntiajteb	-13.4311
dabneeg	-13.4313
ntsws	-13.4314
TXWV	-13.4316
PT	-13.432
▁Nc	-13.432
▁PLA	-13.4323
▁thajchaw	-13.4325
▁Teu	-13.433
▁archive	-13.4332
AWV	-13.4333
joov	-13.4333
▁ibsab	-13.4335
▁Dyna	-13.4338
▁NkaujHmoob	-13.4339
LER	-13.4339
▁Naiphon	-13.434
▁------	-13.4341
cent	-13.4342
[...]
