[UNK]	0
<s>	0
</s>	0
[CLS]	0
[SEP]	0
[MASK]	0
▁.	-3.39628
▁,	-3.61982
▁yog	-4.13974
▁li	-4.16408
▁ua	-4.29533
▁los	-4.33446
▁no	-4.38642
▁tsis	-4.43948
▁yuav	-4.45143
▁tau	-4.45331
▁koj	-4.50782
▁lawm	-4.54934
▁cov	-4.5651
▁kuv	-4.57301
▁thiab	-4.59172
▁muaj	-4.68837
▁hais	-4.69809
▁rau	-4.71192
▁xwb	-4.7504
▁ces	-4.75072
▁mus	-4.80503
▁tus	-4.80913
▁ib	-4.82677
▁mas	-4.88826
▁lub	-4.90181
▁peb	-4.94341
▁tias	-5.0692
▁zoo	-5.13013
▁nws	-5.13599
▁yeej	-5.16644
▁Hmoob	-5.21442
▁lawv	-5.24407
▁tsi	-5.25746
▁kev	-5.29675
▁nyob	-5.30556
▁	-5.32572
▁neeg	-5.38221
▁kom	-5.39292
▁tuaj	-5.45082
▁qhov	-5.45484
▁paub	-5.51029
▁tug	-5.54072
▁tej	-5.56434
▁es	-5.57729
▁tseem	-5.58145
▁ntawd	-5.60451
▁xav	-5.63344
▁twb	-5.63471
▁muab	-5.64347
▁thiaj	-5.66813
s	-5.68874
▁?	-5.69071
▁txog	-5.72315
▁-	-5.74693
▁...	-5.75205
▁twg	-5.75414
▁hmoob	-5.78432
▁yus	-5.84265
▁lus	-5.84777
▁nej	-5.86631
▁"	-5.8796
▁cas	-5.88024
▁siab	-5.88148
▁uas	-5.90486
▁le	-5.91267
▁sib	-5.93099
▁teb	-5.94171
▁pab	-5.95817
▁luag	-5.96771
▁Kuv	-5.99403
▁thaum	-5.99617
▁Yog	-6.03753
▁hauv	-6.05384
▁coj	-6.06748
▁tas	-6.07531
▁vim	-6.1095
▁saib	-6.11927
▁ntawm	-6.14613
▁txiv	-6.14906
▁nawb	-6.15566
▁pom	-6.15891
▁kawg	-6.17266
▁me	-6.19268
▁tiag	-6.19356
▁tag	-6.20029
▁nrog	-6.22437
▁puas	-6.22655
▁yam	-6.25066
▁ntau	-6.26761
▁(	-6.26915
▁ho	-6.29412
▁noj	-6.31039
▁sis	-6.31357
▁yawg	-6.32553
▁kiag	-6.3407
▁niam	-6.3444
▁leej	-6.36138
▁hab	-6.37151
2	-6.3744
▁tom	-6.3969
▁lwm	-6.39917
▁txoj	-6.39995
▁has	-6.40474
▁qab	-6.41489
▁tub	-6.43593
▁the	-6.43952
▁rov	-6.44498
▁to	-6.47579
▁os	-6.48899
▁ntawv	-6.49149
▁Koj	-6.51442
▁txhob	-6.52323
▁tim	-6.53435
▁hnub	-6.54048
▁tsev	-6.54696
▁kuj	-6.55017
▁lug	-6.59228
▁tawm	-6.59452
▁neej	-6.60399
▁)	-6.61058
▁....	-6.62325
▁dab	-6.63315
▁tham	-6.63437
▁mam	-6.63694
▁tuag	-6.63905
/	-6.64429
▁ob	-6.65832
▁tso	-6.66288
▁cia	-6.6862
▁rua	-6.69686
▁siv	-6.69889
▁txawm	-6.71407
▁nyiaj	-6.72801
▁kawm	-6.74081
▁tua	-6.74137
▁heev	-6.74625
▁sab	-6.74675
▁tsum	-6.76329
▁qhia	-6.79429
▁txawj	-6.79892
▁moog	-6.80044
▁sawv	-6.81188
▁mob	-6.83717
▁ntag	-6.84911
▁ntseeg	-6.85404
▁Cov	-6.86328
▁lam	-6.88142
▁nuav	-6.89131
▁tab	-6.90099
▁:	-6.90521
▁2	-6.90917
▁raug	-6.91043
▁Moob	-6.9138
▁and	-6.91803
m	-6.9216
▁tseeb	-6.92806
▁cai	-6.93165
▁Ua	-6.95256
▁tsuas	-6.95499
▁xyoo	-6.96237
▁ntuj	-6.96348
▁tshaj	-6.99058
▁coob	-6.99219
▁sau	-6.99543
▁hu	-6.99864
▁muag	-7.00262
▁niag	-7.00303
g	-7.00737
▁txhua	-7.01361
▁dua	-7.01596
▁tswv	-7.02468
▁kws	-7.03099
▁..	-7.03204
▁kwv	-7.03339
▁laus	-7.0472
▁loj	-7.04956
▁nplog	-7.05023
▁daws	-7.06416
▁tes	-7.06559
▁poj	-7.07118
▁sim	-7.0739
▁!	-7.07616
▁of	-7.07747
▁zog	-7.08826
▁zaum	-7.1023
▁pheej	-7.10242
▁tib	-7.11806
▁ne	-7.12107
▁nwg	-7.12286
▁tsam	-7.12517
▁tsim	-7.12709
▁3	-7.12863
▁hlub	-7.13307
▁ntxiv	-7.13841
▁Peb	-7.13886
▁npe	-7.14254
▁hluas	-7.14594
▁yug	-7.15177
▁hos	-7.15657
b	-7.16258
▁'	-7.1675
▁thov	-7.17502
▁chaw	-7.18219
d	-7.18258
▁hnov	-7.19523
▁tij	-7.20224
▁a	-7.20536
▁Thaum	-7.20656
▁you	-7.22693
▁npaum	-7.232
▁ntej	-7.23657
▁nkauj	-7.23798
▁raws	-7.23835
▁dhau	-7.2453
y	-7.2459
▁chaws	-7.24863
▁phem	-7.24951
v	-7.25205
▁1	-7.25251
▁koom	-7.25611
▁Nplog	-7.26061
▁is	-7.26394
▁puab	-7.27611
▁kho	-7.28535
▁Qhov	-7.28568
▁ub	-7.29664
▁ntshai	-7.30621
▁dag	-7.33012
▁haiv	-7.3369
▁txaus	-7.34261
▁--	-7.35312
▁yim	-7.35741
▁ntse	-7.35766
▁tu	-7.36681
▁tseg	-7.36925
▁nom	-7.37033
▁ntev	-7.37375
▁ov	-7.38261
▁suav	-7.38933
▁yawm	-7.38969
▁seb	-7.39009
▁nyiam	-7.39849
▁pob	-7.40657
▁daim	-7.4124
▁.....	-7.41507
▁in	-7.42437
▁tabsis	-7.42737
▁Hmong	-7.43465
▁xeem	-7.43502
▁I	-7.43924
▁thawj	-7.44064
▁Dr	-7.44551
▁ntsib	-7.45114
▁kam	-7.45288
▁tos	-7.46066
▁nyuam	-7.48461
▁nkaus	-7.48953
▁nug	-7.51161
▁luaj	-7.51182
▁khiav	-7.5127
▁xaav	-7.51475
▁qub	-7.51985
▁;	-7.52039
▁dej	-7.52184
▁meej	-7.52242
▁poob	-7.52306
▁ntxhais	-7.52721
▁pub	-7.53435
▁ruam	-7.54576
▁tsaug	-7.54665
▁......	-7.55077
▁pem	-7.55356
▁maj	-7.55884
▁leeg	-7.57313
▁nyias	-7.5739
j	-7.58015
▁na	-7.58037
▁Yaj	-7.59282
▁mej	-7.59683
▁naj	-7.59801
▁nrhiav	-7.60615
▁nco	-7.60768
▁Tus	-7.60828
▁6	-7.61416
▁Vaj	-7.61683
▁ntshe	-7.62142
▁txhaj	-7.62977
▁Nej	-7.63256
▁haus	-7.63554
▁Tej	-7.64049
▁txim	-7.6423
▁laug	-7.6448
▁pov	-7.65052
▁nkawv	-7.6536
▁txug	-7.65548
▁caij	-7.65853
▁lo	-7.66014
▁tiam	-7.6616
▁kheej	-7.66399
▁Tsis	-7.66752
▁tsawg	-7.67463
▁pojniam	-7.68556
▁dawb	-7.68925
▁hlob	-7.68961
▁meem	-7.69193
▁ze	-7.69322
▁4	-7.69326
▁caag	-7.6945
ed	-7.69616
▁wb	-7.69797
▁kav	-7.70357
▁tog	-7.70812
▁s	-7.70824
▁mloog	-7.7274
▁as	-7.7289
▁for	-7.73119
▁Nws	-7.73288
▁cem	-7.73514
▁teeb	-7.7527
▁hom	-7.75375
▁tebchaws	-7.75448
▁haum	-7.75611
▁nyuag	-7.76923
▁laiv	-7.77017
▁si	-7.77146
▁nua	-7.77367
▁zaug	-7.7817
▁website	-7.79282
▁hauj	-7.79988
ing	-7.80309
▁txuj	-7.80367
▁neb	-7.80383
▁tsa	-7.80554
▁rooj	-7.80738
▁that	-7.82268
▁ko	-7.82582
▁ncaj	-7.82885
▁nas	-7.82921
e	-7.82977
▁them	-7.83351
▁quav	-7.83432
▁hov	-7.83982
▁xa	-7.84385
▁nram	-7.84698
▁tabsi	-7.85079
▁niaj	-7.85303
▁chim	-7.85404
▁Thaib	-7.85481
▁pib	-7.85659
▁huv	-7.86355
▁taub	-7.86669
▁Born	-7.87023
▁xwm	-7.87077
▁puav	-7.87672
▁5	-7.88003
▁VP	-7.88148
▁taag	-7.88234
▁.......	-7.88284
▁xyuas	-7.88752
▁it	-7.89276
▁kwvtij	-7.8965
▁cev	-7.89651
▁yuam	-7.89658
▁hau	-7.89816
▁net	-7.90076
▁rog	-7.90172
▁piav	-7.90183
▁liab	-7.90365
▁saum	-7.90427
▁txawv	-7.91023
www	-7.91246
▁nam	-7.91842
▁Suav	-7.92013
▁://	-7.92265
▁sij	-7.926
▁kuas	-7.92857
▁ntsis	-7.9325
▁txais	-7.93415
▁txhais	-7.93604
▁qho	-7.93634
▁sawvdaws	-7.94401
▁tshuaj	-7.94928
▁kub	-7.9509
▁mog	-7.95657
▁zaj	-7.96407
▁taw	-7.96568
▁moob	-7.97109
▁tshuav	-7.97403
▁tuav	-7.97523
▁http	-7.97569
▁nyog	-7.97725
▁mos	-7.97814
▁menyuam	-7.97858
▁deb	-7.98082
▁ywg	-7.98164
▁pum	-7.99607
▁nyaj	-8.00441
▁tshiab	-8.00789
▁ke	-8.01151
▁hawm	-8.01206
▁feem	-8.01307
▁taug	-8.01751
▁kab	-8.01769
▁zos	-8.02046
▁be	-8.02099
▁Muaj	-8.02185
▁Lis	-8.02245
▁Lawv	-8.02623
▁YTK	-8.03446
▁hloov	-8.03483
▁dabtsi	-8.03586
▁aw	-8.03787
▁ceeb	-8.04165
▁txom	-8.04459
▁Kev	-8.04961
▁pw	-8.04975
▁not	-8.06623
▁Txawm	-8.06632
▁).	-8.07464
▁Lub	-8.0757
▁mov	-8.07671
▁phoojywg	-8.07954
▁hav	-8.08535
▁co	-8.08778
▁Nyob	-8.09042
▁i	-8.09459
▁mag	-8.09469
▁haujlwm	-8.09781
▁or	-8.10032
=	-8.10751
▁are	-8.10948
▁v	-8.11006
▁cais	-8.11087
▁laj	-8.11203
▁Vim	-8.11781
▁tuab	-8.12178
▁he	-8.12539
▁yau	-8.12572
▁30	-8.12581
▁haj	-8.12858
▁cuab	-8.13103
▁10	-8.13259
▁taus	-8.13279
▁cav	-8.14211
▁t	-8.14253
▁puag	-8.14272
▁nyeem	-8.14647
▁xeeb	-8.14944
▁ma	-8.14998
▁nim	-8.15096
▁luas	-8.15444
▁vaj	-8.16007
▁Hais	-8.16989
▁av	-8.17172
▁neeb	-8.17758
▁koob	-8.18582
▁phooj	-8.18585
▁Ib	-8.18634
▁tam	-8.18801
▁miv	-8.19226
▁yav	-8.1929
▁HMOOB	-8.19376
▁YOG	-8.20335
▁xov	-8.2052
▁txwm	-8.20765
▁ntiaj	-8.21666
▁lau	-8.22238
▁nkag	-8.22267
▁plaub	-8.23098
▁nrho	-8.23248
▁qhuas	-8.23491
▁lis	-8.23622
▁ntsej	-8.2363
▁lov	-8.23739
li	-8.24396
▁b	-8.24557
▁yaam	-8.24825
▁leejtwg	-8.24993
▁thaib	-8.25087
ly	-8.25235
▁suab	-8.25335
▁yeeb	-8.2546
▁txwv	-8.26313
▁nov	-8.26777
8	-8.26821
▁your	-8.26884
▁tawg	-8.27029
▁phom	-8.27264
▁ned	-8.27421
▁num	-8.27626
▁ncauj	-8.277
▁pawg	-8.27766
▁Zoo	-8.2782
▁nqa	-8.28112
▁tsua	-8.28261
▁hlo	-8.28841
▁Yang	-8.29125
▁have	-8.29493
▁liam	-8.29816
▁dev	-8.29817
▁SCH	-8.29929
▁cuag	-8.30075
▁nqi	-8.30098
▁las	-8.30402
▁tsoom	-8.30517
▁noog	-8.31124
▁nav	-8.31172
▁Vajtswv	-8.31472
▁xaiv	-8.31749
n	-8.32083
▁txhaum	-8.32286
▁xub	-8.3242
▁txiav	-8.32485
▁tiv	-8.32598
▁lossis	-8.32598
▁LI	-8.32926
▁nyuj	-8.33349
▁lauj	-8.33426
▁so	-8.33591
▁Pov	-8.34158
▁Yawg	-8.342
▁xam	-8.34976
▁ntshaw	-8.35019
▁tais	-8.35021
▁GVP	-8.35437
▁npaj	-8.35618
▁Tub	-8.35718
▁noob	-8.35937
▁Yuav	-8.36012
▁qhuav	-8.36175
▁KUV	-8.36307
▁quas	-8.36774
▁Pao	-8.36999
▁paab	-8.3702
▁thaub	-8.37249
▁txheeb	-8.37293
▁Raws	-8.37745
▁xyov	-8.37813
▁dlaab	-8.37864
▁hlwb	-8.38011
▁this	-8.38026
t	-8.38316
▁nrug	-8.38678
▁thaj	-8.39818
▁N	-8.39874
▁ce	-8.40232
▁NO	-8.40581
▁Lao	-8.40895
▁toj	-8.4103
▁tig	-8.41606
▁puj	-8.41607
▁B	-8.41691
▁teev	-8.41738
▁by	-8.42018
▁m	-8.43224
▁tawv	-8.43226
▁txhawb	-8.4332
▁do	-8.43847
▁zoov	-8.44721
▁nkawd	-8.44792
▁lees	-8.44796
▁ntug	-8.45264
▁ntsoov	-8.4542
o	-8.4551
▁tshwm	-8.45742
▁on	-8.45768
▁TseemYeej	-8.45769
▁hmo	-8.45817
▁sub	-8.46264
▁txij	-8.46406
▁roob	-8.46619
▁meskas	-8.46923
▁txhia	-8.46969
4	-8.47184
▁zag	-8.47574
▁qha	-8.4768
▁vp	-8.47707
▁ntaus	-8.48117
▁Laura	-8.48336
▁Yawm	-8.49582
▁hli	-8.49588
▁with	-8.49677
▁qaab	-8.49766
k	-8.49819
▁ceg	-8.49828
▁nyem	-8.49844
▁hwv	-8.50013
▁caum	-8.50132
▁ha	-8.50308
▁ciaj	-8.50501
▁xws	-8.50628
▁ntoo	-8.50939
▁Tabsis	-8.5173
▁will	-8.52138
▁we	-8.52745
▁khoom	-8.53072
▁ceev	-8.53433
▁nraug	-8.53563
S	-8.53804
▁yeem	-8.53918
▁LOS	-8.54406
▁laud	-8.54727
▁aws	-8.54807
▁nub	-8.54919
▁Mhoob	-8.55431
▁plaws	-8.55615
▁tsij	-8.55926
x	-8.56301
▁Luag	-8.56405
▁blog	-8.56405
▁ntaub	-8.56558
▁pej	-8.57115
▁pauv	-8.57398
▁Meskas	-8.57453
▁thaiv	-8.5757
▁but	-8.5793
▁sijhawm	-8.57957
▁nrov	-8.58023
▁Tab	-8.58298
▁luam	-8.58635
▁Thov	-8.59002
▁M	-8.59047
▁txeeb	-8.593
▁plig	-8.59923
▁zaub	-8.60077
▁npau	-8.60088
▁tiav	-8.60103
▁cuam	-8.6039
▁MS	-8.60454
▁what	-8.60461
▁pog	-8.60808
▁."	-8.60852
▁all	-8.60922
▁nyab	-8.61349
▁&	-8.61486
▁........	-8.61547
▁teebmeem	-8.62315
▁kas	-8.62401
▁dav	-8.6278
▁teg	-8.63284
▁pes	-8.63395
▁Yeej	-8.63886
▁rab	-8.63898
▁Muas	-8.63899
▁nce	-8.63907
▁),	-8.63995
▁my	-8.64249
▁UA	-8.6471
1	-8.64868
▁Phwvnyawm	-8.65065
▁Vang	-8.65081
▁S	-8.65705
▁tw	-8.6596
▁nad	-8.66103
▁tswvyim	-8.66146
▁".	-8.66154
▁Txhob	-8.66448
▁nab	-8.66535
▁khav	-8.66553
▁yooj	-8.66621
▁HL	-8.66833
▁txaj	-8.67015
▁peev	-8.67048
▁muam	-8.67358
▁=	-8.67818
▁ntsia	-8.6783
▁kua	-8.67989
▁luj	-8.68215
▁ham	-8.68267
▁tsav	-8.68298
▁hmong	-8.68601
▁thuam	-8.68618
▁dub	-8.68769
▁vwm	-8.69019
▁ntes	-8.69237
▁tsov	-8.6955
▁>	-8.69558
▁com	-8.69716
▁tshoob	-8.69983
▁vam	-8.70065
▁ca	-8.70212
▁nyuaj	-8.70603
▁txheej	-8.70916
▁YUAV	-8.70985
a	-8.7181
▁quaj	-8.7228
▁nqaij	-8.72288
▁18	-8.72332
▁TSIS	-8.72604
▁tswj	-8.72762
▁moos	-8.72901
▁000	-8.73202
▁TAU	-8.73228
▁qw	-8.74117
▁8	-8.74389
▁one	-8.74451
▁can	-8.74775
▁Faj	-8.74951
▁qaib	-8.75063
▁sai	-8.75171
▁piv	-8.75414
▁paj	-8.76164
▁dhia	-8.76198
▁A	-8.76218
▁kis	-8.76259
▁khwv	-8.76636
▁cua	-8.76747
▁from	-8.77438
▁thoob	-8.77641
▁tsuav	-8.77648
3	-8.78471
▁Puas	-8.78505
▁hlau	-8.79082
▁yaj	-8.79898
▁post	-8.80089
▁zaus	-8.80235
▁ncaws	-8.80278
▁7	-8.80798
▁COV	-8.81162
▁ris	-8.81411
▁The	-8.81503
▁Li	-8.81527
▁cias	-8.81674
▁KOJ	-8.81808
▁T	-8.81898
▁n	-8.82389
▁Hos	-8.82409
▁khaws	-8.82513
▁sia	-8.82604
▁duab	-8.82762
▁nev	-8.83166
▁Post	-8.83314
▁ncig	-8.83447
▁Leej	-8.83709
▁Col	-8.84037
▁tsheb	-8.84275
▁yom	-8.84484
▁tsab	-8.84546
▁tooj	-8.84661
▁kaw	-8.84707
▁Hnub	-8.84771
▁C	-8.84787
▁zam	-8.84958
▁US	-8.85078
siab	-8.85153
▁at	-8.85155
▁ploj	-8.85215
▁Dawb	-8.85227
▁ntxim	-8.85254
▁qhua	-8.8536
▁MN	-8.85425
▁people	-8.85567
▁P	-8.85644
▁Thoj	-8.8581
watch	-8.85939
▁thaam	-8.86081
▁Paj	-8.86229
▁nruab	-8.86249
▁nyoog	-8.86456
▁dlua	-8.86716
▁Tsi	-8.87049
▁SIV	-8.87199
▁j	-8.87229
▁ci	-8.873
▁npua	-8.87357
▁g	-8.87515
▁9	-8.87784
▁tsheej	-8.8819
▁UN	-8.88878
▁lawd	-8.88978
▁Los	-8.89768
▁swb	-8.89844
▁MUS	-8.89898
▁ntxub	-8.89992
▁THIAB	-8.90251
▁thab	-8.90485
▁ntxias	-8.90928
▁maam	-8.91161
▁church	-8.91227
▁saub	-8.91263
▁12	-8.91264
▁tis	-8.9151
▁zus	-8.91549
▁phiaj	-8.92189
▁Xyooj	-8.92582
▁maum	-8.92667
▁tijlaug	-8.92731
▁TUS	-8.92771
▁taws	-8.92961
▁haivneeg	-8.93319
▁khib	-8.93437
▁they	-8.9385
▁Nom	-8.93912
▁Tswv	-8.93994
▁ntsuab	-8.94055
▁kaj	-8.94077
"	-8.94332
▁xij	-8.94356
▁kuam	-8.94394
▁Cas	-8.94499
h	-8.94585
▁ncees	-8.94665
▁etc	-8.94993
▁Kwv	-8.9503
▁XWB	-8.95065
▁tsiaj	-8.95087
▁twm	-8.95217
▁tsuj	-8.95592
▁100	-8.96008
▁Moobsib	-8.96147
▁LAWM	-8.96169
▁nkaum	-8.96298
▁fab	-8.96355
▁ntxawm	-8.96396
▁txhawj	-8.96692
▁who	-8.97073
▁zuj	-8.97113
▁xyaum	-8.97121
9	-8.97308
▁nqe	-8.97719
▁loo	-8.98003
▁ya	-8.98186
nyuas	-8.98289
▁time	-8.98399
▁good	-8.98555
▁ntshav	-8.98577
5	-8.98825
▁faib	-8.99186
▁IB	-8.992
▁nqis	-8.99232
▁MUAJ	-8.99347
▁kag	-8.99423
▁e	-8.99865
▁LUB	-9.00269
▁txha	-9.00294
▁nrauj	-9.00519
▁zov	-9.00556
▁Es	-9.00694
6	-9.00842
▁MAS	-9.01031
▁TSI	-9.01554
▁licas	-9.0156
▁nyam	-9.01768
▁Pab	-9.02135
▁Tseem	-9.02231
▁***	-9.02477
▁kos	-9.02636
▁Yus	-9.0279
▁America	-9.02824
▁Lauj	-9.03032
&	-9.03092
0	-9.03391
▁puv	-9.03416
▁tav	-9.03522
_	-9.03728
▁ti	-9.03814
▁Cia	-9.04057
▁cawm	-9.04113
▁20	-9.0419
▁USA	-9.04467
▁sav	-9.04535
▁cog	-9.04659
▁Txiv	-9.04995
▁xyoos	-9.05074
▁txivneej	-9.0518
▁lwj	-9.05315
▁xuas	-9.05317
▁caj	-9.05517
▁tsw	-9.06242
▁xob	-9.06272
▁ntses	-9.06347
▁about	-9.06354
▁plab	-9.06514
▁txiaj	-9.06589
▁siav	-9.06734
▁Zab	-9.0708
▁pos	-9.07492
▁qaum	-9.07493
▁know	-9.07537
▁khov	-9.07706
▁qhib	-9.07777
▁was	-9.09206
▁more	-9.09269
▁dim	-9.09727
▁there	-9.09944
▁lod	-9.10168
▁twj	-9.10208
▁go	-9.1116
▁if	-9.11775
▁tsuag	-9.1182
▁Laos	-9.11883
▁Charlie	-9.12012
▁cawv	-9.12141
▁Txawj	-9.12327
▁tuam	-9.12338
▁tsawv	-9.1235
▁just	-9.12568
▁his	-9.12642
los	-9.12933
▁ntseg	-9.12988
▁tshua	-9.13677
▁kaus	-9.13753
▁cob	-9.1388
▁paus	-9.14103
▁huab	-9.14244
▁X	-9.14429
▁u	-9.14617
▁nuj	-9.14803
▁qee	-9.15112
▁Fajkhaum	-9.15122
▁hlis	-9.15358
▁/	-9.15402
▁haib	-9.15524
▁dr	-9.1567
▁dig	-9.15901
▁ab	-9.15965
▁txuas	-9.15976
▁tshawb	-9.16228
▁lom	-9.16251
▁Fresno	-9.16476
▁Tuam	-9.1648
▁Ntaw	-9.16489
▁any	-9.16774
▁zhen	-9.16999
▁p	-9.17064
▁Nyiaj	-9.17136
▁don	-9.17239
▁twv	-9.17253
beHmong	-9.17258
▁nti	-9.17333
lawm	-9.17363
▁nroog	-9.17392
▁U	-9.17451
▁tshav	-9.17538
▁us	-9.17873
▁nrab	-9.18111
▁like	-9.18116
▁Hawj	-9.18122
▁our	-9.18138
▁pejxeem	-9.18233
▁pim	-9.18247
▁HAIS	-9.18389
▁Tsab	-9.18405
▁case	-9.18465
▁zeb	-9.18632
▁nplooj	-9.18741
r	-9.18916
▁NWS	-9.19162
▁BLOG	-9.19195
▁CES	-9.19196
es	-9.19355
▁meb	-9.19365
▁DD	-9.19391
▁ntsiab	-9.19819
▁Xav	-9.19856
▁22	-9.19861
▁cab	-9.20239
▁iab	-9.20303
▁DYD	-9.20491
▁xeev	-9.20983
▁tshum	-9.21107
▁cuav	-9.21366
▁yaim	-9.21424
▁D	-9.21509
▁ywm	-9.2161
▁Dej	-9.21912
▁LPDR	-9.22145
▁caug	-9.22564
▁00	-9.22734
▁laid	-9.22762
▁phau	-9.23374
BH	-9.23474
▁Zhen	-9.23585
▁pas	-9.23683
▁lag	-9.23692
B	-9.23846
▁Tiam	-9.23905
▁npawg	-9.23953
▁am	-9.24067
▁tshaaj	-9.24137
▁sob	-9.2417
▁haistias	-9.24209
▁Paul	-9.24274
▁ZOO	-9.24279
▁hnav	-9.24282
▁rhuav	-9.24579
tuabneeg	-9.24723
▁og	-9.24801
▁Mej	-9.24889
▁caw	-9.25059
▁nyiag	-9.25392
▁mekas	-9.25463
▁ncuab	-9.25753
▁txiag	-9.258
▁muas	-9.25849
▁RAU	-9.25947
ng	-9.2598
▁need	-9.26068
▁Sib	-9.2608
▁yees	-9.26153
▁hwm	-9.26258
▁PEB	-9.26348
▁Hahaha	-9.26787
▁xab	-9.26837
▁Nwg	-9.26872
▁foob	-9.27071
▁pe	-9.27173
▁laam	-9.27221
▁tsiv	-9.27232
▁lu	-9.27348
▁!!!	-9.27379
▁rho	-9.27764
▁nyablaj	-9.2786
▁Vwj	-9.28099
yog	-9.28123
Y	-9.2857
▁Tabsi	-9.28605
▁keeb	-9.28788
▁ntu	-9.28808
▁lav	-9.28843
▁soj	-9.29254
▁other	-9.29309
▁Siv	-9.29439
▁qe	-9.29804
▁tawb	-9.29825
▁Ntuj	-9.29969
▁up	-9.29985
▁THE	-9.3005
▁zej	-9.30116
▁right	-9.30128
▁lauv	-9.30507
▁saab	-9.30523
▁Z	-9.30594
▁make	-9.30789
▁ntaag	-9.30846
▁Xiong	-9.30908
▁Tsuas	-9.30937
▁dlawg	-9.30956
▁Lee	-9.31111
▁only	-9.31569
▁Saib	-9.31576
▁roj	-9.31774
av	-9.31846
▁Lwm	-9.3195
▁ncu	-9.31975
▁Moua	-9.32051
▁Phiaj	-9.32248
▁KOM	-9.32292
▁quaspuj	-9.32371
▁xiam	-9.32437
▁cheem	-9.32556
▁vmge	-9.32622
▁nqq	-9.32678
▁thib	-9.32694
▁qaug	-9.32807
▁tsho	-9.33059
▁pam	-9.33074
▁Ces	-9.33136
▁very	-9.33408
▁tsaus	-9.33794
▁tsoob	-9.33837
▁yaus	-9.33875
▁khu	-9.33934
▁PY	-9.34071
▁qau	-9.34124
▁o	-9.34177
▁LAWV	-9.34903
▁Nkauj	-9.34919
▁their	-9.35186
▁ntsuag	-9.35287
▁You	-9.35844
▁khaub	-9.36058
▁yij	-9.36144
▁ntxov	-9.3615
i	-9.36206
▁Tseemyeej	-9.36325
▁nrau	-9.36437
▁phaj	-9.36635
▁temsis	-9.36707
▁Dao	-9.36906
▁way	-9.37176
▁zais	-9.37276
▁ntsuj	-9.37292
▁ms	-9.3741
▁faj	-9.376
▁hmoov	-9.37746
▁rub	-9.37847
▁nai	-9.37853
▁Tooj	-9.37857
▁Leeg	-9.37866
▁hasta	-9.38287
***	-9.38369
▁Tou	-9.3852
▁Thiab	-9.38531
▁tiamsis	-9.38603
▁qeej	-9.38609
▁TIAS	-9.38853
▁Tos	-9.39007
▁Muab	-9.39026
▁thooj	-9.39318
▁Tam	-9.39349
▁pa	-9.39472
▁Looj	-9.39522
▁hlua	-9.3956
▁Noogdlej	-9.39708
▁kasmoos	-9.39836
▁txias	-9.39839
▁Xejthim	-9.39841
▁hla	-9.39929
▁tsaam	-9.40107
▁email	-9.40179
▁Niam	-9.40191
▁dlaag	-9.40461
l	-9.40556
▁Thanks	-9.40705
▁yaweh	-9.40771
▁fwv	-9.40773
▁Ly	-9.41652
▁Phooj	-9.41889
213	-9.41891
▁tsob	-9.41974
▁choj	-9.42232
▁khawv	-9.42376
▁tid	-9.42482
▁see	-9.42737
▁deev	-9.42747
▁xaus	-9.42929
▁Twb	-9.42944
▁out	-9.42961
▁cam	-9.42971
▁Bee	-9.42999
▁sov	-9.43008
▁Tom	-9.43069
▁tshab	-9.43159
▁aub	-9.43234
▁50	-9.43253
▁text	-9.43281
▁txia	-9.43316
ab	-9.43477
▁Yis	-9.43503
▁pluag	-9.43645
▁issue	-9.43761
▁It	-9.43956
YIS	-9.44089
▁Liab	-9.44133
▁how	-9.4448
▁Phoojywg	-9.44514
▁ntxeev	-9.44528
▁PAB	-9.44538
▁Thaus	-9.44551
lub	-9.44596
▁dlej	-9.44754
▁lab	-9.44833
▁phwvnyawm	-9.44872
▁pua	-9.4494
▁take	-9.45115
▁KEV	-9.45521
▁phim	-9.45524
▁tsoo	-9.45552
▁Phwv	-9.45662
▁Tony	-9.45721
▁foom	-9.45752
▁riam	-9.4579
▁tob	-9.45889
▁nrhav	-9.45925
▁Vaaj	-9.46029
▁luv	-9.46075
▁15	-9.46192
▁zug	-9.46381
▁Saub	-9.4653
▁Cha	-9.46633
▁life	-9.46756
▁Zaum	-9.46768
▁zeem	-9.46992
▁txav	-9.47211
▁plawv	-9.47254
▁ntiav	-9.47299
▁kwm	-9.47331
▁Thai	-9.47427
▁vaaj	-9.47659
quoted	-9.47708
▁doctor	-9.4779
▁xib	-9.47942
▁.........	-9.48276
▁lim	-9.48308
▁nuv	-9.48343
▁nyuab	-9.48757
▁too	-9.48789
▁nraim	-9.4881
▁Txoj	-9.48926
▁txhiab	-9.49003
▁NEEG	-9.49084
▁TABSIS	-9.49343
as	-9.49489
▁some	-9.4968
▁K	-9.49868
▁H	-9.50021
▁Vaajtswv	-9.50166
▁Ceeb	-9.50453
▁thaus	-9.50517
▁Neeg	-9.50592
▁txob	-9.5091
▁ntiajteb	-9.50935
▁xim	-9.51036
▁F	-9.51108
▁Fab	-9.51376
▁lig	-9.51808
▁would	-9.51944
▁said	-9.51958
▁daj	-9.52067
▁Victor	-9.52323
▁dlhau	-9.5248
▁Ntsuab	-9.52632
▁11	-9.52746
▁od	-9.52892
▁Ob	-9.52929
▁Tug	-9.5336
▁huam	-9.53415
▁wrote	-9.53453
▁qhuab	-9.53454
feature	-9.53733
▁x	-9.53947
▁support	-9.54053
▁txo	-9.54208
▁txhom	-9.54226
▁tod	-9.54294
▁think	-9.54321
er	-9.54727
▁Haiv	-9.54841
▁Vajncuab	-9.54913
▁Mus	-9.54918
▁pliag	-9.54924
▁Nyablaj	-9.54987
▁sam	-9.55089
▁tibneeg	-9.55123
c	-9.55332
▁paum	-9.55643
▁nto	-9.55677
▁hle	-9.55716
▁St	-9.55729
▁kov	-9.55838
▁lawb	-9.55914
▁1975	-9.55998
▁tia	-9.56055
related	-9.5613
▁ntsuam	-9.56148
▁khawb	-9.56179
▁teem	-9.562
▁Teev	-9.56228
----------------	-9.56448
▁laib	-9.56716
▁Cai	-9.56717
▁nyag	-9.56878
▁hmoo	-9.56947
▁Koob	-9.57054
▁new	-9.5712
▁mad	-9.57156
▁Xeeb	-9.57238
▁ntiag	-9.57265
▁Vam	-9.57312
▁xaj	-9.5756
▁Miskas	-9.57643
▁nkawm	-9.57668
▁ntsim	-9.5778
▁k	-9.57812
▁LOL	-9.57812
▁On	-9.5785
▁He	-9.57993
▁ntus	-9.58029
▁Me	-9.58197
7	-9.58467
▁Sub	-9.5848
▁nraum	-9.58483
▁Ntawv	-9.58524
▁qhab	-9.58671
▁ntsiag	-9.58673
▁Thao	-9.58712
▁HAIV	-9.59047
▁nees	-9.59061
▁peg	-9.59096
▁LOJ	-9.59163
▁Txhua	-9.59267
▁human	-9.59287
▁tibsi	-9.59403
▁California	-9.59641
▁PAUB	-9.59869
▁tshuam	-9.59882
▁dlawb	-9.60241
▁Chao	-9.60338
▁hlawv	-9.6039
▁Tau	-9.6056
▁ntees	-9.60584
▁phaum	-9.60848
teb	-9.60852
▁Lostsuas	-9.6098
▁txhim	-9.6098
▁Tsav	-9.61255
▁qhev	-9.6129
yahoo	-9.61656
▁tsau	-9.61678
▁CA	-9.61806
▁own	-9.61831
u	-9.61896
▁Teb	-9.61914
▁ntsws	-9.62049
▁YEEJ	-9.62077
▁Ntxaw	-9.62148
▁SIAB	-9.62237
▁dog	-9.62288
▁Tsam	-9.62314
▁khi	-9.62695
▁law	-9.62698
▁dlaim	-9.62857
▁MT	-9.63442
▁du	-9.6352
▁Zeb	-9.6365
▁nkagsiab	-9.63744
▁vauv	-9.63882
▁TO	-9.6417
D	-9.64176
▁then	-9.64291
▁back	-9.64297
▁Neohmong	-9.64613
▁hniav	-9.64804
▁tshem	-9.65255
▁kevcai	-9.65275
le	-9.65342
▁Rau	-9.65422
ib	-9.65686
▁man	-9.65689
▁AV	-9.65886
▁an	-9.66018
▁mom	-9.66164
▁RUAM	-9.66448
▁nthuav	-9.66499
▁NYOB	-9.6659
▁phav	-9.66679
▁TUAJ	-9.66943
▁kaum	-9.6696
▁zem	-9.67022
▁point	-9.67286
kuv	-9.6737
▁every	-9.67385
▁mamli	-9.67421
▁nawj	-9.67588
th	-9.67876
▁Xyoo	-9.67893
▁yig	-9.68036
▁say	-9.6815
▁totaub	-9.68277
▁fwm	-9.684
▁fawm	-9.68433
hlub	-9.68713
▁ruaj	-9.68889
▁Txog	-9.68956
▁NeoHmong	-9.69038
▁nag	-9.69159
▁many	-9.69213
▁seem	-9.69311
▁when	-9.69314
▁cim	-9.69396
▁work	-9.69505
▁laura	-9.69753
▁phab	-9.70014
▁thau	-9.70075
▁Le	-9.7008
▁phoo	-9.70108
hmoob	-9.70446
▁maag	-9.70495
▁au	-9.70544
▁TUG	-9.70568
▁XF	-9.7093
▁les	-9.71043
▁ywj	-9.71044
▁caiv	-9.71068
▁pav	-9.71117
moob	-9.71656
▁peevxwm	-9.71657
▁American	-9.71671
▁personal	-9.71726
▁tshuab	-9.71881
▁huabtais	-9.72017
▁ziag	-9.72291
▁kubxaj	-9.72294
▁qib	-9.72319
▁zaaj	-9.72472
▁pauj	-9.72765
▁hlais	-9.72772
▁rawv	-9.72985
▁L	-9.73049
▁get	-9.73225
▁qhabnab	-9.73396
▁awd	-9.73449
▁Xeem	-9.73593
▁week	-9.73715
▁TSEEM	-9.73768
▁Fabkis	-9.73858
▁diam	-9.74109
▁theem	-9.74154
▁cwj	-9.74399
▁nkuaj	-9.74428
▁uake	-9.7443
▁tiaj	-9.74497
▁yaig	-9.74664
▁Kav	-9.74829
▁tshaib	-9.74878
▁than	-9.74907
▁tebchaw	-9.75233
▁havzoov	-9.75284
▁Tshaj	-9.75297
▁dai	-9.75303
▁Yeeb	-9.75306
▁hnab	-9.75351
▁taab	-9.7547
▁pwm	-9.75499
M	-9.75539
▁zooli	-9.75759
▁TWB	-9.75848
▁ceem	-9.75854
▁tauj	-9.75877
▁No	-9.76016
▁yauv	-9.76182
▁lino	-9.76297
▁want	-9.76353
▁xyooj	-9.76449
>	-9.76572
▁VIM	-9.76593
▁nais	-9.76714
▁Ho	-9.76714
▁40	-9.76759
▁txhij	-9.76915
▁ntxwv	-9.76968
▁why	-9.77174
▁qis	-9.77292
▁him	-9.77394
▁Thaub	-9.77475
▁Lo	-9.77483
▁Has	-9.77508
▁moo	-9.77535
▁kaam	-9.77667
▁tswm	-9.77855
▁nplua	-9.77948
▁tsom	-9.78127
▁thauj	-9.78197
▁because	-9.78238
▁Gen	-9.78303
▁question	-9.78433
▁dlev	-9.7846
▁noogdlej	-9.78533
K	-9.78739
▁ncua	-9.7904
▁G	-9.79139
▁tsib	-9.79301
▁LOLz	-9.79516
▁nyav	-9.79545
▁ciali	-9.79626
Moob	-9.79794
▁her	-9.79859
▁looj	-9.79878
▁txi	-9.80093
▁Kwvtij	-9.80377
kom	-9.80514
▁Choj	-9.80707
▁xum	-9.8074
▁nra	-9.80945
▁ciam	-9.80952
▁here	-9.80992
▁Kom	-9.81138
mail	-9.81222
xeeb	-9.81224
▁ntsuas	-9.81446
▁should	-9.81726
X	-9.81811
▁movie	-9.81897
neeg	-9.82017
lawv	-9.82241
one	-9.82302
▁NkaujNyiag	-9.8231
▁hum	-9.82342
ub	-9.82346
▁",	-9.8238
▁xyuam	-9.8246
▁txua	-9.82573
▁thim	-9.82805
▁Maiv	-9.8282
▁agree	-9.83188
▁vajtswv	-9.83276
▁koos	-9.83327
▁nyhav	-9.83436
▁QHOV	-9.83461
▁tse	-9.83463
▁born	-9.83549
▁xauj	-9.83572
▁Xaiv	-9.83618
▁nyoo	-9.83783
▁Ab	-9.84052
▁nres	-9.84077
▁txhiaj	-9.84252
twg	-9.84349
▁CAS	-9.84415
▁even	-9.84432
▁family	-9.84574
▁come	-9.84583
▁share	-9.84676
▁keej	-9.84815
▁xyom	-9.84891
▁y	-9.84908
▁ev	-9.84977
▁cag	-9.85077
▁qauv	-9.85222
▁Nco	-9.85232
▁zoj	-9.85265
▁ntog	-9.85415
▁person	-9.85443
▁Pos	-9.85516
▁Puab	-9.85618
If	-9.85915
▁politic	-9.86041
▁rawm	-9.86107
▁Y	-9.86135
▁huas	-9.86174
▁DAG	-9.8625
▁those	-9.86347
▁vaajmoob	-9.86886
▁Mob	-9.87069
▁?.	-9.87188
is	-9.87287
▁mis	-9.8741
.	-9.87437
zoo	-9.87527
▁NOJ	-9.87539
▁plaw	-9.87557
▁tusiab	-9.87835
▁duas	-9.87842
▁14	-9.87913
▁MUAB	-9.87952
▁---	-9.87967
▁tagnrho	-9.88058
▁$	-9.88159
▁hahaha	-9.88397
no	-9.8852
▁tamsim	-9.88607
▁Tijlaug	-9.88694
▁Neohom	-9.88789
▁Cal	-9.88811
▁CIA	-9.88963
▁party	-9.8906
▁nus	-9.89067
▁NEJ	-9.89346
▁Dhau	-9.89367
▁liaj	-9.89376
▁This	-9.89488
▁l	-9.89503
▁13	-9.89528
▁Xej	-9.89692
▁same	-9.89732
▁ntxhov	-9.89787
▁ntsug	-9.89922
▁Qhia	-9.90004
▁ntua	-9.90008
V	-9.90161
▁cub	-9.90165
▁play	-9.90379
▁qus	-9.90435
▁Dony	-9.90465
▁!!	-9.90767
▁Dab	-9.90901
▁thoj	-9.90904
▁Tswb	-9.90907
▁ntxuav	-9.91
ob	-9.91235
▁txheem	-9.91485
▁mab	-9.91511
▁khw	-9.91807
▁hwj	-9.91995
▁Vaajmoob	-9.92005
▁su	-9.92094
▁de	-9.92102
▁history	-9.92213
▁tshev	-9.92262
▁hma	-9.92296
▁leader	-9.92321
▁communist	-9.92442
▁General	-9.92663
▁Blog	-9.92719
▁ntxoog	-9.92835
▁puam	-9.92874
▁POM	-9.92913
▁c	-9.93123
▁God	-9.93124
▁TXHOB	-9.93224
▁Tais	-9.9327
▁love	-9.93275
▁tsaj	-9.93346
▁nkim	-9.93347
▁R	-9.93516
▁Piv	-9.93518
▁Cwjme	-9.9352
▁smile	-9.93706
▁culture	-9.93788
▁hus	-9.93859
▁Ntshe	-9.94085
▁kaav	-9.9413
▁YUS	-9.94135
▁nria	-9.94281
▁ME	-9.94374
sab	-9.94441
▁TEB	-9.94511
▁Ha	-9.94522
▁nyom	-9.9456
▁Teeb	-9.9465
▁What	-9.94705
▁XAV	-9.94805
▁YOU	-9.94825
▁ntiv	-9.94987
▁ncaim	-9.95242
▁npas	-9.95304
▁tshwj	-9.9548
▁yoog	-9.95503
▁political	-9.95612
▁Maj	-9.95699
▁Npawg	-9.95752
▁Neeb	-9.9576
▁Thaibteb	-9.96029
▁AND	-9.96095
▁real	-9.96192
▁beer	-9.9621
▁yuavtsum	-9.96215
▁Yam	-9.963
▁business	-9.96314
▁zab	-9.96478
▁TOM	-9.96535
▁ntxhi	-9.96988
▁court	-9.97028
▁never	-9.97076
▁Neej	-9.97097
▁world	-9.97162
▁TXIV	-9.9721
▁16	-9.97293
▁THAIB	-9.97379
▁freedom	-9.97381
▁Xab	-9.9753
▁xyoob	-9.97553
ever	-9.9761
▁Vue	-9.97618
▁se	-9.97851
▁men	-9.9786
▁mev	-9.98077
▁amen	-9.98078
▁tejzaum	-9.98224
▁Minnesota	-9.98281
▁over	-9.98297
▁So	-9.98325
▁now	-9.98372
▁name	-9.98823
E	-9.98978
▁OS	-9.99003
▁thaij	-9.99069
▁Pheej	-9.99191
▁level	-9.99292
▁religion	-9.99433
▁thiajli	-9.99679
▁ntim	-9.99758
▁LUS	-9.99791
▁nes	-9.99955
▁day	-10
▁Vientiane	-10.0025
▁d	-10.0028
▁xaam	-10.0045
▁Neb	-10.0053
▁VWM	-10.0077
▁years	-10.0079
▁may	-10.0084
▁nro	-10.0097
▁21	-10.0102
▁still	-10.011
▁Yexus	-10.0123
▁We	-10.0128
▁Her	-10.0135
▁oo	-10.0137
kev	-10.014
▁school	-10.0147
▁respect	-10.0154
▁Nai	-10.0157
▁qua	-10.018
▁believe	-10.0184
txiv	-10.0211
▁YOB	-10.0222
▁25	-10.0222
▁khob	-10.0228
▁Tsoom	-10.0233
▁Npis	-10.0235
▁state	-10.0237
▁ncaaj	-10.0245
▁Hlob	-10.0246
▁TWG	-10.0279
▁State	-10.032
▁TAS	-10.0325
▁such	-10.0346
▁thing	-10.0405
▁Xwm	-10.0409
▁computer	-10.0411
▁Amelikas	-10.0422
▁lha	-10.043
▁THIAJ	-10.0441
▁Yesxus	-10.0446
▁group	-10.0447
▁true	-10.0448
▁weekend	-10.0459
▁zujzu	-10.0464
▁npog	-10.0464
▁caav	-10.0465
▁Tij	-10.0469
▁Niag	-10.047
▁TUAG	-10.047
▁public	-10.0482
▁high	-10.0497
▁E	-10.0497
▁general	-10.0503
txwv	-10.0523
▁Fa	-10.053
▁Medi	-10.0535
▁were	-10.0539
▁nruj	-10.054
▁Nam	-10.0541
▁care	-10.0545
▁had	-10.0584
▁ES	-10.0589
▁HEEV	-10.061
▁ntsw	-10.0623
▁theeb	-10.0631
▁r	-10.0654
▁khawm	-10.0658
▁moj	-10.0664
▁SIB	-10.0682
▁hiam	-10.0691
▁Chaw	-10.0698
p	-10.0706
▁example	-10.0715
▁pao	-10.076
▁khaus	-10.0764
▁naw	-10.0765
▁Long	-10.0767
▁chav	-10.0772
▁yaav	-10.0773
▁nqes	-10.0793
▁story	-10.0796
▁reason	-10.0804
T	-10.081
▁Laj	-10.0811
▁New	-10.0811
▁Poj	-10.0815
meem	-10.0816
▁power	-10.0823
▁Yob	-10.0823
▁MAG	-10.0826
w	-10.0839
▁TXOG	-10.0846
▁call	-10.0855
▁information	-10.0859
ies	-10.0871
▁news	-10.0874
▁Hauv	-10.088
▁vammeej	-10.09
▁ntsiv	-10.091
▁Kab	-10.091
▁must	-10.0921
▁xaa	-10.0933
▁tseemyeej	-10.0946
▁kuab	-10.0948
▁talk	-10.095
▁Kuam	-10.0953
▁wrong	-10.0958
▁she	-10.0966
▁zom	-10.0974
▁Tawm	-10.0975
▁kauv	-10.0981
▁tabtom	-10.0984
▁txau	-10.0985
▁these	-10.0986
▁ntswg	-10.099
wv	-10.1003
▁Show	-10.1046
▁laub	-10.1057
liab	-10.1058
▁chij	-10.106
▁ntaw	-10.1076
ity	-10.1092
▁chob	-10.1101
▁free	-10.1107
▁mo	-10.1107
▁Huab	-10.1124
▁ntxa	-10.113
▁Mekas	-10.1146
▁caws	-10.1152
▁All	-10.1159
▁???	-10.1173
▁dleb	-10.1182
▁help	-10.1188
▁Lus	-10.1194
▁HM	-10.1203
▁Tham	-10.1205
▁re	-10.126
▁Ya	-10.1267
▁old	-10.1269
▁opinion	-10.1271
▁nyas	-10.1273
▁Hom	-10.1274
▁degree	-10.1276
▁khuam	-10.1283
▁police	-10.1291
▁npab	-10.1294
▁long	-10.1302
▁Nplogliab	-10.131
▁tsiab	-10.1317
▁VAJ	-10.1326
▁Human	-10.1346
▁qheb	-10.1348
▁mivnyuas	-10.1355
on	-10.1356
am	-10.1371
us	-10.1371
▁Txij	-10.1374
▁Sawv	-10.1374
▁Kawg	-10.1388
▁saud	-10.1409
▁community	-10.1415
▁J	-10.1418
▁year	-10.1421
loj	-10.1424
▁claim	-10.1424
▁Christian	-10.1429
N	-10.1434
▁Niaj	-10.1438
▁topic	-10.1454
▁Tamsim	-10.1458
▁HMoob	-10.1458
▁sad	-10.1476
▁tsaws	-10.1477
▁video	-10.1483
▁ntsi	-10.1495
▁via	-10.1525
▁nqaj	-10.1525
▁did	-10.1532
▁KIAG	-10.1532
▁hneev	-10.1542
▁tseemceeb	-10.1555
▁NIAM	-10.1558
▁txhajle	-10.1563
▁Xyov	-10.1584
▁mav	-10.1585
▁been	-10.1592
▁phauj	-10.1599
▁h	-10.1601
▁duav	-10.1605
▁24	-10.1615
▁Kub	-10.1629
ING	-10.1631
▁Nyaj	-10.1641
▁lij	-10.1645
▁report	-10.1652
▁aim	-10.1666
▁plam	-10.1672
▁stupid	-10.1674
▁member	-10.1676
▁lao	-10.1699
▁qoob	-10.1709
▁Xeev	-10.171
▁Nyab	-10.171
▁July	-10.1713
koj	-10.1731
▁npav	-10.1744
▁Thawj	-10.1744
▁feeb	-10.1745
▁ny	-10.1754
▁president	-10.1755
▁QAB	-10.1756
▁koomhaum	-10.1772
▁60	-10.1782
▁gvp	-10.1785
zog	-10.1796
▁Hide	-10.1799
▁tsuaj	-10.18
▁experience	-10.1806
▁ROV	-10.1812
▁xis	-10.1829
▁much	-10.1843
▁TEJ	-10.1851
▁Yaaj	-10.1859
▁200	-10.1872
▁nkeeg	-10.1873
▁qaij	-10.1875
▁debate	-10.1878
▁qaub	-10.188
▁Mr	-10.1883
aj	-10.1887
▁faus	-10.1918
▁cwjpw	-10.1918
▁first	-10.193
▁nqaim	-10.1936
▁phone	-10.1941
▁qws	-10.1942
▁paug	-10.1954
▁UAS	-10.1955
▁rights	-10.1967
▁dov	-10.1971
▁sibtham	-10.1978
▁Feem	-10.1978
▁??	-10.1982
▁TUB	-10.1989
▁Noj	-10.1999
▁Tu	-10.2
▁tseev	-10.2004
▁hnyav	-10.2048
▁Kaub	-10.2049
▁Nkaw	-10.2057
C	-10.2064
▁OF	-10.2084
▁Chaofa	-10.2085
▁txawb	-10.2094
▁under	-10.2096
▁Yug	-10.2108
al	-10.2115
▁O	-10.2115
▁brother	-10.2119
▁qos	-10.212
▁internet	-10.2123
▁SUAV	-10.2124
▁most	-10.2141
▁ORG	-10.2152
▁caubfab	-10.2153
▁tsaa	-10.2158
▁vog	-10.216
▁mean	-10.2166
▁txomnyem	-10.2183
▁THAUM	-10.2186
xwm	-10.2187
▁17	-10.219
▁tsawb	-10.2208
▁tws	-10.2209
▁kuaj	-10.221
▁COJ	-10.2214
gate	-10.2215
▁peem	-10.223
▁Tswvntu	-10.2238
f	-10.2238
▁Nais	-10.2241
▁zaws	-10.2245
▁xoom	-10.2248
▁khub	-10.2263
G	-10.2265
▁Sawvdaw	-10.2266
▁WI	-10.2266
able	-10.2266
qab	-10.2267
▁problem	-10.227
▁after	-10.2273
▁Mail	-10.2304
▁500	-10.232
▁Ying	-10.2331
▁yoojyi	-10.2333
▁better	-10.2364
▁hoob	-10.2379
▁raw	-10.2391
▁well	-10.2407
▁lomzem	-10.2411
▁let	-10.242
▁xuv	-10.2423
▁nquag	-10.2447
▁hua	-10.245
▁dhuav	-10.2458
▁nrig	-10.2477
▁ncej	-10.2483
▁laws	-10.2496
▁xwv	-10.2499
▁down	-10.2504
▁KAWG	-10.2509
▁Kho	-10.2511
▁Rights	-10.2512
▁Nas	-10.2526
▁English	-10.2534
▁khuv	-10.2536
▁TIAG	-10.2537
▁CAI	-10.2542
▁kaws	-10.2543
▁Xavzoo	-10.2583
eeg	-10.259
sim	-10.2594
▁Tsev	-10.2598
▁npam	-10.2602
▁csy	-10.2613
▁use	-10.2617
▁Suabnoog	-10.2628
▁NTAU	-10.2631
oj	-10.2651
▁ntsig	-10.2656
▁caub	-10.2692
▁yos	-10.2693
▁nyoos	-10.2697
▁paubtab	-10.2711
▁log	-10.2713
▁aav	-10.2719
▁ntsuav	-10.2727
▁ntsa	-10.2731
▁live	-10.2735
16	-10.2745
▁Tuaj	-10.2757
▁XEEM	-10.2758
▁thawjcoj	-10.2758
▁ntuas	-10.2775
▁sa	-10.2783
▁research	-10.2784
▁Phabej	-10.2787
ua	-10.2805
▁Uncle	-10.2819
▁cauj	-10.2822
▁kauj	-10.2829
▁give	-10.2831
▁zwm	-10.2836
▁Lees	-10.2847
▁ntshais	-10.2849
▁Cob	-10.286
▁txib	-10.2866
▁Yim	-10.2872
▁Phoo	-10.2875
▁TIM	-10.2884
▁SSI	-10.2884
▁credit	-10.29
▁zis	-10.2905
▁message	-10.2932
lug	-10.2937
▁tev	-10.2943
▁yang	-10.2946
▁try	-10.2957
▁President	-10.2965
▁being	-10.297
▁YAJ	-10.2991
▁bad	-10.2997
▁nta	-10.3005
▁Code	-10.3013
▁OB	-10.3014
▁HAUV	-10.3014
▁IS	-10.3016
▁V	-10.3023
▁To	-10.3041
▁txuam	-10.3046
▁80	-10.3052
▁last	-10.3067
▁where	-10.3079
▁LUAG	-10.308
▁Tiamsi	-10.3097
▁sure	-10.3105
▁vibnais	-10.3113
▁Huas	-10.3119
▁ta	-10.3126
▁kim	-10.3127
▁NYIAJ	-10.3133
▁Soob	-10.3136
▁W	-10.3143
▁Family	-10.3145
▁posted	-10.3149
ion	-10.3152
▁hem	-10.316
▁into	-10.3163
▁DAB	-10.3177
▁ntsev	-10.3177
J	-10.3185
▁uv	-10.3204
▁yas	-10.3212
▁npoj	-10.3214
▁Kuj	-10.3214
num	-10.3223
▁could	-10.3245
▁NEEJ	-10.3246
▁Lam	-10.3257
▁qav	-10.326
▁In	-10.326
▁neohom	-10.3262
▁txag	-10.3289
▁organization	-10.3296
▁Ntxoov	-10.3315
▁toom	-10.3321
▁qias	-10.3326
▁hlab	-10.3326
▁government	-10.3329
▁mind	-10.333
▁thanks	-10.3334
Hmoob	-10.3344
▁ras	-10.3344
▁suavdlaw	-10.3346
Lt	-10.3349
▁niv	-10.3354
▁HMONG	-10.3364
▁hahahaha	-10.3376
▁Moos	-10.3383
▁Church	-10.3396
▁tshe	-10.3403
plig	-10.3407
tus	-10.341
▁aib	-10.3414
▁qees	-10.3414
ce	-10.3415
▁LEEJ	-10.3432
um	-10.3441
▁28	-10.3454
▁ntws	-10.3459
▁Thailand	-10.3466
▁hahahahaha	-10.3466
▁nhub	-10.347
▁Mas	-10.347
▁dabneeg	-10.3472
▁position	-10.3483
▁zib	-10.3517
▁NTUJ	-10.3521
▁show	-10.3533
▁fwj	-10.3536
▁NROG	-10.3538
▁POV	-10.3543
▁hmos	-10.3553
▁mentsi	-10.3554
▁Foom	-10.3559
▁which	-10.3568
▁TXOJ	-10.3586
▁ki	-10.3589
▁plan	-10.359
▁ntxi	-10.3599
▁Nplogteb	-10.36
▁ualuaj	-10.3603
▁god	-10.3605
▁TSWV	-10.3606
▁ok	-10.3607
▁khab	-10.3631
▁May	-10.3632
▁Tag	-10.3641
▁txojkev	-10.3675
eb	-10.3694
▁mi	-10.3695
▁zuag	-10.37
▁Kawm	-10.371
▁197	-10.3729
▁others	-10.3736
▁side	-10.3739
▁two	-10.3742
▁Doctor	-10.3744
▁zaag	-10.3744
▁plag	-10.3747
yam	-10.3748
▁nraus	-10.3748
,	-10.3754
luag	-10.3757
▁Koom	-10.3761
▁TSEV	-10.3762
▁tum	-10.3766
▁Wb	-10.3768
▁tswb	-10.3779
▁Aub	-10.3781
▁caus	-10.3781
▁forum	-10.3785
▁tsem	-10.3794
▁w	-10.3812
▁Anti	-10.3831
▁kheev	-10.3834
▁Oh	-10.3842
▁Yav	-10.3842
▁oob	-10.3848
▁khau	-10.3859
▁nkaag	-10.3867
▁different	-10.3867
▁before	-10.3868
▁nkaug	-10.3871
▁company	-10.3884
nother	-10.3891
▁again	-10.3896
▁daig	-10.39
▁learn	-10.3901
▁bawg	-10.3922
▁pm	-10.393
▁thas	-10.3935
▁hehehe	-10.3938
▁Q	-10.3946
▁keep	-10.3956
▁alway	-10.3957
▁change	-10.3975
▁sch	-10.4012
▁hno	-10.4021
▁dlub	-10.4023
▁kuamemiab	-10.4028
A	-10.4035
▁friend	-10.4035
▁plhu	-10.4037
ov	-10.404
▁happen	-10.4046
▁TAG	-10.4065
▁da	-10.408
▁ntuag	-10.4082
▁nruas	-10.4106
mas	-10.4111
▁tsuv	-10.4115
▁vote	-10.4124
▁system	-10.4137
▁uantej	-10.4138
▁nplej	-10.4139
▁qoos	-10.414
▁Phou	-10.4142
▁How	-10.4144
thawj	-10.4145
▁tshoj	-10.4157
▁ncuav	-10.4157
▁does	-10.4158
▁txuag	-10.4172
▁nqig	-10.4172
▁Dlawb	-10.4174
▁dlha	-10.4175
▁ask	-10.4186
▁laaj	-10.42
▁Yajtshajkoob	-10.4211
▁look	-10.4243
▁Australia	-10.4245
▁best	-10.4252
▁NOT	-10.4256
▁education	-10.4279
▁hehehehe	-10.428
▁Zoov	-10.4286
▁cig	-10.4288
▁paul	-10.4289
wg	-10.4303
▁Tejzaum	-10.4322
▁Ruam	-10.4333
▁Av	-10.4333
▁tiab	-10.4335
▁That	-10.4335
▁part	-10.4344
▁kaub	-10.4348
▁chiv	-10.4348
▁khwb	-10.436
sis	-10.4365
▁tsevneeg	-10.4366
▁words	-10.4369
▁money	-10.4378
▁75	-10.4379
▁Txoov	-10.438
▁DR	-10.4381
▁Daim	-10.4381
▁Paaj	-10.4385
▁TUA	-10.4392
▁kum	-10.4398
▁YAM	-10.4401
next	-10.4417
▁yoo	-10.4442
▁loos	-10.4445
▁please	-10.4455
▁retire	-10.4479
▁As	-10.4486
ne	-10.4492
▁Mab	-10.4493
▁pro	-10.4501
▁Naj	-10.4502
▁Jesus	-10.4529
dy	-10.4537
▁secret	-10.454
▁netl	-10.454
▁Mong	-10.4547
▁Rov	-10.455
▁taj	-10.4556
▁IN	-10.4557
▁dablaug	-10.4558
▁Tso	-10.4562
eg	-10.4566
▁nkoj	-10.4569
▁hawj	-10.4575
▁tho	-10.4582
▁DAWB	-10.4589
▁especially	-10.4607
▁nkees	-10.4609
▁vaam	-10.4621
▁Universit	-10.4629
▁txov	-10.4629
▁tha	-10.4634
▁Muang	-10.4642
▁evidence	-10.4649
▁yaum	-10.4654
▁hai	-10.4696
▁ntov	-10.4699
▁against	-10.4702
mus	-10.4711
▁Ph	-10.4716
▁2005	-10.4717
▁tshee	-10.472
▁HK	-10.4723
▁theej	-10.4723
▁Lwj	-10.4724
kiag	-10.4728
ment	-10.4729
▁Ca	-10.4734
▁lem	-10.4744
▁things	-10.4753
▁homphiaj	-10.476
▁xyaw	-10.4766
▁txawg	-10.4771
LI	-10.4773
▁lee	-10.4786
▁npaws	-10.4788
▁turn	-10.4795
▁yov	-10.4806
▁Dag	-10.4807
▁qeb	-10.4827
▁matter	-10.4838
▁sawm	-10.4852
▁ntxia	-10.4855
▁Good	-10.4858
▁Hu	-10.4871
ntawd	-10.4884
▁seev	-10.489
▁kib	-10.4893
▁Xyuas	-10.4898
▁txhab	-10.4913
▁america	-10.4915
▁TSO	-10.4919
▁There	-10.4922
▁35	-10.4936
▁khoo	-10.4945
▁yua	-10.4947
▁cheeb	-10.4958
▁social	-10.4962
▁taubhau	-10.4968
▁Txhiaj	-10.4981
▁Txooj	-10.4984
▁xu	-10.5008
▁qes	-10.501
▁nraag	-10.502
▁POJ	-10.5021
▁txhum	-10.5023
▁aka	-10.5023
▁members	-10.5032
▁vij	-10.5037
▁xf	-10.5039
▁NA	-10.5041
▁NOM	-10.5052
▁zeej	-10.5054
▁PHEM	-10.5057
▁hotel	-10.5078
▁Ntshai	-10.5084
▁mail	-10.5087
▁nrawm	-10.5099
▁prove	-10.5103
▁million	-10.5105
▁XA	-10.5108
▁Yingb	-10.511
▁THOV	-10.5117
▁Nyiag	-10.5118
▁NTAWD	-10.5119
▁ntsha	-10.5133
▁nchuav	-10.5139
▁qiv	-10.5142
▁xauv	-10.5144
cobfab	-10.5167
▁ntxawg	-10.5168
▁understand	-10.5174
▁xya	-10.5178
▁ntsab	-10.5189
▁yaaj	-10.5197
▁Nov	-10.5201
▁lias	-10.5204
▁qas	-10.5211
▁khaav	-10.5219
▁yaw	-10.5221
▁txig	-10.524
st	-10.524
▁link	-10.5243
▁st	-10.5249
▁90	-10.5258
▁ai	-10.5259
▁each	-10.528
▁SAWV	-10.528
▁got	-10.5293
▁Yias	-10.5295
▁future	-10.5301
▁Neo	-10.5307
▁800	-10.5309
▁dollars	-10.5312
▁Vietnam	-10.5316
lab	-10.5317
▁nplaig	-10.5342
▁dlaabtsi	-10.5343
▁mauj	-10.5345
fwv	-10.5353
▁TX	-10.5356
tas	-10.5363
cuab	-10.5385
▁vuag	-10.5385
18	-10.539
▁Vees	-10.5401
▁Sis	-10.5408
▁19	-10.5411
▁Kis	-10.5412
▁!!!!	-10.5421
om	-10.5421
▁haub	-10.5444
▁order	-10.5447
▁Sam	-10.5451
▁sua	-10.5456
▁ntab	-10.5458
▁txhawm	-10.5489
▁kind	-10.5492
ntuj	-10.5524
▁without	-10.5529
ember	-10.5531
▁place	-10.5533
▁xyeej	-10.5534
▁tsaav	-10.5541
▁kk	-10.5543
▁including	-10.555
▁"...	-10.5573
▁poog	-10.5576
▁www	-10.5582
thing	-10.559
▁npaug	-10.5591
▁feel	-10.5592
▁PUB	-10.5597
▁nroj	-10.5603
▁fuab	-10.5611
▁sais	-10.5613
▁Kas	-10.5621
▁pluj	-10.5637
yuav	-10.564
im	-10.5653
▁kiv	-10.5653
▁ZOG	-10.5659
▁hiv	-10.5665
▁vision	-10.5666
▁ntso	-10.5667
▁word	-10.5668
▁HO	-10.5675
▁khaum	-10.5682
)	-10.5686
▁Nim	-10.5687
▁hmab	-10.5694
neej	-10.57
▁dib	-10.5708
ation	-10.5721
▁country	-10.5742
▁Cobfab	-10.5742
▁My	-10.5759
▁radio	-10.5765
▁Mai	-10.5767
▁lw	-10.577
▁kwj	-10.5771
▁ntaj	-10.5777
wb	-10.5778
▁piam	-10.5782
▁thwj	-10.5785
▁sense	-10.5786
▁laij	-10.5787
▁list	-10.5793
================	-10.5795
▁kaab	-10.5797
▁using	-10.5799
▁kod	-10.5801
▁Chia	-10.5801
▁wife	-10.5807
▁yo	-10.581
▁Ham	-10.5819
▁mes	-10.5821
▁PUAS	-10.5828
▁qauj	-10.5837
▁Tib	-10.5845
beMho	-10.5852
▁khej	-10.5873
▁nraud	-10.5874
▁Tog	-10.5888
▁laos	-10.589
▁Pleas	-10.5897
▁tell	-10.59
▁Fwv	-10.5916
▁King	-10.5918
▁yws	-10.5919
▁nceb	-10.5926
▁TSAM	-10.594
▁tsuam	-10.5942
▁NTAWM	-10.596
Kwvtijhmoob	-10.5971
▁toog	-10.5977
▁qualify	-10.5981
▁txhis	-10.5991
hot	-10.6008
▁txw	-10.6014
▁But	-10.6025
▁NAWB	-10.6025
▁npo	-10.6026
▁SAIB	-10.6026
▁hehehehehe	-10.6029
▁ais	-10.603
▁baum	-10.6037
▁ciav	-10.6037
▁yourself	-10.6048
▁qeeb	-10.606
▁khws	-10.607
▁Loob	-10.6071
▁khomob	-10.6071
▁Pob	-10.6074
▁IT	-10.6083
▁mong	-10.6084
▁sex	-10.6093
gt	-10.6105
▁Thornsp	-10.6115
▁hluav	-10.6137
▁ntais	-10.6143
os	-10.6148
...	-10.6149
zag	-10.6152
▁rhiab	-10.6159
▁nkhaus	-10.616
▁Mev	-10.6164
laus	-10.6186
▁made	-10.6188
▁yuag	-10.6192
tsis	-10.62
▁npuab	-10.6204
▁KUJ	-10.6207
▁Siab	-10.6209
▁For	-10.6214
▁.)	-10.6216
▁title	-10.6227
▁tov	-10.6233
▁txwj	-10.624
▁niamtxiv	-10.6243
be	-10.6245
▁Pom	-10.6251
▁leg	-10.6261
▁nyua	-10.6269
▁board	-10.6275
▁kem	-10.6277
▁Dub	-10.6278
▁Serve	-10.6292
▁Zaj	-10.6308
▁Phab	-10.6316
▁refugee	-10.632
▁2006	-10.6342
▁nqus	-10.6342
▁end	-10.6345
▁dream	-10.6351
▁hope	-10.6358
▁nroos	-10.637
▁nyaum	-10.6391
▁xiong	-10.6416
ag	-10.6424
▁khees	-10.6425
▁check	-10.6428
▁Meo	-10.6428
▁Tsuj	-10.6429
▁nqeg	-10.6457
▁kujxaj	-10.6457
▁KAM	-10.6466
▁OV	-10.6483
▁self	-10.6495
▁Government	-10.65
qaab	-10.651
▁SAB	-10.6516
▁war	-10.6517
▁official	-10.6519
▁un	-10.652
▁women	-10.6526
▁tubrog	-10.654
▁pus	-10.654
▁office	-10.6542
▁bomb	-10.6545
▁YD	-10.6575
▁yh	-10.6579
▁ntxhiab	-10.6582
suabnoog	-10.6597
▁26	-10.6617
▁NTAWV	-10.6618
▁TXAWJ	-10.6622
▁Tshua	-10.663
▁Tsim	-10.6638
▁rhawv	-10.664
▁National	-10.6649
▁f	-10.6652
▁kob	-10.6661
▁FBI	-10.6664
*	-10.6672
▁funeral	-10.6687
▁cha	-10.6695
▁city	-10.6695
▁tamsis	-10.6697
og	-10.6697
▁Ywg	-10.6712
▁sablaj	-10.6717
▁defend	-10.6728
▁qhas	-10.673
▁Freedom	-10.6735
▁CAUBFAB	-10.6735
▁Amen	-10.6736
▁NTSE	-10.6743
▁few	-10.6759
▁TSEEB	-10.6759
▁proof	-10.676
▁Bawg	-10.676
▁haav	-10.6779
▁keb	-10.6785
▁txujci	-10.6786
▁mhoob	-10.6786
▁nteg	-10.6791
H	-10.6792
▁THAT	-10.6806
▁Year	-10.6806
▁TAWM	-10.6809
▁Yes	-10.681
▁interest	-10.6826
▁Department	-10.683
▁TU	-10.6834
▁LWM	-10.684
▁form	-10.6852
▁saj	-10.687
pov	-10.6871
▁San	-10.6875
▁Pathet	-10.6902
▁Colonel	-10.6926
▁meeting	-10.6928
▁leaders	-10.6928
▁hard	-10.6931
▁pev	-10.6934
▁Pojniam	-10.695
ee	-10.695
▁democracy	-10.6951
▁laig	-10.6955
▁ntsai	-10.696
▁lawyer	-10.6965
▁ej	-10.6968
▁its	-10.6996
▁ses	-10.6999
dawb	-10.7005
▁nis	-10.7012
▁Lor	-10.7031
▁ntub	-10.7033
▁yab	-10.7037
;	-10.7038
▁fiv	-10.7039
▁Just	-10.7048
▁xyum	-10.705
▁Tshajplaws	-10.7051
▁xibfwb	-10.7052
▁Laus	-10.7054
▁TSHAJ	-10.7058
yeeb	-10.7059
▁twjyw	-10.706
kub	-10.7071
▁dawm	-10.7071
▁Hnov	-10.7073
▁CHIM	-10.7075
▁Mouaton	-10.7077
tsaug	-10.7082
▁fact	-10.7089
▁Message	-10.7097
R	-10.7098
▁Soua	-10.7104
United	-10.7111
▁uasi	-10.7115
▁Thorn	-10.7136
tseeg	-10.7137
tk	-10.7142
▁Maina	-10.7148
▁Jim	-10.7172
▁paib	-10.7179
▁II	-10.7179
▁PM	-10.718
▁read	-10.7181
▁Tsheej	-10.7186
uj	-10.7194
▁Why	-10.7196
▁npaaj	-10.7196
▁lob	-10.7213
▁Pobzeb	-10.7221
▁Tsuav	-10.7224
▁meaning	-10.7227
▁poom	-10.7229
▁Kong	-10.7232
-	-10.7234
▁yis	-10.7238
▁neejtsa	-10.7245
▁keebkwm	-10.7245
▁phov	-10.7248
▁MC	-10.7256
▁Ntau	-10.7262
▁70	-10.7264
▁Pha	-10.7266
▁Huabtais	-10.7273
▁kajsiab	-10.7279
▁thaaj	-10.7286
tau	-10.7289
▁hwjchim	-10.7295
▁txhoj	-10.7298
▁xuab	-10.7299
▁mejkoob	-10.7299
lus	-10.7306
▁OK	-10.7309
▁MOB	-10.731
ntawv	-10.7313
ty	-10.7318
▁fabkis	-10.7322
▁paim	-10.7329
▁Xov	-10.7333
▁home	-10.7337
▁millions	-10.7339
▁npuav	-10.7339
▁both	-10.7341
▁jpg	-10.7346
▁la	-10.7358
▁Asia	-10.7369
▁open	-10.7373
▁paaj	-10.7375
▁Peace	-10.7375
wm	-10.7385
▁weeks	-10.7389
▁done	-10.7419
▁rais	-10.7422
▁chance	-10.7422
▁MAM	-10.7427
▁Ntaub	-10.7431
▁TSIM	-10.7435
▁Leejtw	-10.7436
xeem	-10.7439
▁Tia	-10.7444
LY	-10.7444
F	-10.7452
▁Cwj	-10.7459
▁nye	-10.7462
▁npuas	-10.7467
▁Congress	-10.7472
▁ntxuag	-10.7501
tes	-10.7515
▁tabsim	-10.7516
▁txa	-10.7524
▁yuas	-10.7527
▁hours	-10.7537
sib	-10.7541
▁volunteer	-10.755
▁nplaum	-10.7551
▁KAWM	-10.7554
▁MUAG	-10.7578
▁nthe	-10.7587
around	-10.7594
▁52	-10.7595
▁ntsaws	-10.7597
▁situation	-10.7601
▁pay	-10.7605
▁yuamkev	-10.7609
▁Mam	-10.761
▁qa	-10.7618
▁$1	-10.7625
▁dluab	-10.7627
▁betwee	-10.7634
▁ntxais	-10.7637
▁Fuab	-10.7654
▁txaij	-10.7655
▁Luas	-10.7655
▁kiav	-10.7657
▁Nchai	-10.7659
▁txhav	-10.7667
▁fair	-10.7669
▁yob	-10.7673
▁bible	-10.768
▁tsog	-10.7695
nothing	-10.77
▁great	-10.7706
▁hahahahahaha	-10.7709
▁DC	-10.7725
▁Phaj	-10.7729
▁control	-10.773
▁seej	-10.773
▁dlaav	-10.7735
▁ntxhia	-10.7748
▁AM	-10.775
▁private	-10.7758
▁YAWG	-10.776
▁nomtswv	-10.7762
▁phua	-10.7767
20	-10.7771
▁1000	-10.778
▁Communist	-10.7785
▁thank	-10.7785
▁fwjchim	-10.7785
▁Paub	-10.7786
▁fim	-10.7787
▁nplawm	-10.7789
▁Coj	-10.7791
▁line	-10.7818
wj	-10.783
▁Luang	-10.7832
▁29	-10.7832
q	-10.7833
cas	-10.7834
▁npaud	-10.7849
▁truth	-10.7852
▁Sau	-10.7856
▁uncle	-10.7866
▁project	-10.7893
qhov	-10.7895
▁big	-10.7901
▁John	-10.7914
▁professional	-10.7918
▁Tswj	-10.7918
▁fawb	-10.7918
tom	-10.7922
▁txhuv	-10.7924
▁non	-10.7926
▁term	-10.7931
hais	-10.7939
▁FOR	-10.7944
▁Kwm	-10.7946
ry	-10.7949
▁,,	-10.7952
▁Txhais	-10.797
▁Nres	-10.7971
▁put	-10.7984
▁yes	-10.7987
."	-10.7991
▁cwjme	-10.7995
▁opportunity	-10.7997
▁mua	-10.8014
▁doctors	-10.8016
▁23	-10.802
▁idea	-10.8023
laug	-10.8024
▁Nkaujnyiag	-10.8025
▁something	-10.8025
▁hoom	-10.8034
▁AS	-10.8036
▁else	-10.8051
▁zuaj	-10.8053
▁face	-10.8062
▁POB	-10.8063
▁fight	-10.8065
or	-10.8068
▁pleev	-10.8078
▁Oz	-10.808
▁txooj	-10.808
▁YEEB	-10.8081
▁nte	-10.8082
▁zeemmuag	-10.8106
rog	-10.8107
▁TSEG	-10.8108
iv	-10.8118
▁zeeg	-10.8118
▁ntxag	-10.8125
▁Tim	-10.8131
▁difference	-10.8133
▁Let	-10.8144
▁tshau	-10.8144
▁nias	-10.8145
▁nqos	-10.8155
kawg	-10.8158
▁Wisconsin	-10.816
▁Tsov	-10.817
▁moov	-10.8181
tony	-10.8186
▁Na	-10.8189
▁HLUB	-10.8191
▁Tshuaj	-10.8194
▁nqeeb	-10.8194
▁tuas	-10.8195
▁yeebncua	-10.8202
▁Sim	-10.8207
▁program	-10.821
▁Nyoo	-10.823
z	-10.8236
▁speech	-10.8242
▁Caub	-10.8254
▁answer	-10.8264
▁idonotknow	-10.827
▁PKH	-10.827
▁KK	-10.8275
▁tsawm	-10.8279
▁yuj	-10.8293
▁Lyteck	-10.8298
▁profit	-10.83
http	-10.8302
▁om	-10.831
▁Uas	-10.8315
▁Bibl	-10.8317
▁canno	-10.8318
▁ntuav	-10.832
▁Yij	-10.8334
▁tsu	-10.8338
▁past	-10.8342
caag	-10.8343
▁fajkhau	-10.8353
▁IHSS	-10.8353
awm	-10.8356
▁top	-10.8357
▁goal	-10.8358
▁xovtooj	-10.8359
▁dejnu	-10.836
▁accept	-10.8362
▁China	-10.8382
▁kaaj	-10.8385
yim	-10.8388
▁ped	-10.8389
▁hnia	-10.8391
▁27	-10.8394
▁chua	-10.8399
hiab	-10.8403
▁nroo	-10.8407
muaj	-10.8408
▁UNHCR	-10.8409
▁Peter	-10.8409
iab	-10.8414
▁col	-10.8416
▁People	-10.8437
▁ntaiv	-10.8439
▁tshaav	-10.8439
▁meejmom	-10.8439
▁politics	-10.8462
▁School	-10.8465
▁copy	-10.8467
▁TIAM	-10.8467
▁taam	-10.8468
▁yoov	-10.8476
▁luck	-10.8481
▁300	-10.8481
▁ntaug	-10.8482
▁heart	-10.8485
▁*	-10.8487
leej	-10.849
▁Minister	-10.8494
tshooj	-10.8514
▁Rebecca	-10.8522
▁kawv	-10.8524
en	-10.8526
▁follow	-10.8535
▁peace	-10.8546
▁find	-10.8546
▁qog	-10.8551
▁Ntxwg	-10.8551
▁Your	-10.8556
▁Toj	-10.8556
▁ncaug	-10.8566
P	-10.8577
▁Hm	-10.8578
▁Kuamemiab	-10.8579
▁Avang	-10.858
▁2010	-10.8586
▁2012	-10.8588
▁HNUB	-10.8608
▁daum	-10.8619
▁kuamem	-10.8638
▁diav	-10.8643
▁Tshuav	-10.8646
▁pluas	-10.8654
▁hniaj	-10.8656
▁dhlau	-10.8668
▁fwb	-10.8678
▁traitor	-10.8694
ness	-10.8695
▁mem	-10.8696
▁nthi	-10.8719
▁ROG	-10.8725
▁KHO	-10.8726
▁anything	-10.8752
▁QHIA	-10.8767
▁TSA	-10.877
▁team	-10.8777
▁legal	-10.8781
▁zim	-10.8781
▁tsag	-10.8782
▁someone	-10.8783
▁nplajte	-10.879
▁thai	-10.8798
▁nqhi	-10.88
▁club	-10.8814
▁language	-10.8818
▁individual	-10.8821
▁Amelicas	-10.8839
▁least	-10.884
▁google	-10.8841
▁Dec	-10.8852
▁DHAU	-10.8854
▁45	-10.8854
▁sign	-10.8859
▁stop	-10.8861
▁DOS	-10.8876
▁hluag	-10.8889
▁EV	-10.8891
▁second	-10.8894
▁Hlub	-10.8902
▁xaws	-10.8907
▁Tebchaw	-10.892
▁Aib	-10.8934
aum	-10.8945
▁join	-10.8949
▁Haum	-10.8961
▁choice	-10.8987
▁Haujlwm	-10.8987
▁Miao	-10.8987
▁night	-10.8991
▁qi	-10.901
▁La	-10.9015
▁Tsujsua	-10.9022
▁haas	-10.9024
meej	-10.9028
▁land	-10.9032
lwm	-10.9049
▁Zag	-10.9049
▁khaw	-10.9052
▁DAWS	-10.9053
▁lua	-10.9073
▁maub	-10.909
▁qhau	-10.9093
▁societ	-10.9106
▁Phiajzeb	-10.9107
▁CEM	-10.9115
▁age	-10.9122
▁per	-10.9125
▁off	-10.9136
▁xuaj	-10.9141
▁nyo	-10.9144
▁Kao	-10.9152
▁doing	-10.9153
▁RPA	-10.9166
▁Lycee	-10.9166
▁DEJ	-10.9169
▁Dev	-10.9182
txwm	-10.9192
▁SIM	-10.9196
▁NTR	-10.9197
▁Sacrament	-10.9198
▁agent	-10.9198
▁laim	-10.9206
▁xaim	-10.9213
▁Pa	-10.9221
▁nruag	-10.9224
▁attack	-10.9227
▁chwv	-10.9228
▁2000	-10.9231
ej	-10.9238
▁judge	-10.9248
▁Neng	-10.9256
▁Ziag	-10.9258
▁job	-10.9262
▁TIA	-10.9265
niam	-10.9267
▁Director	-10.9288
▁Shoua	-10.9288
▁tax	-10.929
▁pluaj	-10.9292
▁uacas	-10.9297
▁kuag	-10.9312
▁nrad	-10.9317
▁2007	-10.9318
▁Roob	-10.9326
▁1980	-10.935
▁Loj	-10.9362
▁Too	-10.9367
▁lais	-10.9372
▁college	-10.9375
▁Noog	-10.9376
▁already	-10.9381
▁taig	-10.9387
▁khuj	-10.9387
▁TSUM	-10.9388
▁vau	-10.939
▁Laug	-10.9396
▁vaammee	-10.9399
▁cuaj	-10.9406
▁christian	-10.9412
▁zaam	-10.9415
▁DIM	-10.9425
▁record	-10.9434
▁NC	-10.9438
tug	-10.9438
▁far	-10.9443
▁lajlim	-10.9443
▁Tshoj	-10.9455
▁dais	-10.947
▁College	-10.9474
▁neohmong	-10.9474
▁tsig	-10.9474
▁rhaub	-10.9475
▁dulug	-10.9475
▁quasyawg	-10.9478
▁Txiab	-10.9478
▁ntshaav	-10.9478
▁66	-10.9486
ntxhais	-10.9488
▁Unko	-10.9508
▁DUA	-10.9508
▁Ntseeg	-10.951
▁limit	-10.9511
51	-10.9513
▁ntwg	-10.9518
▁leem	-10.9524
▁ntxhw	-10.9532
▁cause	-10.9541
▁Faaj	-10.9544
▁ku	-10.9553
▁tsoos	-10.9557
▁2004	-10.9563
▁ntxoov	-10.9567
▁above	-10.9568
▁VIBNAIS	-10.9568
▁LFC	-10.9569
▁zes	-10.957
▁THAWJ	-10.9571
▁ARE	-10.9571
▁LAUS	-10.9573
▁body	-10.9575
▁LIS	-10.9576
▁tsees	-10.9579
▁DU	-10.9603
▁npuaj	-10.961
▁Lu	-10.9611
▁phwv	-10.9613
▁speak	-10.9624
▁zawm	-10.9633
▁Nplooj	-10.9634
▁rig	-10.9634
▁kes	-10.9636
▁action	-10.9662
▁Kajntug	-10.9663
▁vov	-10.9664
▁laag	-10.9672
▁ncau	-10.9672
▁ntxhai	-10.9675
▁Don	-10.9676
▁Nro	-10.9679
me	-10.9684
▁Xa	-10.9685
▁03	-10.9693
▁thought	-10.9694
▁lpdr	-10.9695
▁Tseeb	-10.9695
▁Ntse	-10.97
CS	-10.9703
▁boj	-10.9703
lis	-10.9712
▁practice	-10.9715
RW	-10.9719
▁DUB	-10.9732
▁ever	-10.9733
ED	-10.9744
▁Do	-10.975
in	-10.976
▁nrim	-10.9766
▁MOOB	-10.9767
▁qhovtwg	-10.9767
▁DEB	-10.9773
NTAG	-10.9776
▁LAM	-10.9791
▁Ban	-10.9792
▁LO	-10.9793
▁enjoy	-10.9794
▁oib	-10.9795
▁raj	-10.9797
▁mission	-10.9806
▁pha	-10.9815
▁thaud	-10.9817
▁thawb	-10.9825
tawm	-10.9837
▁awb	-10.9837
▁dao	-10.9839
▁dlaw	-10.9849
▁po	-10.985
▁Moghlu	-10.9852
nom	-10.9853
▁Thank	-10.9855
▁pobzeb	-10.9867
▁Txiaj	-10.987
▁2013	-10.989
▁ntshi	-10.9893
▁kaug	-10.9893
O	-10.9894
▁$10	-10.9897
I	-10.9903
▁Vinai	-10.991
▁Nab	-10.9924
▁ntsoog	-10.9928
▁nkau	-10.9941
▁young	-10.9941
▁hajya	-10.9945
▁pestsaw	-10.9947
▁tshais	-10.9952
▁VDO	-10.9954
▁NKAUJ	-10.9954
▁run	-10.9963
▁viv	-10.9964
▁VT	-10.9985
▁Samthong	-10.9986
▁..?	-10.9987
▁pag	-11.0013
▁phev	-11.0021
▁GM	-11.0028
▁Obama	-11.0052
▁special	-11.0052
▁Nraug	-11.0053
▁Bangko	-11.0056
▁feet	-11.0057
▁xyab	-11.0065
52	-11.007
paub	-11.0071
▁CC	-11.0078
▁KUBXAJ	-11.0085
▁txoos	-11.0091
▁povthawj	-11.0093
tias	-11.0105
yaig	-11.0111
▁kiab	-11.0113
▁number	-11.0118
▁Capt	-11.012
▁povtseg	-11.0121
▁Law	-11.0132
ia	-11.0136
▁continue	-11.0141
▁nplogteb	-11.0152
▁ntxaws	-11.0154
▁z	-11.0157
▁meo	-11.0162
▁0	-11.0162
▁until	-11.0168
▁huaj	-11.0173
▁MA	-11.018
▁Qee	-11.0184
▁NTSEEG	-11.0185
▁txaaj	-11.0186
▁khoos	-11.0192
▁start	-11.0195
▁Ntaj	-11.0206
▁99	-11.0208
se	-11.021
▁Tshu	-11.0214
▁Thaj	-11.0215
▁stroke	-11.022
IAG	-11.0228
▁saw	-11.0239
▁quab	-11.0241
▁vas	-11.0252
▁ntsub	-11.0255
▁away	-11.0258
▁yias	-11.0266
▁zij	-11.0284
▁qhovmuag	-11.0285
▁nyooj	-11.0292
▁Yawgnomdu	-11.0292
▁yaws	-11.0304
peb	-11.0309
▁DAIM	-11.032
▁benefit	-11.032
▁cuj	-11.0328
▁txhuas	-11.0344
▁lesson	-11.0354
▁HIH	-11.0356
▁Santa	-11.0365
GVP	-11.0371
tub	-11.0383
▁$100	-11.0388
▁TXIM	-11.0391
▁1976	-11.0393
U	-11.0397
▁tshauv	-11.0401
▁oh	-11.0407
lao	-11.0413
▁xua	-11.0416
▁TIJLAUG	-11.0422
▁Sibtham	-11.0422
▁Txhim	-11.0422
▁thwm	-11.0432
▁vag	-11.0437
▁king	-11.0447
▁huav	-11.045
▁tiamsi	-11.0459
▁khaib	-11.0462
▁nplaj	-11.0464
▁plis	-11.0464
her	-11.0464
▁rhu	-11.047
▁Caubfa	-11.0473
▁TV	-11.0473
yet	-11.0482
▁ruas	-11.0483
▁usa	-11.0483
▁Them	-11.0489
▁Ywj	-11.0492
▁tibyam	-11.0499
▁Koos	-11.0505
▁dabtsis	-11.0512
▁late	-11.0521
▁UB	-11.0522
▁address	-11.0526
▁zig	-11.0529
▁CO	-11.0543
▁q	-11.0546
▁perfect	-11.0561
▁36	-11.0569
▁npoo	-11.0585
▁npaumli	-11.0589
ER	-11.0591
▁UTC	-11.0595
▁Hauj	-11.0597
▁american	-11.06
▁through	-11.0603
▁2008	-11.0604
▁minutes	-11.0609
▁lot	-11.0624
▁medal	-11.063
▁World	-11.0631
▁vang	-11.0633
▁TY	-11.0646
uav	-11.0651
▁plaab	-11.0667
▁NPLOG	-11.0667
koob	-11.0671
▁XYOO	-11.0684
▁Tiag	-11.0687
tsij	-11.0688
seb	-11.0698
fwb	-11.0698
▁generation	-11.07
▁enough	-11.0701
stead	-11.0702
▁CHAWS	-11.0702
▁NYIAM	-11.0703
▁Vwm	-11.0708
▁pabcuam	-11.0711
yeej	-11.0712
kaj	-11.0715
▁quj	-11.0716
▁movies	-11.072
▁came	-11.0727
▁happ	-11.073
▁tou	-11.0736
▁service	-11.0737
▁py	-11.074
▁101	-11.0741
▁Xub	-11.0741
▁,"	-11.0742
pab	-11.0742
▁bee	-11.0746
▁retired	-11.0755
▁ago	-11.0759
▁THEM	-11.0759
▁Chee	-11.0761
▁Bush	-11.0771
▁director	-11.0773
▁uali	-11.0776
▁taij	-11.0777
▁te	-11.0781
an	-11.0784
▁direct	-11.0787
▁nqua	-11.0789
▁ywjpheej	-11.0807
▁naav	-11.0808
▁HH	-11.0813
hn	-11.0817
▁BE	-11.0821
▁Tiv	-11.0823
▁phlu	-11.0834
▁Mais	-11.0835
▁serious	-11.0843
▁NEOHOME	-11.0843
▁politician	-11.0844
▁Thoob	-11.0845
id	-11.0846
▁plees	-11.0847
▁Rwg	-11.085
▁hand	-11.086
▁NPE	-11.0861
▁Mloo	-11.0867
▁together	-11.0878
▁HOM	-11.0881
▁xiv	-11.0882
▁clear	-11.0894
▁txaum	-11.0906
▁Npliaj	-11.0909
▁TXAUS	-11.0915
▁leadership	-11.0916
▁fa	-11.0924
▁means	-11.0924
▁ready	-11.0925
▁PK	-11.0931
iam	-11.0932
▁yuaj	-11.0933
yawm	-11.0936
▁mu	-11.0936
▁SAU	-11.0951
▁youtube	-11.0952
▁yaa	-11.097
▁bank	-11.097
▁LEES	-11.0973
▁SY	-11.0982
▁Court	-11.0987
▁bring	-11.0988
▁Radio	-11.0988
▁offer	-11.0988
ces	-11.0989
▁ruag	-11.1002
▁cuas	-11.1005
AM	-11.1005
ary	-11.1012
▁th	-11.1021
▁npausuav	-11.1024
▁Xaav	-11.1025
▁dlau	-11.1025
▁)...	-11.1039
xim	-11.1059
▁xeebceem	-11.106
▁hmantsuab	-11.1061
▁Kuamem	-11.1061
▁solution	-11.1064
▁tsavneeg	-11.1065
▁Txuj	-11.1066
▁walk	-11.1078
▁Qab	-11.1083
▁belief	-11.1097
▁times	-11.1098
▁ciab	-11.1099
L	-11.1105
▁yag	-11.1109
▁tomntej	-11.1111
▁QW	-11.1114
▁pis	-11.1123
▁tsoomfw	-11.1131
▁Tsa	-11.1131
▁dlig	-11.1137
▁tsham	-11.1141
▁rawsli	-11.1155
▁thua	-11.1156
▁KM	-11.1161
▁vwj	-11.1167
▁ll	-11.1171
▁nuvntses	-11.1172
▁tshai	-11.1172
est	-11.1178
tshajplaws	-11.1181
▁educate	-11.1201
▁become	-11.1207
▁International	-11.1207
▁flop	-11.1207
▁game	-11.1208
▁rovqab	-11.1209
▁08	-11.121
tsam	-11.1212
▁toob	-11.1212
▁comment	-11.1228
▁tshuas	-11.123
ev	-11.1239
▁George	-11.1244
▁kill	-11.1245
▁ntxaug	-11.1249
▁thawm	-11.125
▁ZAUM	-11.1273
▁create	-11.1276
▁tai	-11.128
▁avang	-11.1285
▁teej	-11.1286
▁Hmo	-11.1293
▁txhos	-11.1296
▁phij	-11.1309
▁days	-11.1312
▁Friday	-11.1319
▁Sunday	-11.132
▁Yee	-11.132
▁dlaaj	-11.1322
▁Txos	-11.1331
▁Kos	-11.1332
pm	-11.1337
▁rag	-11.134
▁mobsiab	-11.1349
▁funny	-11.1357
▁international	-11.1357
▁Yooj	-11.1357
▁statement	-11.1359
▁Major	-11.1364
uv	-11.1371
▁stand	-11.138
▁step	-11.1381
▁woman	-11.1393
▁Hli	-11.1393
▁xwj	-11.1399
SIS	-11.1402
▁plog	-11.1408
pom	-11.1417
▁set	-11.1421
▁regard	-11.1428
▁sauv	-11.143
▁ntxwg	-11.1432
▁foo	-11.1438
▁lead	-11.1439
▁thaab	-11.1443
▁kaas	-11.1447
ck	-11.1448
▁friends	-11.1464
hawm	-11.1469
▁khabnab	-11.147
▁concern	-11.147
▁When	-11.147
▁Asmeskas	-11.1471
▁Chim	-11.1474
up	-11.1479
▁DO	-11.148
toj	-11.1485
▁iblub	-11.1487
▁ntxiag	-11.1489
less	-11.1502
▁lawj	-11.1503
▁MOS	-11.1506
▁Yig	-11.1511
▁khoob	-11.1517
▁Sab	-11.1522
▁cib	-11.1526
▁xau	-11.1541
▁di	-11.1543
▁nqai	-11.1547
▁nhov	-11.1548
▁tshajlij	-11.1549
▁promote	-11.1551
▁close	-11.1555
▁neev	-11.1556
▁xyua	-11.1559
▁txhuam	-11.1561
▁Chue	-11.1567
▁faaj	-11.1586
▁Ntxhais	-11.1591
▁heard	-11.1593
▁LIAB	-11.1593
▁thiv	-11.1595
▁Yong	-11.1596
▁national	-11.16
▁AK	-11.1604
nyob	-11.1616
▁knowledge	-11.1624
▁policy	-11.1624
▁Loojceeb	-11.1624
▁SEB	-11.1625
▁1979	-11.1626
▁pig	-11.1627
▁Khab	-11.163
awv	-11.1638
▁THAM	-11.1649
▁ALL	-11.1659
▁Thamkrabok	-11.1662
▁SUB	-11.1664
▁challenge	-11.1664
▁nplaim	-11.1664
▁head	-11.1671
▁MD	-11.168
▁possibl	-11.1683
ceeb	-11.1687
▁Nyuj	-11.169
▁wish	-11.1694
▁Menyuam	-11.1701
▁vacation	-11.1701
▁Rooj	-11.1703
▁nqaa	-11.1703
▁Lino	-11.1707
▁nceeg	-11.1708
▁posts	-11.171
▁"?	-11.1713
tsev	-11.1714
▁ST	-11.1716
▁tsaab	-11.1718
▁fun	-11.1739
▁consider	-11.174
▁NTEJ	-11.174
▁1960	-11.1741
▁khua	-11.1743
niamtsev	-11.1746
▁LIAM	-11.1747
▁NE	-11.1751
▁OR	-11.1752
▁txam	-11.1758
▁maim	-11.1761
▁hear	-11.1775
▁Yag	-11.1778
▁fresno	-11.178
▁YEEM	-11.1781
▁DEV	-11.1783
▁Dong	-11.1784
▁nyaab	-11.1788
tuag	-11.1806
▁YT	-11.181
▁page	-11.1812
▁citizen	-11.1814
▁apply	-11.1819
▁High	-11.1821
▁ntsejmuag	-11.1822
▁death	-11.1824
▁txhu	-11.1825
▁feeling	-11.1827
▁paag	-11.1827
dub	-11.1829
▁Khej	-11.1829
▁pwg	-11.1833
▁Puj	-11.1845
32	-11.1847
▁Yia	-11.1847
▁include	-11.1858
▁terrorist	-11.1859
▁,,,	-11.1859
▁former	-11.1861
▁yah	-11.1861
nyeej	-11.1867
technology	-11.1875
▁plau	-11.1877
▁Num	-11.1877
▁TES	-11.1885
▁HNOV	-11.19
▁Moog	-11.1901
▁xiab	-11.1904
nws	-11.1914
tswv	-11.1914
▁saying	-11.1917
▁complain	-11.1934
▁ntsaw	-11.1938
▁positive	-11.1939
▁PAJ	-11.1948
Canada	-11.195
▁suv	-11.1952
yawg	-11.1955
▁ntswj	-11.1957
▁sev	-11.1958
nov	-11.1962
▁meme	-11.1975
aturday	-11.1976
▁move	-11.1977
▁mental	-11.1977
▁unless	-11.1978
▁ntshua	-11.1982
▁puavleej	-11.1983
▁phais	-11.1986
em	-11.1992
LOS	-11.1992
▁cale	-11.2003
▁qhias	-11.2006
nkaus	-11.2008
▁Council	-11.2018
▁original	-11.2021
▁whole	-11.2024
▁hiav	-11.2037
▁BUT	-11.2038
▁Hlis	-11.2055
Xf	-11.2059
▁father	-11.2063
▁;&	-11.2066
▁lolus	-11.2067
▁camp	-11.2069
▁nraab	-11.2072
▁lwv	-11.2077
▁daw	-11.2083
▁Zos	-11.2085
▁nyia	-11.2087
▁pebcaug	-11.2093
---------------	-11.2096
▁nt	-11.2099
▁Zuag	-11.2101
▁cos	-11.2101
▁PIAV	-11.2101
▁Cheng	-11.2106
▁Ntu	-11.2116
lso	-11.212
▁Xam	-11.2122
▁fai	-11.2124
▁KO	-11.2129
▁Commander	-11.214
▁THIS	-11.214
▁principle	-11.214
▁TB	-11.2143
▁KUB	-11.2144
kawm	-11.2151
▁fee	-11.2155
▁centur	-11.2163
▁als	-11.2165
▁kaag	-11.2165
▁agenda	-11.2181
▁living	-11.2184
▁yoj	-11.2193
▁daus	-11.2197
▁event	-11.2202
▁fund	-11.221
▁Noob	-11.2214
▁health	-11.2216
▁PEM	-11.2218
▁Social	-11.222
▁dead	-11.2221
▁Nyias	-11.2224
▁ntxeem	-11.2227
▁Se	-11.2229
▁anti	-11.2231
▁2011	-11.2234
▁YO	-11.224
▁TXWV	-11.2249
▁Npe	-11.2255
▁$5	-11.2256
▁Chong	-11.2261
▁LEM	-11.2265
▁either	-11.2267
▁Sao	-11.2269
nub	-11.227
ong	-11.2272
▁qai	-11.2279
MOOB	-11.2288
▁test	-11.229
▁rule	-11.2299
▁cooj	-11.23
▁Israel	-11.23
sa	-11.2303
▁xejthim	-11.2304
▁later	-11.2305
▁pluav	-11.231
▁Ana	-11.2322
▁view	-11.2328
▁Cuam	-11.2335
thread	-11.2335
▁QAIB	-11.2346
▁reality	-11.2347
▁CIAJ	-11.2348
▁normal	-11.2354
▁Man	-11.2364
▁And	-11.2368
▁nr	-11.2371
ws	-11.2371
▁TUBNTSUAG	-11.2377
▁chawj	-11.2386
▁Askiv	-11.2387
military	-11.2388
▁Caag	-11.2389
▁Haam	-11.2389
▁might	-11.239
▁dos	-11.239
▁Health	-11.2392
▁31	-11.2392
▁Fwm	-11.2392
▁moua	-11.2404
▁AUB	-11.2415
▁liag	-11.2416
dab	-11.2426
xwb	-11.2428
▁Txiabneeb	-11.2429
▁XYOOJ	-11.2431
▁YUG	-11.2431
▁today	-11.2434
▁khuaj	-11.2437
smiles	-11.2439
▁ntuv	-11.2441
iav	-11.2457
▁34	-11.2471
▁nrag	-11.2471
▁Catholic	-11.2471
▁everything	-11.2471
▁soon	-11.2482
▁Mim	-11.2486
▁khuav	-11.2489
▁????	-11.2498
▁Yaweh	-11.2513
▁qhwv	-11.2514
▁kavliam	-11.2517
▁dlov	-11.2517
▁Have	-11.2525
▁yogli	-11.254
▁ibtug	-11.2543
▁iv	-11.2544
▁Colorad	-11.2554
▁Tas	-11.2558
▁YOUR	-11.2559
▁charge	-11.256
▁whil	-11.257
Lq	-11.2573
taub	-11.2576
▁Zam	-11.2588
▁NUV	-11.2599
▁Teng	-11.2601
▁Nug	-11.2602
▁xo	-11.2607
▁qia	-11.2618
▁55	-11.2623
haus	-11.2636
▁North	-11.2639
29	-11.264
▁short	-11.264
▁VajNcuab	-11.2641
▁mention	-11.2641
▁marriage	-11.2641
▁TSOV	-11.2642
▁Prabang	-11.2643
▁security	-11.2644
▁noobneej	-11.2645
▁ntshiab	-11.2654
zeb	-11.2655
fore	-11.2657
▁TIJ	-11.266
▁01	-11.2665
pheej	-11.2677
moobsib	-11.2683
awd	-11.2683
▁NTEV	-11.2685
▁white	-11.2685
▁mejthaub	-11.2686
▁wait	-11.2688
▁ncho	-11.2695
▁caab	-11.2705
▁peeb	-11.2706
▁201	-11.271
adison	-11.2713
▁serve	-11.2723
▁thi	-11.2725
▁kaujruam	-11.2727
▁child	-11.2728
▁ceevfaj	-11.2729
▁nice	-11.2729
▁Maum	-11.2731
▁laajxeeb	-11.2732
▁yu	-11.2732
▁account	-11.2733
▁Cib	-11.2737
▁ka	-11.2739
▁mung	-11.2745
▁naab	-11.2752
▁xaab	-11.2769
▁raab	-11.2771
▁moslwj	-11.2774
▁taav	-11.2775
▁Kaim	-11.2775
▁caaj	-11.2776
▁pastor	-11.2777
hind	-11.2778
▁Meliska	-11.2779
▁Suab	-11.278
▁120	-11.2781
▁NPUA	-11.2788
▁5000	-11.2792
▁das	-11.2794
yuad	-11.2798
▁zoox	-11.2801
▁Wat	-11.2805
kuj	-11.2808
▁Education	-11.2814
▁science	-11.2814
▁ghov	-11.2815
▁force	-11.2818
▁Nag	-11.2836
▁tem	-11.284
▁iav	-11.2851
▁represent	-11.2857
▁guarantee	-11.2857
▁tuj	-11.2859
▁phiam	-11.286
▁dheev	-11.286
▁roog	-11.2864
leeg	-11.287
▁fuam	-11.2881
▁maiv	-11.2892
voos	-11.2895
eng	-11.29
▁nyaav	-11.2903
▁Aug	-11.2906
▁KAV	-11.2908
▁hwb	-11.2909
▁nplig	-11.2913
▁ntis	-11.2913
▁Pej	-11.2916
▁ncoo	-11.2917
tim	-11.2917
▁qhe	-11.2922
▁hawv	-11.2923
▁tx	-11.2928
▁tsuab	-11.2943
▁$20	-11.2943
▁vaajmung	-11.2945
▁HE	-11.2947
▁lulug	-11.2948
▁grade	-11.295
▁dlag	-11.2953
▁stay	-11.2954
▁"....	-11.2955
▁nras	-11.2962
▁Dua	-11.2972
▁within	-11.2977
▁Pham	-11.2978
▁QUAJ	-11.2989
▁purpose	-11.299
▁yingb	-11.299
ny	-11.2993
▁DOR	-11.2993
▁nkig	-11.2995
▁Any	-11.3
▁lake	-11.3004
▁Co	-11.3014
neeb	-11.3022
▁puaj	-11.3026
▁since	-11.3028
▁advice	-11.3035
▁Phau	-11.3038
▁txhaa	-11.3039
▁once	-11.304
▁ntxhua	-11.3042
ers	-11.3043
PajTsab	-11.3044
▁MR	-11.3051
▁rest	-11.3054
▁nyuav	-11.3055
▁son	-11.3058
land	-11.3062
▁Kaj	-11.3064
▁act	-11.3064
hwb	-11.3072
▁nwslub	-11.3076
▁France	-11.3079
▁COOB	-11.3079
▁rovlos	-11.3081
▁ncaus	-11.3082
yuam	-11.3083
▁rwg	-11.3087
lam	-11.3088
▁die	-11.309
▁Nub	-11.3095
▁nib	-11.3096
▁Phas	-11.3097
▁ZE	-11.3114
▁lostsuas	-11.3116
▁negative	-11.3124
▁decision	-11.3124
▁nqug	-11.3125
▁hub	-11.3128
▁nyug	-11.3131
behmong	-11.3135
▁Lig	-11.3141
▁33	-11.3143
▁CE	-11.3144
▁Hin	-11.3149
▁reall	-11.315
kas	-11.315
▁CARP	-11.3167
▁confuse	-11.317
▁php	-11.317
▁Hmoov	-11.3172
▁interesting	-11.3176
▁ON	-11.3177
LAWM	-11.3201
▁fire	-11.3202
▁Act	-11.3209
▁strong	-11.3213
▁Lyfoung	-11.3214
▁ncav	-11.322
▁TXHUA	-11.3221
▁moral	-11.3221
▁Sivyi	-11.3238
▁Re	-11.3239
▁nasthis	-11.326
▁equal	-11.3261
▁yexus	-11.3262
▁):	-11.3264
▁Pog	-11.327
cov	-11.327
▁tseb	-11.3272
▁NTXIV	-11.3274
▁yuv	-11.3274
▁hlaa	-11.3276
▁Sov	-11.3276
▁Cab	-11.3278
▁qeeg	-11.3294
▁enem	-11.3305
▁Service	-11.3305
▁County	-11.3305
▁Vib	-11.3306
▁Blong	-11.3308
▁Cher	-11.3312
▁result	-11.3315
▁tiamsid	-11.3315
$	-11.3325
▁lej	-11.3332
▁nkaw	-11.3335
▁correct	-11.3342
▁By	-11.3346
▁guess	-11.3351
▁Idonotknow	-11.3351
▁flip	-11.3354
▁Xws	-11.3356
▁Xob	-11.3357
▁)?	-11.3365
▁dabqhuas	-11.3369
▁KWV	-11.337
▁thinking	-11.3374
▁Kham	-11.3376
▁qhaj	-11.3394
▁Royal	-11.3397
▁NCAJ	-11.3397
PM	-11.34
group	-11.3402
▁IP	-11.3404
▁32	-11.3404
▁ts	-11.3408
▁thev	-11.341
▁balance	-11.3411
▁plus	-11.3411
▁dam	-11.3418
▁Phu	-11.3419
▁POOB	-11.3422
▁eas	-11.343
▁MEEJ	-11.3443
▁voj	-11.3443
▁cultural	-11.3445
▁Mojthem	-11.3445
▁dlim	-11.3445
▁npuj	-11.3447
▁Cawv	-11.3449
▁tagkis	-11.3449
▁xus	-11.3485
▁Kiab	-11.3486
▁Milwauk	-11.3489
▁Raug	-11.349
▁standard	-11.349
▁CEEB	-11.3492
▁committee	-11.3494
▁ntsaum	-11.3494
▁Rog	-11.3497
▁fuabtais	-11.3498
▁ni	-11.3511
▁CEG	-11.3516
▁Hahahaha	-11.3518
erry	-11.3527
▁lpd	-11.3535
muag	-11.3538
▁blame	-11.3539
▁vue	-11.3542
▁seconds	-11.3544
▁TAW	-11.3546
▁Cheeb	-11.3546
▁Cam	-11.3548
▁ntiab	-11.3551
▁lawg	-11.3554
xav	-11.3554
▁Nation	-11.3555
▁NCO	-11.3557
▁Chi	-11.3567
▁xej	-11.3581
▁document	-11.3584
▁limhiam	-11.3585
▁Tseg	-11.3586
▁Moobleeg	-11.3593
▁WE	-11.3596
▁199	-11.3597
▁nree	-11.3599
Hmong	-11.3603
bh	-11.3607
▁Is	-11.3609
▁Tamsis	-11.361
▁pau	-11.3619
▁Txheej	-11.363
▁restaurant	-11.3631
▁ncaw	-11.3631
▁worker	-11.3632
▁jail	-11.3633
▁nteeg	-11.3636
▁phuv	-11.3637
▁xev	-11.3637
▁Xus	-11.3642
▁Tsum	-11.3643
cai	-11.3657
▁guys	-11.3662
▁interview	-11.3668
▁02	-11.3679
▁TOS	-11.368
▁Touby	-11.3681
nruag	-11.3682
▁Nyas	-11.369
▁mn	-11.3695
▁depend	-11.3699
▁She	-11.3706
▁important	-11.3726
▁Xeng	-11.3728
▁deal	-11.3738
▁khee	-11.3738
▁groups	-11.3739
▁xuam	-11.3744
▁blood	-11.3748
▁txum	-11.3758
▁ntos	-11.3759
▁lwg	-11.3762
▁CAN	-11.3771
▁park	-11.3771
▁children	-11.3773
▁txheev	-11.3774
▁Txus	-11.3775
▁version	-11.3775
▁qoog	-11.3776
▁xoo	-11.3777
▁except	-11.3779
▁lhub	-11.3782
▁officer	-11.3783
▁zias	-11.3785
▁luab	-11.3785
▁tshis	-11.3787
▁ntsaj	-11.3795
▁phub	-11.3797
▁article	-11.3808
▁natural	-11.3813
▁411	-11.3816
▁Nkaj	-11.3819
▁HOTEL	-11.3822
▁told	-11.3824
▁Moj	-11.3827
▁ed	-11.3832
▁Communit	-11.3834
▁simple	-11.3835
▁See	-11.3838
▁phas	-11.3844
▁refer	-11.3847
▁sister	-11.3859
▁label	-11.386
▁Mos	-11.3862
▁wonder	-11.3868
▁Vaam	-11.387
▁pawv	-11.3876
▁pliaj	-11.3878
▁npliag	-11.3882
▁namtxiv	-11.3884
unrise	-11.3884
▁Ceev	-11.3891
▁dau	-11.3896
▁dis	-11.3898
40	-11.3906
king	-11.3908
koom	-11.3909
hmong	-11.3915
▁sorry	-11.3922
▁NH	-11.3924
ruam	-11.3947
▁Nong	-11.3949
▁Mes	-11.3961
▁ntxo	-11.3967
▁professor	-11.3967
▁Phaya	-11.3967
▁HAUJ	-11.3968
▁cousin	-11.3969
▁master	-11.3972
▁fall	-11.3979
▁SO	-11.3981
▁dhos	-11.3982
▁davhlau	-11.3983
▁ciasiab	-11.3984
▁watch	-11.399
▁ntseeb	-11.3992
▁tsos	-11.3993
▁Be	-11.3993
▁sibpab	-11.4
▁soob	-11.4002
▁qeg	-11.4004
nyoog	-11.4015
▁Monday	-11.4016
▁medical	-11.4017
▁Nruas	-11.4018
▁TAB	-11.4018
▁ZAB	-11.4018
▁HU	-11.4023
▁Lug	-11.4024
▁East	-11.4025
▁Fue	-11.4026
▁house	-11.4027
▁book	-11.403
▁solve	-11.4034
▁focus	-11.4037
haum	-11.4038
▁Well	-11.4042
▁HA	-11.4045
▁suam	-11.4046
▁guy	-11.4049
▁Tong	-11.4058
▁NPAUM	-11.406
▁cassette	-11.4067
ntsuab	-11.407
▁2009	-11.4072
▁nw	-11.4077
▁ibyam	-11.4086
▁Nce	-11.4087
▁tshob	-11.4097
ship	-11.4103
▁chais	-11.4114
▁affair	-11.4115
▁explain	-11.4115
▁losmas	-11.4117
▁subject	-11.4117
▁LAIB	-11.4117
▁Txais	-11.4119
▁pheev	-11.412
laj	-11.4129
▁claimed	-11.4131
▁naag	-11.4133
ther	-11.4141
▁ntsees	-11.4142
▁Tshoo	-11.4147
▁06	-11.4158
▁Who	-11.4158
▁ntxuv	-11.4167
▁county	-11.417
▁miao	-11.4172
▁loojceeb	-11.4173
Q	-11.4178
▁khiab	-11.4178
▁37	-11.418
▁Vajlugku	-11.4186
▁HAV	-11.4195
▁sawb	-11.4198
▁similar	-11.4204
nkauj	-11.4206
▁Khw	-11.4214
▁charlie	-11.4214
▁insurance	-11.4215
▁Tubntsuag	-11.4215
▁black	-11.4215
▁RAUG	-11.4218
tsawg	-11.4221
▁source	-11.4235
▁hliv	-11.424
▁ONE	-11.4245
nd	-11.4246
▁Hi	-11.4259
▁Bill	-11.4263
▁return	-11.4265
▁remember	-11.4265
▁NYABLAJ	-11.4266
▁QUAV	-11.4266
▁option	-11.4267
▁Khao	-11.4277
▁qabhau	-11.4288
▁khuab	-11.4288
▁ntsais	-11.4289
▁'.	-11.4289
▁npluav	-11.43
▁Khu	-11.431
▁Wow	-11.4315
▁cancer	-11.4316
▁clean	-11.4317
▁hias	-11.4318
▁main	-11.4318
▁xoob	-11.4326
▁tsha	-11.4326
▁eyes	-11.4329
▁ntswv	-11.4331
▁qhauv	-11.4332
▁quag	-11.4339
▁luav	-11.4341
▁ia	-11.4354
rhiav	-11.4357
▁LAJ	-11.436
▁Center	-11.4366
▁TSAV	-11.4367
▁MAUM	-11.4367
▁!.	-11.4369
▁role	-11.437
▁Feb	-11.437
▁dawj	-11.4375
▁kha	-11.4376
▁Coob	-11.4376
▁NKAUS	-11.4384
thiab	-11.4389
▁Lab	-11.439
▁nig	-11.4404
▁Mee	-11.4405
ke	-11.4406
▁vab	-11.4415
▁QUB	-11.4418
▁nchav	-11.4422
▁Mis	-11.443
▁victims	-11.443
WG	-11.4443
ntsis	-11.4447
▁NUM	-11.4458
▁1972	-11.4467
▁contract	-11.4467
where	-11.4468
▁Qib	-11.4471
▁PHOM	-11.4472
▁course	-11.4472
▁phob	-11.4473
▁win	-11.4494
nyog	-11.4499
▁theev	-11.4506
▁196	-11.4506
▁site	-11.4513
▁Washington	-11.452
▁WHO	-11.452
▁Michiga	-11.4521
▁Npaj	-11.4524
▁Xieng	-11.4533
dag	-11.4551
▁pod	-11.4557
ance	-11.4564
▁xampha	-11.457
▁expect	-11.4571
▁Asmesliska	-11.4572
▁ticket	-11.4572
▁welfare	-11.4572
▁WILL	-11.4572
▁evil	-11.4572
▁Nyeem	-11.4573
▁LAOS	-11.4573
▁Hmoobdawb	-11.458
▁VAM	-11.4581
▁2003	-11.4581
▁txhib	-11.4582
▁Krabo	-11.4585
▁Npua	-11.4586
▁suavdaw	-11.4588
▁nplim	-11.4593
each	-11.4598
ally	-11.4599
▁LPR	-11.4604
▁?)	-11.4606
▁Can	-11.4615
▁hehehehehehe	-11.4619
▁Plaub	-11.4624
▁SAUB	-11.4628
▁Yawglaus	-11.463
▁npojyai	-11.463
▁visit	-11.4632
▁Ncuab	-11.4633
ung	-11.4634
▁clan	-11.4647
quav	-11.4648
▁Jan	-11.465
▁kaasmoo	-11.4656
KOM	-11.4664
▁buy	-11.4677
▁nqov	-11.4677
▁Now	-11.4681
▁miss	-11.4682
▁Npuag	-11.4685
▁Tuag	-11.4686
▁Chang	-11.4687
little	-11.4689
▁willing	-11.4698
ajlaj	-11.4707
▁zo	-11.4709
Nplog	-11.4709
▁States	-11.4713
▁chao	-11.4719
▁joke	-11.472
▁cost	-11.4726
▁jungle	-11.4729
▁common	-11.4729
txug	-11.4729
▁ZOS	-11.4729
▁Board	-11.4729
▁khuvxim	-11.4729
▁sivyis	-11.4731
▁tugkheej	-11.4732
▁plhis	-11.4734
▁pojntxoo	-11.4736
tawg	-11.4745
▁qwb	-11.4746
▁ty	-11.475
▁tshaw	-11.4754
▁pass	-11.4765
▁Houa	-11.4776
▁Jun	-11.478
▁Txaus	-11.4783
▁Hwm	-11.4787
▁qev	-11.4789
▁dob	-11.4789
▁Beer	-11.4791
▁MESKAS	-11.4795
▁dance	-11.4801
▁election	-11.4803
▁qhaub	-11.4808
Z	-11.4809
ttle	-11.4813
▁fav	-11.4813
Cj	-11.4823
▁full	-11.4829
▁early	-11.4835
▁PLIG	-11.4837
▁Nyuam	-11.4838
▁Brig	-11.4838
▁dlog	-11.484
▁09	-11.4853
▁koog	-11.4854
▁baj	-11.4857
▁bla	-11.4859
SGU	-11.486
ERS	-11.4862
pem	-11.4865
▁ntsoo	-11.487
▁South	-11.4878
▁repeat	-11.4884
▁phlus	-11.4885
▁certain	-11.4888
▁HAWM	-11.4889
▁contact	-11.4889
▁Chinese	-11.4889
▁1987	-11.489
▁nrhab	-11.489
▁tamsimno	-11.4891
▁xeb	-11.4893
▁Taab	-11.4895
▁nwj	-11.49
NYUAM	-11.4905
▁ve	-11.4915
▁hmov	-11.4916
▁Kaus	-11.4925
tsheej	-11.4932
▁cujpwm	-11.4942
▁PEOPLE	-11.4942
▁tuabyaam	-11.4944
▁Hehehe	-11.4947
▁faab	-11.4951
▁txojsia	-11.4956
▁Liaj	-11.496
ic	-11.4968
▁parent	-11.4994
▁NTSHAI	-11.4994
▁QEEJ	-11.4996
▁Happy	-11.4997
▁Hab	-11.4998
▁Vp	-11.4999
▁Best	-11.4999
▁KOOM	-11.5
▁Tha	-11.5001
French	-11.5004
▁Dok	-11.5012
▁thao	-11.5012
▁class	-11.5017
▁cover	-11.5017
▁NYUJ	-11.5037
▁WITH	-11.505
▁Qhab	-11.505
▁NTSHE	-11.5051
▁confirm	-11.5051
▁SWB	-11.5051
▁PHD	-11.5053
▁Melikas	-11.5054
▁crazy	-11.5056
▁Asian	-11.5059
▁brothers	-11.5064
▁Wausa	-11.5065
suab	-11.5067
ybe	-11.5068
▁niab	-11.5068
▁doesn	-11.5068
▁husband	-11.507
▁Ne	-11.5075
▁Xya	-11.5087
▁WHAT	-11.5105
▁NEOHOM	-11.5105
▁NRAM	-11.5107
ij	-11.5107
liam	-11.5108
▁npib	-11.5108
▁center	-11.5109
▁zuv	-11.5111
▁chaofa	-11.5123
▁conference	-11.5125
▁vs	-11.5143
▁kw	-11.5145
pawg	-11.5148
▁process	-11.5155
▁tsus	-11.5158
▁POJNIAM	-11.516
▁pejkum	-11.516
▁RHIAB	-11.516
▁couple	-11.5161
▁hurt	-11.5161
▁search	-11.5177
ug	-11.52
▁Cobtsib	-11.5215
▁Tsaav	-11.5217
▁Ntxim	-11.5221
▁intention	-11.5224
▁Tshiab	-11.5227
▁ro	-11.5228
▁dia	-11.523
▁earth	-11.5231
txog	-11.524
▁food	-11.5261
▁key	-11.5268
_0	-11.527
▁SIJ	-11.5272
▁CEV	-11.5273
▁TSHIAB	-11.5273
▁txiavtxim	-11.5273
▁leave	-11.5274
▁rhais	-11.5275
▁thawv	-11.5276
▁pug	-11.5278
▁One	-11.5282
▁Luj	-11.5283
▁phaab	-11.5283
▁HAUM	-11.529
▁kids	-11.529
▁Merced	-11.5305
▁ntaux	-11.5306
▁CAV	-11.5308
▁yaug	-11.531
▁MAJ	-11.5326
▁heaven	-11.5327
▁PIV	-11.5329
▁fij	-11.5331
▁lho	-11.5334
▁tuskheej	-11.5334
▁muj	-11.5337
▁plua	-11.5339
▁pre	-11.5341
▁sibhaum	-11.5344
soc	-11.5348
choj	-11.5349
▁Dai	-11.5354
▁nplaw	-11.5354
▁yawgnomd	-11.5355
▁NAS	-11.5368
▁candidate	-11.5383
▁NUG	-11.5384
▁Zej	-11.5385
▁THOJ	-11.5386
▁Nruag	-11.5388
▁ntw	-11.5393
W	-11.5398
▁zas	-11.54
▁65	-11.541
▁RE	-11.5413
▁News	-11.5417
nab	-11.5423
▁economic	-11.5425
▁Las	-11.5435
▁yt	-11.5437
hlob	-11.5439
▁wisdom	-11.5439
▁HDD	-11.5439
▁according	-11.544
▁himself	-11.544
▁TIB	-11.5443
▁CAWM	-11.5443
▁nrhia	-11.5444
▁based	-11.5447
siv	-11.5448
▁maaj	-11.5449
hauv	-11.545
▁Haus	-11.5451
▁KAB	-11.5453
▁zu	-11.5455
▁YAWM	-11.5455
WV	-11.546
▁dluav	-11.5482
▁War	-11.5486
▁recognize	-11.5487
▁paam	-11.5489
ang	-11.5496
▁Naikong	-11.5496
▁july	-11.5497
▁Care	-11.5498
▁Yaam	-11.5499
▁xovxwm	-11.5506
▁Thorns	-11.5516
▁!...	-11.5517
▁IF	-11.5519
▁At	-11.5522
▁lubneej	-11.5527
MOG	-11.555
▁bye	-11.5553
▁Buddha	-11.5553
▁Tzexa	-11.5553
▁Ambassador	-11.5553
▁Veteran	-11.5553
▁YajTshajKoob	-11.5553
▁PhD	-11.5556
▁HLWB	-11.5557
▁thom	-11.556
10	-11.5562
▁Pub	-11.5565
▁kus	-11.5566
▁seems	-11.557
▁provide	-11.5571
▁style	-11.5577
▁sw	-11.5582
▁Vw	-11.5584
▁Pajyeeb	-11.5589
▁Dep	-11.5596
▁Fro	-11.5598
▁Bia	-11.5611
▁Thornspear	-11.5611
▁HLOB	-11.5612
▁Xib	-11.5612
▁sound	-11.5614
▁phiv	-11.5614
▁license	-11.5617
▁created	-11.5625
▁mai	-11.5626
▁NTSIB	-11.5631
▁txojcai	-11.5638
▁txiab	-11.564
▁npa	-11.564
noj	-11.5657
▁final	-11.5658
▁TAIS	-11.5659
▁dlu	-11.5663
▁Vieng	-11.5664
▁Vas	-11.5668
▁worry	-11.5669
▁nature	-11.5669
▁ncaig	-11.5672
▁among	-11.5673
▁ntxhuv	-11.5674
▁Securit	-11.5676
▁Twg	-11.5677
▁Vibnais	-11.5677
▁txhub	-11.5681
▁covlus	-11.5686
went	-11.5689
/0	-11.5691
▁leeb	-11.5692
▁HAVE	-11.5696
▁thia	-11.5698
uam	-11.5705
▁ntxhib	-11.571
▁sharing	-11.5711
▁ibleeg	-11.5717
▁present	-11.5722
▁qhi	-11.5723
▁though	-11.5725
ncuab	-11.5727
▁txajmuag	-11.5729
▁simpl	-11.5729
▁koomtsih	-11.5729
▁dollar	-11.5752
▁Xang	-11.5754
lo	-11.5755
▁nee	-11.5758
▁nu	-11.5758
▁thais	-11.5758
ES	-11.5773
Sunrise	-11.5773
▁coobx	-11.5776
▁Nyaablaaj	-11.5786
▁pressure	-11.5786
▁Nkias	-11.5787
▁hmuv	-11.5789
▁won	-11.5792
▁left	-11.5792
▁LAUJ	-11.5793
▁yaiv	-11.5793
file	-11.5798
▁small	-11.5798
▁CHAW	-11.5806
▁star	-11.5806
ust	-11.5806
▁tubsab	-11.5807
▁Meem	-11.5813
▁tagx	-11.5819
▁lack	-11.5821
kaub	-11.5835
▁involve	-11.5841
▁saam	-11.5842
▁Green	-11.5844
▁TXAWM	-11.5844
awg	-11.5845
▁lagluam	-11.5846
▁theory	-11.5851
▁complete	-11.5851
▁Dluag	-11.5852
▁City	-11.5852
▁Hmoobvajusa	-11.586
▁detail	-11.587
erver	-11.5871
used	-11.5873
▁ra	-11.5875
▁Xauv	-11.5889
▁muskawm	-11.5894
▁rather	-11.5903
▁screen	-11.5904
▁ZAUG	-11.5904
▁KHIB	-11.5905
▁Again	-11.5908
▁Hmoobsib	-11.5911
▁miles	-11.5914
▁hot	-11.5915
cam	-11.5919
▁yogkuv	-11.5919
tebchaws	-11.592
▁hawb	-11.5921
▁Tsua	-11.5924
▁npis	-11.5926
▁NY	-11.5929
▁info	-11.5932
▁Meej	-11.5935
te	-11.5938
▁kawmntawv	-11.5938
▁save	-11.5939
▁GO	-11.594
▁snow	-11.5964
▁RIGHT	-11.5966
▁qabzib	-11.5971
▁poor	-11.5973
muab	-11.5974
vim	-11.5975
▁txu	-11.5977
▁haavzoo	-11.5979
▁nkawg	-11.5979
▁meet	-11.598
▁yej	-11.598
▁students	-11.5981
▁khom	-11.6004
▁$2	-11.6007
▁haislus	-11.6009
▁Yah	-11.6015
▁LAURA	-11.6022
▁TXOM	-11.6024
▁NTXHAIS	-11.6024
▁value	-11.6024
▁puavpheej	-11.6028
line	-11.6035
▁LE	-11.6037
▁Iab	-11.6038
▁risk	-11.6046
▁reasons	-11.6056
▁card	-11.6057
▁lives	-11.6064
▁Qha	-11.6065
▁kee	-11.6066
▁pws	-11.6071
▁koo	-11.6075
▁protect	-11.6083
▁GOOD	-11.6083
▁Keeb	-11.6084
▁MI	-11.6086
▁summer	-11.6086
▁et	-11.6086
noob	-11.6086
asthiv	-11.609
▁pai	-11.609
▁due	-11.6095
▁txee	-11.6096
ias	-11.6097
▁cell	-11.6106
IB	-11.6119
▁SI	-11.6122
aking	-11.6134
▁Ntxwj	-11.6145
vaj	-11.6145
▁Faiv	-11.6148
▁paiv	-11.6155
NO	-11.6159
▁relationship	-11.6164
▁Tis	-11.6179
▁fit	-11.6194
▁hold	-11.62
▁TsoobNiam	-11.6204
▁forget	-11.6205
▁tsuis	-11.6207
▁HLUAS	-11.6207
dua	-11.6208
▁hlav	-11.6209
▁busy	-11.621
▁promise	-11.6211
▁bill	-11.6212
▁yi	-11.6213
KUV	-11.6214
mam	-11.6214
▁tswg	-11.6215
▁nqia	-11.6218
▁xawb	-11.6225
▁ntsaig	-11.6227
▁Tubcajceszo	-11.6229
img	-11.6231
bH	-11.6238
=1	-11.6241
▁Koo	-11.6242
news	-11.6243
▁Vag	-11.6246
▁BS	-11.6247
▁major	-11.6255
▁95	-11.6255
Nancy	-11.6257
▁mojthe	-11.6258
▁reveal	-11.6266
▁KAVLIAM	-11.6266
▁Naiphom	-11.6266
▁california	-11.6266
▁CSY	-11.6268
▁1990	-11.6268
▁ceslawv	-11.6271
▁naiphoo	-11.6271
edit	-11.6272
nyiab	-11.6277
▁loog	-11.6278
▁qhob	-11.6282
▁qig	-11.6284
▁Hahahahaha	-11.6288
tseeb	-11.6294
▁swm	-11.6303
▁Soj	-11.6306
▁$200	-11.6311
▁ntoj	-11.6314
▁train	-11.6316
▁middle	-11.6329
▁exist	-11.6333
▁kuav	-11.6339
▁ideas	-11.6344
au	-11.6349
▁BA	-11.6365
▁listen	-11.6371
teg	-11.6373
▁tsimnyo	-11.6373
▁ceskuv	-11.6377
▁PLOJ	-11.638
▁yauj	-11.6387
▁veteran	-11.639
▁Diego	-11.639
▁Txawjvamyia	-11.6391
▁hnug	-11.6391
▁tshiaj	-11.6392
▁single	-11.6396
▁trau	-11.6398
651	-11.6399
▁problems	-11.6403
▁Inc	-11.6403
sam	-11.6408
▁Right	-11.6418
▁tshos	-11.6422
▁nrob	-11.6431
▁khoov	-11.6433
▁Ku	-11.6442
▁Min	-11.6449
▁hahahahahahaha	-11.6453
▁TSUJ	-11.6454
awb	-11.6455
▁1977	-11.6455
thaibteb	-11.6456
▁xw	-11.646
▁ncia	-11.6478
▁month	-11.6484
▁phaw	-11.6486
▁auv	-11.6486
▁LT	-11.6487
▁Thong	-11.6504
▁38	-11.6505
▁maab	-11.6506
▁xais	-11.6514
▁Vietnamese	-11.6515
▁forward	-11.6516
▁TOOJ	-11.6517
▁LOM	-11.6518
▁govern	-11.6518
▁pheem	-11.6519
▁Ntev	-11.652
▁PDR	-11.652
▁pl	-11.6523
▁Chai	-11.6524
uas	-11.6524
nger	-11.6534
txim	-11.6535
▁author	-11.6535
▁nuam	-11.6536
thaum	-11.6541
▁UNPO	-11.6542
tuaj	-11.6548
▁sas	-11.6553
▁Kuas	-11.6555
▁add	-11.6558
dev	-11.6559
▁Hav	-11.656
▁Toulia	-11.6561
▁comments	-11.6574
▁themselve	-11.6578
▁register	-11.6578
▁Sommer	-11.6578
▁XAIV	-11.6579
▁TSAB	-11.6582
▁vaajtswv	-11.6583
▁TSUAS	-11.6585
▁Npau	-11.6585
▁ncab	-11.659
▁nraub	-11.6595
▁MEV	-11.6599
▁super	-11.6606
tiag	-11.6614
▁Not	-11.6619
▁market	-11.6631
▁Prime	-11.6641
▁stabbing	-11.6642
▁24/7	-11.6642
▁TSAUG	-11.6643
▁compromise	-11.6644
▁LAV	-11.6644
▁Youa	-11.6645
▁PW	-11.6645
lwj	-11.6649
▁deg	-11.665
▁Koua	-11.6651
▁laum	-11.6653
▁safe	-11.6658
▁majorit	-11.6659
▁thuj	-11.6664
com	-11.6671
....	-11.6683
▁kooj	-11.6693
▁Mi	-11.6695
qq	-11.6698
▁loob	-11.6702
▁spirit	-11.6704
▁suggest	-11.6706
▁build	-11.6706
▁attention	-11.6706
▁Rock	-11.6707
▁Army	-11.6707
▁Dablaug	-11.6708
▁cheb	-11.6708
▁Paab	-11.6709
▁txheebze	-11.6711
▁water	-11.6711
▁Cuab	-11.6715
▁looking	-11.6722
▁42	-11.6722
▁dawg	-11.6725
ta	-11.6731
▁dhla	-11.6734
rd	-11.6737
▁Tseemfw	-11.6741
▁tsaib	-11.6745
▁didn	-11.6762
▁dla	-11.6763
ted	-11.6763
fwm	-11.6764
▁Kheev	-11.6766
▁RAWS	-11.6771
▁gossip	-11.6772
▁smart	-11.6772
▁current	-11.6772
▁tswjfwm	-11.6772
▁LUG	-11.6776
▁txeev	-11.6776
▁SYS	-11.6777
▁race	-11.6779
▁Meb	-11.6782
dr	-11.6782
▁hluasnkauj	-11.6784
▁Ntiaj	-11.6785
▁having	-11.6785
▁Tuav	-11.6786
▁Phiab	-11.6787
▁pias	-11.6789
▁nphoo	-11.6794
▁abuse	-11.6803
tseg	-11.6807
re	-11.6815
▁vav	-11.6816
▁assume	-11.6826
madison	-11.6827
2014	-11.6829
tij	-11.6835
▁MOV	-11.6835
na	-11.6836
▁NOOB	-11.6839
▁Tswvyim	-11.6839
▁Ncu	-11.6839
▁KHIAV	-11.684
▁213	-11.6846
▁aiv	-11.685
▁ph	-11.6854
▁04	-11.6861
▁dlai	-11.6862
▁khauv	-11.6868
HAB	-11.6881
man	-11.6883
▁trust	-11.6892
▁mistake	-11.6899
▁Saint	-11.6901
▁update	-11.6901
▁taamsim	-11.6902
▁Think	-11.6902
▁Detroi	-11.6903
self	-11.6903
hum	-11.6904
▁inside	-11.6905
▁Oib	-11.6905
Lao	-11.6907
▁qov	-11.6908
▁cug	-11.6909
▁MY	-11.691
Zhen	-11.6915
▁bias	-11.692
▁Plog	-11.6921
uab	-11.6925
▁Political	-11.6925
▁Phia	-11.6925
▁niamyau	-11.6929
▁Sua	-11.6929
▁Qho	-11.693
▁brain	-11.6931
▁Every	-11.6935
▁pobtw	-11.6941
nuav	-11.6943
▁Xoom	-11.6962
▁TXAWV	-11.6967
▁crime	-11.6967
▁David	-11.6968
▁txhias	-11.6968
▁Free	-11.697
▁Police	-11.697
▁ntaubntawv	-11.6972
▁kwvtxhiaj	-11.6973
▁ywv	-11.698
▁nkaub	-11.6987
▁seen	-11.6993
▁npaw	-11.6995
▁TEEB	-11.6996
▁sexual	-11.6999
▁Nus	-11.7001
▁whe	-11.7007
▁tradition	-11.7009
LUB	-11.7016
▁Office	-11.7028
▁clarify	-11.7034
▁Nroog	-11.7034
▁Wayn	-11.7037
▁Nqe	-11.7042
▁xyeem	-11.7046
▁propose	-11.7046
▁cheej	-11.7047
head	-11.7049
▁phuaj	-11.705
▁aus	-11.7054
▁base	-11.7061
▁thuv	-11.7064
▁rev	-11.7066
▁press	-11.7069
▁xwsli	-11.707
▁!!!!!	-11.707
▁girl	-11.7074
daws	-11.708
▁Tua	-11.7082
▁-"	-11.7085
▁define	-11.7086
▁file	-11.7091
▁Nqi	-11.7092
▁write	-11.7095
▁abtsi	-11.7097
▁Miv	-11.7098
▁Chief	-11.71
▁Liajdawb	-11.71
▁DAV	-11.7101
▁ntxwj	-11.7102
▁Muastony	-11.7104
▁trip	-11.7104
▁meejpem	-11.7106
▁Phanya	-11.7108
▁PH	-11.711
▁Haub	-11.711
▁ntxoo	-11.7113
ntsuag	-11.7113
▁ex	-11.7114
ploog	-11.7114
▁break	-11.7115
▁fail	-11.7123
eck	-11.7129
npe	-11.7131
▁discussion	-11.7133
▁Txwv	-11.7137
▁150	-11.7141
▁tibsis	-11.7146
▁kham	-11.7156
**	-11.7158
▁Sij	-11.7161
▁Iha	-11.7161
tej	-11.7162
ying	-11.7165
ntej	-11.7166
▁DKJ	-11.7167
▁dirty	-11.7168
▁TSAWG	-11.7168
▁nca	-11.7168
written	-11.7169
▁Nhub	-11.7169
▁HAUS	-11.7173
▁HUMAN	-11.7173
▁LAO	-11.7174
▁txoob	-11.7176
kaum	-11.7178
▁roos	-11.7179
▁Mo	-11.718
posting	-11.7183
▁khia	-11.7184
▁Viet	-11.7184
HOV	-11.7187
ability	-11.7194
ID	-11.7196
niajhnub	-11.7201
▁Christ	-11.7214
nt	-11.7217
▁kig	-11.7221
▁honor	-11.7223
▁less	-11.7224
Lue	-11.7229
▁dlee	-11.723
▁advance	-11.7234
▁LCSA	-11.7234
▁connection	-11.7234
▁Tuesday	-11.7234
cy	-11.7235
▁York	-11.7235
▁authority	-11.7235
▁gain	-11.7237
▁TIME	-11.7238
ncauj	-11.7251
ities	-11.7254
▁hero	-11.7269
▁dluag	-11.7274
▁khauj	-11.7283
alone	-11.7287
▁$50	-11.7288
mavtais	-11.7298
▁HND	-11.7303
▁tsoov	-11.7303
▁Pubthawj	-11.7303
▁Minneapolis	-11.7304
▁Kws	-11.7304
▁lawbdab	-11.7305
▁Khai	-11.7313
▁...?	-11.7314
▁hib	-11.7323
▁Noi	-11.7323
▁keev	-11.7331
lees	-11.7344
▁total	-11.7345
eej	-11.7351
▁bo	-11.7363
▁LosTsuas	-11.7371
▁writing	-11.7371
▁QOS	-11.7372
▁72	-11.7372
▁PLAB	-11.7373
▁NEEB	-11.7373
▁Hiv	-11.7374
▁LUAJ	-11.7375
▁enforce	-11.7375
▁LEEG	-11.7376
▁npub	-11.7376
▁civ	-11.7379
USA	-11.7385
▁Nchaiv	-11.7395
▁tsiag	-11.7402
▁ID	-11.7412
▁Xibfw	-11.7412
▁recruit	-11.7415
▁39	-11.7416
▁Some	-11.7418
▁plia	-11.7428
dlawg	-11.7435
▁congress	-11.744
▁study	-11.744
▁txeej	-11.7446
▁txoov	-11.745
▁compare	-11.7451
ive	-11.7451
browse	-11.7453
▁400	-11.7455
▁2002	-11.7459
▁vajmoob	-11.7462
▁low	-11.7468
▁gay	-11.7475
ism	-11.7478
vong	-11.7479
▁:)	-11.7481
▁hl	-11.7487
▁WH	-11.7494
▁Luam	-11.7495
▁Ntsua	-11.7496
▁Embass	-11.7498
▁physical	-11.7507
▁MENYUAM	-11.7511
▁ZAM	-11.7511
▁customer	-11.7512
▁ZEB	-11.7514
▁PIB	-11.7515
▁Xiam	-11.7516
▁Mar	-11.7517
▁Kum	-11.7517
▁Dav	-11.7518
tag	-11.7526
▁nquam	-11.7528
▁wants	-11.7539
tseem	-11.7541
▁intellectual	-11.7546
▁Noogqejqaw	-11.7547
▁vib	-11.7557
▁tivthai	-11.7561
nrog	-11.7561
▁preach	-11.7567
▁NQA	-11.7572
▁Sob	-11.7573
▁demand	-11.7575
▁finger	-11.7579
▁Brav	-11.758
▁release	-11.758
▁Marx	-11.7581
▁npug	-11.7582
▁along	-11.7583
▁Kaum	-11.7585
ko	-11.7587
▁paws	-11.759
▁zau	-11.7592
▁thij	-11.7593
▁npuag	-11.7595
sharing	-11.7598
▁yong	-11.7605
▁Histor	-11.7606
▁picture	-11.7615
▁nri	-11.7617
▁doog	-11.7624
▁date	-11.7628
▁SIS	-11.7628
▁org	-11.7637
▁?...	-11.7637
xyoo	-11.7638
▁yee	-11.7639
▁Even	-11.7645
▁representative	-11.7649
▁definition	-11.765
▁adopt	-11.7651
▁TUAV	-11.7652
▁YEES	-11.7653
▁yiag	-11.7653
▁Lav	-11.7654
▁rw	-11.7656
▁nthab	-11.7658
▁specific	-11.7663
der	-11.7664
▁xas	-11.7665
▁OUR	-11.7665
▁Ameka	-11.767
wd	-11.7674
IES	-11.7675
▁ye	-11.7678
▁VA	-11.768
24	-11.7688
▁Phee	-11.7691
▁nyho	-11.7701
▁mee	-11.7704
▁deserve	-11.7704
▁ball	-11.771
▁Nev	-11.7715
▁illegal	-11.772
▁hleb	-11.772
▁ROOJ	-11.7721
▁wedding	-11.7721
▁Date	-11.7721
▁price	-11.7722
▁propagand	-11.7722
▁nploj	-11.7724
▁taubhaus	-11.7725
kab	-11.7725
▁allow	-11.7726
▁Phoos	-11.7728
▁Fuabtais	-11.7731
▁saws	-11.7731
▁dlav	-11.7732
▁shall	-11.7732
yesxus	-11.7732
dkj	-11.7733
▁vaub	-11.7743
▁tsub	-11.7744
▁light	-11.7745
▁lawyers	-11.7748
▁celebrate	-11.775
▁expert	-11.7758
▁Tsu	-11.7763
▁Va	-11.7764
ze	-11.7764
▁ban	-11.7776
▁cum	-11.7789
▁Chuhu	-11.7792
▁Brother	-11.7792
▁exactly	-11.7792
▁Listhoj	-11.7793
▁VajTswv	-11.7793
▁block	-11.7793
▁thabham	-11.7793
▁religious	-11.7794
▁NYOG	-11.7794
▁PUAV	-11.7795
▁penny	-11.7798
▁room	-11.7807
▁kavtsi	-11.7812
free	-11.7812
▁47	-11.7813
TWG	-11.7814
▁tsheeb	-11.7822
▁ntxaa	-11.783
▁xh	-11.7841
new	-11.7848
▁LP	-11.7853
iaj	-11.7856
MEEM	-11.7857
▁fais	-11.7859
▁strategy	-11.7864
▁Suritha	-11.7864
▁KHEEJ	-11.7864
▁income	-11.7864
▁YES	-11.7864
▁soc	-11.7866
▁deja	-11.7867
▁PO	-11.7867
▁listhoj	-11.7867
▁TSHUA	-11.7869
▁NKAWV	-11.7869
▁kotaw	-11.787
▁casino	-11.7877
▁took	-11.7888
▁toward	-11.789
▁ple	-11.7896
▁bau	-11.7905
▁peej	-11.7907
▁animal	-11.7912
▁Cua	-11.7917
▁npauv	-11.7927
▁poo	-11.7929
▁hate	-11.7932
▁hands	-11.7932
▁innocent	-11.7936
▁Anyway	-11.7936
▁pilot	-11.7937
▁worth	-11.7937
>...	-11.7941
▁Ciaj	-11.7946
▁Ma	-11.7954
▁Paus	-11.7958
▁pheeb	-11.796
▁ncha	-11.7963
▁qaus	-11.7969
ve	-11.7972
▁protest	-11.7978
▁Cav	-11.798
▁Nqua	-11.7989
▁logic	-11.7994
plogliab	-11.7994
▁Seng	-11.7997
▁TSOO	-11.7998
▁Bro	-11.7998
▁table	-11.7999
▁ntsav	-11.8001
▁Cambodia	-11.8006
▁treat	-11.8009
▁Association	-11.8009
▁Thursday	-11.8009
▁TXWM	-11.801
▁mouth	-11.801
▁Txhaj	-11.8011
▁investigate	-11.8011
▁station	-11.8012
▁pepsi	-11.8012
RTG	-11.8015
▁regardles	-11.8018
▁txhi	-11.8025
tion	-11.803
▁Bis	-11.8032
▁pham	-11.8038
paj	-11.8041
▁lol	-11.8042
▁working	-11.8042
orry	-11.805
▁tshom	-11.8054
▁plhaw	-11.8055
▁khis	-11.8059
▁mother	-11.806
▁DAJ	-11.8062
uag	-11.8066
▁nqee	-11.8069
▁cut	-11.8069
ice	-11.8071
▁sawdaw	-11.8083
▁Phabmab	-11.8083
▁koobhmoo	-11.8084
▁carry	-11.8084
pa	-11.8086
▁TWM	-11.8086
▁spelling	-11.8086
mej	-11.8094
▁Note	-11.8094
▁XWM	-11.8096
LAWV	-11.8096
tshiab	-11.8103
Txivneej	-11.8104
wise	-11.8105
▁dee	-11.8105
▁federa	-11.8108
▁Phong	-11.8117
pob	-11.8119
▁YUAM	-11.812
▁rank	-11.8121
▁Da	-11.8123
▁ethnic	-11.8129
▁44	-11.8139
auj	-11.8141
▁raise	-11.8142
▁ntsag	-11.8144
suC	-11.8145
▁events	-11.8145
▁media	-11.8152
▁Cim	-11.8157
▁Oshkosh	-11.8157
▁passport	-11.8157
▁Souphanouvong	-11.8158
▁DAUM	-11.8158
▁myself	-11.8159
▁ZAJ	-11.8159
▁choose	-11.816
▁!....	-11.8164
▁laab	-11.8165
▁phoom	-11.8167
▁LWJ	-11.8174
▁web	-11.819
usp	-11.8196
▁air	-11.82
▁caam	-11.8211
▁mim	-11.8221
▁txhooj	-11.8228
▁np	-11.8229
▁IEP	-11.8232
▁JUST	-11.8232
▁paper	-11.8233
▁mentality	-11.8233
▁911	-11.8234
tais	-11.8235
▁thiav	-11.8237
▁1970	-11.8237
▁tshov	-11.824
▁Keep	-11.8243
ig	-11.8245
▁employee	-11.8258
ovtshua	-11.826
▁meant	-11.8263
la	-11.8264
▁Ej	-11.8269
and	-11.8275
▁NP	-11.8284
▁thav	-11.8286
▁txaug	-11.8289
▁rules	-11.8293
▁xaum	-11.8301
▁Leng	-11.8301
▁Ameska	-11.8304
▁Are	-11.8304
▁AW	-11.8306
▁advisor	-11.8307
▁conclusion	-11.8307
ctober	-11.8307
▁More	-11.8308
▁attitude	-11.8308
▁TAWG	-11.8309
▁id	-11.8311
▁touch	-11.8311
▁Tsoomfw	-11.8313
▁welcome	-11.8317
▁CAUM	-11.8321
▁deep	-11.8322
▁txhaub	-11.8323
▁Ah	-11.8331
▁waste	-11.8332
▁eat	-11.8332
▁mias	-11.8333
▁Yesu	-11.8336
▁fo	-11.8342
▁nrub	-11.8343
▁Quav	-11.8358
▁$500	-11.8366
▁xyaws	-11.8366
▁maslawv	-11.8371
▁town	-11.8373
pao	-11.8373
▁baby	-11.8379
▁qabteb	-11.8379
sitebuilder	-11.8382
▁further	-11.8382
▁status	-11.8383
▁discuss	-11.8383
▁insult	-11.8383
▁Vuag	-11.8383
▁nyhuv	-11.8384
▁PHEEJ	-11.8384
▁Master	-11.8385
▁disagree	-11.8385
▁declare	-11.8385
▁05	-11.8386
▁huh	-11.8387
▁Pawg	-11.8388
ntxwv	-11.8388
mob	-11.8394
▁Doua	-11.8394
dej	-11.8395
▁drive	-11.8396
▁Tx	-11.84
nyiaj	-11.8402
▁almos	-11.8408
▁...!	-11.8409
▁?..	-11.8413
▁lso	-11.8423
▁corruption	-11.8424
▁rumor	-11.8425
txeeb	-11.8426
▁va	-11.8432
▁VN	-11.8432
PC	-11.8455
uring	-11.8457
▁wisconsin	-11.8459
▁Medicaid	-11.8459
▁TSHUM	-11.8459
▁minnesota	-11.8459
▁request	-11.8459
▁witness	-11.846
▁click	-11.8462
▁ncajncees	-11.8463
▁lasvoos	-11.8466
LX	-11.8467
▁Time	-11.8472
▁type	-11.8473
▁NOV	-11.8479
▁SCHler	-11.8481
▁1985	-11.8482
▁Xoua	-11.8489
co	-11.8492
▁hnyia	-11.8496
▁Phak	-11.8508
▁Ge	-11.8512
AG	-11.8517
▁Nhia	-11.8518
▁rape	-11.852
nam	-11.8522
US	-11.8527
▁activit	-11.8528
Michael	-11.8529
▁Xyu	-11.853
▁Pheng	-11.8533
▁local	-11.8534
▁Committee	-11.8536
▁qualified	-11.8536
▁honest	-11.8536
▁Appleton	-11.8536
▁April	-11.8536
▁rock	-11.8536
▁Gary	-11.8537
▁vajhuam	-11.8538
ntawm	-11.8539
▁Chav	-11.8542
▁Muam	-11.8543
..	-11.8545
▁Pe	-11.8553
▁....!	-11.8555
▁Mua	-11.8558
▁Disabilit	-11.8559
▁sometime	-11.8561
▁gab	-11.8561
▁music	-11.8565
▁ways	-11.8567
▁poobsiab	-11.8567
taw	-11.8572
▁hi	-11.8572
ma	-11.8588
▁YAU	-11.859
▁hell	-11.8592
▁space	-11.8593
▁owner	-11.8602
cuam	-11.8606
▁tasli	-11.8607
ai	-11.861
▁Maab	-11.8612
▁guilt	-11.8614
▁PUV	-11.8615
▁CAIJ	-11.8617
▁paa	-11.8617
▁sibcav	-11.862
▁yeev	-11.8626
▁reading	-11.8626
▁mig	-11.8627
ring	-11.8628
▁Phauj	-11.8628
▁tiagx	-11.8629
▁LoojCee	-11.8636
▁tsej	-11.8639
tog	-11.8642
▁Huv	-11.8643
▁ntaws	-11.8644
▁proposal	-11.865
▁roojteb	-11.8651
▁known	-11.8655
▁nya	-11.866
sij	-11.8667
▁blind	-11.867
qus	-11.8678
▁constitution	-11.8681
▁hour	-11.8681
▁found	-11.8685
▁cheat	-11.8688
▁Oct	-11.8691
▁NRHIAV	-11.8691
▁Lajntxiag	-11.8691
▁TXHAUM	-11.8692
▁sibtua	-11.8692
▁West	-11.8692
▁German	-11.8698
▁hnoos	-11.8698
▁responsibilit	-11.8701
▁AB	-11.8701
▁600	-11.8701
▁bro	-11.8702
===============	-11.8708
hau	-11.8713
▁hlaub	-11.8714
▁Khang	-11.8717
ie	-11.8718
ndigenous	-11.8718
heev	-11.8721
▁xuvtooj	-11.8722
CDC	-11.8727
▁Ko	-11.8737
▁Box	-11.8745
▁txos	-11.8755
low	-11.876
▁Doctors	-11.8764
▁impact	-11.877
▁countries	-11.8771
▁defense	-11.8771
Quincy	-11.8771
▁Txaij	-11.8771
▁NTXUB	-11.8772
▁TIAV	-11.8772
▁ziab	-11.8774
▁jesus	-11.8774
▁proper	-11.8783
pim	-11.8786
▁nplos	-11.8786
▁Dlha	-11.8787
▁WORK	-11.8787
▁Ger	-11.8789
TED	-11.8797
▁vos	-11.8798
▁Qhua	-11.8803
▁appreciate	-11.8807
▁Rua	-11.8816
▁travel	-11.8822
▁lws	-11.8824
▁LEE	-11.8824
▁hamtsi	-11.8826
▁HAU	-11.8827
▁198	-11.883
qhia	-11.883
▁ANY	-11.8834
puj	-11.8845
▁express	-11.8849
▁Txhawb	-11.885
▁Txug	-11.885
▁KNOW	-11.8851
▁model	-11.8851
▁Xyeej	-11.8851
▁vees	-11.8852
▁Vej	-11.8852
▁CUAB	-11.8852
▁Latin	-11.8853
▁minyua	-11.8853
she	-11.8855
▁SAUM	-11.8859
▁SCL	-11.886
▁Boun	-11.8868
▁traditional	-11.8879
▁MAN	-11.8885
▁Vajmoob	-11.8893
▁Lim	-11.8893
▁KE	-11.8897
qhuab	-11.8901
▁PRO	-11.8905
ummer	-11.8906
▁partner	-11.8907
▁Tuab	-11.8914
▁Si	-11.8923
eem	-11.8924
▁xi	-11.8925
▁advise	-11.8926
▁lai	-11.8926
▁colonel	-11.8929
▁quarter	-11.893
▁mebthaub	-11.893
▁truck	-11.8931
▁TAWV	-11.8931
▁VANG	-11.8935
50	-11.8936
▁txhov	-11.8944
▁pleb	-11.8944
▁skills	-11.8945
▁TUM	-11.8949
▁tsujsua	-11.8954
▁AG	-11.8955
▁character	-11.8956
Mong	-11.8957
yaam	-11.8968
▁noun	-11.8972
ONE	-11.8973
▁Cais	-11.8973
▁NTSES	-11.8975
▁nimno	-11.8983
▁sources	-11.8983
▁Xaab	-11.8988
▁obtug	-11.8991
AS	-11.9001
las	-11.9006
▁kawb	-11.9008
groups	-11.9009
▁ntoob	-11.9009
▁criminal	-11.901
xaiv	-11.901
▁ntlaj	-11.9011
▁Report	-11.9011
▁YANG	-11.9012
▁MUAS	-11.9012
▁Foob	-11.9013
▁1991	-11.9014
▁CAIV	-11.9014
▁mivnyuag	-11.9014
▁laav	-11.9017
▁nkua	-11.9018
▁ntxhab	-11.9019
▁AT	-11.9021
▁sibceg	-11.9027
▁zwj	-11.9029
▁Thau	-11.9029
▁txhaaj	-11.903
▁Only	-11.9036
▁tuabsi	-11.9037
▁Blia	-11.9042
▁Deja	-11.905
▁nation	-11.9067
kwv	-11.9067
ho	-11.9069
mxeeb	-11.9071
▁bus	-11.9076
haiv	-11.9076
khawv	-11.9077
ible	-11.9079
▁pobtxha	-11.908
28	-11.9082
▁Ntxhoo	-11.9085
wmzeej	-11.9086
▁invest	-11.9087
▁Wa	-11.9088
▁jump	-11.9091
▁respond	-11.9092
XejThim	-11.9092
▁pegsuab	-11.9092
▁Phem	-11.9094
▁phabej	-11.9094
▁Bay	-11.9096
▁hmloo	-11.9096
▁training	-11.9098
▁Yuam	-11.9099
▁basic	-11.9101
▁txhaws	-11.9104
ha	-11.9106
mtxom	-11.9108
▁RAB	-11.9108
▁fool	-11.911
▁Pro	-11.9112
▁txhaus	-11.9118
▁mooj	-11.912
ah	-11.9121
▁coming	-11.9123
▁txhai	-11.9141
▁song	-11.916
▁Dan	-11.916
▁Hang	-11.9166
▁HMO	-11.9173
▁MPLS	-11.9173
▁Txwj	-11.9173
▁Lawyer	-11.9174
▁NYIAS	-11.9174
▁NYUAJ	-11.9174
▁staff	-11.9174
▁thojnam	-11.9174
▁ROOB	-11.9175
▁RIS	-11.9175
▁Tsaab	-11.9177
▁dejdawb	-11.9192
hnub	-11.9197
▁suaj	-11.9204
▁haab	-11.9214
▁girls	-11.9215
time	-11.9216
▁HOS	-11.9227
▁ntig	-11.9228
▁48	-11.9232
▁HAS	-11.9242
▁khavthee	-11.9247
▁nawv	-11.9248
▁Go	-11.9251
▁ssi	-11.9252
▁SD	-11.9252
▁Boua	-11.9254
▁Public	-11.9256
▁NAI	-11.9256
▁TXHAWJ	-11.9256
▁dongdo	-11.9259
▁Jews	-11.926
▁front	-11.9266
▁teng	-11.9269
▁prett	-11.927
▁ysu	-11.929
▁npluas	-11.9294
▁PE	-11.9296
▁sibtw	-11.9309
▁meska	-11.9331
nyiav	-11.9334
▁constructive	-11.9339
▁forgive	-11.934
▁Amelivka	-11.934
▁ROJ	-11.934
▁Plig	-11.9342
▁LOD	-11.9342
▁nujnqi	-11.9343
▁Thia	-11.9345
▁DON	-11.9345
▁passed	-11.9347
▁east	-11.9349
▁nruam	-11.935
▁cej	-11.9351
▁active	-11.9352
▁Pany	-11.9355
▁bother	-11.9356
IS	-11.936
▁divorce	-11.9365
un	-11.9372
▁donate	-11.9377
more	-11.9381
▁$3	-11.9389
▁mub	-11.939
▁klos	-11.9394
▁sponsor	-11.9394
▁152	-11.9396
▁xee	-11.9402
▁xwmtxhee	-11.9404
Liab	-11.9405
riav	-11.941
▁verb	-11.9412
▁count	-11.9414
▁destroy	-11.9423
▁ritual	-11.9423
▁soldier	-11.9423
▁VAJTSWV	-11.9423
▁three	-11.9424
index	-11.9425
▁Tsawg	-11.9425
▁1995	-11.9426
▁phaib	-11.943
▁quite	-11.9434
▁YIM	-11.9436
▁Aw	-11.9438
▁sibntsib	-11.9442
▁nyos	-11.9443
▁Chaleun	-11.9445
▁thread	-11.9445
▁Taj	-11.9446
▁Hmob	-11.9448
▁nyuv	-11.945
txuj	-11.9452
▁ONL	-11.9459
▁xyo	-11.9459
▁surprise	-11.9459
▁visa	-11.946
▁sibkoom	-11.9471
cia	-11.9482
xab	-11.9482
▁yai	-11.9492
▁hee	-11.9498
▁Shan	-11.95
at	-11.95
▁boss	-11.9508
▁Bruce	-11.9508
▁Hloov	-11.9508
▁foundation	-11.9508
▁Very	-11.9508
▁Nyuag	-11.9509
▁Fong	-11.951
▁chinese	-11.9511
▁tshaab	-11.9511
▁YY	-11.9512
▁Zaaj	-11.9513
ist	-11.952
▁Joe	-11.9521
▁TOO	-11.9526
▁PUAG	-11.9527
hli	-11.954
▁Nao	-11.9545
▁TZ	-11.9548
▁gone	-11.955
rau	-11.9555
▁Iraq	-11.9559
▁dlaa	-11.956
▁Home	-11.957
▁India	-11.9574
▁eh	-11.9576
▁nyoob	-11.9577
▁kuvli	-11.9583
ts	-11.9587
▁Africa	-11.9591
▁Operation	-11.9594
▁effort	-11.9594
▁Program	-11.9594
▁NCAUJ	-11.9594
▁blooj	-11.9596
▁mlom	-11.9597
▁THUAM	-11.9598
▁txaav	-11.9599
▁cuv	-11.9603
▁print	-11.9605
▁signed	-11.9606
▁healthy	-11.9609
▁tubki	-11.9624
phem	-11.9628
▁qaabhau	-11.9631
liag	-11.9635
▁Khouan	-11.9636
lhoov	-11.9642
▁koov	-11.9642
▁Meka	-11.9647
▁Of	-11.9649
▁51	-11.9653
▁Sisavang	-11.9654
▁achieve	-11.9662
ra	-11.9662
▁vais	-11.9664
thaub	-11.967
▁send	-11.9676
▁plho	-11.9679
ter	-11.9679
▁integrity	-11.968
▁stress	-11.968
▁monitor	-11.968
▁Dear	-11.9681
▁Laotian	-11.9681
▁Kou	-11.9682
nyuj	-11.9688
nplog	-11.9691
▁tseej	-11.9692
▁contribute	-11.9695
enver	-11.9695
▁nia	-11.9702
▁nyaaj	-11.9703
▁Nt	-11.9708
▁works	-11.9712
▁cij	-11.9717
▁maskuv	-11.972
▁txivneeb	-11.9722
nk	-11.9726
▁Noom	-11.9731
abliam	-11.9732
▁dy	-11.9732
▁Senator	-11.9733
▁Politic	-11.9734
photos	-11.9735
he	-11.9738
ually	-11.9741
▁haha	-11.9743
▁Phub	-11.9746
ubject	-11.9747
▁ntee	-11.9751
▁chi	-11.9754
▁Chiang	-11.9757
▁tawj	-11.9763
▁VWJ	-11.9767
▁NPAJ	-11.9767
▁Internet	-11.9767
▁CHOJ	-11.9767
▁fuck	-11.9768
▁ANTI	-11.9769
▁yawmyij	-11.977
▁PAO	-11.977
▁phluav	-11.977
▁voice	-11.9771
ous	-11.9773
▁ethical	-11.9775
▁Tsiaj	-11.978
▁Genev	-11.9782
▁KOOB	-11.9793
▁nraa	-11.9796
out	-11.9796
tuam	-11.98
▁yawmtxiv	-11.9811
hiaj	-11.9812
▁hm	-11.9812
▁SCHer	-11.9817
tsi	-11.9818
▁ntxua	-11.9828
roob	-11.9834
▁LIG	-11.9835
▁Japan	-11.9855
▁gave	-11.9855
▁weak	-11.9856
▁DVD	-11.9857
▁HIAM	-11.9857
▁behavior	-11.9857
▁NTSUAB	-11.9858
▁referred	-11.9858
▁CUAM	-11.9858
▁box	-11.986
▁pick	-11.986
▁green	-11.986
▁Black	-11.9861
▁nyiajtxiag	-11.9863
▁ntaaj	-11.9864
▁txuv	-11.9865
muam	-11.987
aub	-11.9871
▁LIM	-11.9874
▁half	-11.9876
▁ntas	-11.9879
▁txaws	-11.9879
▁Kha	-11.9879
▁victor	-11.9882
▁khas	-11.9882
▁code	-11.9897
▁arrest	-11.9899
▁criticize	-11.9901
▁Phone	-11.9904
ol	-11.9905
▁cawmsee	-11.9908
▁Lajlee	-11.991
▁Ministr	-11.9914
▁DIG	-11.9918
▁hlauv	-11.9926
▁Chiv	-11.9929
▁km	-11.9932
▁double	-11.9943
▁dogdig	-11.9943
▁nick	-11.9943
▁campaign	-11.9943
▁NKAG	-11.9945
uang	-11.9947
▁zawv	-11.9948
▁ZOOV	-11.9951
▁chair	-11.9952
▁xiav	-11.9953
▁des	-11.9966
▁nyov	-11.9967
▁nroov	-11.9967
▁caslos	-11.9972
▁TOG	-11.9977
▁Or	-11.9979
▁rai	-11.9991
▁metub	-11.9999
▁TW	-12.0005
▁npaus	-12.0006
▁Sept	-12.0006
▁apartment	-12.0008
kuamuag	-12.0009
aim	-12.0017
TY	-12.0018
▁posting	-12.002
▁Hmoo	-12.0027
▁violate	-12.0029
▁hloob	-12.0032
▁Street	-12.0032
▁Saykao	-12.0032
▁NIAJ	-12.0033
▁Nongkhai	-12.0033
▁chimsiab	-12.0033
▁NyabLaj	-12.0033
▁hospital	-12.0033
▁phwj	-12.0034
▁target	-12.0034
▁condition	-12.0034
▁stage	-12.0034
▁NUJ	-12.0035
▁Nouka	-12.0036
55	-12.0037
▁minister	-12.004
▁.....!	-12.005
▁txh	-12.006
▁cash	-12.0062
▁coos	-12.0066
▁phd	-12.0068
AL	-12.0091
▁ntshaa	-12.0092
amp	-12.0104
▁npauj	-12.0106
▁LA	-12.0116
▁murder	-12.0117
▁resign	-12.0122
▁TXAJ	-12.0122
▁remind	-12.0123
▁LIKE	-12.0123
▁incident	-12.0123
▁NYAJ	-12.0123
▁alive	-12.0123
▁THAJ	-12.0125
▁LUAM	-12.0127
▁hnoob	-12.0128
▁SIAV	-12.0128
▁Last	-12.013
▁involved	-12.0134
▁XK	-12.014
▁improve	-12.014
15	-12.014
▁xai	-12.014
▁07	-12.0151
▁Hahahahahaha	-12.0151
▁ones	-12.0154
▁attend	-12.0154
▁Th	-12.0156
▁xom	-12.0159
hluas	-12.0161
▁intellectuals	-12.0166
▁MTT	-12.0166
▁Assistan	-12.0167
▁mivntsiv	-12.0169
▁ol	-12.017
▁YOOJ	-12.0171
True	-12.0172
ting	-12.0172
▁ugl	-12.0177
▁Organization	-12.0179
▁minute	-12.0182
▁hit	-12.0199
dlub	-12.0201
▁Lisfoo	-12.0204
▁stick	-12.0206
▁prevent	-12.0213
▁YESUS	-12.0213
▁freezer	-12.0213
▁TSHUAV	-12.0214
▁favor	-12.0214
▁White	-12.0214
▁Federal	-12.0214
▁Pajtsab	-12.0215
▁SOME	-12.0215
▁Democrac	-12.0216
▁SUAB	-12.0216
▁YOM	-12.0217
▁necessar	-12.0217
▁Txam	-12.0217
▁Uab	-12.0219
SE	-12.0219
▁zauv	-12.0226
▁Special	-12.0228
▁cu	-12.0232
▁khaj	-12.0234
ION	-12.0241
▁Brando	-12.0254
▁LOOJ	-12.0257
twb	-12.0262
fab	-12.0262
cheng	-12.0267
▁53	-12.0267
▁cees	-12.027
▁conflict	-12.027
AV	-12.0272
PAUL	-12.0274
caug	-12.0275
kwvtij	-12.0276
▁SUN	-12.0276
OM	-12.0278
shoua	-12.0283
▁Wang	-12.0293
▁Love	-12.0298
▁Religion	-12.0305
▁Wednesday	-12.0305
▁influence	-12.0305
▁HIGH	-12.0306
▁flien	-12.0306
▁minority	-12.0307
▁fuas	-12.0307
▁fbi	-12.0309
▁china	-12.0312
▁osxaum	-12.0312
▁funding	-12.0314
▁nki	-12.0314
▁Lag	-12.0316
el	-12.0324
▁Liag	-12.0324
▁PHOOJ	-12.0325
▁field	-12.0329
▁CD	-12.0329
▁Kim	-12.0332
▁ros	-12.0332
▁LAW	-12.0343
▁response	-12.0343
tsim	-12.0347
ais	-12.0354
▁hahahhaha	-12.0362
▁hloo	-12.0367
▁His	-12.0371
qauj	-12.0376
▁khao	-12.0383
▁RUA	-12.0391
poj	-12.0392
▁faith	-12.0396
▁Paris	-12.0398
▁energy	-12.0398
▁scholarship	-12.0398
▁NYEM	-12.0398
▁figure	-12.0401
▁qaws	-12.0401
▁Medical	-12.0402
▁kabmob	-12.0403
▁yeebceeb	-12.0404
▁phej	-12.0414
▁vietnam	-12.0426
▁tshaum	-12.0435
▁kuvlub	-12.0436
▁Hluas	-12.0437
▁KAS	-12.0437
ywm	-12.0442
▁phoos	-12.0445
25	-12.0447
▁xees	-12.0448
▁bis	-12.0452
taws	-12.0456
▁grow	-12.0459
▁thornsp	-12.0463
son	-12.0463
▁dabqhua	-12.0463
▁Jon	-12.0465
SIAB	-12.0467
▁MLOOG	-12.0487
▁Governor	-12.0491
▁GENERAL	-12.0491
▁RUB	-12.0491
▁Clinton	-12.0491
▁Geu	-12.0492
▁NEW	-12.0492
▁HLOOV	-12.0492
▁zamtxim	-12.0493
▁KUA	-12.0493
▁nkaujnyiag	-12.0496
▁lady	-12.0496
anuary	-12.0498
▁profile	-12.0499
▁NKAUJST	-12.0501
▁html	-12.0501
▁HUAB	-12.0506
▁xyw	-12.0507
▁daug	-12.0508
▁ntxee	-12.0509
▁nquab	-12.0511
▁1982	-12.0514
▁qu	-12.0519
▁AWS	-12.0519
▁Neohome	-12.0523
▁bor	-12.0526
▁NOW	-12.0536
txawm	-12.0539
ees	-12.0539
opposite	-12.0542
▁Nyav	-12.0545
▁pobntse	-12.0545
▁affect	-12.0546
oob	-12.056
seem	-12.0565
▁phwvyaw	-12.0569
▁Veesca	-12.0576
▁flexib	-12.0578
▁advocate	-12.0578
edicare	-12.0582
▁After	-12.0585
▁Japanese	-12.0585
embedded	-12.0585
Square	-12.0585
▁FABKIS	-12.0586
▁circle	-12.0586
▁Houei	-12.0586
▁TXEEB	-12.0587
▁era	-12.0588
▁Ntsib	-12.0588
▁PHAJ	-12.0589
▁ground	-12.0589
▁Tsib	-12.0591
▁nploos	-12.0591
▁nabkaj	-12.0591
▁Qaum	-12.0595
▁Day	-12.0596
▁moment	-12.0599
▁reach	-12.0601
▁ceevxwm	-12.0602
▁online	-12.0602
▁hws	-12.0603
▁tree	-12.0608
▁nkais	-12.0615
▁plhws	-12.0615
▁Bo	-12.0617
▁dhua	-12.0622
has	-12.0622
00	-12.0625
player	-12.0629
▁prepare	-12.063
▁PAUL	-12.0636
yees	-12.0641
▁$0	-12.0642
▁critic	-12.0646
▁Al	-12.0659
et	-12.0662
▁beginn	-12.0663
▁HIS	-12.0666
▁UW	-12.0669
▁kug	-12.067
Party	-12.0674
▁tee	-12.0675
▁naib	-12.0675
▁spiritual	-12.068
▁legitimate	-12.0681
▁First	-12.0681
________________	-12.0681
▁Tomqab	-12.0686
▁James	-12.0686
▁txai	-12.0687
▁anyway	-12.0688
hoom	-12.0688
▁Phuv	-12.069
▁Thuam	-12.0691
▁sivyig	-12.0694
▁chia	-12.0698
▁Liv	-12.0702
▁Yai	-12.0702
stpaul	-12.0703
PP	-12.0706
▁niamtij	-12.0707
▁kavxwm	-12.0708
▁inche	-12.0715
▁tape	-12.0722
▁mask	-12.0734
▁vias	-12.0736
▁engineer	-12.0739
▁ntsaa	-12.0743
coj	-12.0745
ence	-12.0752
nthav	-12.0765
ial	-12.0768
▁59	-12.0768
▁txus	-12.077
ORE	-12.0774
▁responsible	-12.0777
▁TUBNTSUAGRUAM	-12.0777
▁happiness	-12.0777
▁ZOV	-12.0778
▁bottom	-12.0778
▁method	-12.0778
▁piece	-12.0778
▁Nyiam	-12.0779
▁nru	-12.0779
▁ameka	-12.0779
▁trick	-12.0779
▁haslug	-12.078
▁ciov	-12.079
▁thej	-12.079
▁voog	-12.079
▁plob	-12.0793
▁npia	-12.08
▁Hua	-12.0801
▁terms	-12.0802
▁car	-12.0806
30	-12.0811
▁Christma	-12.0813
▁dle	-12.0814
▁nkaj	-12.0822
ntseeg	-12.0827
▁peblub	-12.0828
▁bit	-12.0838
▁chat	-12.0842
▁kid	-12.0848
kevcai	-12.0849
▁manage	-12.085
▁Twm	-12.085
▁maas	-12.0851
▁zai	-12.086
▁communities	-12.0874
▁associate	-12.0874
▁remain	-12.0874
▁senator	-12.0874
▁okay	-12.0875
▁qualification	-12.0875
▁GED	-12.0876
▁MoobSib	-12.0876
▁Laaj	-12.0878
▁NGO	-12.0878
▁Npoos	-12.0879
rchan	-12.0879
▁Hwb	-12.088
▁1984	-12.088
▁homphaj	-12.0882
▁copv	-12.0882
▁Thi	-12.0883
▁muang	-12.0885
▁probabl	-12.0885
awj	-12.089
▁nphau	-12.0892
nej	-12.0893
▁havzoo	-12.0896
▁folk	-12.0904
▁Case	-12.0906
▁caim	-12.0912
▁txwg	-12.0913
▁hna	-12.0913
▁Taumd	-12.0917
▁changed	-12.0918
▁txho	-12.0919
da	-12.0933
oogle	-12.0942
▁rawg	-12.0943
▁Zaubntsu	-12.0946
▁Hope	-12.0946
hahahahahahahaha	-12.0951
nrauj	-12.0952
▁XEEV	-12.0953
▁phib	-12.0956
ci	-12.096
▁oblub	-12.0963
▁$25	-12.0964
▁HMOOV	-12.0971
▁effect	-12.0971
▁percent	-12.0972
▁environment	-12.0972
▁Sheboygan	-12.0972
▁proud	-12.0972
▁medicine	-12.0973
▁TEEV	-12.0973
▁beyon	-12.0973
▁Reply	-12.0973
▁KHAV	-12.0974
▁large	-12.0975
▁qoj	-12.0975
▁stories	-12.0978
▁kkk	-12.0979
▁tz	-12.0981
▁Bloglia	-12.0982
▁stone	-12.0984
▁quality	-12.0986
IAS	-12.0988
united	-12.0991
▁XAB	-12.0995
▁niamtais	-12.0997
▁aud	-12.1
▁nrhov	-12.1002
▁Mov	-12.1004
▁Lha	-12.1004
▁YA	-12.1005
▁nces	-12.101
chaw	-12.101
▁1/10	-12.1013
▁FRO	-12.1015
▁ZAUB	-12.1023
▁survive	-12.1026
ntshis	-12.1032
IG	-12.1033
kho	-12.1038
▁TSUV	-12.1045
hwm	-12.105
tshoj	-12.1056
▁tshawbfaw	-12.1058
ful	-12.1062
▁color	-12.1063
▁SAI	-12.1065
tshaj	-12.107
▁Sep	-12.107
▁Rhwbliag	-12.1071
▁membership	-12.1072
▁NCAWS	-12.1072
▁Vaajncuab	-12.1072
▁CUAV	-12.1073
▁tusneeg	-12.1074
▁hlwv	-12.1074
▁stabber	-12.1074
▁NQQ	-12.1075
▁Heev	-12.1075
▁Fawm	-12.1077
▁1968	-12.1077
▁Cev	-12.1079
txheej	-12.1079
▁pojnrauj	-12.108
▁Militar	-12.1081
▁txivntxawm	-12.1081
▁ncaujlus	-12.1081
▁dlo	-12.1084
▁HEHEHE	-12.1091
▁Mem	-12.1092
▁vajtse	-12.1093
▁txham	-12.1095
maum	-12.1097
oos	-12.1099
▁Mouang	-12.1101
▁approve	-12.1103
▁ntsov	-12.1103
▁NAM	-12.1105
▁UP	-12.1108
▁ntsua	-12.1109
▁Tiaj	-12.1113
▁donation	-12.1142
▁gettin	-12.1153
▁xaaj	-12.1154
▁gov	-12.1161
▁belong	-12.1169
▁Vaccine	-12.1171
▁XIONG	-12.1171
▁delegation	-12.1171
▁TXIAV	-12.1171
▁Cross	-12.1172
▁sin	-12.1173
▁film	-12.1175
▁Khoom	-12.1175
▁earn	-12.1176
▁FAB	-12.1177
yig	-12.118
▁GOD	-12.118
▁Herr	-12.118
▁fake	-12.1182
▁peaceful	-12.1184
▁xeej	-12.1184
▁operation	-12.1185
▁citizens	-12.1185
▁oos	-12.1191
▁xyuav	-12.1193
▁damage	-12.12
▁qhaib	-12.1202
▁THAI	-12.1205
▁al	-12.1217
Zeb	-12.122
suav	-12.1224
asseng	-12.1227
rn	-12.1227
▁politik	-12.1228
ntxoog	-12.123
▁realize	-12.1233
ham	-12.1239
90	-12.1239
▁NTOO	-12.1241
▁kj	-12.1242
▁Nqa	-12.1245
▁qhaus	-12.1265
▁psycholog	-12.1269
▁THINK	-12.1272
▁Dongdok	-12.1272
▁suspect	-12.1272
▁DHIA	-12.1272
▁HOW	-12.1272
▁publish	-12.1273
▁Phajej	-12.1273
▁POST	-12.1273
▁reference	-12.1275
▁mr	-12.1276
▁xeebntxwv	-12.1277
▁ntxuaj	-12.1278
▁parking	-12.1281
▁north	-12.1282
▁killing	-12.1282
▁Ze	-12.1283
▁Fang	-12.1283
lauj	-12.1284
015	-12.1285
xub	-12.1302
▁TAUB	-12.1304
▁virus	-12.1307
txiaj	-12.1308
▁phuam	-12.1313
ei	-12.1315
▁famili	-12.1324
▁Bon	-12.1325
▁xaub	-12.1326
▁thorn	-12.1328
huam	-12.133
▁REAL	-12.1334
▁nrooj	-12.134
uty	-12.1341
Lis	-12.1342
vice	-12.1345
▁naam	-12.1347
▁seek	-12.1352
▁organize	-12.1356
▁Txiav	-12.1368
▁bua	-12.1369
▁statue	-12.1374
▁Florida	-12.1374
▁threat	-12.1374
▁Hlwb	-12.1374
▁NCUAB	-12.1375
maj	-12.1375
▁raag	-12.1375
▁mark	-12.1375
licas	-12.1376
▁spy	-12.1376
▁kan	-12.1377
▁58	-12.1378
▁FREE	-12.1379
▁tshwjxeeb	-12.1379
▁pobkws	-12.138
▁85	-12.1381
▁oz	-12.1382
▁Txo	-12.1386
▁PLAM	-12.1387
▁Nuj	-12.1387
▁muv	-12.1389
▁period	-12.139
▁lhuas	-12.1392
▁understanding	-12.1394
Vaj	-12.1399
▁introduce	-12.1401
lem	-12.1404
thiaj	-12.1417
AIM	-12.142
▁yamli	-12.1422
▁population	-12.1423
▁south	-12.1426
▁soo	-12.1432
▁Po	-12.1435
▁Cy	-12.1439
ntxawg	-12.144
ey	-12.1446
▁pais	-12.1447
▁Xaj	-12.1449
▁foreign	-12.1449
xaj	-12.1451
saib	-12.1464
▁Phala	-12.1466
▁Example	-12.1477
▁pretend	-12.1477
▁criticism	-12.1477
▁THaum	-12.1477
▁lc	-12.1477
▁soccer	-12.1478
▁Lyfong	-12.1478
▁justice	-12.1479
▁impossib	-12.1479
▁deny	-12.148
▁xuabmoos	-12.148
▁nyuamqhuav	-12.148
▁cajdab	-12.148
▁TXAIS	-12.1481
▁Email	-12.1481
▁Teem	-12.1482
▁building	-12.1484
▁Laib	-12.1487
▁nyawm	-12.1495
▁250	-12.1496
▁push	-12.1499
saub	-12.15
▁cent	-12.1507
nto	-12.1513
ew	-12.1519
▁kasmia	-12.1529
▁kau	-12.153
▁504	-12.1531
▁ect	-12.1534
▁lijch	-12.1539
▁))	-12.1547
▁agreed	-12.1553
13	-12.1555
▁letter	-12.1556
▁plhus	-12.1568
▁sus	-12.1571
▁western	-12.1573
▁neutral	-12.1579
rry	-12.1581
▁trouble	-12.1581
▁Constitution	-12.1581
▁violation	-12.1581
▁chief	-12.1581
▁department	-12.1582
▁QHUAS	-12.1582
▁Txoos	-12.1583
▁NTUG	-12.1585
▁THERE	-12.1585
▁OTHER	-12.1587
▁TSIV	-12.1597
▁cis	-12.1597
▁Ntsej	-12.1599
luj	-12.1599
hom	-12.1606
▁Su	-12.1607
▁draw	-12.1615
yeem	-12.1617
▁encourage	-12.1618
▁heem	-12.1618
▁NTS	-12.1619
▁techaw	-12.1627
▁sy	-12.1627
▁gas	-12.1629
▁57	-12.163
SS	-12.1634
▁phwvxe	-12.1634
▁BUS	-12.1634
▁ntav	-12.1636
▁Fwj	-12.1636
▁Ka	-12.1646
▁nts	-12.1648
loo	-12.1654
▁haw	-12.1655
▁pin	-12.1657
paug	-12.1658
▁convert	-12.166
IR	-12.1662
▁Kua	-12.1665
▁tawd	-12.1666
▁boy	-12.1667
▁design	-12.1669
killed	-12.1674
dlawb	-12.1675
▁hauvpaus	-12.1678
▁image	-12.1679
▁:):):)	-12.1685
▁celebration	-12.1686
▁council	-12.1686
▁decide	-12.1687
▁CHIJ	-12.1687
▁argument	-12.1687
▁TWJ	-12.1688
▁mercenar	-12.1689
way	-12.169
▁sawvcev	-12.1691
▁honey	-12.1692
qaib	-12.1694
▁TOJ	-12.1695
▁capital	-12.1697
▁lots	-12.1701
Lqy	-12.1705
▁prefer	-12.1708
▁zoonkauj	-12.1709
▁shot	-12.171
CMA	-12.1717
oom	-12.1717
▁XAM	-12.1722
▁quote	-12.1723
▁With	-12.1727
▁teach	-12.1727
▁bab	-12.173
▁ntsau	-12.1732
▁Daj	-12.1734
▁TP	-12.174
NTSES	-12.1742
▁Force	-12.1743
▁Lij	-12.1747
eeb	-12.1749
tsuag	-12.1749
(	-12.175
▁Lai	-12.1751
▁area	-12.1757
▁suggestion	-12.1759
▁dialect	-12.176
▁DE	-12.1761
▁ceb	-12.1764
▁XYUA	-12.1766
tsawb	-12.1769
▁Non	-12.1774
▁mid	-12.1775
▁thaumkuv	-12.1782
▁yopg	-12.1782
▁Chou	-12.1786
rely	-12.1793
▁straight	-12.1793
▁Science	-12.1793
▁NYEEM	-12.1793
▁plooj	-12.1793
▁Attorney	-12.1794
▁txiajntsim	-12.1794
▁popular	-12.1794
▁universit	-12.1795
RISE	-12.1796
▁bless	-12.1796
▁reply	-12.1796
--------------	-12.1797
▁fi	-12.1801
▁npawv	-12.1802
▁qabrooj	-12.1803
▁root	-12.1803
▁Lat	-12.1805
▁saturday	-12.1805
hav	-12.1806
▁TH	-12.1807
▁kej	-12.1808
▁zum	-12.181
▁ntxhuav	-12.181
▁zogli	-12.1815
▁xx	-12.1816
▁xuav	-12.1825
8&	-12.1827
▁actuall	-12.1831
wiki	-12.1839
▁nris	-12.1839
▁txhaab	-12.1842
▁Camp	-12.1846
▁Kam	-12.1848
▁estimate	-12.1849
▁maina	-12.1849
qawg	-12.1853
nas	-12.1857
▁npluanu	-12.1859
▁kiss	-12.1862
▁SAM	-12.1867
▁chai	-12.1868
▁san	-12.1873
▁safet	-12.1873
▁Achan	-12.1875
▁dl	-12.188
▁DownUn	-12.1886
▁Hey	-12.189
26	-12.1894
▁success	-12.1897
▁fill	-12.1897
▁Since	-12.19
▁Indochina	-12.19
▁nephew	-12.1902
▁Tziane	-12.1902
▁Video	-12.1902
▁yoglawv	-12.1904
▁Sa	-12.1905
▁dad	-12.1905
▁marry	-12.1905
▁DOG	-12.1906
▁Zaab	-12.1906
▁XZ	-12.1908
▁Officer	-12.1908
clear	-12.1913
▁nkoos	-12.1919
▁txawjntse	-12.192
▁.!	-12.1929
▁develop	-12.193
▁hlaab	-12.1938
▁Ms	-12.1941
▁Huam	-12.1948
tham	-12.1954
▁144	-12.1965
▁155	-12.197
si	-12.1971
▁POWER	-12.1972
▁bride	-12.1972
tsum	-12.1973
▁nyaa	-12.1974
▁teacher	-12.1976
▁student	-12.1978
▁**	-12.1979
▁approach	-12.1982
▁tibzoo	-12.1984
▁says	-12.1985
▁,...	-12.1987
▁dho	-12.1988
▁xibhw	-12.199
▁xyu	-12.1993
▁laugh	-12.1994
plaws	-12.2001
▁dhaw	-12.2002
▁spell	-12.2005
▁NROV	-12.2008
▁recommend	-12.2009
▁Bachelor	-12.2009
▁Faabkis	-12.2009
▁NPlog	-12.2009
▁spouse	-12.201
▁dear	-12.201
▁SCIENCE	-12.201
▁Adam	-12.201
▁adjective	-12.201
▁doctawm	-12.201
▁LPB	-12.2011
▁koomtsishaum	-12.2011
▁digmuag	-12.2011
▁Ncauj	-12.2012
▁ADA	-12.2016
foom	-12.2021
▁Chij	-12.2022
▁nqag	-12.2024
khi	-12.2024
▁nk	-12.2026
▁kais	-12.203
▁Mhong	-12.2032
▁ntsawv	-12.2034
▁cook	-12.2039
ntsoov	-12.2039
14	-12.204
▁nwm	-12.2043
▁Lord	-12.2044
▁Phav	-12.2044
txawj	-12.2052
▁koomhu	-12.2055
ant	-12.2064
▁BY	-12.2074
▁rich	-12.2087
▁KOOS	-12.209
▁Tseemy	-12.2096
▁HOV	-12.2096
▁meejx	-12.2101
▁ntsias	-12.2105
▁Khwv	-12.2107
▁NTSOO	-12.2108
▁dd	-12.2111
mos	-12.2118
▁PA	-12.2118
▁DOCTOR	-12.2119
▁doubt	-12.2119
▁surrender	-12.2119
▁NQAIJ	-12.2119
▁FFC	-12.212
▁regular	-12.2122
▁THAUB	-12.2122
▁73	-12.2123
▁LS	-12.2126
▁philosoph	-12.2128
tsab	-12.2128
▁Puag	-12.2129
0&	-12.2129
▁vaajtsw	-12.2129
▁Most	-12.2133
▁NAJ	-12.2138
▁thiag	-12.2139
▁relatives	-12.214
▁Muag	-12.2144
uaj	-12.2145
▁reported	-12.2153
▁Thu	-12.2155
▁YWM	-12.2158
unday	-12.216
?	-12.2164
rhav	-12.2181
hlau	-12.2182
EVER	-12.2184
▁69	-12.2187
▁xyem	-12.2188
▁txivtub	-12.2191
▁pure	-12.2193
aag	-12.2197
▁xoos	-12.2207
▁qham	-12.2212
▁Xai	-12.2214
▁yuavluag	-12.2215
txheem	-12.2216
pheeb	-12.2225
▁exercise	-12.223
▁third	-12.223
▁Tes	-12.223
▁Koomhaum	-12.2231
▁Life	-12.2231
▁Where	-12.2231
▁FEEM	-12.2231
▁Dlaab	-12.2232
▁1983	-12.2232
▁AID	-12.2233
▁XEEB	-12.2233
▁GET	-12.2234
▁npla	-12.2236
▁amelikas	-12.2237
▁Look	-12.2238
▁nrw	-12.224
▁plev	-12.2241
▁kwvyees	-12.2244
▁mix	-12.2246
▁LAUG	-12.2246
▁none	-12.225
▁?????	-12.2262
ntsaag	-12.2262
▁plaubhau	-12.2272
tiam	-12.2283
HUB	-12.229
▁Tho	-12.2291
Foom	-12.2291
Leeg	-12.2294
▁hahahahha	-12.2294
▁$1000	-12.2298
▁EVEN	-12.23
MA	-12.2301
KOJ	-12.2303
▁clip	-12.2309
▁TAUS	-12.231
21	-12.231
▁Souvanna	-12.232
▁YP	-12.233
==	-12.2334
▁NQE	-12.2342
▁predict	-12.2342
▁homework	-12.2342
▁William	-12.2342
▁interpretation	-12.2343
▁Group	-12.2343
▁clue	-12.2343
▁noogqejqawg	-12.2343
luam	-12.2344
▁available	-12.2344
▁camera	-12.2344
▁PEJ	-12.2347
47	-12.2348
▁ntsauv	-12.2351
▁nteev	-12.2354
Ntxheb	-12.2355
▁ntsawj	-12.236
▁Xwb	-12.236
to	-12.236
▁phu	-12.2363
▁plhom	-12.2364
▁vig	-12.2366
▁sacrifice	-12.2367
11	-12.2369
▁Thua	-12.2376
▁DABTSI	-12.2379
▁BG	-12.2385
▁Quas	-12.2387
▁Taus	-12.2396
123	-12.2396
▁"..	-12.2398
▁Hell	-12.2412
you	-12.2417
▁mine	-12.2419
ntoo	-12.2423
muas	-12.2424
▁Tav	-12.2428
!!!!!!!!!!!!!!!!	-12.2429
▁nci	-12.2431
▁Twin	-12.2455
▁Kee	-12.2456
▁Alaska	-12.2456
▁VUE	-12.2456
▁Watch	-12.2456
▁Judge	-12.2456
▁Txaijnrob	-12.2456
▁CARE	-12.2457
▁KGB	-12.2458
▁unko	-12.2458
paum	-12.2459
▁HlubHmoob	-12.2459
dig	-12.246
▁appropriate	-12.2464
▁Theem	-12.2465
▁TAUG	-12.2466
▁NYOO	-12.2466
▁916	-12.2466
▁fws	-12.2467
▁hunting	-12.2471
▁following	-12.2472
lim	-12.2472
▁kablis	-12.2475
▁ntxha	-12.2476
▁Nomdub	-12.2478
▁tsaw	-12.2482
▁followers	-12.2484
▁Indian	-12.2487
▁____	-12.2489
▁Txawjxa	-12.249
identity	-12.249
▁Say	-12.2495
▁Taam	-12.2496
▁ri	-12.25
▁Os	-12.2505
▁Marc	-12.2517
▁76	-12.2527
▁bastard	-12.253
▁vimkuv	-12.2534
▁Other	-12.2537
▁progress	-12.2538
▁Zong	-12.2539
▁lintawd	-12.254
▁plhw	-12.254
Fab	-12.2542
▁KAJ	-12.2547
nyuag	-12.255
▁kip	-12.2552
dlej	-12.2557
aib	-12.2563
▁Hnia	-12.2564
▁player	-12.2565
▁PUAB	-12.2565
▁Ncaj	-12.2566
▁huj	-12.2569
▁outside	-12.257
▁advantage	-12.2571
▁attorney	-12.2571
▁Soviet	-12.2571
▁chicken	-12.2571
▁technique	-12.2571
▁Business	-12.2574
▁army	-12.2577
▁PAS	-12.2577
▁HMong	-12.2579
▁TUAM	-12.2579
HOSE	-12.2591
▁49	-12.2591
▁TIV	-12.2594
▁usual	-12.2604
▁Nou	-12.2611
▁Air	-12.2619
▁plhaub	-12.2623
▁pho	-12.2626
▁Ntxua	-12.2628
▁yuab	-12.2631
article	-12.2636
terrorism	-12.2637
▁missionar	-12.264
zos	-12.2642
▁sofa	-12.2644
▁paas	-12.2646
khwb	-12.2646
▁haisli	-12.2651
▁chang	-12.2653
▁Kaw	-12.2669
su	-12.2669
▁nka	-12.2674
ntseg	-12.2677
kag	-12.2679
▁acre	-12.2685
the	-12.2687
▁Heaven	-12.2687
▁brgd	-12.2687
▁WOW	-12.2687
▁Captain	-12.2687
▁SNOW	-12.2687
▁AGAIN	-12.2688
▁txiabneeb	-12.2688
▁ler	-12.2688
▁Culture	-12.2689
▁SAY	-12.2689
▁Daus	-12.2692
▁)"	-12.2694
▁naas	-12.27
91	-12.2701
▁bass	-12.2708
▁ass	-12.2708
moos	-12.2711
▁OUT	-12.2715
▁sit	-12.272
say	-12.2721
it	-12.2722
▁Kiabtoo	-12.2723
▁west	-12.2724
▁door	-12.2724
▁birthda	-12.2726
▁dhi	-12.273
▁Xais	-12.2732
▁1/2	-12.2735
▁nyuajsiab	-12.2738
teeb	-12.2738
aol	-12.2742
▁Leader	-12.2758
▁nplag	-12.2758
▁vi	-12.2763
zug	-12.2764
▁HLAU	-12.2769
▁Hnubka	-12.2774
▁Ki	-12.2775
orrow	-12.2776
▁formula	-12.2778
▁WAS	-12.278
ruly	-12.278
arch	-12.2782
▁46	-12.2783
▁Saw	-12.2789
▁offend	-12.2791
▁ray	-12.2795
▁cross	-12.2796
▁nkas	-12.28
▁Qaib	-12.2802
▁wow	-12.2803
sh	-12.2803
▁ncas	-12.2803
oog	-12.2803
▁Poob	-12.2804
▁NTSHAW	-12.2805
▁INTERNET	-12.2805
▁FAIB	-12.2805
▁Beeveev	-12.2806
▁river	-12.2806
▁retirement	-12.2807
▁Arkansas	-12.2807
▁fear	-12.2808
▁aid	-12.2809
▁MAV	-12.2809
▁saiv	-12.2809
▁nreg	-12.2813
▁Ruaj	-12.2814
▁idiot	-12.2815
▁NAB	-12.2816
▁Apr	-12.2817
▁peebzee	-12.2818
txeem	-12.2819
▁melikas	-12.2819
▁,,,,	-12.282
▁interpret	-12.2823
AB	-12.2824
▁POLITIC	-12.2824
▁Pi	-12.283
▁suit	-12.283
▁Mao	-12.2835
▁qhovrooj	-12.2838
▁qaj	-12.2839
▁hmob	-12.2841
▁phus	-12.2842
▁txomfa	-12.2845
cua	-12.2845
▁PHOO	-12.2846
▁WB	-12.2847
▁ruav	-12.2848
▁Suit	-12.2856
▁npl	-12.2857
▁poov	-12.2867
▁ikuv	-12.287
nv	-12.2879
1969	-12.2884
▁VIS	-12.2885
THING	-12.2893
▁SC	-12.2896
▁Taub	-12.2896
▁governor	-12.2906
▁Pas	-12.2913
yeeg	-12.2915
▁worship	-12.2916
▁Nav	-12.2919
▁54	-12.2921
▁RIAM	-12.2922
▁neighbor	-12.2924
▁Alien	-12.2924
▁WRONG	-12.2924
▁regret	-12.2924
▁NKAUM	-12.2924
▁XYOV	-12.2925
▁YAV	-12.2925
▁78	-12.2926
▁je	-12.2926
▁NRHO	-12.2926
▁limham	-12.2926
▁gift	-12.2926
▁Awb	-12.2927
▁croc	-12.2927
▁AMEN	-12.293
▁actions	-12.2931
▁vuab	-12.2932
▁Phouma	-12.2937
▁776	-12.2937
▁nkawj	-12.2938
▁Ntsuag	-12.2939
hnov	-12.2941
▁millionaire	-12.2943
ntev	-12.2946
▁tank	-12.2949
▁tseebx	-12.2949
▁receive	-12.295
kong	-12.2952
▁haukev	-12.2961
▁map	-12.2968
▁facts	-12.297
orado	-12.2971
▁bath	-12.2972
▁Xay	-12.2977
▁700	-12.2982
▁Pam	-12.2995
▁sd	-12.3006
▁ignore	-12.3007
▁qabntuj	-12.3014
▁Hej	-12.3016
▁eye	-12.3028
tua	-12.3034
▁harm	-12.3036
▁dumb	-12.3037
▁ET	-12.3039
ntsib	-12.3039
▁expense	-12.3044
▁recent	-12.3045
▁threaten	-12.3045
▁temptation	-12.3045
▁NEV	-12.3046
▁false	-12.3046
▁POINT	-12.3046
▁Naisphoo	-12.3046
▁zaubmov	-12.3047
▁slow	-12.3049
▁Vaajlug	-12.305
▁ntxheb	-12.3053
▁english	-12.3054
▁elders	-12.3055
▁Txuas	-12.3058
▁comprehensi	-12.306
▁blablabla	-12.3061
▁nyub	-12.3062
▁POG	-12.3062
▁shake	-12.3066
txoog	-12.3067
▁CAJ	-12.3067
▁con	-12.3067
khiav	-12.3071
▁Ex	-12.3073
▁Ntoo	-12.3074
▁hoo	-12.3074
▁WAY	-12.3075
▁accuse	-12.3078
twm	-12.308
klos	-12.308
▁PC	-12.3084
UM	-12.3086
OR	-12.3088
▁haam	-12.3089
▁TSW	-12.3101
▁gene	-12.3102
▁npai	-12.3106
tong	-12.3109
kiv	-12.3111
content	-12.3115
Yaj	-12.3128
▁Dee	-12.3132
▁fish	-12.3135
=0	-12.3141
▁ntxab	-12.3142
entral	-12.3145
▁compete	-12.3151
nraug	-12.3157
▁require	-12.3159
▁ntia	-12.3162
▁across	-12.3165
▁translate	-12.3165
▁Europe	-12.3166
▁teleport	-12.3166
▁Park	-12.3167
▁SCHOOL	-12.3167
▁NEED	-12.3167
▁huamnab	-12.3168
▁rhab	-12.3168
▁minor	-12.3169
▁Naiphoo	-12.3169
▁chose	-12.3169
▁THAB	-12.3171
▁msu	-12.3171
▁YIG	-12.3171
▁MAGI	-12.3174
▁khaiv	-12.3175
rk	-12.3176
▁CAB	-12.3178
!	-12.318
▁sur	-12.3181
▁diplomatic	-12.3182
Dawb	-12.3183
▁pray	-12.3184
▁LEGAL	-12.3187
▁Txom	-12.3188
kos	-12.3188
▁Phoum	-12.319
right	-12.3192
▁MOOS	-12.3195
▁hahahha	-12.3199
▁Zaub	-12.3203
▁thu	-12.3203
twv	-12.3205
looj	-12.3206
▁zeg	-12.3214
▁Maivna	-12.3219
▁71	-12.3221
▁Tshuas	-12.3224
sijhawm	-12.3242
xam	-12.3242
▁Sen	-12.3243
wvnyawm	-12.3245
nraim	-12.325
164	-12.3254
▁Caiv	-12.3257
▁participate	-12.3257
▁ntxhoo	-12.3258
ged	-12.3259
▁hoos	-12.3259
▁HLI	-12.3259
▁ntximli	-12.3264
▁Take	-12.3267
▁hehe	-12.3267
ology	-12.3269
▁Txaj	-12.3271
▁Qau	-12.3275
▁refuse	-12.3278
auv	-12.3282
▁$300	-12.3283
khib	-12.3288
▁Degree	-12.329
▁machine	-12.329
▁5746	-12.329
▁Hotel	-12.329
▁TSWJ	-12.329
▁Foundation	-12.329
▁KHWV	-12.329
▁Txhawm	-12.3291
▁Ntxhiav	-12.3291
▁Tsimmuaj	-12.3291
▁Brg	-12.3291
▁ZAIS	-12.3291
▁avoid	-12.3291
▁NUAV	-12.3292
▁ndlav	-12.3294
xay	-12.3298
▁shit	-12.3299
▁180	-12.33
▁blue	-12.3302
▁loom	-12.3303
▁Daws	-12.3306
HMOOB	-12.3309
▁complaint	-12.3312
▁careful	-12.3313
▁Ty	-12.3314
▁Vajlus	-12.3316
feemcoob	-12.3317
huab	-12.3327
iddle	-12.3334
▁Ntsia	-12.3337
▁scam	-12.3338
▁txaw	-12.3346
▁Secretar	-12.3356
▁Pho	-12.3357
hov	-12.3357
▁Np	-12.3371
LWM	-12.3371
▁nrhu	-12.3375
ST	-12.3377
▁soul	-12.3381
▁Sia	-12.3382
▁elect	-12.3385
qaum	-12.3386
keo	-12.3388
oo	-12.3397
phaj	-12.3398
HUAV	-12.3399
hu	-12.3404
▁WAR	-12.3408
▁contradict	-12.3414
▁disappoint	-12.3415
▁Sombath	-12.3415
▁protection	-12.3416
▁worst	-12.3416
▁racist	-12.3417
▁nplij	-12.3417
▁NYIAG	-12.3418
▁movement	-12.3418
▁riag	-12.3419
kav	-12.3422
cha	-12.3423
▁ntaim	-12.3424
▁warning	-12.3424
▁store	-12.3425
▁thws	-12.3426
▁nurse	-12.3426
klub	-12.3426
▁pasdej	-12.3433
▁sojntsua	-12.3437
photo	-12.344
▁lev	-12.3443
tsug	-12.3446
▁FACT	-12.3446
▁Seem	-12.3451
▁fu	-12.3458
▁Luv	-12.3461
▁size	-12.347
▁BEER	-12.3472
iOC	-12.3478
▁handle	-12.3496
▁drop	-12.3499
▁phlom	-12.3503
▁REV	-12.3508
▁XUB	-12.3509
▁Tsiab	-12.3509
▁evidences	-12.3511
▁HER	-12.3513
▁Phus	-12.3514
▁yawglaus	-12.3517
▁civil	-12.3522
nuj	-12.3529
▁civilize	-12.3535
▁Xia	-12.3537
▁CHURCH	-12.3541
▁verify	-12.3541
▁Title	-12.3541
▁Tshwj	-12.3542
▁Flip	-12.3542
▁memtoj	-12.3542
▁ZK	-12.3542
▁dlhuav	-12.3542
ceg	-12.3543
▁Charles	-12.3545
▁commander	-12.3545
▁SCAM	-12.3545
▁nruabnrab	-12.3548
▁internal	-12.3549
▁Orang	-12.3552
▁Heu	-12.3553
▁npiab	-12.3559
lean	-12.356
▁Cuag	-12.3561
IC	-12.3566
▁Dlua	-12.3566
▁ABOU	-12.3568
pog	-12.3573
▁Vong	-12.3575
side	-12.3576
caij	-12.3586
▁LAU	-12.3593
▁tshi	-12.3596
MUS	-12.3599
txhia	-12.3603
▁seeb	-12.3612
▁sport	-12.3614
▁Song	-12.3641
▁Tshe	-12.3642
▁Kin	-12.3646
▁Neu	-12.365
▁Jul	-12.3659
▁NEB	-12.3661
▁ntsaub	-12.3662
▁Taug	-12.3665
▁grand	-12.3668
▁benefits	-12.3669
▁budget	-12.367
▁excuse	-12.367
▁wausau	-12.367
▁DNR	-12.3671
caus	-12.3672
▁direction	-12.3673
▁ourselve	-12.3673
▁beside	-12.3673
▁haud	-12.3673
▁Ntxi	-12.3674
▁tshaam	-12.3674
▁KWVTIJ	-12.3677
▁$40	-12.3678
phoojywg	-12.3678
▁thoughts	-12.3678
▁Dlej	-12.3682
▁heheheh	-12.3691
▁txawjx	-12.3693
▁qij	-12.3695
▁beat	-12.3696
▁cojmus	-12.3699
▁khe	-12.37
▁NT	-12.3701
▁NYAB	-12.3703
▁khes	-12.3704
▁Then	-12.3705
▁speaker	-12.3706
▁Ke	-12.3707
▁Ee	-12.371
▁sick	-12.3715
▁phi	-12.3716
pwm	-12.3718
usa	-12.372
▁MMR	-12.372
▁Vau	-12.3721
▁Doc	-12.3723
tsav	-12.3742
▁thee	-12.3753
▁Tig	-12.3756
▁phaaj	-12.3756
▁mammus	-12.376
▁path	-12.3764
▁TSHO	-12.3765
▁Bank	-12.3782
DT	-12.3784
huv	-12.3785
▁NKAUJSTP	-12.3786
▁met	-12.3787
▁Hai	-12.3788
kam	-12.3789
▁Qav	-12.379
▁beautiful	-12.3799
▁ideology	-12.3799
▁drink	-12.38
▁Accord	-12.38
▁TSHEB	-12.38
▁versa	-12.38
▁SUPPORT	-12.3801
▁NRAB	-12.3801
▁NTXIM	-12.3801
ntau	-12.3801
▁AEON	-12.3803
▁Men	-12.3804
▁npleg	-12.3804
▁NRAUJ	-12.3804
kli	-12.3806
▁Rag	-12.381
▁rob	-12.381
txawg	-12.3811
▁LOV	-12.3811
▁Ken	-12.3814
2001	-12.382
▁hnyos	-12.3821
▁bush	-12.3821
▁tyog	-12.3822
▁hn	-12.3822
▁qhuabke	-12.3825
how	-12.3828
eup	-12.3829
▁scholars	-12.3831
▁77	-12.3832
▁TAV	-12.3833
luaj	-12.3849
sistance	-12.3853
▁plas	-12.3855
▁tamsi	-12.3858
▁Secret	-12.3858
▁opinions	-12.3859
aws	-12.3864
▁schedule	-12.3867
▁SEE	-12.3868
ap	-12.3871
▁ntxai	-12.3872
▁pees	-12.3882
▁xaib	-12.3883
▁Small	-12.3887
▁ndl	-12.3888
▁tsislam	-12.3891
▁")	-12.3891
▁sao	-12.3891
Teb	-12.3894
▁)....	-12.3896
nyab	-12.3902
liaj	-12.391
▁ru	-12.3912
rabang	-12.3912
▁Hmmm	-12.3915
▁fruit	-12.3928
▁43	-12.393
▁discredit	-12.3931
▁River	-12.3931
▁reflect	-12.3931
▁virgin	-12.3931
▁reputation	-12.3931
▁financial	-12.3931
▁nominate	-12.3932
▁baht	-12.3932
▁NYUAG	-12.3932
▁parties	-12.3934
▁pen	-12.3937
▁xyob	-12.3945
▁plav	-12.3947
ntsej	-12.3948
▁denie	-12.3951
▁appoint	-12.3952
74	-12.3957
▁Paum	-12.3957
▁propert	-12.3961
▁Tsoob	-12.397
NR	-12.3975
▁fr	-12.3983
mom	-12.3985
93	-12.3986
nyom	-12.3988
aid	-12.3993
Tek	-12.3998
▁Nqai	-12.3999
▁CUA	-12.4005
▁Tshoob	-12.4011
▁swv	-12.4012
▁red	-12.4014
▁Xat	-12.4021
▁123	-12.4023
▁billion	-12.4026
ETC	-12.4027
▁plu	-12.403
▁TA	-12.403
▁fine	-12.4031
12	-12.4033
AUL	-12.4035
▁Hmoog	-12.4035
▁modern	-12.4044
▁pla	-12.4049
▁collect	-12.4053
▁corrupt	-12.4055
▁divide	-12.4062
xiong	-12.4063
▁Mormon	-12.4064
▁iliki	-12.4065
▁CHEEM	-12.4065
▁catholic	-12.4065
▁scientific	-12.4065
▁input	-12.4065
▁danger	-12.4065
given	-12.4066
▁Havzoov	-12.4066
▁FAJ	-12.4066
▁permanent	-12.4066
▁KL	-12.4067
▁often	-12.4067
▁Lajhais	-12.4068
▁khawvkoob	-12.4068
▁manager	-12.4069
url	-12.4069
▁daughter	-12.4069
▁proclaim	-12.4072
ton	-12.4072
▁separate	-12.4074
▁Qhau	-12.4075
▁Kangaroo	-12.4082
▁tiom	-12.4082
▁Ncai	-12.4083
▁Nyawm	-12.4084
loog	-12.4084
▁ywjsiab	-12.4086
▁56	-12.4086
19	-12.4087
▁xyaa	-12.4088
▁note	-12.409
▁----	-12.4095
▁Laugtxaw	-12.4098
npais	-12.4099
Southeast	-12.4116
▁Pw	-12.4117
▁Tai	-12.4118
ch	-12.4118
▁Defens	-12.4124
meC	-12.4125
▁xia	-12.4131
▁BIG	-12.4135
▁memor	-12.4135
▁ram	-12.4137
▁PAM	-12.414
▁nraj	-12.4141
yem	-12.4144
KM	-12.415
▁Thaij	-12.4165
▁certificate	-12.4167
▁yours	-12.4167
.)	-12.4167
▁Ciab	-12.4168
▁Pev	-12.417
▁Lom	-12.4171
▁nthw	-12.4177
▁ameska	-12.4193
▁adult	-12.4195
▁FIRST	-12.42
▁Second	-12.42
▁background	-12.42
▁BKK	-12.42
▁NKIM	-12.42
▁TxawjvamYia	-12.42
▁Sinwung	-12.42
▁observe	-12.4201
▁STD	-12.4202
▁NIM	-12.4203
▁Ntsum	-12.4204
▁OZ	-12.4204
▁NTSHAV	-12.4205
▁Khou	-12.4206
▁LAUD	-12.4207
▁1999	-12.4207
▁near	-12.421
▁ntshau	-12.4211
▁Nkag	-12.4211
▁dlab	-12.4212
▁BEE	-12.4212
▁lisnom	-12.4212
▁ABC	-12.4214
▁Kevin	-12.4214
aung	-12.4215
▁TIG	-12.4216
▁cool	-12.4216
▁lbs	-12.4217
▁npawm	-12.4219
▁NTSUAG	-12.4221
▁$$$$	-12.4224
▁converter	-12.4234
txhoov	-12.4235
▁therap	-12.4239
▁coog	-12.4244
▁doc	-12.4247
▁thus	-12.4249
▁begin	-12.425
▁videos	-12.426
▁Hong	-12.4261
▁caused	-12.4272
nram	-12.4286
994	-12.4298
rel	-12.43
VP	-12.4301
▁qhos	-12.4302
phav	-12.4306
ried	-12.4316
men	-12.4317
▁PHIM	-12.432
:	-12.4322
▁qh	-12.4322
ngfu	-12.4327
▁art	-12.4329
▁Korea	-12.4334
▁imagine	-12.4337
▁street	-12.4337
▁Aderhol	-12.4337
▁republican	-12.4337
▁XXXXXXXXXXXXXX	-12.4337
▁Vega	-12.4337
▁VUAG	-12.4337
▁comprehend	-12.4337
▁HELP	-12.4337
▁Welcome	-12.4337
▁paragraph	-12.4338
▁TSHOOB	-12.4339
▁invite	-12.4339
▁HIV	-12.4341
▁zaab	-12.4341
▁LAWB	-12.4342
▁lobby	-12.4342
off	-12.4342
▁nko	-12.4342
▁location	-12.4342
▁xyau	-12.4343
▁grant	-12.4344
▁thailand	-12.4346
▁MAB	-12.4347
▁:"	-12.4352
▁Mesliska	-12.4353
▁pliab	-12.4361
▁nplhu	-12.4363
KIAG	-12.4368
eemouachaofa	-12.4372
▁Hib	-12.4375
▁LOVE	-12.4378
puas	-12.4379
▁hahahah	-12.438
▁application	-12.4381
▁vis	-12.4387
/07	-12.4388
chim	-12.4397
▁Oo	-12.4398
go	-12.4408
▁TL	-12.4414
hwv	-12.4416
geC	-12.4419
▁nor	-12.4429
EN	-12.443
▁debli	-12.4436
phom	-12.4438
qub	-12.4441
▁zaw	-12.4449
▁Tawg	-12.445
ino	-12.445
▁knowing	-12.4451
▁pu	-12.4451
inner	-12.4454
▁ah	-12.4457
▁COMMIE	-12.4458
▁pain	-12.4462
▁KAW	-12.4463
ur	-12.4463
aW	-12.4468
xob	-12.4471
uperior	-12.4471
paid	-12.4471
▁naim	-12.4472
set	-12.4475
▁activist	-12.4475
▁applie	-12.4475
▁lunch	-12.4476
▁Medicine	-12.4476
▁Union	-12.4476
▁Justice	-12.4476
▁shame	-12.4476
▁resistance	-12.4476
▁Eau	-12.4477
▁TSIAJ	-12.4477
▁Ntsuj	-12.4478
▁zero	-12.4479
▁round	-12.4479
▁HWM	-12.448
▁Phajhau	-12.448
▁zawj	-12.4481
▁central	-12.4481
▁sensitiv	-12.4481
tawb	-12.4485
▁graduate	-12.4486
▁ruj	-12.4486
▁ndlag	-12.4486
▁dawv	-12.4486
▁1998	-12.4487
▁!!!!!!	-12.4488
▁nrhau	-12.4489
▁yawmsaub	-12.4489
▁Kuab	-12.4489
▁kiam	-12.449
▁MOUA	-12.4494
▁career	-12.4495
▁states	-12.4496
AWM	-12.4504
▁Haib	-12.4506
▁qhovchaw	-12.4511
▁asking	-12.452
hlwb	-12.4526
▁Hinh	-12.4527
▁faim	-12.4527
▁dem	-12.4529
WS	-12.4537
ITY	-12.4549
▁npuam	-12.4552
▁tsws	-12.4558
▁TS	-12.4561
▁pi	-12.4562
▁victim	-12.4566
▁react	-12.4573
unity	-12.4577
▁Nis	-12.4582
KAWG	-12.4582
▁scholar	-12.4584
▁easi	-12.4586
older	-12.4588
moobleeg	-12.4588
▁Tec	-12.4591
nh	-12.4596
emember	-12.46
▁qej	-12.46
ti	-12.4606
ya	-12.4608
▁delete	-12.4609
nouvong	-12.4609
▁Raw	-12.4609
▁dom	-12.461
▁Vow	-12.4616
▁ml	-12.4616
▁Smith	-12.4616
▁Phagna	-12.4616
▁Earth	-12.4616
▁morning	-12.4617
▁favorite	-12.4617
▁Complaint	-12.4617
▁LOMZEM	-12.4617
▁intelligence	-12.4617
▁PAWG	-12.4617
▁MASTER	-12.4617
▁priest	-12.4617
▁NTIAJ	-12.4618
▁monkey	-12.4618
▁kajntug	-12.4619
▁KWS	-12.4619
▁PLAWV	-12.4619
▁Sayabour	-12.462
▁Txawv	-12.462
▁Like	-12.4622
▁THAIV	-12.4622
▁zomzaw	-12.4624
▁TAWB	-12.4628
age	-12.4629
▁Oob	-12.463
▁Xim	-12.463
▁unite	-12.4634
▁Nees	-12.4636
▁ceebtoo	-12.4645
ntse	-12.4648
▁yib	-12.4649
▁nqaaj	-12.4657
92	-12.4661
▁emotional	-12.4666
▁dlaig	-12.4666
▁79	-12.4669
▁asia	-12.4671
▁huua	-12.4673
hi	-12.4674
▁content	-12.4677
pw	-12.4682
▁marrie	-12.4684
▁mobx	-12.4685
▁Pim	-12.4689
▁scientist	-12.469
▁npeeg	-12.4691
▁months	-12.4691
▁Nos	-12.4695
▁cau	-12.4697
uary	-12.4698
arried	-12.47
book	-12.4707
Indigenous	-12.4715
io	-12.4717
rought	-12.4718
▁zejzo	-12.472
xx	-12.4721
▁vaag	-12.4721
75	-12.4721
nkawv	-12.4722
=3	-12.4726
▁follower	-12.4729
▁Pastor	-12.4732
▁Support	-12.4739
AAB	-12.4741
▁Western	-12.4742
ating	-12.4742
tsawv	-12.4742
acific	-12.4758
▁AMELIVKA	-12.4759
▁Txheev	-12.4759
▁FRESNO	-12.476
▁KASXIM	-12.476
▁forgot	-12.476
▁Taamsim	-12.476
▁Sayasith	-12.476
▁vientiane	-12.476
▁intend	-12.4761
▁XOV	-12.4761
▁phajhauj	-12.4764
▁Tsaib	-12.4764
▁spend	-12.4765
▁NTES	-12.4765
tawv	-12.4778
▁nkab	-12.478
▁Twv	-12.478
▁Dlub	-12.4784
▁thuav	-12.479
▁ntom	-12.4792
▁learning	-12.4792
▁vom	-12.4796
txiag	-12.4797
▁ntsho	-12.4809
long	-12.4809
IA	-12.4811
ory	-12.4816
▁tsamno	-12.4819
▁TSIJ	-12.482
LE	-12.482
▁MEJ	-12.482
▁nyhia	-12.483
▁cher	-12.4834
▁details	-12.4841
▁TswvYi	-12.4842
▁Yau	-12.4845
Xyoo	-12.4847
▁?....	-12.4848
▁Hla	-12.4852
▁Ta	-12.4859
▁trash	-12.486
▁mais	-12.4867
ntag	-12.4872
dao	-12.4886
▁.?	-12.4887
▁gun	-12.4887
▁!.....	-12.4894
▁MEO	-12.4897
▁Vic	-12.4901
▁ceebtshee	-12.4903
▁kai	-12.4903
▁ZERO	-12.4904
▁assumption	-12.4904
▁Chairman	-12.4904
▁fault	-12.4904
▁uniform	-12.4904
▁OTV	-12.4904
▁TXUJ	-12.4904
▁HAVZOOV	-12.4904
▁1997	-12.4907
▁ENGLISH	-12.4907
▁Tsaam	-12.4908
▁tshiav	-12.4908
▁npaab	-12.491
▁HAJ	-12.4911
▁nqaum	-12.4913
▁khuas	-12.4913
▁Region	-12.4916
▁sacrame	-12.4917
▁Khav	-12.492
▁disease	-12.492
wanted	-12.4922
upon	-12.4928
▁hide	-12.4931
▁TUBNTSUAGHMOOB	-12.4932
▁Ci	-12.4938
▁Teg	-12.4938
huav	-12.4939
▁ice	-12.4944
mov	-12.4946
▁Hma	-12.4946
za	-12.4946
▁sentence	-12.4949
▁vajhmoob	-12.4951
▁poos	-12.4952
unknown	-12.4953
▁suffer	-12.4957
ily	-12.4958
▁Nra	-12.4961
▁wise	-12.4962
ph	-12.4966
▁rumors	-12.4969
KEV	-12.4969
▁195	-12.4971
▁tejno	-12.4979
▁yard	-12.498
▁Lak	-12.498
XX	-12.499
taug	-12.4997
▁khij	-12.5001
▁Child	-12.5004
▁nhria	-12.501
▁fellow	-12.5017
▁bylaw	-12.5019
▁PS	-12.5024
▁gang	-12.5027
▁HS	-12.5027
▁dovca	-12.5036
▁econom	-12.504
▁apolog	-12.5048
▁WHITE	-12.5051
▁COURT	-12.5052
▁perspective	-12.5052
▁hnyuv	-12.5052
▁NQEEB	-12.5053
▁NTSEJ	-12.5053
▁$$$	-12.5054
▁consult	-12.5054
▁subtuam	-12.5055
▁chapter	-12.5056
▁motel	-12.5056
▁vinai	-12.5056
▁sue	-12.5056
▁Xyuam	-12.5056
▁nqhes	-12.506
▁channel	-12.506
YW	-12.5061
▁Loom	-12.5062
vu	-12.5065
▁MEAN	-12.5065
▁aware	-12.5066
tiab	-12.5068
▁yaag	-12.5068
▁SIA	-12.507
▁hlaws	-12.5078
came	-12.5082
▁invit	-12.5083
▁nyaus	-12.5084
▁Meng	-12.5089
ONEY	-12.5092
tshuaj	-12.5093
▁41	-12.5097
vaaj	-12.5097
▁ordina	-12.5098
▁Khe	-12.5099
▁produce	-12.5102
virus	-12.5115
▁SE	-12.5117
LFF	-12.5118
▁oppose	-12.512
ATION	-12.512
mong	-12.5121
▁lhi	-12.5122
▁describe	-12.5125
▁Xiengkhoua	-12.5126
▁nraw	-12.5128
▁Vajhmoob	-12.5134
OS	-12.5139
▁Phan	-12.5144
▁duali	-12.5146
▁argue	-12.5149
ajyeeb	-12.515
▁apple	-12.5153
ithay	-12.5156
rs	-12.5159
▁extra	-12.5162
▁tojsiab	-12.517
kaus	-12.5171
▁Hoob	-12.5177
▁Thab	-12.5178
▁TK	-12.5179
4&	-12.5181
▁wa	-12.5182
▁PHAB	-12.5184
faab	-12.5189
▁LF	-12.5191
▁plw	-12.5195
▁Xou	-12.5196
/?	-12.5196
▁data	-12.5197
▁pluam	-12.5197
▁74	-12.5198
oalition	-12.52
▁Hartwi	-12.52
▁kingdom	-12.52
▁mistress	-12.5201
▁mesnyuam	-12.5201
▁TSHAIB	-12.5201
▁BIBLE	-12.5201
▁PAJCAI	-12.5201
▁NPEEG	-12.5201
▁NYHAV	-12.5201
▁CEEV	-12.5201
▁expression	-12.5201
alentine	-12.5201
▁desire	-12.5201
▁Sisi	-12.5201
▁Pejxeem	-12.5201
▁prejudice	-12.5202
▁nyablaaj	-12.5202
▁MOOG	-12.5202
▁wives	-12.5202
▁NRAUG	-12.5203
=1&	-12.5203
▁sleep	-12.5204
▁cancel	-12.5204
▁THEN	-12.521
▁nploog	-12.5212
category	-12.5213
▁Refugee	-12.5215
raham	-12.5215
94	-12.5215
▁LONG	-12.5217
▁Yaim	-12.5218
▁tn	-12.5228
▁ncawg	-12.5229
▁Vision	-12.523
▁kh	-12.5234
▁Village	-12.5237
▁neg	-12.5242
▁Fai	-12.5243
▁Cuaj	-12.5245
▁Than	-12.5246
▁CH	-12.5251
▁Vu	-12.5253
ll	-12.5253
lav	-12.5258
▁---------	-12.5269
▁NAV	-12.5271
▁Form	-12.5271
▁ntsu	-12.5275
▁TSUA	-12.5275
▁fighter	-12.5278
▁Tsom	-12.5279
▁HmoobVaj	-12.5281
▁tone	-12.5281
Li	-12.5292
▁kv	-12.5293
▁ntsoos	-12.5296
▁Am	-12.5309
▁twglos	-12.5313
▁khai	-12.5325
▁daib	-12.5331
DAY	-12.5339
▁thaumkawg	-12.5343
uLi	-12.5343
▁jack	-12.5343
▁Qub	-12.5343
▁COMPUTER	-12.5352
▁Representative	-12.5352
▁contribution	-12.5352
▁pride	-12.5352
▁Development	-12.5352
▁TXHAIS	-12.5352
▁testify	-12.5353
▁PLUAG	-12.5353
▁alphabet	-12.5353
▁clinic	-12.5353
▁FREEDOM	-12.5353
▁Namphong	-12.5354
▁Tank	-12.5354
▁BLOGLIAB	-12.5354
▁1966	-12.5357
▁quick	-12.5358
▁counter	-12.5358
▁jee	-12.5361
tally	-12.5362
▁miskas	-12.5362
▁askiv	-12.5366
▁kevxaav	-12.5366
yaj	-12.5369
▁kick	-12.5371
ebecca	-12.5377
▁kong	-12.5377
▁nthos	-12.5382
▁mho	-12.5383
UCH	-12.5386
▁ntshia	-12.5393
▁billions	-12.5393
▁Nkau	-12.5394
▁rhe	-12.5395
▁reasoning	-12.5398
ax	-12.54
▁Taag	-12.5401
▁yub	-12.5401
▁ntseej	-12.5404
mem	-12.5405
ian	-12.541
▁bar	-12.5417
AIV	-12.5417
▁PAG	-12.5419
▁fix	-12.5421
▁NTSIA	-12.5421
txob	-12.5424
ought	-12.5427
ghia	-12.5431
▁ged	-12.5434
▁ND	-12.5441
▁origin	-12.5449
▁WANT	-12.5452
▁AN	-12.5455
▁nij	-12.5464
▁NCE	-12.5465
dministration	-12.5465
▁npaas	-12.5469
▁oy	-12.5472
ier	-12.5476
day	-12.548
▁$7	-12.5504
plab	-12.5504
▁loyal	-12.5505
▁conversation	-12.5506
▁reunion	-12.5506
▁VUB	-12.5506
▁festival	-12.5506
▁Point	-12.5506
▁guest	-12.5506
▁NPAM	-12.5507
▁xabdia	-12.5507
▁broken	-12.5507
tshoob	-12.5507
▁observation	-12.5507
▁Section	-12.5507
▁female	-12.5509
▁phlis	-12.5509
▁ntaa	-12.551
▁KHUAJ	-12.551
pub	-12.551
▁productive	-12.551
▁Individual	-12.5511
▁SOOB	-12.5512
▁tsaaj	-12.5518
▁Tse	-12.5518
▁??????	-12.5519
PX	-12.552
▁Ntshav	-12.552
▁WIS	-12.5523
aij	-12.5523
▁3000	-12.5524
tis	-12.553
▁tsismuaj	-12.553
▁Yeem	-12.5544
▁yogkoj	-12.5549
▁Yo	-12.5552
LHUB	-12.5557
▁exchange	-12.5559
▁nations	-12.557
ved	-12.5575
▁ncee	-12.5577
▁yoob	-12.5579
loob	-12.5584
▁drs	-12.559
tab	-12.5599
▁yia	-12.5602
▁foot	-12.5605
▁Will	-12.5608
▁yuglos	-12.5609
▁tshawj	-12.5612
MEKAS	-12.5619
led	-12.562
▁NTI	-12.5621
Yeej	-12.5622
▁Hahahahahahaha	-12.5626
▁nphob	-12.5631
▁bark	-12.5631
ukee	-12.5631
▁HR	-12.5631
▁khus	-12.5632
▁fes	-12.5636
▁duj	-12.5639
▁LEADER	-12.5643
▁finish	-12.5646
▁Sex	-12.5647
▁Sang	-12.5648
▁dedicate	-12.5649
▁ja	-12.5659
1967	-12.5659
▁particular	-12.5662
▁floor	-12.5662
▁compound	-12.5662
▁deport	-12.5662
▁throw	-12.5662
▁STUPID	-12.5662
▁turkey	-12.5663
▁concept	-12.5663
▁translation	-12.5663
▁Uablag	-12.5663
▁catch	-12.5663
▁pizza	-12.5663
▁communication	-12.5664
▁firm	-12.5664
▁Tobe	-12.5665
Hamilton	-12.5666
▁NOOG	-12.5666
▁thru	-12.5667
▁thum	-12.5667
▁nkuj	-12.5668
▁KHAIB	-12.5668
▁groom	-12.5668
▁thaag	-12.5669
▁64	-12.567
▁Ntshaw	-12.567
gOC	-12.5671
▁Blogteb	-12.5671
▁NTAUB	-12.5672
▁farmer	-12.5673
▁rice	-12.5679
hai	-12.568
▁harmon	-12.5684
▁VM	-12.5688
rua	-12.5693
▁hahahahah	-12.5695
▁newspaper	-12.5698
▁accident	-12.5699
▁priorit	-12.57
depression	-12.5704
▁nploojsiab	-12.5704
▁died	-12.5707
▁QAU	-12.5713
▁vaugh	-12.5713
▁muav	-12.5713
▁perform	-12.5713
tsaig	-12.5719
▁67	-12.5728
▁meka	-12.5729
imhiam	-12.5736
▁qaa	-12.5736
txheeb	-12.5737
noog	-12.5739
ca	-12.5746
▁Foun	-12.5748
▁Chuc	-12.575
▁phm	-12.5752
▁Van	-12.5752
▁94	-12.5756
▁82	-12.5758
hl	-12.5762
▁LES	-12.5778
PL	-12.5792
▁Theor	-12.5794
▁Thom	-12.58
▁ntshoo	-12.5803
▁hin	-12.5808
▁obpeb	-12.5809
▁Nod	-12.5811
▁fantas	-12.5812
npua	-12.582
▁Carolina	-12.5821
▁INFO	-12.5821
▁glad	-12.5821
▁Xaivnceb	-12.5821
▁conclude	-12.5821
▁Angeles	-12.5821
▁:):)	-12.5821
▁section	-12.5821
▁weakness	-12.5821
▁LEVEL	-12.5821
▁TXHEEB	-12.5821
▁holiday	-12.5822
▁absolute	-12.5822
2000	-12.5822
▁TSHEEJ	-12.5825
▁Khuam	-12.5826
▁Texa	-12.5826
▁TXIJ	-12.5827
thuam	-12.5827
▁ZOOLI	-12.5829
▁vajncuab	-12.5829
▁Yej	-12.5832
▁THIM	-12.5832
▁READ	-12.5834
LHI	-12.5837
▁Allian	-12.5837
▁tshawv	-12.5842
▁vuas	-12.5843
▁relate	-12.5845
▁nraws	-12.5845
ds	-12.585
▁ibzaug	-12.5859
▁struggle	-12.586
▁taugkev	-12.5867
de	-12.587
▁HERE	-12.5871
thooj	-12.5872
▁mia	-12.5878
▁phum	-12.5883
▁cri	-12.5885
▁pwv	-12.5886
▁topics	-12.589
▁leejtxiv	-12.5891
▁sun	-12.5896
tu	-12.5903
▁rep	-12.5906
nco	-12.5909
yoog	-12.5912
▁$4	-12.5918
▁ncov	-12.5919
▁pr	-12.5919
ka	-12.592
▁phia	-12.5922
LAND	-12.593
▁worse	-12.5938
▁review	-12.5941
▁spread	-12.5943
▁$600	-12.5946
▁De	-12.595
▁views	-12.5952
▁COM	-12.5958
shua	-12.5968
▁Plan	-12.5969
▁hundred	-12.5982
▁discipline	-12.5982
▁pocket	-12.5982
▁Beemoua	-12.5982
▁universe	-12.5982
▁Professor	-12.5982
▁TAKE	-12.5983
▁audience	-12.5983
tLS	-12.5983
▁isn	-12.5983
▁reaction	-12.5984
▁hatred	-12.5984
▁DEEV	-12.5984
▁tittle	-12.5984
▁rally	-12.5984
▁dictionary	-12.5985
▁CAWV	-12.5985
▁LAKE	-12.5985
▁Tsawb	-12.5985
▁nyaablaaj	-12.5986
▁DejNts	-12.5986
▁MONG	-12.5989
▁fuaj	-12.5989
▁development	-12.5991
▁mnus	-12.5992
▁books	-12.5994
▁Forum	-12.6
▁!!!!!!!	-12.6
▁Ave	-12.6002
▁diaj	-12.6004
▁kutaw	-12.6005
▁LIFE	-12.6008
thab	-12.6014
▁Burm	-12.6015
seC	-12.6019
▁Hlau	-12.6022
▁qablos	-12.6026
▁MIS	-12.6036
▁Npab	-12.6038
▁secretar	-12.6039
▁Khamta	-12.6054
olf	-12.6054
▁ba	-12.6059
▁Moo	-12.6062
▁tubntxhais	-12.6067
WHP	-12.607
▁PAUV	-12.6073
RUAM	-12.6074
pam	-12.6079
▁Ntxoo	-12.6082
OJ	-12.6082
LqZ	-12.6083
▁1500	-12.6086
thong	-12.6088
▁130	-12.6093
▁yum	-12.6094
search	-12.6095
▁81	-12.6097
▁Nplia	-12.61
tsov	-12.61
TEB	-12.6102
cm	-12.6103
▁nchos	-12.6112
MR	-12.6116
▁blua	-12.6116
▁nqas	-12.6118
kawv	-12.6121
▁Never	-12.6127
▁exception	-12.6127
LuJ	-12.6128
▁kablia	-12.6129
▁Sai	-12.6137
▁access	-12.614
ine	-12.6142
▁pooj	-12.6145
▁xuajmoos	-12.6146
▁PHIAJ	-12.6146
▁deliver	-12.6147
▁milwa	-12.6147
▁GROUP	-12.6147
▁Interesting	-12.6148
▁obama	-12.6148
▁disappear	-12.6148
▁village	-12.6148
▁dvd	-12.6148
ieC	-12.6149
▁HIM	-12.6149
▁Tsaug	-12.615
▁juror	-12.615
▁HEM	-12.6151
▁cwjsoqua	-12.6151
▁Mayor	-12.6151
▁Nraj	-12.6151
▁BANK	-12.6152
▁Asmelika	-12.6152
▁npleem	-12.6152
▁Fair	-12.6153
▁nrogkuv	-12.6154
▁ntxhe	-12.6156
▁zoosab	-12.6158
▁hunter	-12.6164
▁$3000	-12.6164
log	-12.6172
▁Port	-12.6173
▁heevx	-12.6174
▁lawn	-12.6176
ct	-12.6177
nyuam	-12.6179
▁killer	-12.6179
▁Ceevfa	-12.618
▁Base	-12.6181
▁wear	-12.6181
▁duaj	-12.6187
▁THai	-12.6187
▁nplaub	-12.6189
AKA	-12.6191
all	-12.62
df	-12.62
▁Kaison	-12.6203
=9	-12.6204
▁taslos	-12.6204
▁nrua	-12.6207
▁sawd	-12.6217
xov	-12.6218
pawj	-12.6225
▁material	-12.6227
nce	-12.6235
▁Ntujka	-12.6237
nyiag	-12.6244
them	-12.6246
▁eliminate	-12.625
▁mess	-12.6251
▁tri	-12.626
HERE	-12.6263
▁Clair	-12.6263
khaum	-12.6264
IV	-12.6264
▁86	-12.6266
▁kao	-12.6268
▁RS	-12.6272
khong	-12.6278
▁khosiab	-12.6281
meo	-12.6284
▁oil	-12.6285
▁commit	-12.6292
lee	-12.63
UG	-12.6303
▁SOC	-12.6303
▁der	-12.6304
▁jhai	-12.6304
tam	-12.6305
▁regime	-12.6309
▁JESUS	-12.6313
▁NAJKHAV	-12.6313
▁kitchen	-12.6313
▁nowaday	-12.6313
▁Enjoy	-12.6313
▁software	-12.6313
▁australia	-12.6314
▁naikhu	-12.6314
▁xubntia	-12.6314
▁phrase	-12.6314
▁FOOM	-12.6314
▁Ncaimtseemnco	-12.6315
▁BAD	-12.6315
▁buffalo	-12.6315
▁1950	-12.6316
▁txavtxim	-12.6316
▁reward	-12.6317
KPiA	-12.6318
▁math	-12.6318
▁nchaav	-12.6319
▁YOO	-12.6322
▁producer	-12.6322
▁OLD	-12.6323
▁nroglawv	-12.6329
▁Puav	-12.633
sau	-12.6334
ate	-12.6335
▁bigge	-12.6335
Our	-12.6336
▁burn	-12.634
▁kaim	-12.634
yob	-12.6342
▁Sun	-12.6349
▁politically	-12.6351
.....!	-12.6358
giving	-12.6361
▁Pua	-12.6365
▁Ntaus	-12.6375
▁txhe	-12.6378
WB	-12.6379
kuam	-12.6383
▁CAUS	-12.6388
▁daab	-12.6398
classified	-12.6401
eev	-12.6402
nyiam	-12.6409
/.	-12.642
NIA	-12.642
▁Pum	-12.6426
NY	-12.6428
▁addition	-12.6431
▁region	-12.6433
▁Nimno	-12.6436
▁Phom	-12.6436
▁OH	-12.6444
▁xabmai	-12.6444
▁iob	-12.6445
piav	-12.6446
khoom	-12.6446
▁Meska	-12.6449
aw	-12.645
DY	-12.6456
▁68	-12.6458
▁KEEJ	-12.6459
03	-12.6464
▁txhau	-12.6468
▁xy	-12.647
▁pajpaw	-12.6475
▁Npoj	-12.6476
sin	-12.6477
dlaab	-12.648
▁Vaugh	-12.648
▁TI	-12.6481
▁UNITE	-12.6482
▁difficult	-12.6482
▁iraq	-12.6482
▁previous	-12.6482
▁dangerous	-12.6482
▁Dibiab	-12.6482
▁Quaspuj	-12.6482
▁mormon	-12.6483
▁NTXIAS	-12.6483
▁MUAM	-12.6484
▁intent	-12.6484
▁independent	-12.6484
▁window	-12.6484
▁Vaag	-12.6484
▁tsaag	-12.6485
▁cibnyeej	-12.6485
▁NEES	-12.6486
▁afr	-12.6486
▁Kauj	-12.6486
▁TSWB	-12.6487
▁Dejdaw	-12.6487
▁drug	-12.6487
▁62	-12.6488
▁Nkaujhmoob	-12.6491
xa	-12.6491
▁hiavtxwv	-12.6493
▁Txi	-12.6495
chaws	-12.6496
▁Nang	-12.6497
▁Rab	-12.6498
VERY	-12.6499
▁pull	-12.6501
▁txhog	-12.6501
tic	-12.6503
nus	-12.6504
▁reli	-12.6505
kabxev	-12.6507
tooj	-12.6508
▁nplais	-12.6509
▁rescue	-12.6513
▁vajlug	-12.6513
▁_	-12.6516
▁Mouano	-12.652
▁cwb	-12.652
▁naws	-12.6522
▁determine	-12.653
▁rav	-12.6531
ghais	-12.6532
▁Nin	-12.6542
bby	-12.6546
▁evolve	-12.6549
laaj	-12.6549
▁Ts	-12.655
▁yawb	-12.6558
ach	-12.6561
▁530	-12.6564
▁Son	-12.6567
image	-12.6569
▁Wahou	-12.6573
▁Tak	-12.6578
lias	-12.6581
hiav	-12.6586
iag	-12.6588
asmoos	-12.6588
▁resource	-12.6592
▁dha	-12.6598
▁MAKE	-12.66
ak	-12.6606
▁hahhahaha	-12.6607
Saub	-12.6609
hiangmai	-12.6616
town	-12.6622
▁religions	-12.6622
▁HI	-12.6626
▁Py	-12.6628
▁nplhi	-12.663
▁tabmee	-12.6634
▁evolution	-12.6646
ad	-12.6649
▁HAM	-12.6651
▁oui	-12.6652
amphong	-12.6652
▁Pak	-12.6654
▁WOULD	-12.6654
▁Project	-12.6654
▁satisfy	-12.6655
▁mainstream	-12.6655
▁Regard	-12.6655
▁perhap	-12.6655
▁Conference	-12.6655
▁System	-12.6655
▁Lynhiavu	-12.6655
▁plastic	-12.6655
▁planning	-12.6655
▁QAUM	-12.6655
▁condemn	-12.6656
▁EARTH	-12.6656
▁NTXOOG	-12.6656
▁TRUE	-12.6656
▁CIM	-12.6657
▁HSP	-12.6658
▁Father	-12.6658
▁NROOG	-12.6658
▁trial	-12.6659
▁HAIB	-12.6659
▁1981	-12.6661
▁Thorps	-12.6661
rhuav	-12.6663
▁treatment	-12.6663
▁nrawj	-12.6664
▁Khib	-12.6664
▁sent	-12.6668
HAUM	-12.6672
▁Thim	-12.6673
▁bat	-12.6676
▁huag	-12.6677
▁rate	-12.6677
▁".....	-12.6681
ON	-12.6684
▁pawglug	-12.6684
yang	-12.6686
▁fau	-12.6686
HMOOBRUAM	-12.6687
▁cat	-12.6691
daus	-12.6692
▁pojkoob	-12.6694
LEASE	-12.6695
pes	-12.6697
▁qaim	-12.6698
lig	-12.6699
cawv	-12.6703
▁plov	-12.6707
thana	-12.6707
mab	-12.6708
puav	-12.671
▁LUV	-12.671
▁blaj	-12.6713
▁Xis	-12.6714
▁Rhaw	-12.6716
das	-12.6718
▁yawj	-12.6719
kis	-12.672
▁LET	-12.6721
▁Un	-12.6722
▁SSA	-12.6724
▁beeveev	-12.6725
▁mws	-12.6726
▁MHoob	-12.6732
▁ntho	-12.6734
verage	-12.6736
▁Uali	-12.6743
▁Khuv	-12.6752
ILL	-12.6752
▁kad	-12.6754
▁reduce	-12.6759
▁sawvdaw	-12.6764
▁Lia	-12.6765
▁Thos	-12.6773
ization	-12.6775
▁Vaajm	-12.6778
▁tshuag	-12.6781
▁pobtaw	-12.6781
▁Zaa	-12.6783
▁LOOJCEE	-12.6784
▁cuamtshua	-12.6785
night	-12.6787
▁commie	-12.6798
▁COUNTR	-12.6809
▁nre	-12.681
▁Kia	-12.681
▁Ba	-12.6818
▁mon	-12.6819
▁deeg	-12.6821
▁plain	-12.6822
▁telepho	-12.6824
txom	-12.6825
Xeeb	-12.6829
▁SECRET	-12.683
▁VOTE	-12.683
▁TURN	-12.683
▁allegation	-12.683
▁competition	-12.683
▁Kingdom	-12.6831
▁thoobtsib	-12.6831
▁inform	-12.6831
▁Us	-12.6831
▁apart	-12.6831
▁Tseev	-12.6831
▁Dara	-12.6832
▁Blue	-12.6833
▁COG	-12.6833
▁hlas	-12.6834
▁PUJ	-12.6835
▁track	-12.6835
▁Women	-12.6837
▁nthawv	-12.6837
▁LAB	-12.6838
▁Did	-12.6838
▁Yaag	-12.6838
▁Daum	-12.684
▁PHUV	-12.6844
▁chimx	-12.6845
▁hnag	-12.6846
▁Oop	-12.6849
▁square	-12.6854
▁PARK	-12.6858
▁qhu	-12.686
▁98	-12.686
▁asian	-12.6862
▁PAY	-12.6863
▁gt	-12.6864
▁ncaa	-12.6869
▁nyoj	-12.6871
▁---------------	-12.6872
▁Khaum	-12.6872
nrho	-12.6872
▁grave	-12.6873
▁HTT	-12.6876
▁QH	-12.6885
SC	-12.6888
▁AR	-12.6889
▁Lan	-12.6891
care	-12.6892
▁yuavtau	-12.6892
▁Huaj	-12.6894
▁ntob	-12.6902
▁zi	-12.6908
▁THING	-12.6908
▁!!!!!!!!	-12.691
wood	-12.6911
mdub	-12.692
▁$30	-12.6923
txiab	-12.6926
▁Ny	-12.6934
yus	-12.6937
▁rhi	-12.694
▁SU	-12.6946
▁nrhw	-12.6955
▁gate	-12.6957
▁Nruab	-12.6957
lu	-12.696
▁DID	-12.6963
▁-----	-12.6966
▁devil	-12.6966
▁tsooj	-12.6968
qha	-12.6968
▁relative	-12.6974
kim	-12.6975
▁osh	-12.6982
▁txhiam	-12.6983
images	-12.6983
▁nqhua	-12.6983
▁plaj	-12.6985
▁sum	-12.6987
▁thias	-12.6991
▁,....	-12.6995
▁heat	-12.6997
lais	-12.7005
▁Mivk	-12.7005
▁Francisco	-12.7009
▁mountain	-12.7009
▁Luther	-12.7009
▁Republican	-12.7009
▁htm	-12.7009
▁NTOG	-12.701
▁dark	-12.701
▁virtual	-12.7012
▁KASMOOS	-12.7013
▁nhav	-12.7013
kuab	-12.7013
▁Xuab	-12.7014
MC	-12.7017
▁naisphoo	-12.7017
▁analyze	-12.7018
▁LIAJ	-12.7022
▁nrwb	-12.7023
▁nkuav	-12.7023
▁thug	-12.7025
albums	-12.7026
▁Phwvnyaw	-12.7026
▁JD	-12.703
▁structure	-12.703
pe	-12.7032
▁consequences	-12.7036
▁Keo	-12.7037
▁phlws	-12.7038
▁critical	-12.7038
▁Leaders	-12.7039
▁diab	-12.7045
▁Taws	-12.7047
▁Rep	-12.7047
▁Probat	-12.7048
▁tactic	-12.7049
▁kia	-12.7053
986	-12.7054
▁hahahhahaha	-12.7056
▁6497	-12.706
▁feature	-12.7061
uneral	-12.7064
▁whom	-12.7064
▁han	-12.7068
nhub	-12.7069
▁zaugli	-12.7071
▁OO	-12.7076
▁convince	-12.708
▁txhaav	-12.7081
▁demonstrate	-12.7081
il	-12.7089
poob	-12.7089
▁Ok	-12.7097
ki	-12.7101
IAB	-12.7116
▁Kh	-12.7119
show	-12.712
▁thjia	-12.712
zeej	-12.7125
khaws	-12.7129
▁saibx	-12.7135
▁ncus	-12.7137
=5	-12.7137
▁Haj	-12.7142
▁tournament	-12.7152
cv	-12.7152
lag	-12.7153
▁Khong	-12.7154
▁cho	-12.7157
▁skill	-12.7157
▁Nan	-12.7166
▁lwb	-12.7168
▁THAN	-12.7169
ical	-12.7172
▁ntshab	-12.7172
▁Laws	-12.7177
▁ring	-12.7182
mer	-12.7186
▁valid	-12.7187
▁embass	-12.719
▁hohoho	-12.719
▁survey	-12.719
▁elaborate	-12.719
▁potential	-12.719
▁temporar	-12.719
▁attempt	-12.7191
WORLD	-12.7191
▁Rhwv	-12.7192
▁OVER	-12.7193
▁Txajdlis	-12.7193
▁Mother	-12.7193
▁accurate	-12.7193
▁Asca	-12.7193
▁Sac	-12.7193
▁ibtxhis	-12.7193
▁tujlub	-12.7194
▁PAUM	-12.7194
▁extreme	-12.7194
▁match	-12.7195
▁tswjhwm	-12.7195
▁john	-12.7195
▁spoke	-12.7195
▁DAO	-12.7196
ble	-12.7196
▁npws	-12.7197
▁qoovsua	-12.7197
▁Npla	-12.7198
▁Heem	-12.7201
▁gover	-12.7202
▁Pajcai	-12.7202
▁op	-12.7203
OUS	-12.7204
ning	-12.7204
tawj	-12.7205
YAWM	-12.7205
▁caivplaw	-12.7206
▁founder	-12.7207
▁Serv	-12.721
rg	-12.7211
ide	-12.7213
▁nthua	-12.7213
▁pawm	-12.7216
▁suicid	-12.7216
so	-12.7218
▁Ngu	-12.7219
▁txhuax	-12.7223
▁Plawv	-12.7223
▁Npa	-12.7225
▁tasluaj	-12.7226
▁hrs	-12.7228
▁sea	-12.7229
▁Lake	-12.7229
SA	-12.7232
Pov	-12.7236
▁COME	-12.7236
cab	-12.7241
▁cold	-12.7244
▁Mu	-12.7246
▁host	-12.7249
▁zaumno	-12.7249
▁judgement	-12.726
▁dias	-12.7263
ge	-12.7269
gton	-12.727
ruag	-12.727
▁Nyaw	-12.7274
ming	-12.7276
ories	-12.7276
▁Abya	-12.7277
▁qhaab	-12.7277
▁thiam	-12.7279
▁reporter	-12.728
▁phee	-12.7282
▁hauvlub	-12.7282
▁KIS	-12.7288
▁cojdab	-12.7294
▁Xyau	-12.7294
TRE	-12.7297
tsaam	-12.7297
▁wash	-12.7298
ling	-12.7306
▁KAUB	-12.731
files	-12.7311
▁NK	-12.7324
▁Federat	-12.7326
▁em	-12.7329
riday	-12.7334
▁male	-12.7338
▁heal	-12.7342
Yeeb	-12.7342
luas	-12.7343
▁!..	-12.7344
▁hahhahah	-12.7346
mo	-12.7347
▁nrha	-12.7349
ntug	-12.735
▁hahhaha	-12.7352
UV	-12.7354
yaus	-12.7355
▁ten	-12.736
elfare	-12.7361
▁Islam	-12.7362
▁rhau	-12.7366
▁CAUG	-12.7367
▁900	-12.7369
frm	-12.7373
▁Russia	-12.7373
▁hmmmmm	-12.7373
▁Caw	-12.7375
▁Disease	-12.7375
▁Commission	-12.7375
▁Khamkeut	-12.7376
▁NKEEG	-12.7376
▁confidential	-12.7376
▁client	-12.7376
▁NRES	-12.7376
▁Jack	-12.7376
▁viagra	-12.7376
▁humble	-12.7377
▁executive	-12.7377
▁TXIAJ	-12.7377
▁Nyajlaj	-12.7377
▁Hmooob	-12.7377
ffee	-12.7378
▁surger	-12.7378
▁Thajkhu	-12.7378
▁Kheej	-12.7378
▁context	-12.7379
lOC	-12.7379
▁discrimination	-12.738
▁yrs	-12.738
▁KIM	-12.7382
▁laujkaub	-12.7382
▁YUAG	-12.7383
▁khev	-12.7385
▁BUFFALO	-12.7385
▁division	-12.7386
▁SEX	-12.7386
▁analysis	-12.7389
▁nkhawb	-12.7389
▁taabsi	-12.7391
▁faav	-12.7392
▁TAM	-12.7395
ure	-12.7397
▁thob	-12.7398
lerk	-12.7398
tswb	-12.7399
▁evaluate	-12.7404
▁enter	-12.7405
▁credibil	-12.7407
ngry	-12.7413
▁tubhluas	-12.7413
▁LAI	-12.7416
▁Club	-12.7418
venue	-12.7424
▁sports	-12.7425
Farm	-12.743
▁libert	-12.7433
deb	-12.7435
▁slave	-12.7445
ping	-12.7445
▁DA	-12.7446
▁hw	-12.7449
▁inter	-12.7452
▁rota	-12.7454
nees	-12.7461
▁VIC	-12.7465
▁dreams	-12.7466
▁arm	-12.7468
▁$6	-12.7469
▁talks	-12.7472
▁symbol	-12.748
xecutive	-12.7482
▁multi	-12.7485
ANCE	-12.7485
▁Yawgnom	-12.7489
▁ill	-12.7501
▁Eve	-12.7501
▁Summ	-12.7511
/2010	-12.752
rooj	-12.7523
▁Lej	-12.7524
savang	-12.7528
txawv	-12.7531
▁thos	-12.7533
▁Haha	-12.7534
▁Taw	-12.7547
xiv	-12.7548
▁fast	-12.755
SDI	-12.7564
▁Official	-12.7564
▁Would	-12.7564
▁score	-12.7564
▁CHARGE	-12.7564
▁DULUG	-12.7564
▁Great	-12.7564
▁agency	-12.7564
▁TXHEEV	-12.7564
▁sweet	-12.7565
▁appear	-12.7565
▁QHUAV	-12.7565
▁KHOOM	-12.7565
▁bail	-12.7566
▁TSHWM	-12.7566
▁kauslim	-12.7566
▁poison	-12.7566
▁Csy	-12.7566
▁STATE	-12.7566
▁=?	-12.7568
▁lajkam	-12.7569
▁effective	-12.7569
▁FAMILY	-12.7569
▁...!!!	-12.7569
▁KHAWS	-12.7569
▁driver	-12.7569
▁npliaj	-12.757
▁Mok	-12.7572
▁engineering	-12.7573
▁skin	-12.7573
▁Xuas	-12.7576
▁agreement	-12.7577
▁Vis	-12.7577
zaus	-12.7577
▁..!	-12.7579
▁KHOV	-12.758
▁psychological	-12.7582
▁zaim	-12.7584
▁yd	-12.7594
▁Ti	-12.7594
▁Fall	-12.7594
▁shoppin	-12.7594
▁qhaim	-12.7594
▁DAM	-12.7595
▁sort	-12.7595
▁qoo	-12.7599
theeb	-12.76
▁PHWV	-12.76
▁chu	-12.7603
ecause	-12.7612
▁haaj	-12.7613
22	-12.7615
pwg	-12.7624
▁asp	-12.7626
tive	-12.7626
fg	-12.7627
lfc	-12.764
▁$5000	-12.7641
view	-12.7649
enant	-12.7651
▁tubntsuag	-12.7652
▁Khi	-12.7656
▁neejtsaa	-12.7658
▁Fact	-12.7666
video	-12.767
▁pronoun	-12.7673
itarian	-12.7673
ized	-12.7679
chupheng	-12.7681
▁caas	-12.7683
▁84	-12.7684
▁tsee	-12.7687
▁rus	-12.769
▁khiv	-12.7695
▁Unit	-12.7698
tsuj	-12.77
▁nak	-12.7701
▁metal	-12.7701
▁-->	-12.7702
▁Stop	-12.7703
hab	-12.7705
▁Sala	-12.7708
▁diploma	-12.7712
oops	-12.7714
▁Les	-12.7716
▁hang	-12.7719
▁dus	-12.7719
▁ncw	-12.7721
ea	-12.7723
▁Keng	-12.7725
hupheng	-12.773
▁shoot	-12.7742
tsuas	-12.7743
AAV	-12.7743
thaib	-12.7746
ntsa	-12.775
fa	-12.7753
PKM	-12.7756
▁delegate	-12.7756
▁obvious	-12.7756
▁Market	-12.7757
LuI	-12.7757
▁Language	-12.7757
▁Chertoua	-12.7757
▁Thanksgiving	-12.7757
▁QAV	-12.7758
▁ZUAJ	-12.7758
▁Fund	-12.7758
▁Wrong	-12.7758
▁explanation	-12.7758
▁WW	-12.7758
▁aspx	-12.7759
▁lubtsev	-12.7759
▁Beemouachaofa	-12.776
▁blej	-12.7761
phone	-12.7762
▁TWV	-12.7763
▁spot	-12.7763
▁ntevx	-12.7764
▁Does	-12.7765
▁Read	-12.7766
▁session	-12.7767
▁Qauv	-12.777
pojniam	-12.7771
west	-12.7772
▁Rhia	-12.7772
▁formal	-12.7776
HA	-12.7777
▁BV	-12.7778
GAIN	-12.7779
▁PART	-12.7781
▁Hmu	-12.7785
78	-12.7785
tw	-12.7786
▁Txia	-12.7788
▁SHE	-12.7789
▁thousands	-12.7789
▁planet	-12.78
▁lum	-12.78
forms	-12.78
liv	-12.7804
▁jkuv	-12.782
▁ntseem	-12.7822
▁Yaw	-12.7829
NCEES	-12.7838
nm	-12.784
▁advertise	-12.7844
▁194	-12.7847
▁hlu	-12.7849
toua	-12.7851
▁thimxa	-12.7853
▁cyber	-12.7866
▁multipl	-12.787
▁110	-12.7872
▁loan	-12.7872
▁van	-12.788
▁phlaw	-12.7884
▁!!!!!!!!!	-12.7885
▁sem	-12.7891
website	-12.7901
ncaug	-12.7906
▁Nta	-12.7907
▁ntswm	-12.7913
▁Bouam	-12.7918
▁Uabny	-12.792
▁command	-12.7923
▁identif	-12.7924
▁xat	-12.793
ongmeng	-12.7931
▁npli	-12.7935
ish	-12.7937
▁singer	-12.794
▁Ncee	-12.7942
▁Som	-12.7944
▁dauv	-12.7945
▁reserve	-12.7945
▁nkee	-12.7951
▁Mysterious	-12.7953
▁dynast	-12.7953
▁initial	-12.7953
▁instinct	-12.7953
▁Pilot	-12.7953
▁quiet	-12.7953
▁resolution	-12.7953
▁,,,,,	-12.7953
▁Yeah	-12.7953
▁tribal	-12.7953
▁permission	-12.7953
▁nplaam	-12.7954
▁YawgLaus	-12.7954
▁NCEJ	-12.7954
▁liar	-12.7954
▁NYAS	-12.7954
▁dawwg	-12.7954
▁accusation	-12.7955
▁flag	-12.7955
▁punish	-12.7955
▁TSAWV	-12.7955
▁friendship	-12.7955
▁famous	-12.7956
▁backward	-12.7956
▁PIM	-12.7956
▁TEEM	-12.7957
▁vivncaus	-12.7958
▁Yessu	-12.7958
▁xoj	-12.7959
▁TTY	-12.7959
▁Com	-12.796
▁chery	-12.796
ir	-12.796
▁heheheheh	-12.7961
▁cry	-12.7961
▁1964	-12.7961
▁Khaws	-12.7962
khawm	-12.7964
▁practices	-12.7965
▁nplo	-12.7968
VE	-12.797
ancy	-12.797
▁Luangpraban	-12.7971
▁ad	-12.7972
▁Qhuab	-12.7972
▁63	-12.7972
TSUM	-12.7976
▁klawv	-12.7976
▁Khamtai	-12.7981
▁Thaks	-12.7981
▁nrhiab	-12.7985
▁EVERY	-12.7986
▁Moobthaibteb	-12.7987
▁qwv	-12.7989
▁Mental	-12.799
▁1600	-12.7992
▁xxx	-12.7997
ao	-12.8
▁meat	-12.8006
▁reform	-12.801
YI	-12.8012
▁ntsawg	-12.8013
▁Nplaj	-12.8015
▁qhaa	-12.8017
caimtseemnco	-12.8018
▁replace	-12.802
personality	-12.8023
hmo	-12.8023
▁)..	-12.8024
53	-12.8025
▁Mog	-12.8027
ouk	-12.8031
▁committe	-12.8033
▁dejsiab	-12.8033
vajusa	-12.8033
OOB	-12.8034
06	-12.8036
▁$2000	-12.8037
siav	-12.8038
▁referr	-12.8039
▁QHO	-12.8044
▁COB	-12.8048
=6	-12.805
npis	-12.8053
▁Phim	-12.8053
▁npu	-12.8055
EJ	-12.8057
▁Caij	-12.8059
ered	-12.8063
pictures	-12.8064
cal	-12.8077
qeej	-12.8078
po	-12.8079
▁Vias	-12.8082
mm	-12.8082
▁Shu	-12.8083
▁birth	-12.8087
▁en	-12.8088
▁BI	-12.809
yeah	-12.8092
▁AU	-12.8094
niag	-12.8095
PAB	-12.8098
▁plaus	-12.81
field	-12.8102
phd	-12.8103
▁Nrhia	-12.8103
Zoo	-12.8104
▁kavhlau	-12.8104
foob	-12.8104
moj	-12.8106
▁Npia	-12.8106
Kuv	-12.8107
gu	-12.8108
ons	-12.8111
CIALI	-12.8113
blog	-12.8115
▁res	-12.8116
gen	-12.8118
YEEJ	-12.8118
▁tsauj	-12.8118
▁thousand	-12.812
nkaum	-12.8127
▁Clan	-12.8128
▁chong	-12.8129
▁Chu	-12.8132
▁mees	-12.8132
▁OD	-12.8133
▁CI	-12.8139
▁LY	-12.8141
▁Yogli	-12.8141
▁poster	-12.8142
mfu	-12.8143
▁Txojkev	-12.8151
▁MEMTOJ	-12.8153
▁SHOULD	-12.8153
▁adverb	-12.8153
▁entitle	-12.8153
▁CALIFO	-12.8153
▁demonstration	-12.8153
▁chemical	-12.8153
▁Txheem	-12.8153
▁hamburger	-12.8153
▁curious	-12.8153
▁PhoojYwg	-12.8153
▁Metro	-12.8153
▁BACK	-12.8153
▁Txheeb	-12.8153
▁CWJ	-12.8153
▁ALASKA	-12.8153
▁earlie	-12.8154
▁CUAG	-12.8154
▁investment	-12.8154
▁Team	-12.8155
▁NCEB	-12.8156
▁hnyo	-12.8156
▁road	-12.8156
▁HAWJ	-12.8156
▁FWJ	-12.8157
▁PLAUB	-12.8157
▁Xum	-12.8158
▁patient	-12.8159
▁cojlos	-12.8159
▁function	-12.8159
▁fly	-12.816
▁....?	-12.8161
▁transfer	-12.8162
▁CIAM	-12.8165
RY	-12.8166
▁chaav	-12.8166
ga	-12.8169
▁ntsiagto	-12.817
▁taa	-12.8171
YTT	-12.8172
▁Tawv	-12.8173
▁mayor	-12.8173
ijhawm	-12.8174
▁vaug	-12.8175
▁wishe	-12.8175
43	-12.8177
▁WELL	-12.8179
▁powerful	-12.8179
mim	-12.8182
▁An	-12.8184
▁fore	-12.8191
▁network	-12.8192
klawv	-12.8199
od	-12.8204
▁Luck	-12.8217
▁huvsi	-12.8226
rize	-12.8235
txhob	-12.8235
▁dlawm	-12.8237
Next	-12.8245
▁phlw	-12.8245
pheng	-12.8246
IPE	-12.8254
▁AIM	-12.8258
wjpheej	-12.826
pb	-12.8261
yau	-12.8262
▁LOO	-12.8262
▁farm	-12.8267
04	-12.827
qhua	-12.8272
▁successful	-12.8279
▁xes	-12.828
▁Yao	-12.8282
DA	-12.8283
▁nquas	-12.8283
saab	-12.8283
are	-12.8285
▁61	-12.8292
ou	-12.8294
▁thaw	-12.8298
▁yw	-12.8299
▁620	-12.8304
COM	-12.8304
▁Hwj	-12.8315
▁bone	-12.8317
coob	-12.8318
▁Zen	-12.8321
▁battle	-12.8324
seeb	-12.8325
▁prison	-12.8328
▁twin	-12.833
▁BETTE	-12.8334
nyeem	-12.8337
▁hunt	-12.8337
▁ch	-12.8341
ekong	-12.8343
luv	-12.8343
▁VAAJ	-12.8344
EPS	-12.8346
▁caa	-12.8346
▁PLAW	-12.8348
LOJ	-12.8349
fe	-12.835
▁Tshaaj	-12.8352
▁Pav	-12.8354
▁india	-12.8355
▁Hospital	-12.8357
▁agencies	-12.8357
▁TABTOM	-12.8357
▁Control	-12.8357
▁Hawaii	-12.8357
▁Standard	-12.8357
▁Self	-12.8357
▁Assembly	-12.8357
▁Lieut	-12.8357
▁COMMUNIST	-12.8357
▁McCain	-12.8357
▁district	-12.8357
▁CHIANGMAI	-12.8357
▁fulfill	-12.8357
▁entire	-12.8358
▁Tax	-12.8358
▁LVTL	-12.8358
▁kaosiab	-12.8358
▁nthoob	-12.8358
▁CAUJ	-12.8358
▁BORN	-12.8359
▁Thaam	-12.836
▁TXHIAB	-12.8361
▁Khaub	-12.8361
▁hnuv	-12.8362
▁kij	-12.8362
▁nqog	-12.8362
▁Korean	-12.8362
▁NAIS	-12.8365
MESKAS	-12.8367
kota	-12.837
▁zone	-12.837
▁nreb	-12.8371
▁ICE	-12.8371
hlo	-12.8373
▁democratic	-12.8373
hia	-12.8377
▁hmmmm	-12.8378
nless	-12.838
▁newhom	-12.838
▁pajcai	-12.8381
sua	-12.8387
▁norm	-12.8388
▁allerg	-12.8389
▁KUAM	-12.839
▁global	-12.8393
ichiga	-12.8402
▁rug	-12.8403
▁DI	-12.8403
▁ii	-12.8405
city	-12.8406
▁tasx	-12.841
▁tees	-12.8413
▁Dov	-12.8415
▁kawgli	-12.8416
▁xwbx	-12.8416
▁KING	-12.8416
IRS	-12.8419
▁kees	-12.8422
▁Sou	-12.8424
▁Ye	-12.8428
▁educational	-12.8431
▁Au	-12.8435
moog	-12.8438
▁plos	-12.8438
▁CAM	-12.844
iane	-12.8444
▁factor	-12.8446
IE	-12.8447
▁tsuvtu	-12.8454
page	-12.8457
▁kin	-12.8458
ntsug	-12.846
▁forth	-12.8462
cuag	-12.8482
▁Back	-12.8484
▁nplu	-12.8492
tsa	-12.8495
▁Npuas	-12.8497
▁legac	-12.8498
▁il	-12.8502
▁ntawn	-12.8506
▁hoskuv	-12.8513
▁Down	-12.8526
▁laaglua	-12.853
▁corner	-12.853
▁weapon	-12.8532
▁pound	-12.8534
▁dlaabqhua	-12.8536
▁Vajlug	-12.8539
/50	-12.8548
gan	-12.8552
▁daiv	-12.8554
▁Nya	-12.8556
▁87	-12.8558
▁ntxhas	-12.8559
zej	-12.8562
▁edu	-12.8565
▁RELIGION	-12.8565
▁stuff	-12.8565
▁complex	-12.8565
▁TALK	-12.8565
▁WHEN	-12.8565
▁wild	-12.8565
▁extend	-12.8565
▁professionalism	-12.8566
▁Valentine	-12.8566
▁NTXOV	-12.8566
▁outcome	-12.8566
▁democrat	-12.8566
▁prime	-12.8566
▁TSUAG	-12.8566
▁psychologist	-12.8566
▁qoov	-12.8567
▁Foreign	-12.8567
▁Phonesavan	-12.8567
▁EXPERT	-12.8567
▁province	-12.8568
▁NTSIS	-12.8568
▁taagnrho	-12.8569
witz	-12.8571
▁bridge	-12.8571
▁apologize	-12.8572
▁Thum	-12.8573
▁XUM	-12.8574
▁Big	-12.8575
▁carp	-12.8576
▁Sue	-12.8577
▁Nyag	-12.8581
▁barbari	-12.8581
▁MSP	-12.8582
strategies	-12.8583
▁Lang	-12.8583
▁COMMUNISM	-12.8585
▁Old	-12.8585
▁mak	-12.8586
list	-12.8587
dhau	-12.8589
▁HWJ	-12.8589
▁haa	-12.8592
▁AL	-12.8593
TH	-12.8594
▁establish	-12.8599
▁tablaj	-12.8603
▁Xas	-12.8604
xyooj	-12.8606
▁nkaujfa	-12.8606
thaj	-12.8607
'	-12.8607
▁tshu	-12.8608
▁fully	-12.861
▁$15	-12.8611
▁viet	-12.8622
▁automatic	-12.8623
▁QE	-12.8624
OUT	-12.863
kig	-12.863
▁MOST	-12.8635
ball	-12.8639
▁VaajM	-12.8645
▁rid	-12.8649
▁PhwvNyaw	-12.865
▁HMT	-12.865
resources	-12.8652
tsoom	-12.8653
▁mug	-12.8654
plaub	-12.8655
nb	-12.8669
Thaib	-12.867
▁pop	-12.8672
▁shoe	-12.8674
/2011	-12.8677
▁phaws	-12.8677
zoov	-12.8685
dee	-12.8688
ville	-12.8699
▁Lyte	-12.8701
365	-12.8705
▁tshajli	-12.8708
sing	-12.8713
ither	-12.8714
▁txhimkh	-12.8715
▁Noo	-12.8718
LESS	-12.8724
txoj	-12.8726
eme	-12.8727
MENT	-12.8729
play	-12.8734
xoom	-12.8737
▁klawm	-12.8741
▁looks	-12.8743
▁Vat	-12.8746
▁saving	-12.8748
▁Ntxhw	-12.8753
▁receipt	-12.8754
▁IQ	-12.8758
ien	-12.876
▁nyha	-12.8765
▁Km	-12.8768
▁DAI	-12.877
▁lor	-12.8775
cities	-12.8776
WAY	-12.8777
ana	-12.8778
▁Robert	-12.8778
▁Congratulation	-12.8778
▁TIBSI	-12.8778
▁Lacross	-12.8778
▁XYAUM	-12.8778
▁TSHAWB	-12.8778
▁ZHEN	-12.8778
▁Taiwan	-12.8778
▁Staff	-12.8778
▁felt	-12.8778
▁Leadership	-12.8779
IN	-12.8779
▁calendar	-12.8779
▁unique	-12.8779
▁salary	-12.878
▁MLM	-12.878
▁NTSIAB	-12.878
▁Nyuaj	-12.878
maha	-12.878
▁password	-12.8781
haws	-12.8781
▁tourist	-12.8781
▁Kujxaj	-12.8781
▁HMANTSUAB	-12.8782
▁pujntxoog	-12.8782
▁CHINA	-12.8783
▁hmmm	-12.8783
vog	-12.8784
▁Koomtsha	-12.8785
▁statistic	-12.8785
▁dws	-12.8787
▁ntivtes	-12.8789
▁nkoo	-12.8789
▁TSOB	-12.879
▁lajfai	-12.8792
▁Caj	-12.8792
▁Muslim	-12.8793
▁Txawjxoo	-12.8795
▁Phonsavan	-12.8796
xej	-12.8797
▁acting	-12.8797
aiv	-12.8799
▁phlo	-12.8799
▁reverse	-12.8799
▁chom	-12.8799
▁xyaab	-12.8801
▁novqaab	-12.8802
▁ncaajncee	-12.8803
▁UNCLE	-12.8804
▁Kubxa	-12.8805
▁Yum	-12.8806
▁83	-12.8814
▁Lov	-12.8815
▁Najkhoo	-12.8816
▁kli	-12.882
▁bang	-12.8831
tou	-12.8833
▁Ed	-12.8833
▁hlaw	-12.8834
▁pic	-12.8837
▁npoog	-12.8837
▁daily	-12.8841
▁__	-12.8843
▁NOS	-12.8843
▁temple	-12.8844
▁maib	-12.8844
▁owe	-12.8845
▁dialects	-12.8846
erland	-12.8851
itis	-12.8851
▁nhiav	-12.8853
▁Engl	-12.8853
koos	-12.8856
II	-12.886
▁NPAU	-12.8863
=-	-12.8868
▁cure	-12.8871
▁yawv	-12.8872
▁mp	-12.8873
95	-12.8874
ooblwj	-12.8877
▁jur	-12.8878
▁hajtsi	-12.8878
ay	-12.8879
▁==============	-12.8884
cem	-12.8885
▁fat	-12.8886
▁GOT	-12.8898
npab	-12.8898
cast	-12.8905
raug	-12.8906
wn	-12.8906
body	-12.8907
▁Kip	-12.8915
▁za	-12.892
▁Red	-12.8921
▁hehehehehehehe	-12.8924
NA	-12.8929
ler	-12.8935
▁sell	-12.894
=2	-12.8941
half	-12.8943
▁kiddi	-12.8945
▁trap	-12.8948
▁Mon	-12.895
xxx	-12.8953
▁qaabzi	-12.8954
▁96	-12.8956
▁NTSA	-12.8958
zaj	-12.8958
▁MINNESOTA	-12.8959
▁bird	-12.896
▁consequence	-12.8961
▁125	-12.8965
my	-12.8966
xaum	-12.8966
ouang	-12.8968
▁compani	-12.8969
aus	-12.8971
▁Fu	-12.8975
▁mile	-12.8975
▁vo	-12.8979
MS	-12.898
▁Khoue	-12.8984
idden	-12.8985
▁discover	-12.8988
▁librar	-12.8993
▁connect	-12.8994
▁VIETNAM	-12.8995
▁bangkok	-12.8995
▁orgasm	-12.8995
▁SMELT	-12.8995
▁caabsaab	-12.8995
▁Arlin	-12.8996
▁pyramid	-12.8996
▁signature	-12.8996
▁xijpeem	-12.8996
▁recommendation	-12.8996
▁illness	-12.8996
▁TSWM	-12.8996
▁Hill	-12.8996
▁CCR	-12.8997
▁Asmeliskas	-12.8997
▁leemcai	-12.8998
▁Buddhism	-12.8998
▁speed	-12.8998
▁NPEEM	-12.8999
▁numbers	-12.8999
▁Zabdag	-12.9002
▁LyFo	-12.9003
▁physically	-12.9003
▁locha	-12.9004
▁TSOOB	-12.9006
▁xwmkab	-12.9006
▁seat	-12.9009
▁maker	-12.901
pv	-12.901
▁loose	-12.9011
▁torture	-12.9015
▁voo	-12.9015
▁Pacha	-12.9016
▁maus	-12.9018
reC	-12.902
▁LAG	-12.902
▁ntxhee	-12.9021
UAV	-12.9023
▁coin	-12.9024
▁nplawv	-12.9028
▁technical	-12.9029
▁Nyaab	-12.903
▁ntxw	-12.9032
EB	-12.9036
▁Part	-12.9037
▁Peg	-12.9042
menyuam	-12.9043
▁Roman	-12.9046
kaws	-12.9046
▁ntsus	-12.9047
▁TXHIAJ	-12.9051
pi	-12.9051
kept	-12.9054
▁phawv	-12.9057
▁TOD	-12.9058
****************	-12.906
▁churches	-12.9061
tswj	-12.9063
▁Hmonglao	-12.9063
▁Personal	-12.9065
▁gold	-12.9066
▁assum	-12.9068
▁phuas	-12.9069
tojsiab	-12.9083
▁TXHA	-12.9088
que	-12.9099
old	-12.9111
▁resist	-12.9112
ow	-12.9112
xws	-12.9116
▁PLAY	-12.9126
▁thabhaa	-12.9126
▁sale	-12.9132
served	-12.9134
▁Nuv	-12.914
34	-12.9142
veral	-12.9145
qaug	-12.9145
).	-12.9146
cais	-12.9146
▁bi	-12.915
Form	-12.9156
▁Hue	-12.916
dlua	-12.9164
CAS	-12.9165
zaub	-12.9166
▁ntai	-12.9167
▁nc	-12.917
▁koomtxoo	-12.9172
ba	-12.9175
▁Tsha	-12.9177
▁Civil	-12.9177
▁Xh	-12.9178
▁niamtsev	-12.9178
ATF	-12.9182
▁tru	-12.9183
▁tip	-12.9184
▁product	-12.9187
▁NAME	-12.9187
pas	-12.9188
▁tuskwvtij	-12.9191
vxwm	-12.9197
▁DL	-12.9201
▁-------------	-12.9202
toog	-12.9205
▁admit	-12.9206
▁tel	-12.9212
▁CHA	-12.9214
▁neo	-12.9215
▁WEEK	-12.9216
▁Lytec	-12.9216
▁,..	-12.9217
▁Division	-12.9217
▁Oklahoma	-12.9217
▁shift	-12.9217
▁vaccine	-12.9217
▁Affair	-12.9217
▁Jewish	-12.9217
▁Terrorist	-12.9218
▁garage	-12.9218
▁dismiss	-12.9218
▁Martin	-12.9218
▁nongkhai	-12.9218
▁ceremon	-12.9218
▁criteria	-12.9218
▁involvement	-12.9218
▁ISSUE	-12.9219
▁ZAUS	-12.9219
▁mivmiv	-12.9219
▁Ntxub	-12.922
▁Tuamlijkoo	-12.922
▁AGREE	-12.922
▁npwb	-12.9221
▁tubcajces	-12.9221
▁PEEV	-12.9221
▁STROKE	-12.9221
▁Thanouxa	-12.9222
▁concret	-12.9223
▁npwg	-12.9223
▁Npawv	-12.9225
▁Agenc	-12.9226
▁PUBLIC	-12.9227
▁Khoos	-12.9229
▁equally	-12.923
▁Satan	-12.9232
▁jhaw	-12.9232
▁nyai	-12.9232
▁Ntxoog	-12.9232
taus	-12.9237
▁Tees	-12.9242
▁HmongLao	-12.9246
▁lease	-12.9246
▁KOS	-12.9248
▁taste	-12.9249
▁ntwb	-12.9253
▁ceskawg	-12.9254
ssara	-12.9257
PAUS	-12.926
Mexico	-12.9263
les	-12.9264
yij	-12.9269
▁xyee	-12.9271
herself	-12.9274
▁OCR	-12.9276
OV	-12.9277
▁Npaw	-12.9282
xy	-12.9282
dlev	-12.9287
IOC	-12.9288
▁Civ	-12.9288
▁Xaivxw	-12.929
▁Movie	-12.929
▁khais	-12.9305
▁bear	-12.9313
▁organ	-12.9316
▁award	-12.9316
▁indicate	-12.932
▁measure	-12.9324
pib	-12.9332
qees	-12.9334
bc	-12.9337
ntxov	-12.9347
▁5$	-12.9348
yag	-12.9353
▁guide	-12.9353
▁pebhmoob	-12.9354
▁Ai	-12.9355
ZKY	-12.9356
▁ran	-12.9366
▁faiv	-12.9367
▁maav	-12.9371
▁nrhai	-12.9374
▁YWJ	-12.9374
▁lak	-12.9375
996	-12.9377
avong	-12.9381
nawb	-12.9386
▁Yab	-12.9389
NEEG	-12.9392
▁PUA	-12.94
yard	-12.94
▁scare	-12.94
▁xem	-12.9405
▁prediction	-12.9408
▁Thoos	-12.9408
▁fuabtai	-12.941
TEG	-12.9413
tso	-12.9414
DAWS	-12.9415
ABLE	-12.9416
▁TXO	-12.9416
▁LEG	-12.9417
▁tea	-12.9419
aug	-12.942
▁ncuj	-12.9422
▁ntha	-12.9423
aaj	-12.9425
▁sawvkev	-12.9426
▁Hau	-12.9434
▁360	-12.9443
▁remove	-12.9444
▁complicate	-12.9445
▁participant	-12.9445
▁Reagan	-12.9445
▁Misliskas	-12.9445
▁destruction	-12.9445
▁txwjnkawm	-12.9445
▁empty	-12.9445
Pajnplaimcua	-12.9445
▁immediate	-12.9445
▁HPV	-12.9445
LuA	-12.9445
▁TXUJCI	-12.9445
▁Faajkum	-12.9445
▁adultery	-12.9445
▁brand	-12.9446
▁orange	-12.9446
▁gangster	-12.9446
▁independence	-12.9446
▁offense	-12.9446
▁HUABTAIS	-12.9447
▁PERSON	-12.9447
▁Today	-12.9447
▁exile	-12.9448
▁Jay	-12.9449
▁yellow	-12.9449
▁Zajlaug	-12.9451
▁866	-12.9451
▁nruaj	-12.9452
▁petition	-12.9452
▁AMERICAN	-12.9453
▁dovtawm	-12.9453
▁TEM	-12.9453
▁impress	-12.9454
▁Pop	-12.9455
▁verse	-12.9456
Ly	-12.9457
▁hole	-12.9458
▁Cem	-12.9462
▁qaav	-12.9464
▁settle	-12.9471
▁NR	-12.9475
▁ohy	-12.9476
▁yawgnom	-12.9479
▁cycle	-12.9481
▁Kevcai	-12.9482
▁tuias	-12.9484
XM	-12.9485
▁faabki	-12.9485
puag	-12.9486
daj	-12.9488
▁phou	-12.9488
▁Pem	-12.9491
▁notice	-12.9492
▁laajfa	-12.9492
▁AWB	-12.9497
▁Yaus	-12.9498
▁SAV	-12.9503
▁555555	-12.9505
POM	-12.9505
▁photo	-12.9505
▁zia	-12.9505
cub	-12.9507
hong	-12.951
▁timub	-12.951
ntxiv	-12.9511
kib	-12.9521
▁hlai	-12.9523
▁trade	-12.9523
▁christ	-12.9524
ntxawm	-12.9524
hood	-12.9526
▁Pes	-12.9529
▁ntoog	-12.9529
MAS	-12.9532
66	-12.9538
▁Same	-12.9539
▁TXI	-12.9545
moo	-12.955
▁Mavta	-12.9553
▁nreej	-12.9558
PCS	-12.9558
▁lun	-12.9567
▁koobmoo	-12.9568
▁treasure	-12.957
xis	-12.957
▁moon	-12.9572
TSIS	-12.9574
▁Tshaw	-12.958
yer	-12.9583
▁Dam	-12.9585
▁blow	-12.9585
OB	-12.9591
▁Mad	-12.9593
ntxub	-12.9598
▁believer	-12.96
▁GA	-12.9614
▁Nplua	-12.9617
tting	-12.9619
900	-12.9623
▁__________	-12.9624
▁paint	-12.9625
▁License	-12.9626
Neohom	-12.9626
Dok	-12.9626
▁LIVE	-12.9627
tem	-12.9628
One	-12.9629
ros	-12.963
▁tr	-12.963
▁Assist	-12.9632
house	-12.9634
▁haug	-12.9639
Tuam	-12.9646
ris	-12.9651
chang	-12.9652
▁serv	-12.9654
arry	-12.9655
▁Forme	-12.9655
▁$150	-12.966
▁fus	-12.9662
▁betray	-12.9662
▁flow	-12.9665
yas	-12.9665
▁DOV	-12.9668
▁submit	-12.9672
▁AI	-12.9673
▁nan	-12.9674
▁TABSI	-12.9676
▁Sher	-12.9677
▁ocean	-12.9677
▁Website	-12.9677
▁wikileak	-12.9677
▁ladies	-12.9677
▁monday	-12.9677
▁enomy	-12.9677
▁selfish	-12.9677
▁yesterday	-12.9677
▁failure	-12.9677
▁Palestine	-12.9678
▁escape	-12.9678
▁flirt	-12.9678
▁Town	-12.9678
▁Engineer	-12.9678
▁resolve	-12.9678
▁Late	-12.9678
▁cajpas	-12.9678
▁fuabcua	-12.9678
▁narrow	-12.9679
▁NRUJ	-12.9679
▁talent	-12.9679
▁TRAS	-12.9679
▁negotiate	-12.9679
▁NYUS	-12.968
▁Distric	-12.968
▁vdo	-12.968
▁lostsua	-12.968
▁IEE	-12.968
▁brush	-12.968
▁NTIAV	-12.968
▁CAUB	-12.9682
▁QES	-12.9683
▁Zeej	-12.9683
▁tavsu	-12.9683
▁QEB	-12.9684
KING	-12.9684
▁Eco	-12.9684
▁nyobzoo	-12.9684
▁ntxheev	-12.9685
▁Noogdej	-12.9685
▁VAIS	-12.9685
▁ibsij	-12.9685
▁NEWS	-12.9685
▁acceptable	-12.9688
▁TAWS	-12.9688
▁twist	-12.9689
▁thawjx	-12.9691
▁Koum	-12.9692
of	-12.9692
▁mentally	-12.9693
▁612	-12.9694
▁HAND	-12.9698
▁Moobdlawb	-12.9698
▁Youtub	-12.9699
▁LHO	-12.97
▁rent	-12.9701
▁paste	-12.9702
▁shut	-12.9703
▁damn	-12.9705
▁Xuv	-12.9707
▁tseemx	-12.9708
▁sincere	-12.9716
▁Bang	-12.9717
▁--------------	-12.9734
tsiab	-12.9735
6000	-12.9737
▁cy	-12.9739
▁IAB	-12.974
▁muslawm	-12.9741
07	-12.9741
toojcua	-12.9744
▁TAUJ	-12.9745
▁kips	-12.9747
▁joe	-12.9754
▁Npas	-12.9761
tsho	-12.9764
▁Nk	-12.9767
▁$800	-12.9769
ith	-12.9775
uY	-12.9775
▁Sem	-12.9776
▁Maslis	-12.9787
▁Nok	-12.9787
▁pack	-12.9793
▁nteb	-12.9793
qhuav	-12.9801
▁txab	-12.9803
lom	-12.9803
▁named	-12.9804
ster	-12.9808
▁Gov	-12.981
khu	-12.9812
▁ntawdlos	-12.9821
▁npi	-12.9822
txhais	-12.9827
▁emotion	-12.9832
▁Bus	-12.9833
▁sibkho	-12.9835
▁lock	-12.9835
iving	-12.9837
nyaum	-12.9842
▁NTXA	-12.9849
▁Bla	-12.985
▁Hn	-12.9851
▁$250	-12.9856
▁ZN	-12.9858
Ntsuab	-12.9865
PLIS	-12.9867
rov	-12.9867
ize	-12.9868
▁heej	-12.9871
▁Hinheu	-12.9875
▁quam	-12.9877
thwm	-12.9878
▁educator	-12.9881
▁Friend	-12.9882
▁sibpaub	-12.9889
▁xubx	-12.9894
▁bet	-12.9898
▁buil	-12.9901
__	-12.9904
▁leng	-12.9905
▁Nosavan	-12.9907
▁Hehehehe	-12.9908
414	-12.9911
▁Find	-12.9911
▁Qw	-12.9911
▁OWN	-12.9915
▁SHOW	-12.9915
▁ancestor	-12.9915
▁occasion	-12.9915
▁Isreal	-12.9915
▁classify	-12.9915
▁summary	-12.9915
▁Doyle	-12.9915
▁Abuse	-12.9915
▁Naikhu	-12.9916
YAG	-12.9916
▁clarification	-12.9916
▁investigation	-12.9916
▁Forward	-12.9916
▁FOOB	-12.9916
▁Work	-12.9916
▁minneapolis	-12.9917
sible	-12.9918
▁minds	-12.9918
▁mluas	-12.9919
▁limtiam	-12.9919
▁Island	-12.9919
▁Bac	-12.9919
▁PHAV	-12.9919
▁unto	-12.992
▁QHEV	-12.992
▁wheel	-12.992
▁TE	-12.992
▁Come	-12.9921
▁sake	-12.9922
DHCS	-12.9922
▁tubnkeeg	-12.9923
▁VIm	-12.9924
▁Patikan	-12.9926
▁NTSEG	-12.9926
▁Local	-12.9926
▁Cambodian	-12.9926
▁DUAB	-12.9926
▁nplob	-12.9927
▁Peem	-12.9928
▁Xaus	-12.9928
▁Khaab	-12.9928
▁island	-12.9928
▁thuaj	-12.9934
▁txoom	-12.9935
iac	-12.9939
ent	-12.9939
▁nplab	-12.994
▁Event	-12.9942
▁ntxho	-12.9946
▁haulwm	-12.9946
▁tsoog	-12.9946
▁thawjthiab	-12.9948
▁ntxws	-12.9948
opher	-12.9949
▁Nyabla	-12.9955
▁Tsho	-12.9958
636	-12.9961
▁UNDER	-12.9964
▁=>	-12.9971
▁COL	-12.9972
▁xabpha	-12.9974
▁238	-12.9974
▁Hna	-12.9975
▁pebhmoobrua	-12.9976
dont	-12.9979
XUS	-12.9983
▁Tsw	-12.999
▁mature	-12.9992
▁curse	-12.9993
▁ntshaj	-12.9993
zuag	-12.9993
▁believ	-12.9994
▁feed	-12.9994
▁Nru	-12.9997
▁Pebhmoobrua	-13
▁haws	-13.0003
nim	-13.0007
▁nyoojhoo	-13.0008
▁qag	-13.0009
tshum	-13.0009
▁Te	-13.001
IAV	-13.0011
▁DAY	-13.0014
▁TSOM	-13.0014
▁songs	-13.0014
▁Paoze	-13.0016
▁Vab	-13.0022
▁cuabka	-13.0029
enty	-13.0036
▁SAN	-13.0037
▁txauv	-13.0044
▁assist	-13.0046
hornspear	-13.0049
sao	-13.005
TER	-13.0061
▁Uatsau	-13.0062
▁Tubcajces	-13.0063
▁zoglawm	-13.0064
qau	-13.0066
▁ntx	-13.0066
▁paubqab	-13.0084
▁qhovtseeb	-13.0086
structive	-13.0088
▁abandon	-13.0089
▁Kai	-13.009
▁accomplish	-13.0091
nug	-13.0094
af	-13.0098
ancient	-13.0099
xu	-13.0099
hajying	-13.0102
▁hasi	-13.0102
mode	-13.0102
charter	-13.0107
xij	-13.0107
▁hnee	-13.0113
Dag	-13.012
nyablaj	-13.0121
▁subgroup	-13.0122
▁nrom	-13.0122
▁Vibnai	-13.0123
▁guard	-13.0126
ud	-13.0126
▁scene	-13.0128
▁dli	-13.0129
▁tech	-13.0142
=7	-13.0142
▁Npl	-13.0143
▁Nyo	-13.0147
▁audio	-13.0148
▁Dekfangkh	-13.0154
▁TT	-13.0154
dluag	-13.0155
▁trace	-13.0156
▁REASON	-13.0159
▁immigrant	-13.0159
▁spring	-13.0159
▁confidence	-13.0159
▁PRESIDENT	-13.0159
▁recognition	-13.0159
▁creator	-13.0159
▁Client	-13.016
▁manner	-13.016
▁EXAMPLE	-13.016
▁indeed	-13.016
▁Easter	-13.016
▁ghost	-13.016
▁nationalism	-13.016
▁boat	-13.016
▁Txhaum	-13.016
▁Boum	-13.0161
▁intelligent	-13.0161
▁Should	-13.0161
▁Nyaaj	-13.0161
▁ZEEM	-13.0161
▁invention	-13.0162
▁mib	-13.0162
▁grammar	-13.0162
▁Suprem	-13.0162
▁critique	-13.0163
▁northern	-13.0163
▁Zwj	-13.0164
▁lecture	-13.0164
▁SKS	-13.0164
▁ZAG	-13.0164
▁kabtsib	-13.0165
▁House	-13.0165
▁indian	-13.0165
▁Member	-13.0166
▁Xyeejts	-13.0166
▁superior	-13.0167
▁tshuv	-13.0168
▁ndla	-13.0169
▁Original	-13.017
▁nrhaiv	-13.017
aG	-13.0171
▁possess	-13.0171
anthon	-13.0171
▁qawv	-13.0172
▁nqha	-13.0173
▁tisbe	-13.0174
▁Kongphan	-13.0174
▁required	-13.0174
▁tshim	-13.0177
▁Ncaim	-13.0177
▁ntxug	-13.0178
▁Tshab	-13.0178
▁nhro	-13.0179
hur	-13.018
▁candy	-13.018
▁adam	-13.0182
▁plej	-13.0182
▁Tsuv	-13.0184
▁khaab	-13.0185
HR	-13.0189
▁?.....	-13.0191
▁Cuav	-13.0197
▁band	-13.0199
Tshiab	-13.02
ft	-13.0202
ors	-13.0203
▁Ntxhi	-13.0205
zab	-13.0205
▁Ntxia	-13.0208
▁charter	-13.0212
▁Asmeka	-13.0214
light	-13.0216
aison	-13.0216
▁nkagsab	-13.0216
tos	-13.0233
▁nyamx	-13.0234
tage	-13.0235
efore	-13.0235
AUM	-13.0237
▁ntsaus	-13.0239
▁ip	-13.0241
▁LAS	-13.0241
▁ntxiav	-13.0244
363	-13.0245
ite	-13.0247
▁generalize	-13.0248
▁smell	-13.0252
▁mij	-13.0252
nraab	-13.0258
▁bog	-13.026
▁Nye	-13.0263
TSUAM	-13.0263
▁idon	-13.0271
BS	-13.0272
ber	-13.0272
▁Technolog	-13.0272
Lu	-13.0273
txhawb	-13.0273
txag	-13.0276
▁experts	-13.0277
▁loov	-13.0278
▁NQI	-13.028
mloog	-13.0282
▁nge	-13.0283
▁helps	-13.0283
▁nyau	-13.0292
▁Press	-13.0302
Paul	-13.0304
1945	-13.0304
▁kevhlub	-13.0309
▁ees	-13.0309
▁232	-13.031
▁roll	-13.0313
ver	-13.0317
lawj	-13.0318
▁hauvtsev	-13.0318
▁Yoo	-13.0319
▁ntxhaw	-13.0319
▁Missionar	-13.0322
▁quavntse	-13.0324
hOC	-13.033
▁Ra	-13.0332
▁nplee	-13.0332
▁buffe	-13.0332
yuaj	-13.034
▁Kang	-13.0341
▁Pre	-13.0341
xus	-13.0343
▁beemoua	-13.0344
tswvyim	-13.0345
▁roobri	-13.0352
▁Power	-13.0353
▁asmeska	-13.0355
▁xavkom	-13.0355
GAB	-13.0356
Phwvnyawm	-13.0358
paab	-13.0358
kham	-13.0359
LWJ	-13.0361
Khaum	-13.0361
ntees	-13.0361
loskuv	-13.0362
▁shop	-13.0362
▁Kais	-13.0367
beer	-13.0367
▁Ntxhua	-13.037
olar	-13.0372
▁cares	-13.0373
▁pia	-13.0373
▁$.	-13.0376
txuas	-13.0378
▁Vi	-13.0378
cheej	-13.0378
Yog	-13.0379
pua	-13.0379
▁vuj	-13.0381
blah	-13.0381
▁Shi	-13.0382
▁mivx	-13.0394
SELF	-13.0395
▁RAW	-13.0404
▁kablau	-13.0408
▁Manage	-13.0409
▁Sihanou	-13.0409
▁immigration	-13.0409
▁violence	-13.0409
▁SORRY	-13.0409
▁bullet	-13.0409
▁airport	-13.0409
▁adapt	-13.0409
▁Money	-13.0409
▁opportunist	-13.0409
▁QUESTION	-13.0409
▁Institute	-13.041
▁fivyeem	-13.041
▁bread	-13.041
▁DAIG	-13.041
▁Peaco	-13.041
▁maintain	-13.0411
▁boycott	-13.0411
▁script	-13.0412
▁Yaajtshajkoo	-13.0413
▁stamp	-13.0415
▁CLAN	-13.0415
▁TXAV	-13.0415
▁teaching	-13.0419
▁NTXHW	-13.0419
▁dealer	-13.0422
▁Hooj	-13.0423
▁ntsauj	-13.0425
▁Term	-13.0429
▁Try	-13.0429
▁ibqho	-13.043
▁QHUA	-13.0432
▁ibpliag	-13.0432
▁anger	-13.0438
▁relax	-13.0439
▁shaman	-13.0439
mzuag	-13.0442
▁Loos	-13.0443
▁Khas	-13.0444
ified	-13.0445
▁verbal	-13.0447
▁Du	-13.0447
▁Yuephe	-13.045
▁khum	-13.0451
▁feej	-13.0452
BLOG	-13.0458
▁khovkho	-13.0463
▁luang	-13.0464
▁cuagli	-13.0466
▁pursu	-13.0466
km	-13.047
▁Luaj	-13.0471
▁khim	-13.0472
362	-13.0484
▁magic	-13.0487
▁Phwvxe	-13.0487
naj	-13.0487
pum	-13.0492
▁nqib	-13.0495
▁xuj	-13.0499
▁ndlaj	-13.05
▁nobody	-13.0502
▁hauvqhua	-13.0502
▁Tshav	-13.0506
▁GUY	-13.0506
▁NPLUA	-13.0507
KL	-13.051
olden	-13.0511
Nasxus	-13.0517
▁Hummm	-13.0523
uk	-13.0524
38	-13.0524
UB	-13.053
▁thoo	-13.0534
▁reject	-13.0542
▁som	-13.0542
▁Mose	-13.0543
▁$$	-13.0543
ane	-13.0547
meow	-13.0548
TS	-13.055
onto	-13.0553
TWO	-13.0554
▁REPEAT	-13.0554
iblub	-13.0561
nia	-13.0575
▁mivnyua	-13.0578
▁ceevfa	-13.0585
▁Tauj	-13.0587
over	-13.0589
ri	-13.06
bo	-13.0601
oeC	-13.0601
▁HATE	-13.0602
▁Tsoobku	-13.0603
▁cop	-13.0604
▁yy	-13.0606
▁WA	-13.0608
RE	-13.0609
▁Tshau	-13.061
▁revolution	-13.0611
▁min	-13.0611
txhij	-13.0616
99	-13.0616
▁ntsiaj	-13.0617
ntxhiab	-13.0617
▁pij	-13.0618
key	-13.0618
▁Como	-13.0624
DNA	-13.0626
▁nhya	-13.0626
▁'?	-13.0628
thao	-13.0632
xyuas	-13.0636
▁element	-13.0638
▁BM	-13.0638
▁vimlawv	-13.0639
▁auto	-13.064
CY	-13.0641
▁horse	-13.0644
CDA	-13.0648
PY	-13.0651
▁mika	-13.0657
▁MAIV	-13.0659
▁africa	-13.0659
▁hauvkev	-13.0662
▁Cultural	-13.0666
▁bachelor	-13.0666
▁succeed	-13.0666
▁offensive	-13.0666
▁mankind	-13.0666
▁BOSS	-13.0666
▁Kauslim	-13.0666
▁Asmeslika	-13.0666
▁dragon	-13.0666
▁Print	-13.0666
▁afford	-13.0666
▁speculation	-13.0666
▁NPWB	-13.0666
▁wake	-13.0666
▁flea	-13.0667
▁Northern	-13.0667
▁ropv	-13.0667
▁Final	-13.0667
▁Labor	-13.0667
▁Merritt	-13.0667
▁kavtheej	-13.0667
▁khaublig	-13.0668
▁typical	-13.0668
▁Grand	-13.0668
▁Caug	-13.0668
▁HOME	-13.0669
▁==>	-13.067
▁McCo	-13.0671
▁conduct	-13.0672
▁pawgntseeg	-13.0672
▁Sometime	-13.0673
tha	-13.0673
▁discriminate	-13.0674
▁txaam	-13.0675
▁dwb	-13.0677
monthly	-13.0682
▁tshij	-13.0683
ciab	-13.0684
▁trained	-13.0684
▁tigloo	-13.0687
▁calm	-13.0689
▁Ntsiab	-13.0694
teC	-13.0699
chong	-13.0699
▁Phwvyaw	-13.0701
▁guards	-13.0701
uz	-13.0711
▁thaws	-13.0712
▁dress	-13.0712
▁ntugkev	-13.0712
marketing	-13.0712
zus	-13.0714
▁tactics	-13.0714
▁vers	-13.0716
ef	-13.0717
▁Ter	-13.0717
▁correction	-13.0717
▁Duab	-13.0719
nan	-13.0721
▁$400	-13.0724
▁MOO	-13.0725
hauj	-13.0726
▁chue	-13.0726
▁Lawb	-13.0727
▁hauvsiab	-13.0728
▁jib	-13.0729
▁muscle	-13.0731
▁pobkub	-13.0731
his	-13.0731
▁popcor	-13.0731
▁cus	-13.0732
fue	-13.0732
sama	-13.0737
=4	-13.0738
▁LPD	-13.075
▁DIAM	-13.0751
▁POS	-13.0754
▁ref	-13.076
▁Thorsp	-13.0764
▁chem	-13.0767
hawv	-13.0768
aav	-13.0768
▁ear	-13.0776
▁phwvnyaw	-13.0778
▁pronounce	-13.0778
▁Train	-13.078
eration	-13.0791
RS	-13.0793
HMONG	-13.0794
ification	-13.0799
70	-13.08
ez	-13.0807
▁DLAAB	-13.0808
▁deed	-13.0812
▁KILL	-13.0815
ority	-13.0816
▁cheng	-13.0817
EZ	-13.0821
▁Phasnya	-13.0822
▁763	-13.0826
FWM	-13.0831
LIAB	-13.0831
tor	-13.0836
tknow	-13.0838
SAID	-13.0839
=_	-13.0839
know	-13.0843
▁PASS	-13.0845
▁Tshajplaw	-13.0847
ntaub	-13.0847
▁tshoo	-13.0859
▁inch	-13.0859
ar	-13.0863
duab	-13.0864
-------------	-13.0864
▁leak	-13.0868
▁pomkev	-13.0874
woman	-13.0877
ncig	-13.0878
pobzeb	-13.0878
Vision	-13.0878
▁Faki	-13.088
▁phoj	-13.0883
▁Him	-13.0883
▁Sad	-13.0887
▁hlubx	-13.0888
▁Fav	-13.0893
▁ntsee	-13.0897
▁nyi	-13.0899
▁Author	-13.0902
loos	-13.0907
▁Bin	-13.0909
▁bon	-13.0909
poom	-13.0911
▁Lau	-13.0914
OOS	-13.0917
▁KN	-13.092
▁thaug	-13.0922
laud	-13.0923
▁solid	-13.0924
ermanent	-13.0928
▁PERSONAL	-13.0929
▁PROBLEM	-13.0929
▁disturb	-13.0929
▁misunderstand	-13.0929
01085/	-13.0929
lloween	-13.0929
▁HISTORY	-13.0929
▁Computer	-13.0929
▁dictatorship	-13.0929
▁fabrication	-13.0929
▁Keebkwm	-13.0929
▁minimu	-13.0929
▁Country	-13.0929
▁Medal	-13.0929
▁Maabdlawb	-13.0929
▁implement	-13.0929
▁unlike	-13.0929
▁NRUAB	-13.0929
gPiA	-13.0929
▁separatist	-13.093
▁adjust	-13.093
▁DEBATE	-13.093
▁TXAIJ	-13.093
▁Studies	-13.093
▁Txoovkav	-13.093
▁gathering	-13.0931
▁Ntsimtxh	-13.0931
▁nrhaab	-13.0931
▁communis	-13.0931
▁niece	-13.0931
▁fundrais	-13.0931
▁RAS	-13.0931
▁najkhoos	-13.0931
▁DAIS	-13.0931
▁saykao	-13.0931
▁announce	-13.0932
▁TSHIAJ	-13.0932
▁Thooj	-13.0932
hawj	-13.0933
▁opposition	-13.0933
▁Kaav	-13.0933
▁labor	-13.0933
ijuana	-13.0933
▁kung	-13.0934
▁oneself	-13.0935
▁txhwj	-13.0936
▁reasonable	-13.0936
jxeem	-13.0937
▁Phetsara	-13.0937
▁fiab	-13.0938
71	-13.0939
▁XIM	-13.0939
▁89	-13.094
▁xaslas	-13.0942
stas	-13.0944
▁ristsho	-13.0944
▁khaim	-13.0946
▁npum	-13.0947
▁Chair	-13.0947
▁povfwm	-13.0948
▁Somphon	-13.095
▁ruv	-13.0951
zaum	-13.0951
▁Puv	-13.0952
▁lhau	-13.0952
▁writer	-13.0954
▁greed	-13.0954
aa	-13.0956
▁vajvovvajpam	-13.0956
▁xeebleej	-13.0957
eu	-13.0957
tockton	-13.0959
▁amp	-13.0962
▁hmooob	-13.0963
▁ASK	-13.0964
▁capabilit	-13.0966
lum	-13.0966
▁finding	-13.0966
▁loud	-13.0966
TSHAV	-13.0967
▁educators	-13.0967
▁products	-13.0969
di	-13.0972
▁HUV	-13.0973
▁makers	-13.0973
▁kor	-13.0975
ooj	-13.0976
▁Hous	-13.0976
▁Yi	-13.0977
nyas	-13.0977
▁cow	-13.0978
Yob	-13.0981
Saddam	-13.0982
▁Sent	-13.0983
▁maa	-13.0987
▁thovpab	-13.0988
sev	-13.0989
user	-13.0989
▁Cat	-13.099
▁ntshu	-13.099
8000	-13.0997
ND	-13.1001
▁Et	-13.1003
▁OG	-13.1005
▁lhua	-13.1006
xang	-13.101
▁MER	-13.1011
aab	-13.1011
▁teachers	-13.1012
▁Hmao	-13.1018
IM	-13.102
▁MEM	-13.1021
▁kay	-13.1024
),	-13.1027
▁IV	-13.103
▁Jane	-13.103
Tony	-13.1037
▁Tsob	-13.1039
▁rhee	-13.1047
▁noodle	-13.1051
lwg	-13.1055
▁Sisou	-13.1055
▁zee	-13.1065
▁thian	-13.1068
959	-13.107
▁SN	-13.107
▁93	-13.1071
ied	-13.1073
▁logical	-13.1078
▁Ni	-13.1081
▁rovmus	-13.1082
yias	-13.1082
▁uaskuv	-13.1084
laws	-13.1085
nqa	-13.1086
ui	-13.1086
▁HMA	-13.1087
36	-13.1088
▁Qua	-13.1089
▁FIGHT	-13.1094
▁Visa	-13.11
????????????????	-13.1106
▁Real	-13.1113
▁pamle	-13.1115
paubkuv	-13.1116
yaim	-13.112
▁nyu	-13.1125
▁roo	-13.1125
ja	-13.1127
dib	-13.1132
▁peter	-13.1133
▁Mountain	-13.1143
▁nhia	-13.1144
▁Tao	-13.1148
hos	-13.1156
▁appointe	-13.1157
▁attract	-13.1157
Koj	-13.116
sawv	-13.1162
▁khaug	-13.1165
▁Pra	-13.1171
▁nio	-13.1172
▁Pan	-13.1175
▁plo	-13.1175
PR	-13.1179
▁broke	-13.1191
▁tnaw	-13.1194
▁HAI	-13.1196
▁plans	-13.1196
▁350	-13.1197
▁TRAITOR	-13.1197
▁Egypt	-13.1199
▁BECAUSE	-13.1199
▁Perhap	-13.1199
▁QUALIFY	-13.1199
▁SIJHAWM	-13.1199
▁association	-13.1199
▁huvtuabsi	-13.1199
▁violent	-13.1199
▁Centurio	-13.1199
▁ignorance	-13.1199
▁SHARE	-13.1199
▁Phouthen	-13.1199
▁monster	-13.1199
▁LAWYER	-13.1199
▁TCMD	-13.1199
▁prosecutor	-13.1199
▁flight	-13.1199
▁NPAV	-13.1199
▁Hanoi	-13.1199
peC	-13.12
▁caubmoos	-13.12
▁riov	-13.12
▁EDUCATION	-13.12
▁Tsabmim	-13.12
LqU	-13.12
▁NCIG	-13.12
▁YEARS	-13.12
▁gamblin	-13.12
▁NTUAS	-13.1201
▁NATION	-13.1201
▁NeoHom	-13.1202
▁Jose	-13.1203
▁moron	-13.1203
▁Qu	-13.1203
▁TEBCHAW	-13.1203
▁border	-13.1203
1600	-13.1203
▁Economic	-13.1203
▁Baccalaureate	-13.1204
▁PAIB	-13.1204
▁destin	-13.1204
▁THIAJLI	-13.1205
▁PHONE	-13.1206
▁credib	-13.1206
▁rheev	-13.1208
▁hmongmen	-13.1209
▁tsausntuj	-13.121
▁CHAV	-13.121
▁mobile	-13.1211
▁tiny	-13.1211
▁Aws	-13.1211
▁Vaub	-13.1211
▁lay	-13.1212
▁cooperate	-13.1212
▁bodi	-13.1213
▁Land	-13.1215
▁Sister	-13.1215
▁KEEP	-13.1217
klawm	-13.1218
▁Hitle	-13.1218
▁desperate	-13.1223
▁activity	-13.1225
▁secrete	-13.1229
7967	-13.1232
About	-13.1232
▁WWII	-13.1232
▁zajlaug	-13.1233
▁nrhaw	-13.1234
▁Two	-13.1234
bel	-13.1235
▁covkwvtij	-13.1235
nyuab	-13.1239
▁PT	-13.1241
▁TAX	-13.1242
▁pk	-13.1242
▁NOG	-13.1243
▁yoom	-13.1244
cev	-13.1245
▁communicate	-13.1245
ngsy	-13.1248
▁TJ	-13.1251
▁engage	-13.1253
▁pleg	-13.1254
▁rovlawm	-13.1258
ac	-13.1259
▁FRANC	-13.126
▁Nrau	-13.126
▁vot	-13.1261
▁FU	-13.1262
▁mock	-13.1263
822	-13.1265
▁SEA	-13.1276
▁HAHAHA	-13.1277
▁obleeg	-13.1278
CC	-13.1284
lino	-13.1285
▁letters	-13.1289
cag	-13.1292
▁sid	-13.13
▁ur	-13.13
▁suppl	-13.1304
▁bas	-13.1305
▁tsawj	-13.1306
▁sacrif	-13.1307
▁kuvniam	-13.1308
▁npluj	-13.1309
▁characters	-13.1315
▁tobhau	-13.1321
ndi	-13.1331
cycle	-13.1332
▁gods	-13.1334
09	-13.1338
▁soua	-13.1347
hmoobrua	-13.1351
▁Vav	-13.1354
ONG	-13.1358
▁TOB	-13.1359
▁bav	-13.1359
▁txhw	-13.1361
▁warn	-13.1362
▁visions	-13.1364
▁MOVIE	-13.1364
▁tejlub	-13.1364
▁yiv	-13.1368
IAM	-13.1369
rub	-13.137
TURE	-13.1372
▁105	-13.1373
tsoob	-13.1374
meskas	-13.1378
tsw	-13.1379
txig	-13.138
▁nyhoo	-13.1381
▁links	-13.1384
cover	-13.1389
▁097	-13.1391
▁Wed	-13.1394
▁BB	-13.1396
▁phuab	-13.1397
▁mar	-13.1398
TP	-13.1402
ku	-13.1403
LK	-13.1404
▁pli	-13.1405
▁Capital	-13.1406
▁hlaug	-13.1411
▁ak	-13.1419
▁SEEM	-13.1422
board	-13.1425
▁txhee	-13.143
▁NL	-13.1434
▁plane	-13.1435
VTE	-13.1435
▁comfortabl	-13.1438
▁Georgi	-13.1439
▁Ev	-13.1442
▁opponent	-13.1442
▁lawvle	-13.1447
▁legend	-13.1447
▁Kj	-13.1448
kua	-13.1449
nkawm	-13.1449
▁xang	-13.1452
ility	-13.1453
kaajsab	-13.1455
▁qui	-13.1455
▁solutions	-13.1457
▁hahahahhaha	-13.1457
txaj	-13.1461
▁alien	-13.1463
lt	-13.1464
▁profession	-13.1466
▁remark	-13.1467
▁Star	-13.1468
lhub	-13.1471
▁naus	-13.1473
▁royal	-13.1475
▁Ntses	-13.1475
▁engine	-13.1476
▁Madame	-13.1477
▁SOLDIER	-13.1477
▁WORD	-13.1477
▁modify	-13.1477
▁senior	-13.1477
▁TAMSIM	-13.1477
▁cheap	-13.1477
▁crocodile	-13.1477
gx	-13.1477
▁jealous	-13.1477
▁survival	-13.1477
▁entertain	-13.1477
▁bunch	-13.1478
▁CLAIM	-13.1478
▁miracle	-13.1478
▁plaig	-13.1478
▁NASKAS	-13.1478
▁booth	-13.1478
▁VOM	-13.1478
▁EVIDENCE	-13.1478
▁attached	-13.1478
▁pennies	-13.1478
▁Province	-13.1478
▁Dien	-13.1479
▁HTG	-13.1479
▁elevat	-13.1479
▁ambassador	-13.1479
▁TAJ	-13.1479
▁hehehhehe	-13.1479
KAWM	-13.148
▁fiction	-13.148
▁Daniel	-13.148
▁phabnab	-13.148
▁KABLIAM	-13.1481
▁limpiam	-13.1481
▁Ce	-13.1481
▁KEM	-13.1482
▁soft	-13.1482
▁hehehehhe	-13.1483
▁significant	-13.1483
▁MHOOB	-13.1483
▁TSAJ	-13.1484
▁tshwv	-13.1484
▁ncai	-13.1484
▁KEEB	-13.1484
▁CALL	-13.1484
▁suffering	-13.1485
▁ntxaum	-13.1487
▁npov	-13.1487
▁Top	-13.1487
▁huabcua	-13.1488
▁adin	-13.1488
▁classes	-13.1489
▁walleye	-13.1489
▁mongkey	-13.1493
▁bond	-13.1494
▁mabdawb	-13.1495
▁sooblwj	-13.1497
▁Asmiska	-13.1498
▁Hmoobleejtub	-13.1499
▁koomntsw	-13.1503
ather	-13.1507
▁leading	-13.151
▁ntxeeb	-13.1514
HAUB	-13.1515
▁Yunna	-13.1516
yiam	-13.152
ways	-13.1521
INTO	-13.1527
▁plauv	-13.1527
▁hlw	-13.1528
hj	-13.1531
▁juic	-13.1531
understood	-13.1533
ntiav	-13.1533
▁xajn	-13.1536
cim	-13.1542
taag	-13.1543
▁Yub	-13.1544
▁BC	-13.1548
46	-13.1549
▁shape	-13.1552
lycee	-13.1556
▁txivlawv	-13.1556
▁tsh	-13.1556
▁tubse	-13.1558
▁Naphi	-13.1567
▁CHANGE	-13.1567
▁EJ	-13.1567
▁veg	-13.1572
WM	-13.1573
▁zimtxw	-13.1583
▁Hum	-13.1584
▁praise	-13.1587
▁Nr	-13.1588
memiab	-13.1589
▁hey	-13.1589
▁Najv	-13.1596
▁maml	-13.1596
▁npos	-13.1605
ajtsab	-13.1606
ue	-13.1606
HM	-13.161
35	-13.161
▁HMOO	-13.1614
loojceeb	-13.1618
▁Moon	-13.1618
▁NRA	-13.1623
08	-13.1627
▁Chanthala	-13.1628
OG	-13.1629
▁MON	-13.1633
EET	-13.1635
laag	-13.1638
▁Cag	-13.1638
▁Tshajpl	-13.1644
CM	-13.1644
▁Somsava	-13.1644
▁vet	-13.1646
▁Tagki	-13.1647
phiaj	-13.1647
▁nqho	-13.1649
BMh	-13.1651
1954	-13.1651
aying	-13.1652
ithout	-13.1656
▁Tejno	-13.1657
▁actual	-13.1664
▁lone	-13.1665
DF	-13.1667
cker	-13.1669
54	-13.1672
▁Adult	-13.1674
▁SA	-13.1688
▁tolera	-13.1689
URE	-13.1693
▁sortie	-13.1695
hehehehehehehehe	-13.1696
lhau	-13.1697
nyaj	-13.1697
LUS	-13.1697
lhob	-13.1704
▁sws	-13.1709
DAG	-13.1713
LAWS	-13.1715
▁Lw	-13.1716
▁ji	-13.172
▁sky	-13.172
▁VI	-13.1725
▁Prince	-13.1728
CE	-13.173
xyeej	-13.1735
▁ASEA	-13.1737
xias	-13.1737
▁cup	-13.1739
MN	-13.1741
person	-13.1743
▁ethic	-13.1747
▁nplaaj	-13.1747
▁!!!.	-13.1749
▁Hmoon	-13.1752
▁AMERICA	-13.1753
ated	-13.1754
▁$35	-13.1757
▁Trust	-13.1757
ield	-13.1759
▁PROTEST	-13.1763
▁SYSTEM	-13.1763
▁privac	-13.1763
▁NPLAIG	-13.1763
▁Shiiyi	-13.1763
▁SOCIAL	-13.1763
▁domestic	-13.1763
▁Croc	-13.1763
▁NTSUB	-13.1763
▁Antho	-13.1763
▁Fairground	-13.1763
▁Beside	-13.1763
▁Unknown	-13.1763
▁chivkeeb	-13.1763
▁Check	-13.1763
▁Realist	-13.1763
▁indirect	-13.1763
▁TXHIAJLIS	-13.1763
▁junk	-13.1763
▁Khmer	-13.1763
▁Student	-13.1764
▁Laonork	-13.1764
▁retard	-13.1764
▁liberate	-13.1764
▁commitment	-13.1764
▁MINORIT	-13.1764
▁wealth	-13.1764
▁Pobntoos	-13.1764
▁Book	-13.1765
▁institution	-13.1766
▁Model	-13.1766
▁TIAJ	-13.1766
▁QUS	-13.1767
▁UNDERSTAND	-13.1767
▁Amkha	-13.1767
▁namyau	-13.1768
▁Rehabilitatio	-13.1768
▁PAUJ	-13.1768
▁jews	-13.177
▁Chor	-13.177
▁faa	-13.1771
lauv	-13.1773
sion	-13.1774
▁Yua	-13.1774
ped	-13.1775
▁naskos	-13.1776
▁txawjxoom	-13.1777
▁QWS	-13.1778
▁ntxawv	-13.1779
unning	-13.1781
▁timmeskas	-13.1781
▁Phwnyaw	-13.1781
dwas	-13.1782
▁MAJTRA	-13.1784
▁organized	-13.1785
▁piaj	-13.1787
▁manipulate	-13.1788
▁comparis	-13.1788
▁chib	-13.1791
▁Aim	-13.1794
▁Maivkau	-13.1798
▁thaas	-13.1799
▁organizer	-13.18
▁Lispov	-13.1801
▁Loas	-13.1803
▁tshajplaw	-13.1803
AME	-13.1804
▁Childre	-13.1805
OOM	-13.1808
dison	-13.1808
▁Mary	-13.1809
▁YU	-13.1811
361	-13.1812
▁tseen	-13.1816
▁ntxu	-13.1817
▁zoozoo	-13.1819
▁xwg	-13.1821
▁Xaam	-13.1824
▁taxi	-13.1826
▁sang	-13.1826
▁vum	-13.1829
▁GENE	-13.1833
hub	-13.1833
▁piab	-13.1834
▁plhe	-13.1834
lajkab	-13.1836
AWJ	-13.1838
▁kwjha	-13.1838
▁UV	-13.1841
OOJ	-13.1842
▁lubcev	-13.1844
▁totall	-13.1844
kiab	-13.1845
aGF	-13.185
AKE	-13.1853
▁bam	-13.1856
ywj	-13.1856
lej	-13.1857
▁cents	-13.186
▁ualicas	-13.1862
▁combine	-13.1862
ner	-13.1863
AWS	-13.1864
hour	-13.1867
▁pabtha	-13.1868
▁Vangvien	-13.1871
alifonia	-13.1872
▁wide	-13.1874
Dr	-13.1874
▁supporter	-13.1881
▁cojnoj	-13.1882
npuas	-13.1885
▁Interio	-13.1885
▁hahah	-13.1886
▁twh	-13.1888
cc	-13.1895
qw	-13.1896
story	-13.1898
▁tud	-13.1902
skas	-13.1904
▁tiaskuv	-13.1907
▁lujx	-13.1909
jhe	-13.1911
▁CAP	-13.1919
▁Dabtsi	-13.1919
▁qob	-13.192
▁select	-13.192
yi	-13.1922
CA	-13.193
AWB	-13.1941
▁motor	-13.1942
▁Nkee	-13.1945
▁taim	-13.1945
▁core	-13.1945
txias	-13.1947
▁Kv	-13.1949
▁txhaw	-13.1952
▁1200	-13.1953
lau	-13.1956
state	-13.1962
elementary	-13.1964
cav	-13.1969
▁rhua	-13.197
▁Ever	-13.1975
Muas	-13.1978
▁suavteb	-13.1979
UAJ	-13.198
▁yad	-13.1981
▁Both	-13.1981
txhaum	-13.1985
Lem	-13.1989
▁approv	-13.2001
▁PR	-13.2004
global	-13.2004
world	-13.2005
Cheng	-13.2005
hloov	-13.2006
▁myth	-13.2006
358	-13.2007
Fa	-13.2011
▁!!.	-13.2015
▁qhovquav	-13.2015
▁hmu	-13.2015
17	-13.2015
▁FI	-13.2021
▁Dana	-13.2021
▁ton	-13.2021
▁203	-13.2022
▁Citizen	-13.2031
ff	-13.2035
▁Frank	-13.2041
▁tojroo	-13.2046
lk	-13.2047
▁RHO	-13.2054
▁ntshw	-13.2054
▁anthr	-13.2055
▁DEMOCRAC	-13.2057
▁Festival	-13.2057
▁Which	-13.2057
▁BOMB	-13.2057
▁PERFECT	-13.2057
▁repent	-13.2057
▁oversea	-13.2057
▁Traitor	-13.2057
▁carpet	-13.2057
▁persue	-13.2057
▁brief	-13.2057
▁UHV	-13.2057
▁Learn	-13.2057
▁silent	-13.2057
▁equipment	-13.2057
▁nchaa	-13.2057
▁underage	-13.2058
▁seminar	-13.2058
▁Ombudsma	-13.2058
▁NPAWS	-13.2058
▁strike	-13.2058
▁Nyuab	-13.2058
▁BEST	-13.2058
▁Zoua	-13.2059
▁Hmmob	-13.2059
▁Kenne	-13.2059
▁LIBER	-13.2059
▁Angola	-13.2059
▁confident	-13.2059
▁Qhib	-13.2059
▁racis	-13.2059
▁KUv	-13.2061
▁weight	-13.2061
▁ves	-13.2062
▁lower	-13.2063
▁TXHOM	-13.2064
▁NQES	-13.2064
▁nyaib	-13.2065
▁emergenc	-13.2066
▁Xyom	-13.2067
▁KHAWB	-13.2072
▁admitt	-13.2072
▁Npav	-13.2072
Lqn	-13.2075
inwung	-13.2075
khuam	-13.2076
▁literal	-13.2077
▁iii	-13.2077
XAIM	-13.2078
▁sistxuas	-13.208
▁zauj	-13.2081
▁dlob	-13.2083
▁hluasnraug	-13.2083
▁Zone	-13.2084
▁ceevx	-13.2084
ni	-13.2087
▁Temsi	-13.209
▁hij	-13.209
SX	-13.2092
DS	-13.2094
ire	-13.2096
till	-13.2097
xes	-13.2098
▁thoos	-13.2098
▁rocket	-13.2099
▁comfort	-13.2099
▁LC	-13.2103
▁practic	-13.2103
▁weapons	-13.2105
▁suck	-13.2107
Tub	-13.2108
▁RADI	-13.2108
.....	-13.2109
▁npooj	-13.211
▁det	-13.2115
▁speculate	-13.2118
teev	-13.2118
▁Maam	-13.2119
LINE	-13.2121
=8	-13.2121
▁Saum	-13.2124
▁answers	-13.2126
▁NEO	-13.2127
▁dominate	-13.2129
dis	-13.2136
▁poli	-13.2138
▁bno	-13.2142
une	-13.2143
▁STOP	-13.2145
ska	-13.2146
nag	-13.2149
▁sibhaumxee	-13.2152
▁Ou	-13.2159
▁TN	-13.2162
▁Mission	-13.2163
true	-13.2164
▁cable	-13.217
do	-13.2174
TSWV	-13.2176
kasmoos	-13.2176
▁193	-13.2176
▁che	-13.2181
5800	-13.2182
▁Mav	-13.2183
NT	-13.2194
▁wing	-13.2195
▁polite	-13.2199
▁dec	-13.2199
plag	-13.2204
▁commercial	-13.2207
▁rise	-13.2209
sted	-13.2212
▁Nob	-13.2213
▁!!!!!!!!!!	-13.2214
▁fam	-13.2215
▁LOOK	-13.2218
▁Tel	-13.2226
▁fan	-13.2226
▁edit	-13.223
▁georg	-13.2231
▁expire	-13.2233
▁Dlai	-13.2233
▁CAUSE	-13.2234
NH	-13.2235
▁Phon	-13.2236
npawg	-13.2238
inh	-13.2243
chaofa	-13.2243
huas	-13.2243
txhua	-13.2244
▁tejlus	-13.2245
▁slaver	-13.2247
lf	-13.225
dlaag	-13.2252
▁xuvxw	-13.2252
▁SP	-13.2255
▁FA	-13.2257
41	-13.226
▁Aud	-13.2261
▁kiaglawm	-13.2262
▁dlais	-13.2264
▁thw	-13.2265
▁phan	-13.2268
▁Yiv	-13.2269
▁plabplaw	-13.227
plaim	-13.2272
▁Yor	-13.2277
▁Nthua	-13.2282
IJ	-13.2283
txhiaj	-13.229
▁$60	-13.2294
▁error	-13.2294
▁articles	-13.2296
▁dualawm	-13.23
Yaig	-13.23
xi	-13.2308
TIS	-13.2309
kws	-13.2311
▁eve	-13.2311
ntswg	-13.2313
Rwg	-13.2314
haj	-13.2315
txivneej	-13.2315
▁tsispaub	-13.2316
ntshiab	-13.232
▁suprem	-13.2322
pt	-13.2322
xawm	-13.2325
coming	-13.2327
702	-13.2329
▁tool	-13.2331
XWM	-13.2331
▁Preventi	-13.2339
sp	-13.2341
lawvlub	-13.2341
YOG	-13.2347
▁crap	-13.2348
▁spokes	-13.2351
▁Txua	-13.2352
▁Txawjvam	-13.2353
▁Polic	-13.2353
▁Bar	-13.2355
▁Poo	-13.2357
▁exact	-13.2357
▁counsel	-13.2358
▁Yin	-13.2359
▁Saab	-13.2359
ROUND	-13.236
▁CONTACT	-13.236
▁Mutual	-13.236
▁strength	-13.236
▁dialogue	-13.236
▁distinguish	-13.236
▁najnpaw	-13.236
▁ignorant	-13.236
▁Jungle	-13.236
▁Canber	-13.236
▁WHOLE	-13.236
▁permit	-13.236
▁dozen	-13.236
▁DABNEEG	-13.236
▁classmate	-13.236
▁doens	-13.236
▁knock	-13.236
▁righteous	-13.236
▁winner	-13.236
▁RESPECT	-13.2361
▁Sadam	-13.2361
▁HAIVNEEG	-13.2361
▁hotdog	-13.2361
▁Archive	-13.2361
▁Guyan	-13.2361
Pheej	-13.2361
▁NTXHOV	-13.2361
▁servant	-13.2361
▁Still	-13.2362
▁Beginanew	-13.2362
▁regulation	-13.2362
▁HOPE	-13.2362
▁porn	-13.2362
▁Disabilities	-13.2363
▁Dollar	-13.2363
▁tseeem	-13.2363
▁CREDIT	-13.2364
▁HN	-13.2364
▁paajlug	-13.2364
▁CAWS	-13.2364
lib	-13.2365
▁Bliatou	-13.2365
▁download	-13.2365
▁burger	-13.2365
▁NRAWM	-13.2365
Khekme	-13.2366
▁bait	-13.2366
▁memorial	-13.2367
▁BYE	-13.2367
▁HLAWV	-13.2368
ZH	-13.2369
▁blessing	-13.2371
▁historical	-13.2371
thaiv	-13.2371
▁Tsaus	-13.2372
tan	-13.2372
▁dawbpaug	-13.2372
▁Make	-13.2372
AJ	-13.2374
▁Kabliab	-13.2375
ec	-13.2375
▁decades	-13.2376
▁TUAB	-13.2377
faib	-13.2377
▁dump	-13.2378
istic	-13.2379
▁luagntxhi	-13.2379
▁****	-13.2381
▁Qaug	-13.2381
▁Rub	-13.2381
▁RED	-13.2382
gDQo	-13.2383
nyias	-13.2385
▁450	-13.2385
▁dlhos	-13.2389
▁prayer	-13.2389
▁160	-13.239
vwm	-13.2393
▁MIV	-13.2394
▁tshia	-13.2396
▁Sat	-13.2398
yug	-13.2399
100	-13.24
▁ACA	-13.2401
▁431	-13.2402
ieng	-13.2404
nti	-13.2409
▁tshaajplaw	-13.2412
▁91	-13.2414
▁Faib	-13.2415
▁naha	-13.2415
▁sibsau	-13.2418
▁ntawmkuv	-13.2429
net	-13.2438
▁cows	-13.2438
gd	-13.2438
rious	-13.2438
mev	-13.2439
ght	-13.2441
tiav	-13.2441
▁Max	-13.2445
▁joint	-13.2448
EEV	-13.2448
▁hire	-13.2454
YN	-13.2456
▁yeb	-13.2459
▁Name	-13.2464
▁scar	-13.247
▁LEV	-13.2472
IEN	-13.249
▁190	-13.25
▁prob	-13.2507
60	-13.2508
▁TAI	-13.2509
▁Nyavd	-13.2514
LG	-13.2514
▁sh	-13.2517
▁ying	-13.2517
KOOB	-13.2519
ikuv	-13.252
▁npho	-13.2534
artial	-13.2536
▁tseemmuaj	-13.2542
▁Thas	-13.2549
ht	-13.255
▁BZ	-13.2551
app	-13.2556
▁Wis	-13.2556
abcuam	-13.2557
▁qwj	-13.2558
▁Txhoj	-13.2558
mphaj	-13.256
▁reconciliat	-13.256
UA	-13.2565
▁Deng	-13.2567
khawb	-13.2569
▁Ther	-13.2571
ement	-13.2579
sov	-13.2586
978	-13.2592
▁kl	-13.2595
luib	-13.2596
▁acts	-13.2597
▁tshw	-13.2597
▁CF	-13.2599
jeC	-13.2603
▁Con	-13.2614
▁Mag	-13.2616
Ntuj	-13.2622
XOB	-13.2624
▁buddh	-13.2627
by	-13.2628
asith	-13.2629
▁Ees	-13.2629
ital	-13.2631
mhoob	-13.2633
▁Txaw	-13.2634
nyag	-13.2635
▁khooj	-13.2637
▁consonant	-13.2638
tomntej	-13.2639
▁Fuabtai	-13.264
▁Hihihi	-13.2641
▁Khet	-13.2643
▁Xyo	-13.2651
▁Iran	-13.2651
▁Sch	-13.2656
HAIV	-13.266
▁Employ	-13.2662
▁Kablia	-13.2665
fortune	-13.2672
▁CHRISTIAN	-13.2672
▁GENERATION	-13.2672
▁alternative	-13.2672
▁syndrom	-13.2672
▁LABEL	-13.2672
▁sudden	-13.2672
▁recipe	-13.2672
▁joking	-13.2672
▁HASTING	-13.2672
▁Phomvihan	-13.2672
▁helicopter	-13.2672
▁Chicago	-13.2672
▁Tsachij	-13.2673
▁Rule	-13.2673
IHdy	-13.2673
▁Greek	-13.2673
▁BLACK	-13.2673
▁OFFICE	-13.2673
▁JAIL	-13.2673
▁Khmu	-13.2673
▁season	-13.2674
▁basement	-13.2674
XEEM	-13.2674
▁txopg	-13.2674
LqH	-13.2674
▁yeeej	-13.2675
▁Facility	-13.2675
▁?......	-13.2676
▁mammuab	-13.2677
▁ntlag	-13.2677
oth	-13.2678
▁oxy	-13.2678
▁yofg	-13.2678
avior	-13.2678
▁fiav	-13.2679
▁borrow	-13.2679
▁coup	-13.268
▁collective	-13.2681
▁TXOB	-13.2681
▁bright	-13.2681
▁quv	-13.2681
▁Npog	-13.2682
▁XUAS	-13.2684
▁PERSECUTE	-13.2685
toom	-13.2689
▁ZEEJ	-13.269
▁boil	-13.269
tsuaj	-13.2692
▁Khawv	-13.2693
cog	-13.2694
xas	-13.2695
▁mauv	-13.2695
▁saved	-13.2699
▁Puam	-13.2701
▁saav	-13.2707
▁LEADERS	-13.2707
▁92	-13.2708
▁nqo	-13.2708
▁qhabna	-13.2709
▁harrass	-13.271
AUS	-13.2711
▁AIB	-13.2713
▁Tw	-13.2715
KUJ	-13.2717
05	-13.2717
▁COUNT	-13.2718
▁)))	-13.2719
▁PX	-13.2719
NTAJ	-13.272
▁equi	-13.2722
▁nchu	-13.2727
▁YOUTUB	-13.2727
PA	-13.2729
▁qhovcub	-13.2731
▁TR	-13.2733
Suav	-13.2733
▁Nig	-13.2734
▁ntxiaj	-13.2734
RFA	-13.2734
pussy	-13.2735
ygo	-13.2735
garden	-13.2735
▁FUN	-13.2737
▁peoples	-13.2744
▁dare	-13.2745
▁useful	-13.275
ese	-13.2751
▁SOJ	-13.2755
KAUV	-13.2764
▁loojme	-13.2768
sexy	-13.2771
▁Tsavli	-13.2771
▁vin	-13.2774
▁Hopeful	-13.2775
fishing	-13.2776
▁vaajpo	-13.2776
pp	-13.2789
▁HC	-13.279
▁dhaulawm	-13.2808
Ua	-13.2811
▁cyberspa	-13.2813
▁->	-13.2814
▁KH	-13.2818
▁hnya	-13.2818
▁five	-13.2821
▁bid	-13.2827
space	-13.2828
▁$120	-13.2831
▁zoonraug	-13.2832
caws	-13.2834
▁Kan	-13.2836
Jr	-13.2838
▁Cias	-13.2838
▁Tamsisno	-13.2839
▁MOM	-13.284
LIS	-13.2841
▁kevkawm	-13.2843
▁Txha	-13.2844
▁phle	-13.2847
31	-13.2849
▁nkaujhmoob	-13.2852
LAJ	-13.2852
▁338	-13.286
▁HT	-13.2863
xaim	-13.2864
▁LOGIC	-13.2864
▁ana	-13.2865
pauv	-13.2867
NTIV	-13.2874
▁que	-13.2876
him	-13.2881
▁Ncua	-13.2883
valent	-13.2883
▁EN	-13.2883
▁tusiav	-13.2884
▁????????	-13.2887
TIC	-13.2889
▁taslawm	-13.289
▁fell	-13.2891
miv	-13.2892
▁kou	-13.2896
▁giv	-13.2896
▁ED	-13.29
▁hnu	-13.2904
▁tough	-13.2908
▁LIST	-13.2918
mn	-13.2918
▁pour	-13.2924
▁herb	-13.2925
▁Hmoobvaj	-13.2937
▁Lengsavat	-13.2947
luang	-13.2947
lios	-13.2952
koov	-13.2957
▁txoh	-13.2958
2005	-13.2958
▁heevkawg	-13.2959
chawj	-13.2959
▁christain	-13.296
vang	-13.2964
ury	-13.2966
krabok	-13.2972
▁Souk	-13.2975
LAUS	-13.2981
▁prosperit	-13.2981
▁ibsab	-13.2983
▁Host	-13.2983
tsib	-13.2985
▁2500	-13.2988
▁ntias	-13.2991
AWV	-13.2992
▁Mika	-13.2992
▁COMPATRIOT	-13.2995
▁Gossip	-13.2995
▁YAWEH	-13.2995
▁instrument	-13.2995
▁universal	-13.2995
▁NTXEEV	-13.2995
▁TXHAWB	-13.2995
▁latin	-13.2995
▁NPLEJ	-13.2995
▁Brooklyn	-13.2995
▁TEEBMEEM	-13.2995
▁Savannakhe	-13.2995
▁PEPSI	-13.2996
▁assembly	-13.2996
▁valuable	-13.2996
▁atleast	-13.2996
▁Ntaaj	-13.2996
▁KHUV	-13.2996
▁European	-13.2996
▁chairman	-13.2996
▁dabntub	-13.2996
▁NYOM	-13.2997
▁assessment	-13.2997
▁dadej	-13.2997
▁guideline	-13.2997
▁ultimate	-13.2998
▁everyday	-13.2998
▁KHAB	-13.2998
▁Yu	-13.2998
▁Whole	-13.2998
▁NCAIM	-13.2998
▁DAWJ	-13.2999
▁AUTO	-13.2999
▁THIB	-13.3
▁signal	-13.3001
▁HUAS	-13.3002
▁Lonewrit	-13.3002
▁four	-13.3002
▁Samneu	-13.3002
▁payment	-13.3002
▁LUCK	-13.3003
▁reg	-13.3003
CP	-13.3004
▁tseemnyob	-13.3005
▁estate	-13.3006
▁kablig	-13.3006
▁suiab	-13.3007
▁ORDER	-13.3008
▁tuskwv	-13.3008
▁Agree	-13.3009
▁ndlua	-13.3009
▁opportuniti	-13.301
▁tshavntuj	-13.301
▁FACE	-13.3013
Lqt	-13.3015
▁Isn	-13.3015
taab	-13.3015
▁Kun	-13.3016
▁Acha	-13.3017
▁juj	-13.3017
▁Fire	-13.3017
▁Huay	-13.3018
▁Lwb	-13.302
ery	-13.3021
▁westerner	-13.3022
▁KHAUM	-13.3024
▁ntsaaj	-13.3024
BI	-13.3024
▁Gate	-13.3026
▁ywb	-13.3027
▁Toob	-13.303
HUV	-13.3032
▁graduati	-13.3032
Lqh	-13.3032
▁REALIST	-13.3036
▁tie	-13.3037
▁eng	-13.3038
▁rain	-13.3038
▁ntsaav	-13.304
anning	-13.304
▁Han	-13.3042
▁Dia	-13.3042
Academ	-13.3044
▁TubPo	-13.3046
▁Need	-13.3047
▁dekfangkho	-13.3047
Xab	-13.3049
▁paig	-13.305
▁210	-13.3052
main	-13.3052
UJ	-13.3057
▁thaumntawd	-13.3059
ters	-13.3062
▁ualuam	-13.3064
tsua	-13.3066
vd	-13.3067
NIAM	-13.3069
▁primar	-13.3069
encephal	-13.3069
▁zob	-13.307
▁kwb	-13.3079
▁thinks	-13.308
khw	-13.3084
fu	-13.3086
mog	-13.3089
▁Tsoo	-13.3092
▁Ntxw	-13.3092
▁qhoom	-13.3093
▁mw	-13.3097
cide	-13.3097
▁PL	-13.3098
▁Miche	-13.3099
▁persons	-13.3099
▁movtshua	-13.3101
we	-13.3106
ywv	-13.311
Nomdub	-13.3111
faaj	-13.3111
yav	-13.3116
▁Hmab	-13.3117
amthawj	-13.312
▁Mom	-13.312
tshauv	-13.312
▁NRAU	-13.3123
SUAV	-13.3125
▁nrhee	-13.3132
thoj	-13.3137
▁qhaug	-13.3137
TSIM	-13.3137
▁calculate	-13.3141
▁butt	-13.3143
ld	-13.3148
▁Pol	-13.3148
ZUS	-13.315
▁Ask	-13.3157
▁yawgkoob	-13.3157
venge	-13.316
▁:(	-13.3161
▁nruabnra	-13.3162
▁Yas	-13.3163
▁unit	-13.3163
maim	-13.3165
RAWM	-13.3166
bok	-13.3166
▁Chaofab	-13.3169
shia	-13.317
▁HNO	-13.317
va	-13.3171
Company	-13.3172
▁Txab	-13.3174
nis	-13.3178
nrab	-13.3183
▁Chan	-13.3185
▁mloo	-13.3187
tiv	-13.3189
mis	-13.3189
TO	-13.319
▁Moobt	-13.3196
▁Ntsw	-13.3196
dium	-13.3199
39	-13.32
ara	-13.3201
▁260	-13.3201
▁nyw	-13.3206
formed	-13.3216
den	-13.3218
mu	-13.322
laib	-13.3224
haav	-13.3224
▁NOI	-13.3226
▁bu	-13.3226
▁Ntshais	-13.323
gT	-13.3232
▁Zooli	-13.3233
▁dlho	-13.3236
▁qhoo	-13.3237
▁Ntsha	-13.3237
="	-13.324
▁sibntau	-13.3241
▁Chua	-13.3243
▁Concord	-13.3243
▁757	-13.3244
▁OFF	-13.3249
ging	-13.3249
988	-13.3251
=20	-13.3255
▁expose	-13.3257
ciaj	-13.3258
▁Fo	-13.3258
▁hahhahahaha	-13.3258
▁sons	-13.3259
▁phak	-13.3259
EW	-13.3261
▁Bei	-13.3261
ut	-13.3268
▁polici	-13.3271
lawg	-13.3274
▁Uj	-13.3277
▁AA	-13.3283
▁exam	-13.329
ok	-13.3291
holding	-13.3295
▁nkausli	-13.3305
dding	-13.3312
▁fabricate	-13.3312
▁FAG	-13.3316
daim	-13.3317
▁ntawj	-13.3319
▁THANKS	-13.332
lc	-13.332
▁hehehhe	-13.3322
AN	-13.3322
ean	-13.3322
▁shock	-13.3326
▁range	-13.3327
▁assign	-13.3327
▁Republic	-13.3328
▁KHHX	-13.3328
▁amazing	-13.3328
▁exploit	-13.3328
▁TRUTH	-13.3328
▁trend	-13.3328
▁Queen	-13.3328
▁Noobqes	-13.3328
▁Wikileak	-13.3328
▁definite	-13.3328
▁proverb	-13.3328
▁NKUAJ	-13.3328
▁determination	-13.3328
▁Brown	-13.3328
▁genetic	-13.3328
▁Research	-13.3328
▁TERM	-13.3328
▁GUARANTEE	-13.3328
▁ADMIT	-13.3329
▁MATTER	-13.3329
▁obligation	-13.3329
▁milk	-13.3329
▁SECOND	-13.3329
▁Dream	-13.3329
▁KHWB	-13.3329
▁Teacher	-13.3329
▁imagination	-13.3329
▁MEN	-13.333
▁Oreg	-13.333
▁larry	-13.333
roit	-13.333
▁tubntsuaghmoob	-13.333
▁blank	-13.333
▁TSEEMSW	-13.3331
▁DOLLAR	-13.3331
▁tsdis	-13.3331
▁1930	-13.3331
▁HinHe	-13.3332
▁Savanh	-13.3333
▁500$	-13.3334
▁Sahapha	-13.3334
▁QHUAB	-13.3334
▁tuition	-13.3334
▁Ntiv	-13.3334
▁troops	-13.3334
▁WIN	-13.3335
▁Hlubhmoob	-13.3335
▁hahahahahah	-13.3336
▁YIJ	-13.3336
guC	-13.3337
▁KHAWV	-13.3337
▁spam	-13.3337
▁KHAS	-13.3338
▁governments	-13.3338
▁Naag	-13.3338
▁acknowledge	-13.3339
yaum	-13.3341
▁DIB	-13.3341
▁THOOB	-13.3342
▁97	-13.3342
▁BELIEVE	-13.3343
▁coglus	-13.3345
▁hujsa	-13.3349
eker	-13.335
ssenger	-13.3351
▁teen	-13.3351
▁pujyawm	-13.3352
▁Doos	-13.3355
▁pee	-13.3355
▁Yawd	-13.3356
▁Nrauj	-13.3357
▁Dawm	-13.3357
▁Tell	-13.3358
▁lesbian	-13.336
▁MAY	-13.336
▁peaco	-13.3361
▁Ulia	-13.3364
▁iblo	-13.3364
▁Phao	-13.3366
▁WERE	-13.3367
ncaws	-13.3367
▁flower	-13.3368
▁sej	-13.337
▁Use	-13.3373
▁LEJ	-13.3373
▁restrain	-13.3376
rt	-13.3378
▁Nyom	-13.3378
▁tajla	-13.3379
▁mosX	-13.338
▁broad	-13.338
61	-13.3387
▁bed	-13.339
▁lajlee	-13.3392
▁Phuajxa	-13.3393
ot	-13.3398
▁imply	-13.3399
Thawj	-13.34
▁thoojsiab	-13.3403
▁mall	-13.3403
▁Ntxa	-13.3404
▁TID	-13.3407
▁Sing	-13.3408
▁ASIA	-13.3409
37	-13.3409
▁siabntev	-13.341
▁Huh	-13.341
▁Paula	-13.341
▁TC	-13.3412
▁Nka	-13.3412
nformation	-13.3412
▁txujlug	-13.3416
▁foreigner	-13.3421
▁SELF	-13.3422
▁yoos	-13.3424
cent	-13.3424
POG	-13.3425
AMLI	-13.3426
▁">	-13.343
try	-13.3435
▁dc	-13.3438
▁Daw	-13.3439
▁Xy	-13.344
▁Fiv	-13.3443
lr	-13.3446
▁Mae	-13.3446
▁tejkev	-13.3447
▁lnk	-13.345
▁xabn	-13.3451
▁Tsus	-13.3458
▁Maib	-13.3462
greenbay	-13.3465
▁excit	-13.3465
standing	-13.3466
HL	-13.3469
▁Tri	-13.3472
mi	-13.3473
▁resettlemen	-13.3476
▁Uta	-13.3477
▁develope	-13.3481
▁Bouas	-13.3482
OUR	-13.3484
▁Qhuas	-13.3484
sia	-13.3487
lij	-13.3496
▁hr	-13.3499
Taste	-13.3499
▁Thej	-13.3509
txais	-13.351
▁55555	-13.3514
▁Eh	-13.3515
tbn	-13.3515
▁hill	-13.3517
uto	-13.3518
tI	-13.3525
▁hou	-13.3525
▁txivtsev	-13.3526
▁nplai	-13.3527
▁stopp	-13.3533
tib	-13.3534
alley	-13.3542
▁Barbar	-13.3546
▁TSHI	-13.3548
web	-13.3551
▁youth	-13.3556
ncaj	-13.3557
puam	-13.3559
▁Ri	-13.356
avanh	-13.3574
bee	-13.3577
xawj	-13.3577
▁LAST	-13.3579
laim	-13.3579
▁wi	-13.3584
year	-13.3589
deev	-13.3593
▁nplho	-13.3594
▁$70	-13.3596
▁vaajm	-13.3596
▁Eng	-13.3597
qaub	-13.3599
▁Phra	-13.3605
▁PER	-13.3606
▁ibhom	-13.3607
▁TNB	-13.3611
swjhwm	-13.3611
▁ou	-13.3613
▁heheheheheh	-13.3615
women	-13.3621
DUB	-13.3623
saam	-13.3626
ausuav	-13.3627
peg	-13.3627
nna	-13.3635
JVA	-13.3637
DAWB	-13.364
▁Pia	-13.3643
▁ego	-13.3647
cuj	-13.3647
▁Mn	-13.3649
▁crack	-13.3649
▁Friends	-13.3652
Dub	-13.3653
▁FL	-13.3659
▁temper	-13.3659
fong	-13.3665
ro	-13.3668
▁PEACE	-13.367
▁Advisor	-13.3673
▁bargain	-13.3673
▁breath	-13.3673
▁Insurance	-13.3673
▁ALWAY	-13.3673
▁Click	-13.3673
▁PALTALK	-13.3673
▁diaper	-13.3673
▁Baptist	-13.3673
▁expertise	-13.3673
▁TxawjVamYia	-13.3673
▁NRIG	-13.3673
▁denomination	-13.3673
_______________	-13.3673
▁GIVE	-13.3673
▁TAGKIS	-13.3673
▁Place	-13.3673
▁umbrella	-13.3673
▁baseball	-13.3673
▁NORMAL	-13.3673
▁childish	-13.3673
▁duties	-13.3673
▁Surge	-13.3673
▁TSEM	-13.3674
▁dok	-13.3674
▁rebel	-13.3674
▁plague	-13.3674
▁upper	-13.3674
▁Txhawj	-13.3674
▁fundamental	-13.3674
▁MEDAL	-13.3674
▁Hzen	-13.3674
▁champion	-13.3674
▁DPT	-13.3674
▁kilometer	-13.3674
▁korean	-13.3675
▁infection	-13.3675
▁KLG	-13.3675
▁HLAIS	-13.3675
▁expectation	-13.3676
▁Give	-13.3676
▁DHUAV	-13.3676
▁scope	-13.3676
▁Communication	-13.3676
▁LOEI	-13.3676
▁Issue	-13.3676
▁usage	-13.3676
▁NCUAV	-13.3677
▁grill	-13.3678
▁object	-13.3678
▁Dejtshiab	-13.3678
▁IRC	-13.3678
▁angle	-13.3678
▁Yeebceeb	-13.3678
▁bacteria	-13.3679
▁Finding	-13.3679
▁jhav	-13.3681
▁batter	-13.3681
LqB	-13.3681
▁feemntau	-13.3682
▁LUJ	-13.3682
▁luangp	-13.3684
▁administration	-13.3685
▁nhab	-13.3685
▁Huana	-13.3687
▁doctrine	-13.3687
▁hihihi	-13.3688
▁ntsiob	-13.3688
▁actors	-13.3689
kaw	-13.3689
▁blaum	-13.369
▁Ntxuav	-13.3691
caav	-13.3694
▁york	-13.3694
lui	-13.3695
▁agthi	-13.3696
▁ciamteb	-13.3696
▁Ntsuabxw	-13.3697
lg	-13.3698
▁NTX	-13.3699
▁KHOOV	-13.3701
▁Diab	-13.3702
▁elite	-13.3703
ves	-13.3705
nrhiav	-13.3705
▁kluv	-13.3705
ual	-13.3707
▁Nel	-13.371
▁Share	-13.3711
▁HMONGS	-13.3713
▁nkuag	-13.3713
PEB	-13.3713
▁MO	-13.3716
▁load	-13.3716
ARY	-13.3718
▁copie	-13.3728
tired	-13.3732
▁tshawg	-13.3733
▁hawmntawd	-13.3734
iew	-13.3738
▁khem	-13.3738
▁saint	-13.374
▁510	-13.3742
ns	-13.3742
▁Kheng	-13.3743
▁researcher	-13.3744
▁brave	-13.3745
msg	-13.3747
▁Haw	-13.3748
▁reps	-13.3748
▁Sy	-13.375
arma	-13.3752
▁koospha	-13.3756
0800	-13.376
▁ntxhwb	-13.3761
▁elder	-13.3764
▁Vongsavan	-13.3764
▁Drive	-13.3764
vauv	-13.3767
▁XAJ	-13.3767
XAUM	-13.3769
khouang	-13.3772
▁NKAW	-13.3772
▁spen	-13.3776
▁camps	-13.3778
nqe	-13.3781
▁Hot	-13.3783
▁pad	-13.3786
fuam	-13.3789
▁Het	-13.379
kuvlub	-13.3793
sw	-13.38
▁paw	-13.3801
▁koomtsis	-13.3803
amthong	-13.3804
▁mamkom	-13.3805
▁nqaag	-13.3805
▁Cog	-13.3808
▁boundar	-13.3809
titude	-13.381
Golden	-13.3816
tauj	-13.3816
▁Hehehehehe	-13.3822
▁Socie	-13.3824
outhern	-13.3826
▁PHAU	-13.3827
▁145	-13.3832
▁tight	-13.3833
ike	-13.3839
nev	-13.3841
rain	-13.3842
▁Hie	-13.3848
69	-13.3851
▁EXP	-13.3851
▁CAIS	-13.3851
▁beevee	-13.3856
MNZ	-13.3856
HO	-13.3859
▁israel	-13.386
kaoly	-13.3861
ivkas	-13.3862
KPg	-13.3867
▁angel	-13.3867
▁TXIA	-13.3868
ZUJ	-13.3868
puab	-13.3872
84	-13.3875
▁temp	-13.388
SIB	-13.3885
raya	-13.3886
?)	-13.3887
hiam	-13.3887
▁Solomo	-13.3889
hev	-13.389
lang	-13.3897
lz	-13.3897
▁Che	-13.3897
▁Ga	-13.3898
▁Sacto	-13.3898
eo	-13.3903
txij	-13.3904
▁nthaw	-13.3904
sty	-13.3907
▁pajkau	-13.3908
▁muslim	-13.3909
▁tssi	-13.3912
yfoung	-13.392
▁Mung	-13.3921
▁Vajtsw	-13.3922
▁Blooj	-13.3924
ncua	-13.3926
▁Craz	-13.3926
xev	-13.393
▁tshoobko	-13.3932
▁DIS	-13.3935
BASS	-13.3943
▁bag	-13.3943
▁xyas	-13.3946
pos	-13.3951
▁jet	-13.3952
01	-13.3956
nkag	-13.3958
rning	-13.396
▁siabzoo	-13.3961
NWS	-13.3961
quot	-13.3966
becca	-13.3967
▁Txh	-13.397
oli	-13.3976
xibfwb	-13.3979
▁intentional	-13.3981
spice	-13.3982
xais	-13.3983
▁Tsiv	-13.3986
▁Nak	-13.3986
ten	-13.3989
▁MB	-13.399
zaug	-13.3991
EY	-13.3992
xyeem	-13.3994
▁nq	-13.3999
▁user	-13.4002
QN	-13.4008
▁1800	-13.4016
▁nyuabx	-13.4019
mboo	-13.4019
▁boon	-13.402
▁$80	-13.4022
▁gu	-13.4022
▁Vimlica	-13.4022
▁suppose	-13.4022
▁tsevlawm	-13.4024
eginanew	-13.4028
relevant	-13.403
▁NAJKAIB	-13.403
▁RESULT	-13.403
▁legitimacy	-13.403
▁BUSINESS	-13.403
▁Improve	-13.403
▁fashion	-13.403
▁profanity	-13.403
▁botuli	-13.403
▁resort	-13.403
▁prominent	-13.403
▁disaster	-13.403
▁civilization	-13.403
▁flash	-13.403
▁amount	-13.403
▁Chiangrai	-13.403
▁NOMTSWV	-13.403
▁toilet	-13.403
▁merced	-13.4031
▁NEGATI	-13.4031
▁ministry	-13.4031
▁Cwjso	-13.4031
▁TXHAJ	-13.4031
caum	-13.4031
▁QAUG	-13.4031
▁powerball	-13.4031
▁shadow	-13.4031
▁cruise	-13.4031
▁mutual	-13.4031
▁Jail	-13.4031
▁MILLIONS	-13.4031
▁TXHOS	-13.4031
▁grandpa	-13.4031
▁Talk	-13.4031
▁counselor	-13.4031
▁journalist	-13.4031
▁NTXAWG	-13.4032
▁airplane	-13.4032
BODY	-13.4032
▁civilian	-13.4032
▁recover	-13.4032
▁tongue	-13.4032
▁PCV	-13.4032
▁Oak	-13.4032
▁Politician	-13.4033
▁OHYO	-13.4033
▁realistic	-13.4033
▁vowel	-13.4033
▁mercy	-13.4034
▁Hearing	-13.4034
▁Nebra	-13.4034
▁YOJ	-13.4034
▁kooshaum	-13.4035
▁Ceebtsheej	-13.4035
▁LEARN	-13.4035
▁XEJ	-13.4035
▁Walk	-13.4035
▁THAUJ	-13.4035
▁Naikho	-13.4035
▁txhoob	-13.4035
▁motivate	-13.4035
▁Paajnruag	-13.4037
▁BAR	-13.4037
▁KHAWM	-13.4037
▁LEAD	-13.4037
▁Ntujceeb	-13.4039
▁secure	-13.4039
▁wall	-13.4039
▁XYOOB	-13.404
▁TRY	-13.4041
▁YAIG	-13.4041
▁spoken	-13.4041
▁nujnqes	-13.4042
▁tiagX	-13.4042
▁opeb	-13.4043
txha	-13.4043
▁HUAM	-13.4043
▁KAUS	-13.4043
▁Legal	-13.4044
▁teejtu	-13.4045
▁NTXWV	-13.4045
▁KHOB	-13.4046
▁Sound	-13.4046
▁procedure	-13.4049
▁fax	-13.4049
▁povkhawv	-13.405
ntses	-13.405
▁Nplob	-13.4051
▁coinciden	-13.4051
▁mor	-13.4051
▁task	-13.4052
▁treated	-13.4052
▁Advers	-13.4052
▁lugtxaj	-13.4053
▁Members	-13.4053
▁Zaam	-13.4053
▁tend	-13.4055
▁creation	-13.4056
▁Stone	-13.4056
▁Phoojywgzoo	-13.4058
▁Touge	-13.4059
▁laas	-13.406
▁Plab	-13.406
▁Change	-13.4061
▁bitch	-13.4062
NTUJ	-13.4063
▁ntsum	-13.4064
▁Fib	-13.4067
▁tshws	-13.4068
▁consonants	-13.4069
▁Food	-13.4071
▁tuabyw	-13.4071
▁tools	-13.4071
▁Phuan	-13.4071
▁RUAJ	-13.4072
▁uaslawv	-13.4072
▁Aiv	-13.4075
▁Phoufa	-13.4077
▁suavtawg	-13.4078
▁format	-13.4078
▁Democratic	-13.408
▁:.	-13.4081
▁Face	-13.4085
▁CIAB	-13.4086
ADE	-13.4088
▁pounds	-13.4089
▁tubtxawj	-13.4089
▁Lawj	-13.4091
▁siabnyiam	-13.4092
Lqb	-13.4096
eekend	-13.41
▁commies	-13.4101
▁Nonghe	-13.4103
OMAN	-13.4104
▁Yajtshaj	-13.4106
unny	-13.4108
▁stream	-13.4108
▁nga	-13.4109
▁DOESN	-13.4111
▁washingto	-13.4119
fc	-13.4122
gage	-13.4124
▁hnubnyoog	-13.4132
▁route	-13.4134
niv	-13.4136
800	-13.4136
▁sys	-13.4141
front	-13.4141
cyB	-13.4142
SP	-13.4148
ERD	-13.4149
▁txausx	-13.415
▁Ro	-13.4153
▁xoomxai	-13.4155
WJ	-13.4155
▁plom	-13.416
ard	-13.4161
▁dhuas	-13.4163
83	-13.4163
▁fem	-13.4165
▁nrus	-13.4167
ICU	-13.4169
▁657	-13.417
▁nyus	-13.4171
tre	-13.4172
▁Ted	-13.4179
▁reports	-13.4179
▁Xaysombou	-13.4182
fawm	-13.4188
▁Der	-13.4189
▁Web	-13.4199
▁HLUA	-13.4199
noi	-13.42
▁supplie	-13.4203
▁DIE	-13.4204
▁CASE	-13.4206
▁88	-13.4207
▁describ	-13.4214
tiajteb	-13.4217
▁501	-13.4221
ntaus	-13.4221
▁SUA	-13.4227
logy	-13.4228
active	-13.423
▁)-	-13.423
riam	-13.4233
▁MHoobVa	-13.4236
▁quajx	-13.4236
▁Sta	-13.4237
Item	-13.4238
▁Phi	-13.4241
ZY	-13.4241
[...]
