[UNK]	0
<s>	0
</s>	0
[CLS]	0
[SEP]	0
[MASK]	0
▁.	-3.39561
▁,	-3.60807
▁yog	-4.12731
▁li	-4.13713
▁ua	-4.28993
▁los	-4.32843
▁no	-4.36696
▁tsis	-4.44004
▁yuav	-4.44799
▁tau	-4.4701
▁koj	-4.50152
▁lawm	-4.51986
▁kuv	-4.55455
▁cov	-4.58813
▁thiab	-4.60192
▁hais	-4.67512
▁muaj	-4.70423
▁xwb	-4.7196
▁ces	-4.72661
▁rau	-4.74814
▁mus	-4.80414
▁ib	-4.83759
▁tus	-4.84039
▁mas	-4.86648
▁peb	-4.91562
▁lub	-4.91907
▁tias	-5.07195
▁zoo	-5.10948
▁yeej	-5.13354
▁nws	-5.13392
▁Hmoob	-5.17385
▁tsi	-5.22317
▁lawv	-5.22374
▁nyob	-5.30506
▁	-5.31396
▁kom	-5.41486
▁tuaj	-5.44512
▁neeg	-5.44533
▁kev	-5.46107
▁qhov	-5.4727
▁paub	-5.49226
▁tug	-5.53453
▁es	-5.53748
▁tej	-5.55774
▁tseem	-5.55949
▁ntawd	-5.5894
▁twb	-5.61076
▁xav	-5.61905
▁thiaj	-5.64035
▁muab	-5.65417
s	-5.65528
▁?	-5.6872
▁...	-5.72845
▁twg	-5.73811
▁hmoob	-5.75032
▁txog	-5.75285
▁-	-5.79754
▁yus	-5.81263
▁nej	-5.83114
▁lus	-5.84345
▁"	-5.85269
▁cas	-5.8651
▁le	-5.86933
▁siab	-5.87975
▁sib	-5.91779
▁teb	-5.9207
▁luag	-5.93248
▁Kuv	-5.96332
▁thaum	-6.00305
▁Yog	-6.02914
▁coj	-6.03984
▁uas	-6.05696
▁tas	-6.05946
▁pab	-6.06435
▁vim	-6.10213
▁nawb	-6.11429
▁saib	-6.12856
▁hauv	-6.13432
▁txiv	-6.1415
▁kawg	-6.14795
▁pom	-6.15802
▁tiag	-6.1601
▁tag	-6.18026
▁me	-6.19319
▁puas	-6.21995
▁nrog	-6.24252
▁ho	-6.27163
▁ntau	-6.2739
▁yam	-6.28975
▁yawg	-6.29531
▁noj	-6.29848
▁kiag	-6.3111
▁ntawm	-6.32296
▁hab	-6.32952
▁niam	-6.33293
▁leej	-6.34195
▁sis	-6.35022
▁has	-6.36201
▁(	-6.38653
▁the	-6.40184
▁tub	-6.41394
▁txoj	-6.42737
▁tom	-6.42847
2	-6.43167
▁qab	-6.44316
▁to	-6.44415
▁rov	-6.44837
▁os	-6.45134
▁lwm	-6.45667
▁txhob	-6.51116
▁Koj	-6.5137
▁tim	-6.5281
/	-6.52827
▁kuj	-6.54846
▁lug	-6.55326
▁hnub	-6.55671
▁neej	-6.58305
▁....	-6.59276
▁tawm	-6.61023
▁tuag	-6.61336
▁dab	-6.61469
▁tham	-6.61852
▁ntawv	-6.6243
▁mam	-6.6301
▁tsev	-6.64136
▁rua	-6.65645
▁tso	-6.6683
▁cia	-6.67645
▁ob	-6.67863
▁txawm	-6.68753
▁)	-6.71149
▁tua	-6.7219
▁sab	-6.73042
▁heev	-6.73776
▁siv	-6.74932
▁moog	-6.75877
▁kawm	-6.76193
▁txawj	-6.7717
▁nyiaj	-6.79608
▁sawv	-6.80625
▁ntag	-6.81886
▁ntseeg	-6.82542
▁tsum	-6.83672
▁lam	-6.84498
▁nuav	-6.84956
d	-6.86599
▁Moob	-6.87128
▁tab	-6.8852
▁and	-6.8895
▁qhia	-6.89234
▁tseeb	-6.90577
m	-6.92421
▁2	-6.92575
▁ntuj	-6.93744
▁tsuas	-6.93814
▁Ua	-6.94157
▁coob	-6.96243
g	-6.96543
▁niag	-6.96604
▁xyoo	-6.96652
▁raug	-6.97442
▁:	-6.9794
▁muag	-6.9891
▁Cov	-6.99057
▁kwv	-6.99818
▁hu	-7.00694
▁nplog	-7.00852
▁tswv	-7.0101
▁..	-7.01333
▁tshaj	-7.01673
▁sau	-7.02532
▁dua	-7.03355
▁laus	-7.03658
▁txhua	-7.03691
▁daws	-7.04729
▁poj	-7.05247
▁loj	-7.05269
▁!	-7.06515
▁of	-7.06611
▁tes	-7.07097
▁pheej	-7.07118
▁nwg	-7.08131
▁kws	-7.08317
▁cai	-7.08384
▁hlub	-7.09291
▁ne	-7.09345
▁sim	-7.09609
▁zog	-7.1004
▁Peb	-7.10561
▁tib	-7.10617
▁zaum	-7.12218
▁hluas	-7.12454
▁hos	-7.12859
b	-7.13158
▁yug	-7.13716
▁tsam	-7.13838
▁'	-7.14219
▁npe	-7.15879
▁3	-7.16053
▁tij	-7.16596
▁ntxiv	-7.17647
▁a	-7.183
▁tsim	-7.18377
▁Thaum	-7.18887
▁you	-7.1904
▁hnov	-7.19052
▁npaum	-7.20563
▁nkauj	-7.21405
▁phem	-7.21789
▁Nplog	-7.2185
▁is	-7.22409
▁chaws	-7.22667
▁puab	-7.23584
▁thov	-7.23831
▁dhau	-7.25015
▁ntej	-7.26323
▁koom	-7.27753
v	-7.27943
y	-7.28283
▁ub	-7.28312
▁ntshai	-7.2861
▁dag	-7.29358
▁Qhov	-7.30143
▁haiv	-7.30468
▁--	-7.31223
▁ntse	-7.32179
▁raws	-7.32577
▁nom	-7.33147
▁1	-7.34039
▁yawm	-7.34986
▁yim	-7.35157
▁chaw	-7.35367
▁ov	-7.36811
▁.....	-7.37706
▁ntev	-7.37985
▁txaus	-7.38221
▁nyiam	-7.38364
▁tseg	-7.38532
▁mob	-7.39086
▁in	-7.39119
▁suav	-7.39726
▁Dr	-7.40626
▁tabsis	-7.40994
▁Hmong	-7.41042
▁I	-7.41333
▁xeem	-7.41883
▁pob	-7.42518
▁seb	-7.42652
▁kam	-7.44251
▁tos	-7.44538
▁thawj	-7.45478
▁ntsib	-7.45976
▁xaav	-7.47304
▁luaj	-7.4771
▁nkaus	-7.48533
j	-7.48877
▁meej	-7.4993
▁khiav	-7.49982
▁qub	-7.50114
▁......	-7.5046
▁poob	-7.5087
▁tsaug	-7.51156
▁ntxhais	-7.51622
▁ruam	-7.51664
▁nyuam	-7.51725
▁nug	-7.52393
▁maj	-7.52478
▁tu	-7.53679
▁daim	-7.54231
▁nyias	-7.54854
▁pem	-7.55147
▁na	-7.55182
▁pub	-7.5528
▁Yaj	-7.55406
▁mej	-7.5561
▁naj	-7.5623
▁leeg	-7.56989
▁dej	-7.57882
▁Vaj	-7.58048
▁nco	-7.5878
▁kho	-7.59183
▁Nej	-7.59233
▁ntshe	-7.60122
▁;	-7.60672
▁txug	-7.61344
▁laug	-7.61377
▁nrhiav	-7.61439
▁haus	-7.62978
▁com	-7.63273
▁caij	-7.64057
▁pov	-7.64131
▁lo	-7.6431
▁Tej	-7.64408
▁pojniam	-7.65013
▁hlob	-7.65109
▁caag	-7.65225
▁tiam	-7.66328
▁dawb	-7.66344
▁kav	-7.67163
▁nkawv	-7.67262
▁wb	-7.67712
▁s	-7.68098
▁kheej	-7.68738
ed	-7.68761
e	-7.69532
▁cem	-7.69614
▁mloog	-7.69871
▁as	-7.70052
▁Tus	-7.70168
▁for	-7.70518
▁tsawg	-7.70834
▁tog	-7.70923
▁ze	-7.70939
▁Tsis	-7.7112
▁txim	-7.71819
▁tebchaws	-7.72229
▁6	-7.72552
▁laiv	-7.72806
▁nyuag	-7.73168
▁nua	-7.73248
▁meem	-7.73259
▁Nws	-7.73433
▁4	-7.73602
▁si	-7.75091
▁neb	-7.76149
▁txhaj	-7.76285
▁txuj	-7.76387
ing	-7.78429
▁that	-7.78609
▁zaug	-7.7909
▁ko	-7.80035
▁hov	-7.80069
▁nas	-7.80321
▁tabsi	-7.81041
▁quav	-7.81144
▁Thaib	-7.81271
▁chim	-7.81763
▁haum	-7.81827
▁niaj	-7.82054
▁tsa	-7.82211
▁teeb	-7.82227
▁Born	-7.83018
▁ncaj	-7.83223
▁rooj	-7.83491
▁.......	-7.83723
▁VP	-7.83898
▁taag	-7.83926
4	-7.84117
▁it	-7.85445
▁huv	-7.85697
▁puav	-7.86079
▁taub	-7.86531
▁nram	-7.86604
▁kwvtij	-7.8676
▁://	-7.8693
▁rog	-7.87338
▁hom	-7.87417
▁pib	-7.87552
▁nam	-7.87837
▁yuam	-7.87862
▁kuas	-7.88703
▁Suav	-7.88761
▁liab	-7.89066
▁sawvdaws	-7.90197
▁txawv	-7.90216
▁xa	-7.90268
▁saum	-7.91273
▁mog	-7.91532
▁hauj	-7.91879
▁piav	-7.92503
▁hau	-7.92894
▁moob	-7.92905
▁zaj	-7.93061
▁ntsis	-7.93187
▁http	-7.93325
▁txhais	-7.94136
▁ywg	-7.94591
▁kub	-7.95321
▁pum	-7.95389
▁tshuav	-7.95692
▁deb	-7.96354
▁be	-7.96577
▁5	-7.96717
▁nyaj	-7.97424
▁taw	-7.98365
▁Lis	-7.98609
▁taug	-7.99283
▁them	-7.99294
▁YTK	-7.99332
▁mos	-7.99506
▁Lawv	-8.00067
▁aw	-8.00436
▁xwm	-8.00665
▁tshiab	-8.00685
▁ke	-8.00884
▁dabtsi	-8.01633
▁not	-8.02616
▁tuav	-8.03511
▁sij	-8.03761
▁txom	-8.0389
▁phoojywg	-8.04095
▁Txawm	-8.04969
▁qho	-8.05544
▁zos	-8.05661
=	-8.05739
▁cev	-8.05981
▁pw	-8.06226
▁or	-8.06528
▁are	-8.07135
▁mag	-8.07371
▁nyog	-8.07522
▁mov	-8.077
▁co	-8.08005
www	-8.08119
▁v	-8.08263
▁hav	-8.08326
▁tuab	-8.08445
▁he	-8.08767
▁i	-8.08809
▁ceeb	-8.08997
▁Vim	-8.09007
▁haj	-8.09602
▁yau	-8.09617
▁cais	-8.09751
▁Nyob	-8.10091
▁laj	-8.10448
▁cav	-8.10982
▁ma	-8.11156
▁luas	-8.113
▁Muaj	-8.11423
▁nim	-8.11451
▁t	-8.12075
▁nyeem	-8.12369
▁hawm	-8.12739
▁feem	-8.13046
▁puag	-8.13657
▁cuab	-8.13865
▁hloov	-8.14084
▁30	-8.14144
▁av	-8.14998
▁phooj	-8.15011
▁miv	-8.15174
▁vaj	-8.15598
▁taus	-8.16512
▁Hais	-8.17102
▁).	-8.17939
▁neeb	-8.18235
▁lau	-8.18444
▁tam	-8.18661
▁ntiaj	-8.18746
▁yav	-8.18754
▁qhuas	-8.20047
▁yaam	-8.20701
▁xyuas	-8.21064
▁lis	-8.21258
▁txwm	-8.21684
▁lov	-8.21732
▁10	-8.21942
▁koob	-8.22162
▁YOG	-8.22187
▁leejtwg	-8.22353
▁ntsej	-8.22444
▁HMOOB	-8.22674
▁your	-8.22863
▁Lub	-8.23075
▁ned	-8.23269
▁thaib	-8.2333
ly	-8.23539
▁suab	-8.23832
▁xov	-8.24032
▁nov	-8.24857
▁tsua	-8.24913
▁menyuam	-8.24935
▁Yang	-8.25137
▁Ib	-8.25178
▁yeeb	-8.25212
▁tawg	-8.25298
▁have	-8.25502
▁hlo	-8.25596
▁Zoo	-8.25963
▁dev	-8.26386
▁liam	-8.26439
▁b	-8.2654
▁SCH	-8.26642
▁nav	-8.2705
▁Vajtswv	-8.27222
▁noob	-8.27669
▁las	-8.27814
▁noog	-8.27829
▁nkag	-8.28764
▁lauj	-8.29163
▁xeeb	-8.29192
▁phom	-8.29428
▁nyuj	-8.29831
▁Yawg	-8.30173
▁pawg	-8.30243
▁cuag	-8.30446
▁ncauj	-8.3045
▁ntshaw	-8.31123
▁kab	-8.31429
▁nrho	-8.31724
8	-8.31783
▁Pov	-8.32037
▁tais	-8.32293
▁xub	-8.32346
▁quas	-8.3264
▁so	-8.32716
n	-8.32726
▁paab	-8.32812
t	-8.32938
▁Tub	-8.33068
▁Pao	-8.33153
▁LI	-8.33231
▁txais	-8.3338
▁num	-8.33381
▁dlaab	-8.33616
▁thaub	-8.33715
▁tsoom	-8.34085
▁plaub	-8.34291
▁txhaum	-8.34504
▁this	-8.34664
▁GVP	-8.34775
▁qhuav	-8.34784
▁xyov	-8.35032
▁nrug	-8.35081
li	-8.35167
▁nkaw	-8.3618
▁haujlwm	-8.36181
▁nqa	-8.36598
▁Lao	-8.36674
▁puj	-8.37162
▁txwv	-8.37558
▁Raws	-8.37764
▁by	-8.37976
▁txheeb	-8.38265
▁tig	-8.39384
▁ce	-8.39855
▁do	-8.4009
6	-8.40289
▁xam	-8.40646
▁thaj	-8.41377
▁TseemYeej	-8.41519
▁vp	-8.41733
▁NO	-8.41785
▁toj	-8.41973
▁tawv	-8.42482
▁sub	-8.42552
▁KUV	-8.42599
▁zoov	-8.427
▁on	-8.42712
▁xaiv	-8.43015
▁N	-8.4333
o	-8.43396
▁zag	-8.43403
▁txhia	-8.43492
▁B	-8.43671
▁m	-8.44081
▁Laura	-8.44086
▁ntaus	-8.4432
▁Yuav	-8.44859
▁ntsoov	-8.44955
▁qha	-8.4501
▁nqi	-8.4507
k	-8.45205
▁hlwb	-8.45216
▁Yawm	-8.4533
▁hmo	-8.45341
▁qaab	-8.45515
▁npaj	-8.45939
▁hwv	-8.46086
▁with	-8.46646
▁nyem	-8.46978
▁Tabsis	-8.47603
▁ha	-8.47678
▁ceg	-8.48006
▁will	-8.48025
▁meskas	-8.4819
▁roob	-8.48207
▁txij	-8.48668
▁hmong	-8.49008
▁caum	-8.49012
▁tshuaj	-8.49084
▁we	-8.49248
▁lees	-8.49864
▁nraug	-8.50501
▁ciaj	-8.50796
▁aws	-8.50858
▁nub	-8.50914
▁Mhoob	-8.51181
▁laud	-8.51831
▁txhawb	-8.52308
▁tsij	-8.52364
▁ntoo	-8.52753
1	-8.5292
▁Luag	-8.53051
x	-8.53283
▁but	-8.53853
▁teev	-8.54346
▁hli	-8.54832
3	-8.54884
▁S	-8.55072
▁ntug	-8.55183
▁blog	-8.55363
▁LOS	-8.55382
▁Tab	-8.55722
▁."	-8.5584
▁tshwm	-8.56059
▁txeeb	-8.56424
▁pej	-8.5644
▁all	-8.56464
▁........	-8.56522
▁ceev	-8.56571
▁MS	-8.56586
▁what	-8.56691
▁Meskas	-8.56725
▁npau	-8.56951
▁pog	-8.57281
▁M	-8.57431
▁plig	-8.57732
▁nrov	-8.58043
▁plaws	-8.58772
▁txiav	-8.58975
▁pauv	-8.59291
▁teg	-8.59821
▁Muas	-8.59889
▁Thov	-8.60278
▁my	-8.60358
▁Yeej	-8.60446
▁&	-8.6056
▁zaub	-8.60628
▁Phwvnyawm	-8.60846
▁Vang	-8.61746
▁=	-8.61903
▁nad	-8.61927
▁HL	-8.62031
▁pes	-8.62124
▁khav	-8.62492
▁tswvyim	-8.62564
▁dav	-8.62626
▁kas	-8.62628
▁teebmeem	-8.62816
▁Txhob	-8.62869
▁".	-8.63276
▁ham	-8.63382
▁nab	-8.6353
▁muam	-8.63918
▁luj	-8.64714
▁nce	-8.64752
▁thuam	-8.64822
▁nyab	-8.64907
▁ca	-8.65262
▁ntsia	-8.65389
▁dub	-8.65732
▁tiav	-8.66009
▁xws	-8.66043
▁tshoob	-8.66586
a	-8.66632
▁vam	-8.66657
▁txaj	-8.66726
▁luam	-8.66813
▁tsov	-8.66853
▁tw	-8.66921
▁kua	-8.6696
S	-8.67052
▁ntes	-8.6707
▁sijhawm	-8.67071
▁UA	-8.67183
▁tsav	-8.67776
▁vwm	-8.6792
▁at	-8.6873
▁rab	-8.69257
▁quaj	-8.69424
▁one	-8.70684
▁Faj	-8.70812
▁khoom	-8.70835
▁can	-8.71003
▁qw	-8.71802
0	-8.72024
▁18	-8.72063
▁tiv	-8.72507
▁nyuaj	-8.72546
▁000	-8.72644
▁youtube	-8.72803
▁yooj	-8.72825
▁qaib	-8.73095
▁from	-8.73686
▁YUAV	-8.74529
▁),	-8.75312
▁paj	-8.75749
▁tsuav	-8.75889
▁nqaij	-8.76151
▁post	-8.76308
▁cua	-8.7661
▁A	-8.76956
▁thoob	-8.76971
▁TAU	-8.77216
▁yaj	-8.77608
▁cias	-8.77736
▁moos	-8.77741
▁Hos	-8.78237
▁hlau	-8.78777
▁The	-8.78796
▁Post	-8.79211
▁sai	-8.79411
▁TSIS	-8.797
▁Puas	-8.8017
▁ris	-8.8027
▁nev	-8.80409
▁dhia	-8.80524
▁yom	-8.80538
▁Col	-8.80814
▁KOJ	-8.81109
▁duab	-8.8138
▁piv	-8.81443
watch	-8.81485
▁people	-8.81577
▁khwv	-8.81683
▁thaam	-8.81831
▁Thoj	-8.81947
▁ncaws	-8.82011
▁T	-8.82026
▁Li	-8.82095
▁Paj	-8.8212
▁Dawb	-8.82154
▁dlua	-8.8246
5	-8.82496
▁8	-8.82805
▁khaws	-8.83083
siab	-8.8317
▁zaus	-8.83217
▁peev	-8.83348
▁txheej	-8.84078
▁sia	-8.84409
▁ntxim	-8.84531
▁Tsi	-8.84574
▁Leej	-8.84618
h	-8.84844
▁ploj	-8.85001
▁lawd	-8.85059
▁Kev	-8.85127
▁ci	-8.85176
▁qhua	-8.85442
▁kaw	-8.85924
▁tsheej	-8.86178
▁MN	-8.86255
▁j	-8.86412
▁UN	-8.86457
▁thab	-8.86877
▁ntxias	-8.86885
▁n	-8.86955
▁npua	-8.86956
▁ncig	-8.86959
▁maam	-8.86991
▁g	-8.87023
▁nruab	-8.87057
▁church	-8.87059
▁swb	-8.87215
▁ntxub	-8.87859
▁saub	-8.88182
▁kis	-8.88212
▁tsheb	-8.88435
▁Xyooj	-8.8854
▁tooj	-8.88594
▁P	-8.88605
▁SIV	-8.88715
▁haivneeg	-8.89067
▁COV	-8.8909
▁tijlaug	-8.89187
▁Nom	-8.89683
▁they	-8.89732
▁kuam	-8.90208
▁zam	-8.90265
▁khib	-8.90531
▁etc	-8.91082
▁zus	-8.91093
▁Tswv	-8.91407
▁Kwv	-8.91408
▁twm	-8.91519
▁Moobsib	-8.91898
▁Cas	-8.91934
▁7	-8.9205
▁tis	-8.92455
▁ntaub	-8.92697
▁tsuj	-8.92761
▁who	-8.93076
▁maum	-8.93243
9	-8.93568
▁kaj	-8.93661
cas	-8.93695
nyuas	-8.93746
▁taws	-8.93791
▁Los	-8.94015
▁good	-8.94262
▁US	-8.94279
▁time	-8.94643
▁xyaum	-8.94703
▁ncees	-8.9499
▁ntxawm	-8.95285
▁kag	-8.95394
▁MUS	-8.95401
▁nyoog	-8.95408
▁ntsuab	-8.95501
▁XWB	-8.95942
▁zuj	-8.96031
▁yeem	-8.96215
▁Es	-8.96511
▁ya	-8.96972
▁txhawj	-8.97026
▁THIAB	-8.97288
▁Hnub	-8.97316
▁nrauj	-8.97578
▁nyam	-8.977
▁loo	-8.98049
▁LAWM	-8.98163
▁tswj	-8.98441
▁TSI	-8.98471
▁faib	-8.98486
▁tsab	-8.98522
▁***	-8.98648
▁Lauj	-8.9878
▁tshua	-8.98823
▁e	-8.98948
▁Yus	-8.99001
▁America	-8.9908
▁xij	-8.9959
_	-8.99712
▁nkaum	-9.00777
▁Cia	-9.00988
▁tav	-9.01031
▁U	-9.01206
▁sav	-9.01263
&	-9.01326
▁TUS	-9.01395
sis	-9.01492
▁txivneej	-9.01659
▁nqe	-9.0169
▁Tseem	-9.01696
▁cawm	-9.01737
▁9	-9.02086
▁about	-9.02137
▁puv	-9.02202
▁txha	-9.02377
▁tsiaj	-9.02403
▁12	-9.02532
▁Txiv	-9.02592
▁kos	-9.02751
▁ntshav	-9.02788
▁Zab	-9.02831
▁nqis	-9.03015
▁tsw	-9.03079
▁xuas	-9.03197
▁zov	-9.03207
▁MUAJ	-9.03631
▁know	-9.0372
▁ti	-9.03864
▁xob	-9.04081
▁us	-9.04669
▁ntses	-9.04879
▁IB	-9.04886
▁MAS	-9.05079
▁was	-9.05095
▁cog	-9.05195
▁more	-9.05264
▁USA	-9.05423
▁go	-9.05519
▁siav	-9.05521
▁lwj	-9.05796
▁there	-9.05997
▁lod	-9.06069
▁pos	-9.06152
▁khov	-9.06451
▁caj	-9.06543
▁LUB	-9.06595
▁dim	-9.074
▁Laos	-9.0759
▁Charlie	-9.07762
▁if	-9.08027
▁Txawj	-9.08085
▁plab	-9.08282
▁qaum	-9.08332
▁just	-9.08571
▁his	-9.08643
▁qhib	-9.08762
▁txiaj	-9.09104
▁tsuag	-9.09499
▁cawv	-9.09509
▁phiaj	-9.09695
r	-9.10276
▁u	-9.10306
▁xyoos	-9.10356
▁Fajkhaum	-9.10924
▁dr	-9.113
▁X	-9.11335
▁haib	-9.1148
▁tuam	-9.11792
▁huab	-9.12016
▁kaus	-9.12568
▁Fresno	-9.12699
▁zhen	-9.12749
▁don	-9.12885
▁Tuam	-9.12967
▁any	-9.12972
beHmong	-9.13432
▁tsawv	-9.1353
Y	-9.13612
▁lom	-9.13787
▁twv	-9.13845
▁ab	-9.1386
▁Hawj	-9.14032
▁our	-9.14046
▁pim	-9.14048
▁like	-9.14115
▁cob	-9.14286
▁nuj	-9.14397
▁tshav	-9.14945
▁dig	-9.15176
▁meb	-9.15206
▁pejxeem	-9.15489
▁paus	-9.15587
▁twj	-9.15848
▁thaiv	-9.16094
▁D	-9.16596
▁C	-9.16619
▁DD	-9.16759
▁DYD	-9.16899
▁tshum	-9.17243
▁case	-9.17299
▁yaim	-9.17339
B	-9.17435
▁iab	-9.1766
▁nti	-9.17734
es	-9.17941
▁LPDR	-9.18228
▁zeb	-9.18419
▁laid	-9.18569
▁fab	-9.18707
▁HAIS	-9.18738
▁cab	-9.18812
▁cuav	-9.18832
▁caug	-9.19042
BH	-9.1911
▁Zhen	-9.19336
▁ntseg	-9.19445
i	-9.19509
▁20	-9.19665
▁tshaaj	-9.19755
▁Tiam	-9.19802
▁haistias	-9.19941
tuabneeg	-9.20216
ng	-9.20497
▁nplooj	-9.20527
▁Mej	-9.20613
▁am	-9.21155
▁sob	-9.21171
▁mekas	-9.21272
▁npawg	-9.2147
▁ZOO	-9.21503
▁rhuav	-9.2182
▁cuam	-9.22029
▁need	-9.22051
▁xab	-9.22182
▁p	-9.22188
▁ntsiab	-9.22247
▁ywm	-9.22298
▁og	-9.22319
▁laam	-9.22446
▁ncuab	-9.22478
▁Hahaha	-9.2251
▁Nwg	-9.22563
▁phau	-9.22574
▁tshawb	-9.22868
▁nrab	-9.23366
▁Dej	-9.23383
▁muas	-9.23411
▁pe	-9.23552
▁Xav	-9.23799
▁caw	-9.23903
▁CES	-9.24063
▁Vwj	-9.24085
▁lu	-9.2419
▁Tabsi	-9.24467
▁hlis	-9.24721
▁Paul	-9.24729
▁NWS	-9.24849
▁hnav	-9.25213
▁up	-9.25249
▁other	-9.25407
▁nyiag	-9.2578
▁THE	-9.25797
▁right	-9.25911
▁keeb	-9.26164
▁saab	-9.2623
▁lauv	-9.26495
▁ntaag	-9.26595
▁tsiv	-9.26624
▁dlawg	-9.26706
▁Xiong	-9.2678
▁Lee	-9.26849
▁make	-9.26902
▁Tsab	-9.26915
yog	-9.26919
lawm	-9.27015
▁Z	-9.27238
▁Sib	-9.27659
▁Moua	-9.27676
▁Ntaw	-9.27773
▁!!!	-9.2797
▁quaspuj	-9.28059
▁only	-9.28116
▁nyablaj	-9.28189
▁ntu	-9.28354
▁pam	-9.28358
▁vmge	-9.28369
▁nqq	-9.28489
▁ncu	-9.28551
▁Tsuas	-9.28771
▁qee	-9.28801
▁pas	-9.28815
▁very	-9.29343
▁qe	-9.2949
7	-9.29642
▁khu	-9.29688
▁PY	-9.29822
▁tsoob	-9.29905
▁cheem	-9.29984
▁Ces	-9.30064
los	-9.30266
▁Nkauj	-9.30404
▁hwm	-9.30454
▁txiag	-9.30465
av	-9.30541
▁qau	-9.30602
▁PEB	-9.30627
▁yij	-9.30758
▁their	-9.31063
▁Phiaj	-9.31373
▁You	-9.31739
▁RAU	-9.31786
▁ntsuag	-9.31987
▁Tseemyeej	-9.32139
▁tawb	-9.32302
▁temsis	-9.32458
▁Nyiaj	-9.32768
▁lag	-9.32885
▁lav	-9.32898
▁ntsuj	-9.32913
▁soj	-9.32961
▁Dao	-9.32978
▁ms	-9.33265
▁txuas	-9.33387
▁Tou	-9.33746
***	-9.33862
▁hasta	-9.33944
▁qaug	-9.34153
▁roj	-9.34307
▁nrau	-9.344
▁LAWV	-9.34447
▁Siv	-9.3447
▁Leeg	-9.34535
▁tsho	-9.34573
▁rho	-9.34622
▁qeej	-9.34746
▁00	-9.35121
▁yees	-9.35263
▁Tos	-9.35285
▁Looj	-9.35327
▁nai	-9.35454
▁Noogdlej	-9.35458
▁22	-9.35632
▁BLOG	-9.35729
▁tsaam	-9.35765
▁tiamsis	-9.35853
▁Xejthim	-9.35857
▁faj	-9.3605
▁dlaag	-9.36212
▁Thanks	-9.36457
▁yaweh	-9.36521
▁phaj	-9.36851
▁zej	-9.37086
▁Tam	-9.37102
▁zais	-9.37455
▁Ly	-9.37469
213	-9.37644
▁Tooj	-9.37652
▁Phooj	-9.37776
▁hmoov	-9.37798
▁kasmoos	-9.37804
▁tsaus	-9.37809
l	-9.37983
▁Thiab	-9.38285
▁KOM	-9.38521
▁see	-9.38687
▁thooj	-9.38694
▁Twb	-9.38762
▁Ntuj	-9.38776
▁rub	-9.38839
▁out	-9.3888
▁Bee	-9.38889
▁text	-9.39032
▁way	-9.39041
▁hlua	-9.39229
▁Yis	-9.39253
▁ntxov	-9.39255
▁txias	-9.39313
▁talk	-9.39435
▁txia	-9.39512
▁It	-9.39681
▁issue	-9.39857
▁nroog	-9.39882
YIS	-9.39897
▁cam	-9.3993
▁tshab	-9.40021
▁tid	-9.40051
▁how	-9.40147
▁Thaus	-9.40302
ab	-9.40332
▁khawv	-9.40393
▁Phoojywg	-9.40473
▁dlej	-9.40498
▁pluag	-9.4057
▁sov	-9.4061
▁phwvnyawm	-9.40622
▁Niam	-9.40719
▁email	-9.40905
▁Liab	-9.40995
▁Lwm	-9.41139
▁Phwv	-9.41228
▁take	-9.41423
▁Tony	-9.41612
▁nrhav	-9.41674
▁ntxeev	-9.41747
▁Cha	-9.41758
▁.........	-9.41897
▁Pab	-9.41957
▁foom	-9.41986
▁tsob	-9.42135
▁xaus	-9.4223
▁zug	-9.42273
▁aub	-9.42363
▁Saub	-9.42422
▁life	-9.42433
▁yaus	-9.42564
c	-9.42613
▁vaaj	-9.42885
▁Vaaj	-9.4294
▁deev	-9.42963
▁TIAS	-9.43097
▁tsoo	-9.43297
▁lab	-9.43505
▁zeem	-9.43532
▁phim	-9.43768
quoted	-9.43773
▁doctor	-9.43962
▁xeev	-9.44046
▁Muab	-9.44147
▁foob	-9.44774
▁hla	-9.44792
▁Zaum	-9.45037
▁too	-9.45061
▁kwm	-9.4525
▁K	-9.45411
▁tob	-9.45628
▁riam	-9.45633
▁o	-9.45722
▁some	-9.45806
▁Vaajtswv	-9.45916
▁thib	-9.45935
▁ntiav	-9.46241
▁thaus	-9.46346
▁pua	-9.46677
▁ntiajteb	-9.46835
▁xib	-9.46865
▁On	-9.4691
▁txhiab	-9.47482
u	-9.47592
▁txob	-9.47843
▁would	-9.47918
▁said	-9.48045
▁Victor	-9.48073
▁dlhau	-9.4823
▁luv	-9.48487
as	-9.48489
▁od	-9.48692
▁nuv	-9.48814
▁choj	-9.48827
▁Ntsuab	-9.48832
▁Tom	-9.49033
▁nyuab	-9.49171
▁xim	-9.49175
gate	-9.49314
feature	-9.49381
▁plawv	-9.49417
▁H	-9.49556
▁lig	-9.49724
▁think	-9.49984
▁Ceeb	-9.5002
▁ORG	-9.50119
▁support	-9.50174
▁txhom	-9.50358
▁wrote	-9.50733
▁Nyablaj	-9.50815
▁Fab	-9.50842
▁nraim	-9.50844
▁Vajncuab	-9.50972
▁Mail	-9.51432
▁Tug	-9.51549
▁nkawm	-9.51581
▁qhuab	-9.51593
▁Haiv	-9.51987
▁paum	-9.51998
related	-9.52055
▁lawb	-9.52131
----------------	-9.52187
▁nyag	-9.52629
▁daj	-9.52663
▁laib	-9.52858
▁nto	-9.52942
▁mad	-9.53118
▁new	-9.53162
▁1975	-9.53241
▁Miskas	-9.53393
▁Vam	-9.5353
▁LOL	-9.53709
▁PAB	-9.53806
▁khawb	-9.53819
▁pliag	-9.53853
▁k	-9.54078
▁pa	-9.54366
▁tia	-9.54434
▁hle	-9.54542
▁Sub	-9.54543
▁txav	-9.54938
▁He	-9.54987
▁NEEG	-9.55406
▁x	-9.55608
▁Teev	-9.55637
▁kov	-9.55698
▁dlawb	-9.55863
er	-9.55911
▁Chao	-9.55931
▁Thao	-9.55992
lub	-9.56232
▁khaub	-9.5629
▁culture	-9.56305
▁hmoo	-9.56347
▁Koob	-9.56393
▁xaj	-9.56412
▁huam	-9.56489
teb	-9.5656
▁Lostsuas	-9.56617
▁ntus	-9.56762
▁Thai	-9.5682
▁sam	-9.56854
▁ntees	-9.5699
▁lim	-9.57527
▁qhev	-9.57534
▁Ntxaw	-9.57588
▁own	-9.57737
▁peg	-9.57795
▁ntsiag	-9.57815
▁Xeeb	-9.57921
▁tsau	-9.58117
▁hlawv	-9.58194
▁dlaim	-9.58607
D	-9.58775
▁dog	-9.58795
▁St	-9.58892
yahoo	-9.59073
▁nees	-9.59077
▁tod	-9.59297
▁MT	-9.59351
▁nkagsiab	-9.59573
▁100	-9.59601
▁human	-9.59865
th	-9.59896
▁phaum	-9.59917
▁TABSIS	-9.59925
▁ntsim	-9.6
▁then	-9.60115
▁back	-9.60132
▁law	-9.60299
▁Neohmong	-9.60363
▁vauv	-9.60561
▁fwv	-9.60871
▁tibsi	-9.60881
▁Zeb	-9.61012
▁man	-9.6129
▁nraum	-9.61348
▁du	-9.61544
▁HAIV	-9.61617
▁Ob	-9.61776
▁TO	-9.61835
▁an	-9.62109
▁YEEJ	-9.62177
▁txhim	-9.62814
▁PAUB	-9.62862
▁mom	-9.63216
▁kevcai	-9.63217
▁15	-9.63304
▁nawj	-9.63336
▁point	-9.63385
▁phav	-9.63491
▁every	-9.63657
▁teem	-9.63977
▁say	-9.63995
▁khi	-9.64134
▁zem	-9.64282
▁fawm	-9.64625
C	-9.64667
▁totaub	-9.64735
▁NeoHmong	-9.64788
▁tibneeg	-9.65032
▁when	-9.65064
▁kaum	-9.65086
hlub	-9.65109
▁many	-9.65318
▁Xyoo	-9.65502
▁laura	-9.65504
▁txo	-9.65547
▁Me	-9.65948
▁fwm	-9.66017
▁Le	-9.66253
▁SIAB	-9.66356
▁work	-9.66375
▁maag	-9.66425
▁phoo	-9.66476
▁XF	-9.66682
le	-9.66744
▁Saib	-9.66948
▁caiv	-9.6726
▁nag	-9.67271
▁au	-9.67284
▁information	-9.67398
▁les	-9.67415
▁thau	-9.67458
▁yig	-9.67548
moob	-9.6756
▁personal	-9.67718
▁pav	-9.67838
▁RUAM	-9.68075
▁peevxwm	-9.68137
▁zaaj	-9.68222
▁kubxaj	-9.68227
▁11	-9.68578
▁huabtais	-9.68964
▁ziag	-9.69055
▁get	-9.69071
▁qhabnab	-9.69145
▁ntiag	-9.69536
▁LOJ	-9.6958
▁awd	-9.6958
▁Fabkis	-9.69608
▁xiam	-9.70085
▁Tsam	-9.70223
▁nthuav	-9.70264
▁50	-9.70407
▁American	-9.70487
▁yaig	-9.7051
▁taab	-9.7082
▁tshem	-9.70879
▁Tsav	-9.70975
▁Kav	-9.71049
▁than	-9.71117
▁F	-9.71218
▁diam	-9.71343
▁rawv	-9.71352
▁ruaj	-9.71591
▁tebchaw	-9.71738
▁Txhua	-9.71746
▁hlais	-9.71894
▁Yeeb	-9.72102
▁want	-9.72305
▁tshaib	-9.72349
▁TUAJ	-9.7245
▁lino	-9.72544
▁yauv	-9.7259
hmoob	-9.72865
▁why	-9.72924
▁Teb	-9.72953
▁dai	-9.72957
▁nkuaj	-9.73028
ib	-9.73079
▁tshuam	-9.73133
▁Thaub	-9.73226
▁pauj	-9.73231
▁Has	-9.73259
▁L	-9.7327
▁NYOB	-9.7341
▁nais	-9.73525
K	-9.73646
▁tshuab	-9.73772
▁him	-9.73822
▁Ho	-9.73832
▁Lo	-9.7408
▁dlev	-9.7421
▁kaam	-9.74227
▁noogdlej	-9.74283
▁phab	-9.74388
▁ceem	-9.744
▁uake	-9.744
▁question	-9.74574
ub	-9.74656
▁TSEEM	-9.74772
▁No	-9.74845
▁TUG	-9.74872
▁Tshaj	-9.74986
▁havzoov	-9.74986
▁AV	-9.7514
▁xyooj	-9.75143
▁ntxwv	-9.75151
X	-9.75172
▁LOLz	-9.75463
Moob	-9.75516
▁week	-9.75627
▁her	-9.75679
▁ywj	-9.75681
xeeb	-9.75698
▁tiaj	-9.75993
▁Gen	-9.76107
M	-9.76109
▁nyav	-9.76134
▁Kwvtij	-9.7617
▁KEV	-9.76281
mail	-9.76505
▁looj	-9.76604
▁txi	-9.76962
▁here	-9.77043
▁moo	-9.7716
▁Xeem	-9.77569
▁tswm	-9.77656
▁hum	-9.7772
▁should	-9.77778
▁movie	-9.77839
▁NkaujNyiag	-9.7806
▁cim	-9.78339
▁qib	-9.78496
▁txhij	-9.78499
▁xum	-9.78504
V	-9.78561
▁Maiv	-9.78588
▁thauj	-9.78635
one	-9.7866
▁nplua	-9.78801
▁agree	-9.789
▁born	-9.79094
▁vajtswv	-9.79437
▁even	-9.79475
▁seem	-9.79546
▁mamli	-9.79563
▁Ab	-9.79681
▁hnab	-9.79894
kuv	-9.80136
▁",	-9.80215
▁share	-9.80425
▁nra	-9.80548
▁family	-9.80636
▁xyom	-9.80641
▁theem	-9.81073
▁txhiaj	-9.81141
▁Puab	-9.81367
▁nyoo	-9.81393
▁Choj	-9.81468
▁Y	-9.81483
If	-9.81555
▁TWB	-9.81569
twg	-9.81586
▁Pos	-9.81654
▁tsib	-9.81786
▁person	-9.81844
▁cag	-9.82098
▁keej	-9.8224
▁politic	-9.82304
▁txua	-9.82367
▁rawm	-9.82383
▁CA	-9.82404
▁becaus	-9.82501
▁vaajmoob	-9.82636
▁huas	-9.82639
▁those	-9.82838
▁Mus	-9.82972
▁tsom	-9.83135
▁come	-9.834
▁ciali	-9.83415
▁xauj	-9.83943
E	-9.84086
▁VIM	-9.84113
▁tagnrho	-9.84237
▁tusiab	-9.84332
▁thim	-9.84344
▁zoj	-9.84418
▁Tijlaug	-9.84444
▁hahaha	-9.84462
▁Neohom	-9.84534
▁plaw	-9.84568
▁100%	-9.84689
▁nyhav	-9.85098
zoo	-9.85346
▁Xej	-9.85431
▁qis	-9.85775
▁This	-9.85781
▁same	-9.85814
▁party	-9.85898
▁Dony	-9.86215
▁xyuam	-9.86239
▁zooli	-9.86355
▁Nco	-9.86561
p	-9.86628
▁Tau	-9.86644
▁CIA	-9.86763
▁QHOV	-9.86877
▁ntsug	-9.86882
▁ntua	-9.87049
▁Dhau	-9.87094
▁DAG	-9.87305
▁play	-9.87334
▁nus	-9.87453
▁ntsws	-9.87461
▁liaj	-9.8748
▁---	-9.8759
▁NEJ	-9.87627
▁CAS	-9.87636
▁mab	-9.87715
▁leader	-9.87725
▁Vaajmoob	-9.87755
▁thoj	-9.87764
▁nres	-9.87767
▁Tswb	-9.87979
▁history	-9.88077
▁love	-9.88119
▁communist	-9.88304
▁tamsim	-9.88319
▁koos	-9.88342
▁ev	-9.8848
▁Blog	-9.88533
▁y	-9.88576
▁qus	-9.8886
▁G	-9.88871
▁God	-9.88877
▁General	-9.88977
▁smile	-9.89073
▁Cwjme	-9.89151
▁Ntshe	-9.89377
▁ntxoog	-9.89377
▁puam	-9.8943
▁?.	-9.89489
▁40	-9.89527
▁tsaj	-9.89558
neeg	-9.89623
▁hus	-9.89968
sab	-9.90014
is	-9.90122
lawv	-9.90129
▁su	-9.90323
▁kaav	-9.90338
▁duas	-9.90416
▁What	-9.90454
▁Txoj	-9.90466
▁nkim	-9.90693
▁YOU	-9.91001
▁mis	-9.91043
▁cub	-9.91107
▁Tais	-9.91193
▁political	-9.91361
▁Npawg	-9.91499
▁Neeb	-9.9151
ever	-9.91626
▁Kom	-9.91762
▁Thaibteb	-9.91781
▁de	-9.9208
▁business	-9.92181
▁Ha	-9.92242
ob	-9.92309
▁ntxhov	-9.92316
▁Dab	-9.92443
▁npas	-9.92453
▁AND	-9.9278
kom	-9.92897
▁never	-9.92942
▁beer	-9.93015
▁tshev	-9.93063
▁hwj	-9.93074
▁nria	-9.93084
▁freedom	-9.9325
▁Vue	-9.93369
▁Xab	-9.93377
▁ntxhi	-9.93544
▁Maj	-9.93666
▁ntsuas	-9.9377
▁amen	-9.93858
▁tse	-9.93873
▁court	-9.93959
▁world	-9.94102
▁men	-9.94187
▁YUS	-9.94198
▁tejzaum	-9.9421
▁NOJ	-9.9422
▁over	-9.94396
▁ncaim	-9.94428
▁now	-9.94473
▁So	-9.94651
▁yoog	-9.949
▁Txog	-9.9492
▁MUAB	-9.94923
▁khw	-9.94977
q	-9.95024
▁ntiv	-9.95029
thawj	-9.95092
▁thaij	-9.95182
▁nes	-9.95493
▁!!	-9.95533
▁ntsuam	-9.95775
▁Vientiane	-9.95877
▁religion	-9.95899
▁Neej	-9.95941
▁Neeg	-9.96033
▁xaam	-9.96057
▁oo	-9.96119
▁tauj	-9.96199
▁Neb	-9.96279
▁name	-9.96549
▁state	-9.9657
▁zab	-9.96653
▁nyom	-9.96696
▁$	-9.96853
▁years	-9.96912
▁Her	-9.96949
▁still	-9.96973
▁Yexus	-9.9698
▁Nai	-9.96981
▁Xaiv	-9.97045
▁level	-9.97226
▁respect	-9.97283
▁may	-9.9733
▁We	-9.97524
▁believe	-9.97545
▁ntog	-9.9761
▁day	-9.97692
N	-9.97738
▁qua	-9.97911
▁Npis	-9.98097
▁OS	-9.9812
▁ncaaj	-9.98205
▁qhab	-9.98207
▁Hlob	-9.98208
▁school	-9.98333
▁ntxuav	-9.98342
▁cwj	-9.9836
▁pwm	-9.98425
▁POM	-9.98477
▁YOB	-9.98585
▁TXHOB	-9.98703
▁XAV	-9.99082
▁google	-9.99462
▁se	-9.99485
▁such	-9.99583
▁thing	-9.99795
▁lha	-10.0004
▁caav	-10.0015
▁nro	-10.0021
▁Yesxus	-10.0021
▁hniav	-10.0024
▁true	-10.0036
▁Niag	-10.0044
▁13	-10.0048
▁Tij	-10.007
▁TXIV	-10.0073
▁l	-10.0073
▁zujzu	-10.0089
no	-10.0095
▁weekend	-10.0097
▁general	-10.0118
▁ciam	-10.0121
▁LUS	-10.0138
▁public	-10.0139
T	-10.0143
▁Nam	-10.0157
▁xyoob	-10.0164
▁group	-10.0171
▁were	-10.0172
▁high	-10.0176
▁ME	-10.0179
w	-10.0231
▁theeb	-10.0231
▁Fa	-10.0236
▁TEB	-10.0242
▁E	-10.0243
▁c	-10.0257
▁14	-10.0279
▁moj	-10.0281
▁had	-10.03
▁pao	-10.0319
▁example	-10.0329
▁hiam	-10.0331
▁ES	-10.0348
▁ncua	-10.0356
▁Pheej	-10.0359
▁yaav	-10.0374
tsum	-10.0377
▁news	-10.0395
▁Yob	-10.0398
▁reason	-10.0398
▁story	-10.0398
▁power	-10.0424
▁ntsw	-10.0431
▁khob	-10.0434
▁New	-10.0463
▁vammeej	-10.0475
txwv	-10.0486
▁Yam	-10.05
▁ntsiv	-10.0507
▁tseemyeej	-10.052
▁Kuam	-10.0525
kev	-10.0529
▁xaa	-10.054
▁call	-10.0543
▁THIAJ	-10.0553
▁thiajli	-10.0558
▁wrong	-10.0559
▁computer	-10.057
▁SIB	-10.0573
▁these	-10.0575
▁she	-10.0582
▁long	-10.0585
▁Poj	-10.0589
▁free	-10.0597
▁must	-10.0608
▁Show	-10.0621
▁???	-10.0651
▁HM	-10.0652
▁THAIB	-10.0676
▁d	-10.068
▁Laj	-10.0684
▁TOM	-10.0688
▁khaus	-10.0697
▁TWG	-10.0698
▁Nkaw	-10.0727
▁yua	-10.0738
txiv	-10.0753
▁mev	-10.0754
▁chob	-10.0757
▁dleb	-10.0757
ity	-10.0759
▁help	-10.0762
▁police	-10.077
▁Huab	-10.0771
▁Piv	-10.0776
▁Mekas	-10.0789
▁Long	-10.0794
▁kauv	-10.0799
▁hma	-10.0799
▁kuab	-10.082
meem	-10.082
ies	-10.0842
▁Ya	-10.0846
▁All	-10.0851
▁chij	-10.0853
▁ntaw	-10.0856
▁opinion	-10.0859
▁old	-10.0861
▁State	-10.0882
am	-10.0883
▁Nplogliab	-10.0885
▁care	-10.0889
▁ntim	-10.0891
▁naw	-10.0893
▁npog	-10.0899
▁degree	-10.0907
liab	-10.091
▁nruj	-10.0912
▁mivnyuas	-10.0931
▁tsiab	-10.0937
culture	-10.0971
▁Christian	-10.0976
▁year	-10.101
▁claim	-10.1013
about	-10.1021
▁community	-10.1032
▁VWM	-10.1032
▁J	-10.1033
▁lao	-10.1035
▁Tham	-10.1039
▁Teeb	-10.1041
▁zom	-10.1055
▁HMoob	-10.1061
▁qauv	-10.1063
▁ntxa	-10.107
▁Human	-10.1074
▁Tamsim	-10.1075
▁sad	-10.1081
▁topic	-10.1101
▁21	-10.1103
▁did	-10.1109
▁mo	-10.1113
loj	-10.112
▁?"	-10.1123
▁nqes	-10.1125
▁caws	-10.1128
▁via	-10.1131
▁Sawv	-10.1132
▁qheb	-10.1133
▁txhajle	-10.1137
▁Niaj	-10.1139
▁laub	-10.1172
▁mav	-10.1173
▁16	-10.1173
▁Kawg	-10.1202
▁phauj	-10.1203
▁ntsi	-10.1209
▁khawm	-10.1209
▁been	-10.1213
▁Nyaj	-10.1216
▁tabtom	-10.122
neej	-10.1224
▁video	-10.1228
▁Txij	-10.123
▁25	-10.1241
▁stupid	-10.1249
▁Kub	-10.1266
▁R	-10.1268
▁member	-10.1277
▁khuam	-10.128
▁Xyov	-10.1287
▁report	-10.1312
▁president	-10.133
▁tsaws	-10.1351
▁Hide	-10.1359
wv	-10.1366
▁re	-10.1371
▁txau	-10.1383
▁TUAG	-10.1387
▁experience	-10.1394
ING	-10.1394
▁aim	-10.1399
▁tseemceeb	-10.1401
▁HEEV	-10.1402
on	-10.1406
▁much	-10.1417
▁July	-10.1418
▁Yaaj	-10.1433
▁Nyab	-10.1446
▁nqaj	-10.1447
................	-10.1484
▁koomhaum	-10.1492
▁cwjpw	-10.1495
▁??	-10.1501
xwm	-10.1504
▁debate	-10.1509
▁hneev	-10.152
▁qws	-10.1533
us	-10.1537
▁nyas	-10.1561
▁rights	-10.1575
▁Mr	-10.1575
▁TAS	-10.1588
zog	-10.159
▁qaij	-10.1597
▁nqaim	-10.1599
▁faus	-10.1611
▁npab	-10.1612
▁dov	-10.1616
▁Kaub	-10.1624
▁first	-10.1638
▁Chaofa	-10.1645
▁sibtham	-10.1656
▁ntswg	-10.1665
▁..........	-10.1684
▁under	-10.1703
▁phone	-10.1709
▁/	-10.1714
▁tsaa	-10.1715
▁paug	-10.1722
▁brother	-10.1723
▁NIAM	-10.1729
▁most	-10.1736
▁mean	-10.1755
▁h	-10.1757
▁txomnyem	-10.1758
▁gvp	-10.1789
f	-10.1789
▁internet	-10.1803
▁txawb	-10.1805
▁VAJ	-10.1813
▁Nais	-10.1817
▁Sawvdaw	-10.1841
▁MAG	-10.1842
▁qaub	-10.1842
▁problem	-10.1844
▁Tswvntu	-10.1867
▁Minnesota	-10.1874
▁TXOG	-10.1878
▁plam	-10.1882
▁tws	-10.1903
▁Ying	-10.1906
▁ny	-10.1912
▁better	-10.1924
aj	-10.1929
G	-10.1938
...	-10.1941
▁OF	-10.1946
▁after	-10.1955
▁Tawm	-10.1968
▁Yug	-10.1971
▁saud	-10.198
▁well	-10.1998
▁yoojyi	-10.2024
▁let	-10.2041
▁WI	-10.2043
▁down	-10.2061
▁O	-10.207
▁laws	-10.2071
▁raw	-10.2075
▁KIAG	-10.2083
▁Nas	-10.2089
▁xuv	-10.2105
▁khuv	-10.2126
▁real	-10.2135
able	-10.2138
▁dhuav	-10.2142
▁hawj	-10.2147
▁qos	-10.2154
▁Xavzoo	-10.2158
▁kaws	-10.2161
▁hua	-10.2163
▁xoom	-10.2176
al	-10.2187
▁csy	-10.2188
▁npam	-10.2192
▁live	-10.2193
▁Suabnoog	-10.2203
▁xwv	-10.2214
▁ncej	-10.2231
▁lomzem	-10.2251
J	-10.2256
▁SUAV	-10.2268
▁TUB	-10.2269
laj	-10.227
▁Rau	-10.2271
▁COJ	-10.2283
▁paubtab	-10.2286
▁nyoos	-10.2288
▁aav	-10.2294
sim	-10.2312
▁ntsuav	-10.2317
▁use	-10.2325
▁Cob	-10.2382
▁research	-10.2391
▁Uncle	-10.2394
▁Phabej	-10.2394
▁thawjcoj	-10.2397
▁TEJ	-10.2404
▁English	-10.241
▁give	-10.2412
▁zaws	-10.2413
▁nrig	-10.2431
▁zwm	-10.2443
▁npav	-10.2445
▁vog	-10.2451
▁ntuas	-10.248
▁khub	-10.248
▁yos	-10.2491
▁message	-10.2508
▁nkeeg	-10.2509
▁ntshais	-10.251
▁Phoo	-10.2512
▁Thawj	-10.2528
▁yang	-10.254
▁try	-10.2549
▁tsawb	-10.2551
▁duav	-10.2551
qab	-10.2559
▁bad	-10.2564
▁sa	-10.2572
▁President	-10.2572
▁r	-10.2575
▁being	-10.2579
▁tsuaj	-10.2593
▁IS	-10.2609
▁Xwm	-10.2617
lug	-10.2618
▁500	-10.2626
▁where	-10.2637
▁credit	-10.2654
▁Hom	-10.2655
▁QAB	-10.2671
▁posted	-10.2674
▁Huas	-10.2694
▁caub	-10.2704
▁xis	-10.2704
▁TIAG	-10.2722
▁sure	-10.2727
koj	-10.2738
▁Amelikas	-10.2738
▁Soob	-10.2753
▁peem	-10.2756
▁last	-10.2767
ua	-10.277
▁into	-10.2772
▁V	-10.2786
▁ROV	-10.2803
▁suavdlaw	-10.282
▁To	-10.283
▁197	-10.2832
▁Lam	-10.2835
▁log	-10.2837
▁npoj	-10.284
▁txheem	-10.2845
▁UAS	-10.2849
▁THAUM	-10.2854
▁could	-10.2854
▁organization	-10.2871
▁caubfab	-10.2871
▁200	-10.2881
▁tev	-10.2894
Hmoob	-10.2917
▁Ntxoov	-10.2924
▁NTAU	-10.2925
▁thanks	-10.2926
▁60	-10.2941
▁hahahaha	-10.2952
▁government	-10.2953
▁mind	-10.2955
▁nquag	-10.2961
▁txag	-10.2966
▁qias	-10.2969
▁ntsa	-10.2979
▁niv	-10.2979
▁hem	-10.2979
▁Church	-10.2987
▁Moos	-10.2992
▁KAWG	-10.2993
▁qav	-10.3004
▁LUAG	-10.3007
eeg	-10.3013
plig	-10.3019
▁Lees	-10.3021
▁hahahahaha	-10.3031
▁Thailand	-10.3041
▁tshe	-10.3044
▁nhub	-10.3045
▁position	-10.3058
▁dabneeg	-10.3062
▁mentsi	-10.3086
▁txib	-10.309
▁NEEJ	-10.3092
▁Kuj	-10.3094
▁kim	-10.3108
Lt	-10.3113
▁aib	-10.3125
▁In	-10.3128
▁Foom	-10.3134
▁ntsev	-10.3139
▁Mas	-10.3139
▁tseev	-10.3144
▁hoob	-10.316
▁god	-10.3172
▁ok	-10.3174
▁Nplogteb	-10.3175
▁which	-10.3178
▁show	-10.3178
▁kauj	-10.318
um	-10.3188
▁ras	-10.3201
▁ualuaj	-10.3229
▁mi	-10.3251
▁fwj	-10.3267
▁nta	-10.3273
▁HMONG	-10.3284
▁May	-10.3285
▁forum	-10.329
▁neohom	-10.3301
▁..."	-10.331
group	-10.3315
▁uv	-10.3316
▁two	-10.3316
▁Doctor	-10.3318
▁zaag	-10.332
▁nraus	-10.3324
▁others	-10.3331
▁Family	-10.3353
▁qees	-10.3355
▁yas	-10.3372
▁XEEM	-10.3373
▁Wb	-10.3378
num	-10.3385
▁California	-10.3388
▁zuag	-10.3391
▁Yim	-10.3394
▁Anti	-10.3408
▁Aub	-10.3409
yam	-10.3416
▁Cai	-10.3421
▁Oh	-10.3422
▁ki	-10.3437
▁nkaag	-10.3442
▁plag	-10.3444
▁cauj	-10.346
▁before	-10.3461
▁learn	-10.3464
▁tum	-10.3477
▁bawg	-10.3479
▁Tiamsi	-10.3483
nother	-10.3492
luag	-10.3492
▁plan	-10.3492
▁txojkev	-10.3497
▁caus	-10.3502
▁hehehe	-10.3512
▁keep	-10.3531
▁different	-10.3531
▁pm	-10.3535
▁again	-10.3542
▁change	-10.3546
▁24	-10.3552
▁Yav	-10.356
▁alway	-10.3568
▁side	-10.3577
▁sch	-10.3586
▁w	-10.3586
▁friend	-10.3587
▁dlub	-10.3598
▁daig	-10.3602
▁txuam	-10.3602
▁kuamemiab	-10.3603
▁Tuaj	-10.3605
▁tsem	-10.3611
▁Phou	-10.3621
▁happen	-10.3621
.	-10.3623
▁company	-10.3658
▁thas	-10.3658
▁html	-10.366
▁nkaug	-10.3681
▁laaj	-10.3687
▁ntws	-10.3687
▁LEEJ	-10.3695
▁ntxi	-10.3706
▁tsuv	-10.3727
▁vote	-10.3728
▁tshoj	-10.3734
▁nqig	-10.3737
▁Dlawb	-10.3749
▁hmos	-10.375
▁dlha	-10.375
▁does	-10.3752
▁NYIAJ	-10.377
▁Yajtshajkoob	-10.3786
▁ntuag	-10.3786
eb	-10.3796
▁qoob	-10.3801
▁nruas	-10.381
▁chav	-10.381
▁How	-10.3814
▁look	-10.3814
▁Australia	-10.382
▁Noj	-10.3823
▁zib	-10.3823
▁NROG	-10.3829
▁Zoov	-10.384
▁TAG	-10.3842
▁YAJ	-10.386
▁hehehehe	-10.3863
▁best	-10.3864
▁ask	-10.3865
▁DAB	-10.3865
,	-10.3876
▁tswb	-10.3876
▁ncuav	-10.3879
▁taj	-10.388
▁plhu	-10.3885
▁Tejzaum	-10.3897
dy	-10.3902
▁zis	-10.3904
▁khau	-10.3906
▁That	-10.3911
▁money	-10.3916
▁words	-10.3926
wg	-10.3932
▁qoos	-10.3937
▁NTUJ	-10.3947
▁Paaj	-10.3949
soc	-10.3961
▁TIM	-10.397
▁kum	-10.3971
▁NOT	-10.3976
▁chiv	-10.3979
▁part	-10.3992
▁Av	-10.3993
▁cig	-10.3995
▁system	-10.4009
▁Txoov	-10.4011
▁Ruam	-10.402
▁education	-10.4024
▁paul	-10.403
▁pro	-10.4048
▁Mab	-10.4056
ov	-10.4057
next	-10.4066
▁POV	-10.4079
▁retire	-10.4091
▁Jesus	-10.4105
▁please	-10.4106
▁zeej	-10.4119
▁Mong	-10.4128
▁txuag	-10.414
▁OB	-10.4144
▁W	-10.4152
▁tiab	-10.4162
▁loos	-10.4166
▁vaam	-10.4191
▁Tsoom	-10.421
▁Muang	-10.4217
A	-10.4219
▁especially	-10.4221
▁khwb	-10.4221
▁TXOJ	-10.4238
ntuj	-10.4239
▁Universit	-10.4244
▁IN	-10.4248
▁Naj	-10.4249
▁yoo	-10.4252
▁evidence	-10.4261
▁As	-10.427
▁secret	-10.4273
ion	-10.4277
▁against	-10.4297
▁Lwj	-10.4299
▁Ph	-10.4302
▁yaum	-10.4305
▁kaub	-10.4307
▁things	-10.4311
▁HK	-10.4312
▁TSWV	-10.4319
▁feeb	-10.4322
▁txov	-10.4331
▁uantej	-10.4334
▁ta	-10.4345
▁txawg	-10.4346
▁tha	-10.4356
▁tsevneeg	-10.4357
▁yov	-10.4381
eg	-10.4384
▁dablaug	-10.4384
▁ntxia	-10.4396
▁hlab	-10.4396
▁Good	-10.4433
tus	-10.4433
▁matter	-10.4433
▁nplej	-10.4434
▁17	-10.4443
▁Ca	-10.4444
▁tho	-10.445
▁lee	-10.4452
▁hai	-10.4461
▁seev	-10.447
▁america	-10.4471
▁Dag	-10.448
▁2005	-10.4485
▁HAUV	-10.4513
ce	-10.4514
▁There	-10.4515
▁sawm	-10.4525
▁vibnais	-10.4533
▁Txhiaj	-10.4553
▁turn	-10.4558
▁Txooj	-10.457
▁nkoj	-10.4574
▁nraag	-10.4595
▁aka	-10.4597
▁txhum	-10.4597
▁social	-10.4616
▁members	-10.463
▁xu	-10.4636
▁Tso	-10.4642
▁kib	-10.4647
▁YAM	-10.4654
▁hno	-10.4662
▁DR	-10.468
▁Yingb	-10.4685
▁Nyiag	-10.4693
mus	-10.4693
▁Qhia	-10.4694
▁kheev	-10.4695
▁Ntshai	-10.4698
▁ntov	-10.4709
▁theej	-10.4714
▁xf	-10.4714
▁DAWB	-10.4715
▁prove	-10.4717
cobfab	-10.4735
▁yaaj	-10.4742
▁understand	-10.4749
▁homphiaj	-10.4753
▁lem	-10.4763
▁ntsab	-10.4764
▁ntxawg	-10.4764
▁lias	-10.4774
▁Q	-10.478
▁khaav	-10.4794
▁tshwj	-10.4817
▁vij	-10.4819
▁ai	-10.4828
-	-10.4834
▁qiv	-10.4839
▁yaw	-10.4855
▁xyaw	-10.4861
▁CAI	-10.4867
▁tshee	-10.4877
▁Vietnam	-10.489
▁txig	-10.4897
▁Vees	-10.49
▁qas	-10.4906
▁dollars	-10.4908
▁XA	-10.491
▁dlaabtsi	-10.4916
▁Kab	-10.4934
▁NA	-10.4948
▁Yias	-10.4953
▁Neo	-10.4958
thing	-10.4959
▁got	-10.496
LI	-10.4974
▁each	-10.4978
▁future	-10.4979
ment	-10.4983
▁xya	-10.499
lab	-10.4995
▁mail	-10.5015
▁Xeev	-10.5018
▁nplaig	-10.5021
▁More	-10.5041
▁TX	-10.5053
▁laij	-10.5064
▁nchuav	-10.5064
▁mauj	-10.5066
▁kind	-10.5068
ation	-10.5083
▁hotel	-10.5084
▁Sam	-10.5096
cuab	-10.5106
▁vuag	-10.5106
▁28	-10.5115
▁tsaav	-10.5115
▁without	-10.5125
▁haub	-10.514
▁order	-10.5148
▁place	-10.515
▁taubhau	-10.5155
tas	-10.516
▁including	-10.5167
▁Sis	-10.5172
▁sais	-10.5176
▁feel	-10.5188
st	-10.519
▁pluj	-10.5196
▁sua	-10.5204
▁st	-10.5214
================	-10.5217
▁Kis	-10.5218
▁Rights	-10.5221
im	-10.5225
▁fuab	-10.5231
kiag	-10.5237
▁link	-10.524
▁word	-10.524
▁hiv	-10.5241
▁nkees	-10.5256
oj	-10.5264
▁Nim	-10.5281
▁35	-10.5284
fwv	-10.53
▁kaab	-10.5305
▁Cobfab	-10.5317
▁country	-10.5317
▁Mai	-10.5319
▁khaum	-10.5321
ntawd	-10.5324
▁My	-10.5329
▁radio	-10.5344
▁ntso	-10.5357
▁hnyav	-10.536
▁xyeej	-10.5364
▁Koom	-10.5371
▁Chia	-10.5372
▁using	-10.5379
▁SAWV	-10.5381
▁wife	-10.5382
▁Ham	-10.5389
▁million	-10.5392
▁kk	-10.5395
▁Feem	-10.5398
▁lw	-10.5405
▁Pleas	-10.5407
▁kod	-10.5414
▁laos	-10.5417
▁sense	-10.5426
▁POJ	-10.5428
▁poog	-10.5429
▁xauv	-10.5436
▁list	-10.5436
▁qes	-10.5438
beMho	-10.5444
▁org	-10.5451
▁qeb	-10.5453
▁!!!!	-10.5456
18	-10.5471
▁TUA	-10.5483
hot	-10.5488
▁npaug	-10.5491
▁ntab	-10.5503
▁NOM	-10.5506
▁King	-10.5512
16	-10.5517
▁tell	-10.5522
▁yws	-10.5538
▁dib	-10.5542
▁qauj	-10.5543
▁nceb	-10.5544
▁kuaj	-10.5552
Kwvtijhmoob	-10.5558
mas	-10.5561
▁"...	-10.5564
▁TSEV	-10.5579
▁hehehehehe	-10.5586
yuav	-10.5587
▁But	-10.56
▁vision	-10.5611
▁80	-10.5612
▁khab	-10.5616
▁yourself	-10.5623
▁mong	-10.5636
▁toog	-10.5642
▁baum	-10.5643
▁Loob	-10.5646
▁thwj	-10.5667
gt	-10.5684
▁NAWB	-10.5689
▁Thornsp	-10.569
▁ais	-10.5717
▁Lus	-10.5732
▁really	-10.5737
zag	-10.5741
▁qualify	-10.5756
▁khoo	-10.5759
▁khws	-10.5776
lus	-10.5796
▁IT	-10.5798
wb	-10.5803
▁nkhaus	-10.5803
▁made	-10.5828
▁txhis	-10.5834
▁mes	-10.5837
▁hmab	-10.5839
▁da	-10.5852
▁Dub	-10.5853
▁txw	-10.586
▁ntaj	-10.586
▁Kas	-10.5861
▁txhab	-10.5864
▁official	-10.5869
▁NTAWD	-10.587
be	-10.5882
▁npo	-10.5889
▁75	-10.589
▁refugee	-10.5895
▁board	-10.5895
▁Tog	-10.5909
▁Serve	-10.5911
▁npuab	-10.5913
▁nrawm	-10.5916
▁dream	-10.5925
▁end	-10.5929
▁hope	-10.593
▁ciav	-10.5953
os	-10.5958
▁Mev	-10.5959
▁nroj	-10.5972
▁nyaum	-10.5989
▁xiong	-10.5992
▁Tu	-10.5995
om	-10.5997
http	-10.5999
▁Meo	-10.6002
▁Tsuj	-10.6004
▁un	-10.6016
▁yo	-10.6018
▁kujxaj	-10.6032
▁women	-10.6032
▁THOV	-10.6052
▁PHEM	-10.6052
*	-10.6055
▁war	-10.6058
▁nyua	-10.6059
▁For	-10.6062
▁ntsig	-10.6069
▁self	-10.607
fa	-10.6071
▁ntais	-10.6082
en	-10.6083
▁yuag	-10.6091
qaab	-10.6106
▁pus	-10.6133
▁check	-10.6142
▁Pob	-10.615
▁YD	-10.615
suabnoog	-10.6167
▁nqeg	-10.6169
▁leg	-10.6174
▁office	-10.6187
F	-10.6191
▁KUJ	-10.6194
▁cha	-10.6214
▁yh	-10.6218
H	-10.6233
▁funeral	-10.6239
▁FBI	-10.6239
▁tsuam	-10.6244
▁city	-10.6247
▁HO	-10.6252
▁Tag	-10.6258
▁txwj	-10.626
▁sex	-10.6263
▁Zaj	-10.6277
▁Government	-10.6286
▁Ywg	-10.6286
▁khej	-10.6288
▁2006	-10.6289
▁tamsis	-10.6302
▁defend	-10.6303
▁Freedom	-10.631
▁title	-10.6311
▁Bawg	-10.6335
▁Amen	-10.6335
▁haav	-10.6352
▁kem	-10.6356
▁mhoob	-10.6362
▁Yes	-10.6389
laus	-10.6398
▁NTSE	-10.6399
▁interest	-10.6401
▁Year	-10.6405
▁THAT	-10.6429
▁rhawv	-10.6429
▁proof	-10.643
▁nroos	-10.6435
▁kwj	-10.6436
▁nteg	-10.6438
▁tubrog	-10.6444
▁...........	-10.645
▁few	-10.6454
▁TSAM	-10.6456
▁Pathet	-10.6477
▁ntxhiab	-10.649
▁Colonel	-10.6501
ag	-10.6507
▁democracy	-10.6526
▁meeting	-10.6527
▁PUB	-10.6529
▁TSO	-10.653
▁leaders	-10.6531
▁laig	-10.6531
▁its	-10.6541
▁hard	-10.6548
▁Tshua	-10.6551
▁rhiab	-10.6552
▁saj	-10.6554
▁nis	-10.6562
▁qeeb	-10.6582
▁lawyer	-10.6588
▁keb	-10.6589
▁Pojniam	-10.6598
▁Message	-10.6598
▁bomb	-10.6599
▁ntsai	-10.6601
▁Lor	-10.6603
▁pev	-10.6611
yeeb	-10.6618
▁ntsha	-10.662
▁ses	-10.6621
dawb	-10.6623
▁ZOG	-10.6624
▁xyum	-10.6625
▁Tshajplaws	-10.6626
▁fact	-10.6665
▁dawm	-10.667
▁Just	-10.6672
▁qhas	-10.6672
▁face	-10.6683
▁fiv	-10.6687
▁Ntawv	-10.6694
▁Pom	-10.6702
pov	-10.6704
▁yab	-10.6705
▁Thorn	-10.6709
▁Maina	-10.6723
▁xibfwb	-10.6725
og	-10.6738
tseeg	-10.674
▁twjyw	-10.674
tsaug	-10.6743
▁thaaj	-10.6766
▁Why	-10.6771
▁Soua	-10.6779
▁read	-10.6781
▁Mouaton	-10.6785
▁Pobzeb	-10.6796
▁PUAS	-10.6796
▁Pha	-10.6797
▁Jim	-10.6797
tes	-10.68
▁Kong	-10.6802
▁meaning	-10.6802
▁yis	-10.6814
▁neejtsa	-10.6821
▁lob	-10.6839
tk	-10.6841
▁Huabtais	-10.6848
▁Tsuav	-10.6849
▁home	-10.6865
▁hwjchim	-10.687
▁keebkwm	-10.687
kub	-10.6871
▁kajsiab	-10.6879
tsis	-10.6892
▁jpg	-10.6896
▁mejkoob	-10.69
▁OK	-10.6907
▁ej	-10.6911
▁PM	-10.6922
▁phov	-10.6923
▁both	-10.6945
▁hluav	-10.6945
▁paaj	-10.6949
▁Peace	-10.695
▁hoom	-10.6954
▁paim	-10.6955
▁Asia	-10.6969
▁npaaj	-10.6972
▁Leejtw	-10.6986
ty	-10.6994
▁open	-10.6999
▁uasi	-10.7029
▁MC	-10.7032
▁nye	-10.7035
▁form	-10.7038
▁National	-10.7048
▁bible	-10.7049
▁paib	-10.7056
▁niamtxiv	-10.7069
▁done	-10.7072
▁kob	-10.7074
▁millions	-10.709
xeem	-10.709
▁tabsim	-10.7118
▁volunteer	-10.7125
▁chance	-10.7125
▁txa	-10.7129
▁Cwj	-10.7136
▁yob	-10.7144
sib	-10.7148
▁Congress	-10.715
▁Hnov	-10.7151
▁pay	-10.7166
▁situation	-10.7176
▁SSI	-10.7177
▁ntxuag	-10.7179
▁txujci	-10.718
▁tov	-10.7181
▁weeks	-10.7192
▁TSEEB	-10.7203
▁dluab	-10.7204
▁TXAWJ	-10.7213
▁nraud	-10.7216
ntawv	-10.7223
▁fabkis	-10.7229
▁txhoj	-10.7231
▁Nchai	-10.7233
▁OV	-10.7234
▁fair	-10.7235
▁betwee	-10.7236
▁poom	-10.7237
licas	-10.7258
▁ntxais	-10.7264
▁tsog	-10.7269
▁Tib	-10.7277
▁hahahahahaha	-10.7279
ne	-10.728
▁Luas	-10.7282
▁Mam	-10.7289
▁npuas	-10.7299
United	-10.731
▁dlaav	-10.731
▁la	-10.7311
▁Phaj	-10.7315
▁KAM	-10.7317
around	-10.7325
▁ntxhia	-10.7326
LY	-10.7334
▁26	-10.7335
▁nomtswv	-10.7337
▁thank	-10.7359
▁Communist	-10.736
▁fwjchim	-10.736
▁fim	-10.7362
▁kiav	-10.7363
▁yuamkev	-10.7367
▁ntub	-10.7369
▁Luang	-10.7379
▁net	-10.7397
▁truth	-10.74
R	-10.7404
▁yuas	-10.7406
▁website	-10.7414
▁line	-10.7419
tony	-10.7421
▁uncle	-10.7442
nothing	-10.7463
▁private	-10.7466
▁19	-10.7473
▁big	-10.7477
▁kiv	-10.7487
▁seej	-10.7492
▁LWM	-10.75
▁project	-10.7503
qhov	-10.7509
▁professional	-10.7519
▁John	-10.7526
▁TSHAJ	-10.7531
▁cwjme	-10.7533
▁f	-10.7537
▁Nres	-10.7546
▁Hauv	-10.7549
▁doctors	-10.7567
▁opportunity	-10.7572
▁txaij	-10.7574
▁MUAG	-10.7574
uj	-10.7579
▁term	-10.7584
▁nthe	-10.7585
▁put	-10.7587
▁52	-10.7593
▁Nkaujnyiag	-10.76
▁something	-10.76
ry	-10.7612
▁npuav	-10.7617
▁Kwm	-10.7629
▁txhav	-10.7638
▁fight	-10.764
▁else	-10.7654
▁Fuab	-10.7654
▁txooj	-10.7655
▁minute	-10.7662
▁yes	-10.7675
▁Bibl	-10.7681
▁zeemmuag	-10.7681
▁Oz	-10.7682
▁control	-10.7683
▁Tsheej	-10.7687
▁SAB	-10.7691
▁difference	-10.7707
▁Let	-10.7719
or	-10.7739
hais	-10.7751
▁moov	-10.7754
laug	-10.7758
▁nplaum	-10.7763
▁Nyoo	-10.7781
hiab	-10.7783
▁FOR	-10.7786
▁Wisconsin	-10.779
▁Tsov	-10.78
▁yeebncua	-10.7803
▁non	-10.7808
▁AS	-10.7816
▁YAWG	-10.7819
▁TAWM	-10.7822
▁npaud	-10.7825
▁nte	-10.7825
▁Caub	-10.7829
▁answer	-10.7838
▁idea	-10.7843
▁speech	-10.7845
▁Txhais	-10.7845
▁ntxag	-10.7865
▁rais	-10.7865
▁great	-10.7872
▁idonotknow	-10.7873
▁Lyteck	-10.7873
▁profit	-10.7877
▁canno	-10.7884
▁tsawm	-10.7908
▁phua	-10.7913
▁Yij	-10.7914
iv	-10.792
▁AM	-10.7922
caag	-10.7924
▁fajkhau	-10.7926
▁past	-10.7928
▁tshau	-10.7929
▁goal	-10.7933
▁top	-10.7953
iab	-10.7954
▁China	-10.7957
▁kaaj	-10.7957
▁SAIB	-10.7958
▁nplawm	-10.7961
▁accept	-10.7966
▁hours	-10.7969
yim	-10.7975
▁DC	-10.7975
▁UNHCR	-10.7984
▁tuas	-10.7989
▁TSIM	-10.8001
▁tshaav	-10.8014
▁yuj	-10.8035
▁taam	-10.8036
▁PKH	-10.8041
▁Peter	-10.8041
▁politics	-10.8041
▁txhuv	-10.8048
▁1000	-10.8054
▁luck	-10.8056
▁Minister	-10.8069
▁NTAWM	-10.807
ness	-10.807
▁meejmom	-10.8071
▁KAWM	-10.8073
tom	-10.8085
▁Rebecca	-10.8097
▁CHIM	-10.81
▁HLUB	-10.81
▁*	-10.81
▁thai	-10.8111
▁col	-10.8117
▁heart	-10.8117
▁peace	-10.8121
▁Na	-10.8123
▁pleev	-10.8126
▁Ntxwg	-10.8126
▁copy	-10.8127
▁find	-10.815
▁Hm	-10.8152
▁Kuamemiab	-10.8154
▁Avang	-10.8155
▁nqus	-10.8158
▁follow	-10.8166
▁zeeg	-10.8167
▁Toj	-10.8169
▁School	-10.8182
▁program	-10.8188
▁kuamem	-10.8213
▁Your	-10.8217
▁kawv	-10.8236
▁dhlau	-10.8243
▁hniaj	-10.8261
▁$1	-10.8263
▁traitor	-10.8269
▁People	-10.8269
▁om	-10.8287
▁nthi	-10.8288
z	-10.8298
▁YEEB	-10.8301
▁ntaug	-10.8305
▁Tshuav	-10.8307
▁toom	-10.8313
▁,,	-10.8318
▁anything	-10.8327
tau	-10.8328
▁someone	-10.8358
▁nroo	-10.836
▁hnia	-10.8361
▁language	-10.8363
▁nplajte	-10.8373
leej	-10.8375
▁tsu	-10.8399
▁legal	-10.8404
▁Amelicas	-10.8414
▁ntaiv	-10.8416
▁nqhi	-10.8432
▁Ntau	-10.8437
▁nqos	-10.8438
▁least	-10.8444
▁NTAWV	-10.8445
▁Tia	-10.845
▁Coj	-10.845
▁individual	-10.8451
▁mua	-10.8458
▁,"	-10.8473
▁Fwv	-10.8475
▁zim	-10.8476
▁club	-10.8477
▁Hlub	-10.8477
▁DOS	-10.848
aum	-10.8498
▁team	-10.8499
▁Aib	-10.8509
kawg	-10.8513
▁hluag	-10.8523
▁MAM	-10.8529
▁qa	-10.8534
▁POB	-10.8534
▁night	-10.8536
▁sign	-10.8552
▁Miao	-10.8563
▁TIAM	-10.8563
▁Laus	-10.8569
wm	-10.8573
▁join	-10.8583
▁Sim	-10.8588
wj	-10.8591
▁Tsujsua	-10.8595
▁land	-10.86
▁haas	-10.8601
▁choice	-10.8621
▁Zag	-10.8624
▁Tim	-10.8629
▁stop	-10.8645
▁piam	-10.8647
▁II	-10.8648
▁ncaug	-10.8668
▁societ	-10.8681
▁Phiajzeb	-10.8682
▁npaws	-10.8689
meej	-10.8695
▁age	-10.8707
▁Kao	-10.8721
▁doing	-10.8729
▁ped	-10.8735
▁off	-10.8737
▁2012	-10.8739
paub	-10.8739
▁Lycee	-10.8741
▁qhau	-10.8743
▁Dec	-10.8756
▁ntsaws	-10.8767
▁second	-10.8768
▁RPA	-10.8772
▁NTR	-10.8772
▁agent	-10.8773
groups	-10.878
▁daum	-10.8784
▁per	-10.8806
▁mem	-10.8812
▁Dev	-10.8819
▁qi	-10.8821
awm	-10.8828
▁nruag	-10.883
▁Ziag	-10.8833
▁attack	-10.8833
▁nias	-10.8844
▁judge	-10.8852
txwm	-10.8856
▁Shoua	-10.8863
29	-10.8865
▁pluaj	-10.8867
▁laim	-10.8872
▁Siab	-10.8873
▁TIA	-10.8888
▁zuaj	-10.8896
▁27	-10.89
▁Roob	-10.8903
▁khees	-10.8918
▁job	-10.8929
▁vaammee	-10.8951
▁lua	-10.8954
▁htm	-10.8955
▁2010	-10.896
▁diav	-10.8962
▁tax	-10.8985
▁christian	-10.8987
▁zaam	-10.899
▁taig	-10.8993
▁Noog	-10.8999
▁Tshoj	-10.9015
O	-10.9016
▁tsag	-10.9017
▁College	-10.9018
▁lajlim	-10.9018
▁Laug	-10.9033
▁La	-10.9044
▁Txiab	-10.9048
▁far	-10.9048
▁neohmong	-10.9049
▁already	-10.9049
▁CAUBFAB	-10.9049
▁San	-10.9052
▁quasyawg	-10.9053
▁ntshaav	-10.9053
▁Neng	-10.9064
se	-10.9066
▁xovtooj	-10.907
lis	-10.907
rog	-10.9078
▁Unko	-10.9082
▁29	-10.9087
▁fwb	-10.9095
▁nyo	-10.9103
▁record	-10.9103
▁leem	-10.9103
▁kuag	-10.9105
lwm	-10.9105
▁fawb	-10.9113
niam	-10.9118
▁DAWS	-10.9119
▁Faaj	-10.912
img	-10.9131
▁cause	-10.9131
▁ntuav	-10.9136
▁college	-10.9137
▁Don	-10.9139
▁nyooj	-10.9143
▁nqeeb	-10.915
Lq	-10.9153
I	-10.9157
▁23	-10.9158
;	-10.916
▁phwv	-10.9165
▁cuaj	-10.9173
▁Director	-10.9174
▁ARE	-10.9177
▁maub	-10.9189
▁speak	-10.9198
▁kes	-10.9201
▁DU	-10.9202
▁ntxoov	-10.9205
▁2007	-10.9206
▁above	-10.9206
▁Tsim	-10.9206
▁LFC	-10.9207
▁npuaj	-10.9223
▁2000	-10.9228
▁action	-10.9236
▁thought	-10.9236
▁Kajntug	-10.9238
▁limit	-10.9243
▁tsig	-10.9248
▁laag	-10.9249
ntxhais	-10.9255
▁lais	-10.9259
▁ntxhw	-10.9265
▁rig	-10.9272
nom	-10.9273
▁Nov	-10.9274
▁boj	-10.9277
▁body	-10.9277
▁CEM	-10.9278
▁practice	-10.9284
ej	-10.9291
▁NC	-10.9298
▁dais	-10.9299
RW	-10.9303
▁Ntseeg	-10.9306
▁khaw	-10.931
▁ever	-10.9311
▁TSA	-10.9322
▁lpdr	-10.9334
▁thaud	-10.9336
▁Too	-10.9338
▁qhovtwg	-10.9338
▁KK	-10.934
▁zes	-10.9341
▁Ban	-10.9351
lao	-10.9357
▁2004	-10.9363
▁mission	-10.9366
▁qog	-10.9367
▁70	-10.9367
▁rhaub	-10.9367
▁ROG	-10.9368
▁oib	-10.937
▁nrim	-10.9373
▁MOOB	-10.9375
ia	-10.9392
▁Vinai	-10.9398
▁HNUB	-10.9399
▁Tseeb	-10.9399
▁TSEG	-10.9401
▁khuj	-10.9402
▁enjoy	-10.9402
▁TU	-10.9402
P	-10.9404
▁ntxhai	-10.9409
▁dao	-10.9414
ember	-10.9417
▁tsoos	-10.9421
▁dlaw	-10.9425
▁Moghlu	-10.9428
▁Thank	-10.9429
▁Kawm	-10.9435
▁Pa	-10.9437
▁chua	-10.9448
▁1980	-10.9464
▁dejnu	-10.9464
▁pha	-10.9473
▁awb	-10.9475
▁300	-10.9493
▁vau	-10.9494
▁Nplooj	-10.9498
▁ntshi	-10.9502
▁pobzeb	-10.9507
▁run	-10.9511
▁xaim	-10.9512
news	-10.9517
U	-10.9534
her	-10.9535
▁Do	-10.9561
▁Samthong	-10.9561
▁45	-10.9585
L	-10.9585
▁vov	-10.9593
▁.,	-10.9597
muaj	-10.96
▁ncau	-10.9602
▁GM	-10.9603
▁Nraug	-10.9605
▁ku	-10.9615
▁phev	-10.9629
▁Bangko	-10.9631
52	-10.9632
▁kaug	-10.9633
▁hajya	-10.9633
▁Lu	-10.9636
ED	-10.9642
▁Xov	-10.9643
▁Hu	-10.9649
▁viv	-10.9667
▁.)	-10.967
▁Txiaj	-10.9672
▁uacas	-10.968
▁..?	-10.9686
tug	-10.9692
yaig	-10.9695
▁tsees	-10.9704
▁meo	-10.9726
▁KUBXAJ	-10.9726
▁nplogteb	-10.9728
▁nkau	-10.9745
▁VT	-10.9747
▁Tsev	-10.9756
▁number	-10.9759
▁Obama	-10.976
▁txaaj	-10.9763
em	-10.9764
▁Ntaj	-10.9772
▁pestsaw	-10.9789
▁Tshu	-10.9791
▁LIS	-10.9801
▁continue	-10.9809
▁yaws	-10.981
▁Capt	-10.9828
▁start	-10.9833
▁ntwg	-10.984
in	-10.9845
ER	-10.9846
▁young	-10.9855
▁povtseg	-10.9863
▁Yawgnomdu	-10.9867
▁until	-10.9879
▁saw	-10.9886
▁kiab	-10.9889
▁benefit	-10.9894
▁zij	-10.9901
▁txoos	-10.9901
▁Nab	-10.991
me	-10.9921
▁HIH	-10.9924
▁NTSEEG	-10.9929
▁chwv	-10.9929
▁lesson	-10.993
▁ntxaws	-10.9931
▁DEJ	-10.9931
▁LAUS	-10.9933
▁special	-10.994
GVP	-10.9945
▁oh	-10.9951
▁LO	-10.9951
▁VDO	-10.9964
Cj	-10.9967
▁away	-10.9968
▁xyab	-10.9976
awd	-10.9987
▁king	-10.999
▁qhovmuag	-10.9995
▁TIJLAUG	-10.9997
yawm	-11.0007
▁tiamsi	-11.0028
▁$10	-11.0029
▁Sau	-11.003
▁nplaj	-11.003
▁Sibtham	-11.0032
▁Sacrament	-11.0033
suC	-11.0034
▁Caubfa	-11.0037
IAG	-11.0037
▁plis	-11.0038
yet	-11.0057
20	-11.0059
▁thawb	-11.0068
▁TSUM	-11.0074
▁tibyam	-11.0076
▁rhu	-11.0086
tsev	-11.0097
▁$100	-11.0099
▁address	-11.0101
▁vang	-11.0104
▁THAWJ	-11.0104
▁ntsoog	-11.0109
▁thwm	-11.011
NTAG	-11.0117
▁ruas	-11.0134
▁zig	-11.0139
▁Thaj	-11.0146
hmong	-11.0147
tawm	-11.0158
▁usa	-11.0165
▁perfect	-11.017
▁american	-11.0175
▁tshauv	-11.0181
▁lot	-11.0187
▁medal	-11.0205
▁through	-11.021
▁Koos	-11.0214
▁vag	-11.0222
an	-11.0224
▁Nro	-11.0224
▁quab	-11.0229
tub	-11.0238
▁plaab	-11.0242
▁zawm	-11.0243
▁SIM	-11.0248
koob	-11.0249
seb	-11.0251
▁huaj	-11.0254
▁World	-11.0277
fwb	-11.0279
▁NKAUJ	-11.0288
▁yias	-11.029
▁Mob	-11.0294
▁yaa	-11.0294
▁movies	-11.0299
uav	-11.0308
▁tshais	-11.031
▁generation	-11.0311
stead	-11.0311
▁nrad	-11.0317
▁cuj	-11.0319
▁tou	-11.0323
▁huav	-11.0336
▁DUA	-11.0337
▁bee	-11.0338
▁py	-11.0346
▁Bush	-11.0346
▁director	-11.0348
▁ntsub	-11.0349
ary	-11.0352
▁DUB	-11.0353
▁EV	-11.0353
▁TY	-11.036
▁TV	-11.0361
▁came	-11.0361
▁enough	-11.0383
▁naav	-11.0383
hn	-11.0384
pab	-11.0388
▁ago	-11.0389
▁Haum	-11.0392
▁happ	-11.0398
▁z	-11.0399
▁retired	-11.0401
▁dabtsis	-11.0408
▁serious	-11.0418
▁NEOHOME	-11.0418
▁politician	-11.0419
▁Rov	-11.0422
▁Vwm	-11.0425
▁Law	-11.0432
▁quj	-11.0433
▁Mais	-11.0434
▁phlu	-11.0442
▁pag	-11.0445
▁ywjpheej	-11.0454
tsij	-11.0457
▁plees	-11.0458
▁Npliaj	-11.0483
▁together	-11.0489
▁leadership	-11.0491
▁NPLOG	-11.0492
▁HH	-11.0496
▁Rwg	-11.0497
▁Chee	-11.0497
▁means	-11.0501
▁ceevfa	-11.0503
▁clear	-11.0505
▁direct	-11.0506
▁hand	-11.0506
▁mu	-11.0508
▁LAM	-11.0509
peb	-11.0525
▁Mloo	-11.0537
▁PK	-11.0538
▁late	-11.0538
▁nqua	-11.0543
▁DHAU	-11.0549
▁offer	-11.0551
▁xiv	-11.0558
yeej	-11.0558
▁q	-11.0559
▁SY	-11.0562
▁Radio	-11.0563
▁ready	-11.0572
▁DEB	-11.0578
▁MA	-11.0582
▁te	-11.0592
▁fa	-11.0592
▁dlau	-11.0597
▁bring	-11.0599
▁Xaav	-11.0599
▁66	-11.0607
▁Tiag	-11.0619
▁npoo	-11.0623
▁xeebceem	-11.0635
▁Xub	-11.0635
▁Kuamem	-11.0636
▁solution	-11.0637
▁ll	-11.0662
▁pluas	-11.0666
▁npausuav	-11.0672
▁belief	-11.0672
▁service	-11.0673
▁Txuj	-11.0675
▁vwj	-11.0701
▁po	-11.0701
▁become	-11.0708
▁fresno	-11.0708
▁dlig	-11.0713
▁times	-11.0724
▁walk	-11.0726
ev	-11.0726
▁educate	-11.0727
id	-11.0727
▁bank	-11.0732
▁txaum	-11.0734
▁tsham	-11.0752
▁ruag	-11.0756
ws	-11.0757
▁kill	-11.0757
▁cuas	-11.0757
est	-11.0776
▁flop	-11.0782
▁stroke	-11.0783
▁phij	-11.0794
tshajplaws	-11.0795
▁peeb	-11.0796
▁yag	-11.0797
▁comment	-11.0817
▁UTC	-11.0819
▁International	-11.0819
▁Yee	-11.0846
▁QHIA	-11.0853
▁KM	-11.0854
▁dlaaj	-11.0856
▁George	-11.0856
▁avang	-11.0861
▁tomntej	-11.0872
▁mobsiab	-11.0877
▁create	-11.0885
▁days	-11.0888
▁Txhim	-11.0894
▁international	-11.0895
▁tshai	-11.0895
▁game	-11.0895
▁xuaj	-11.0902
▁Txos	-11.0905
leeg	-11.0906
▁Be	-11.0907
▁)...	-11.0908
▁stand	-11.0915
▁BE	-11.0928
▁funny	-11.0932
▁dulug	-11.0933
▁1976	-11.0939
▁Major	-11.094
▁yuaj	-11.0956
▁woman	-11.0971
▁plog	-11.098
▁Hmo	-11.0982
▁ntxwg	-11.0992
▁set	-11.0996
▁regard	-11.1003
kaj	-11.1003
▁statement	-11.101
▁2008	-11.1015
▁thaab	-11.1018
▁kaas	-11.1023
▁friends	-11.1042
▁TXIM	-11.1048
▁ciab	-11.1049
▁nqai	-11.1062
▁Chim	-11.1063
▁DIM	-11.1064
▁XYOO	-11.1067
▁rag	-11.1067
▁rovqab	-11.1083
▁khabnab	-11.1083
▁concern	-11.1083
▁When	-11.1083
▁feet	-11.1089
▁pis	-11.1091
▁neev	-11.11
ck	-11.1101
▁promote	-11.1107
▁step	-11.1111
▁nhov	-11.1123
▁tshajlij	-11.1124
tias	-11.1135
▁close	-11.1141
▁VIBNAIS	-11.116
▁faaj	-11.1162
▁Thoob	-11.1163
▁tsavneeg	-11.1166
SIS	-11.1166
▁Yong	-11.117
▁cib	-11.1174
▁Phab	-11.118
▁NPE	-11.1193
▁national	-11.1197
up	-11.1198
▁knowledge	-11.1199
▁Loojceeb	-11.1199
▁thawm	-11.1204
▁khaib	-11.1204
▁SAU	-11.1205
▁...,	-11.1209
▁xaws	-11.1209
▁txhos	-11.1214
▁toob	-11.1222
▁Chue	-11.1223
▁.."	-11.1228
▁txhuas	-11.1235
▁possibl	-11.1235
▁challenge	-11.1237
▁Thamkrabok	-11.1237
▁NYIAM	-11.124
▁raj	-11.1246
▁heard	-11.1248
▁yoov	-11.1251
▁dead	-11.1263
▁Nyuj	-11.1266
▁Yig	-11.1279
▁Lino	-11.1281
▁taij	-11.1283
▁nceeg	-11.1283
▁wish	-11.1283
less	-11.1291
▁tsaab	-11.1292
▁ntxiag	-11.1296
▁fun	-11.131
▁policy	-11.1316
▁xua	-11.1317
▁death	-11.132
▁xuab	-11.1322
niamtsev	-11.1322
▁posts	-11.1325
▁nyaab	-11.1329
▁txam	-11.1333
▁nqaa	-11.1339
▁36	-11.1342
▁THEM	-11.1342
▁ALL	-11.1349
▁Dong	-11.135
hawm	-11.1351
▁Yag	-11.1355
▁SUB	-11.1356
▁khua	-11.1365
eng	-11.1374
▁maim	-11.1376
▁OR	-11.1378
▁90	-11.1382
▁YT	-11.1382
▁UB	-11.1383
▁citizen	-11.1388
▁consider	-11.1393
▁vacation	-11.1394
▁nplaim	-11.1396
▁paag	-11.1401
▁Kos	-11.1405
▁xau	-11.1414
▁Yia	-11.1419
▁Puj	-11.1419
▁hear	-11.1426
▁terrorist	-11.1434
▁1960	-11.1435
▁High	-11.1435
▁ntsejmuag	-11.1436
▁pig	-11.1438
▁ntxaug	-11.1439
▁Daim	-11.1441
▁yah	-11.1441
▁Santa	-11.1446
▁khoob	-11.1471
▁former	-11.1476
ces	-11.1477
▁Moog	-11.1477
▁xwj	-11.1478
▁xyua	-11.1484
▁tai	-11.1492
▁saying	-11.1492
▁include	-11.1498
▁qhias	-11.1501
▁complain	-11.1507
dub	-11.1512
▁HOM	-11.1515
▁plau	-11.1517
▁move	-11.1517
iam	-11.1517
▁LIAB	-11.1521
▁Khej	-11.1523
▁Khab	-11.153
tuag	-11.1536
▁lawj	-11.1548
▁page	-11.1552
AM	-11.1553
▁apply	-11.1553
▁unless	-11.1553
▁Paub	-11.1555
▁Hauj	-11.1556
▁feeling	-11.1561
▁DEV	-11.1562
▁head	-11.1563
toj	-11.1569
▁ntsaw	-11.1576
▁cale	-11.1577
ceeb	-11.1579
▁qai	-11.1581
▁NE	-11.1582
▁nr	-11.1586
▁CO	-11.1588
lso	-11.1588
▁sauv	-11.1591
▁whole	-11.1599
tsam	-11.1604
Canada	-11.1604
tswv	-11.1606
▁suv	-11.1607
▁ntshua	-11.1607
pm	-11.1607
32	-11.1624
▁Yooj	-11.1634
xim	-11.1635
▁;&	-11.1636
▁father	-11.1638
Xf	-11.1639
▁xiab	-11.1639
▁vas	-11.164
ID	-11.1646
sa	-11.1647
▁nraab	-11.1647
▁And	-11.1653
---------------	-11.1667
▁meme	-11.1667
▁camp	-11.1668
▁pebcaug	-11.1668
▁Council	-11.1674
▁uali	-11.168
▁Cheng	-11.1681
▁thiv	-11.1683
51	-11.1687
yawg	-11.1691
▁th	-11.1693
▁DO	-11.1711
▁khoos	-11.1712
▁mental	-11.1714
▁Commander	-11.1715
▁principle	-11.1715
▁Zuag	-11.1716
▁puavleej	-11.172
▁teej	-11.1722
▁,,,	-11.1727
ong	-11.1739
▁kaag	-11.1743
▁ST	-11.1744
▁MOS	-11.1754
▁Department	-11.1755
▁agenda	-11.1755
▁TXAUS	-11.1756
▁original	-11.1756
▁199	-11.1774
▁fund	-11.1787
▁rawsli	-11.179
▁Noob	-11.1791
▁health	-11.1793
century	-11.1797
▁positive	-11.1797
▁THIS	-11.1799
▁Nyias	-11.1799
▁lolus	-11.1806
▁di	-11.1823
▁sev	-11.1828
military	-11.1839
MOOB	-11.1839
▁either	-11.1842
▁anti	-11.1843
nub	-11.1849
▁ntswj	-11.1856
▁hiav	-11.1856
▁Colorad	-11.1863
▁Chong	-11.1865
▁Ntse	-11.1866
▁rule	-11.1869
▁Israel	-11.1875
▁xejthim	-11.1879
▁Man	-11.1881
neeb	-11.1884
▁chawj	-11.1901
nov	-11.1901
thread	-11.1909
▁reality	-11.1922
▁later	-11.1922
▁moua	-11.1925
▁als	-11.1927
▁fee	-11.193
▁txhu	-11.193
▁BUT	-11.1936
▁lwv	-11.1938
▁Caag	-11.1963
▁pluav	-11.1968
▁view	-11.1987
▁YO	-11.1998
▁Txiabneeb	-11.2004
▁might	-11.2007
▁today	-11.2011
▁Sao	-11.2011
▁ntuv	-11.2013
▁PAJ	-11.2024
▁Catholic	-11.2046
▁Haam	-11.2048
▁cos	-11.2048
▁"?	-11.2055
▁Mim	-11.206
▁0	-11.2061
▁TUBNTSUAG	-11.2062
▁soon	-11.2068
▁qia	-11.2068
fore	-11.2086
▁Yaweh	-11.2088
▁everything	-11.2089
▁nuvntses	-11.209
▁fai	-11.2127
▁SEB	-11.2131
▁NTEJ	-11.2132
▁Zos	-11.2134
▁$5	-11.2141
▁yoj	-11.2143
▁serve	-11.2143
▁lead	-11.2144
▁Have	-11.2144
▁khuav	-11.2147
dab	-11.2149
smiles	-11.2157
nkaus	-11.2158
▁QAIB	-11.2173
▁Teng	-11.2176
▁living	-11.2176
▁ntxeem	-11.2179
▁cooj	-11.2179
▁Tebchaw	-11.219
▁????	-11.2198
▁daw	-11.2201
▁nrag	-11.2212
▁VajNcuab	-11.2216
▁marriage	-11.2216
▁Prabang	-11.2218
▁YOUR	-11.2219
▁THAM	-11.2219
▁Fwm	-11.2221
▁event	-11.2233
▁mejthaub	-11.2261
▁2011	-11.2262
▁..,	-11.2264
▁charge	-11.2268
▁test	-11.227
▁ntshiab	-11.2272
moobsib	-11.2276
▁caab	-11.2281
▁KO	-11.2298
▁xaab	-11.23
▁short	-11.2302
▁nice	-11.2303
▁white	-11.2303
▁Maum	-11.2306
▁laajxeeb	-11.2307
▁pastor	-11.2309
▁Cib	-11.231
adison	-11.2313
▁Ana	-11.2322
▁LEES	-11.2326
▁naab	-11.2329
▁zoox	-11.2332
▁MOB	-11.234
▁whil	-11.2342
▁mention	-11.2345
▁CHAWS	-11.2346
▁raab	-11.2346
▁caaj	-11.2349
▁taav	-11.2349
▁Kaim	-11.235
▁Meliska	-11.2351
▁ncho	-11.2356
zeb	-11.2362
▁mung	-11.2362
▁.-	-11.2368
▁force	-11.2373
▁ZAUM	-11.2378
▁securit	-11.239
▁kavliam	-11.2392
▁wait	-11.2393
▁KUB	-11.2393
hind	-11.2398
kas	-11.2419
ny	-11.242
▁Wat	-11.2431
▁represent	-11.2432
▁ghov	-11.2433
▁Aug	-11.2438
▁03	-11.2439
▁Ntxhais	-11.2439
taub	-11.2444
▁Nag	-11.2455
▁fuam	-11.2457
xwb	-11.2459
▁maiv	-11.2466
▁NPUA	-11.2466
▁dos	-11.2475
▁nyaav	-11.2478
▁1979	-11.2479
nyeej	-11.2486
▁nplig	-11.2488
▁5000	-11.249
▁account	-11.2501
▁QW	-11.2501
▁liag	-11.2516
▁vaajmung	-11.252
Hmong	-11.2522
▁lulug	-11.2523
▁roog	-11.2527
▁hwb	-11.2527
▁dlag	-11.2528
▁stay	-11.2528
nyoog	-11.2529
haus	-11.253
▁ka	-11.2542
▁............	-11.2561
▁science	-11.2564
▁KHO	-11.2565
▁kaujruam	-11.2565
▁yingb	-11.2565
▁Loj	-11.2567
▁LIAM	-11.257
▁daus	-11.2571
▁Pham	-11.2586
▁son	-11.2597
▁Tas	-11.2598
▁puaj	-11.2602
▁CE	-11.2602
▁qhe	-11.2602
▁txhaa	-11.2604
▁nyia	-11.2605
▁act	-11.2608
▁purpose	-11.261
▁DAIM	-11.261
▁yu	-11.2611
▁nkig	-11.2614
PajTsab	-11.2618
▁dlov	-11.2625
▁tem	-11.2634
▁France	-11.2654
▁Nub	-11.2664
▁Any	-11.2665
▁tsoomfw	-11.267
▁confuse	-11.267
▁Phas	-11.2673
▁nyuav	-11.2674
▁normal	-11.2679
▁lostsuas	-11.269
▁since	-11.2692
▁Kho	-11.2693
▁NUV	-11.2699
▁decision	-11.2699
▁child	-11.2699
▁HNOV	-11.2699
▁advice	-11.2699
▁php	-11.27
▁dheev	-11.2701
ers	-11.2704
▁once	-11.2704
▁die	-11.2705
behmong	-11.271
▁Lig	-11.2716
▁MR	-11.272
▁within	-11.273
▁Hin	-11.2732
▁strong	-11.2743
▁interesting	-11.2751
▁ntis	-11.2751
▁nib	-11.2759
▁rest	-11.2761
▁das	-11.2762
▁TIJ	-11.2766
▁fire	-11.2769
▁npaumli	-11.2788
▁Lyfoung	-11.2789
tshooj	-11.2793
▁Sivyi	-11.2794
▁moral	-11.2796
▁Suab	-11.2799
▁xo	-11.281
▁Co	-11.2815
Z	-11.2821
kuj	-11.2834
▁Sunday	-11.2835
▁PIAV	-11.2836
▁equal	-11.2837
▁yexus	-11.2837
▁ncaus	-11.2838
▁Sov	-11.2841
▁Cab	-11.2841
▁rwg	-11.2843
▁Pog	-11.2845
nyob	-11.2849
▁Se	-11.2869
▁Phu	-11.2877
▁hlaa	-11.2878
▁enem	-11.288
▁Vib	-11.288
▁Blong	-11.2883
▁Cam	-11.2885
Lqy	-11.2886
▁result	-11.2888
yuam	-11.289
▁tiamsid	-11.2893
hwb	-11.2907
▁By	-11.2908
▁Kham	-11.2917
▁correct	-11.2918
▁guarantee	-11.2926
▁Idonotknow	-11.2926
▁negative	-11.2926
▁"....	-11.2941
▁dabqhuas	-11.2945
▁voj	-11.297
▁Royal	-11.2972
▁guess	-11.2972
▁COOB	-11.2972
▁qhaj	-11.2976
▁Xob	-11.2978
▁plus	-11.2987
▁hawv	-11.2993
▁thinking	-11.2996
pom	-11.2998
▁Hahahaha	-11.3002
▁mn	-11.3004
▁flip	-11.3008
▁cultural	-11.302
▁Mojthem	-11.302
▁dlim	-11.302
▁Cawv	-11.3022
kawm	-11.3022
▁tsuab	-11.3023
▁ncoo	-11.3046
▁Num	-11.3053
▁Kiab	-11.3059
▁xej	-11.3063
▁2013	-11.3066
▁vue	-11.3071
▁MD	-11.3073
▁standard	-11.3074
▁fuabtais	-11.3074
erry	-11.3081
▁txhuam	-11.3083
▁IP	-11.3085
▁qeeg	-11.309
▁Kaj	-11.3095
▁blame	-11.3102
▁xus	-11.311
▁lpd	-11.311
▁Friday	-11.3111
▁Askiv	-11.3111
▁nqug	-11.3113
▁YEEM	-11.3113
▁YUG	-11.3114
▁grade	-11.3116
▁committee	-11.3116
▁Rog	-11.3118
▁lawg	-11.313
lam	-11.3134
iav	-11.3136
king	-11.3149
▁Re	-11.3155
▁hub	-11.3165
▁balance	-11.3169
▁Moobleeg	-11.317
▁Nation	-11.3172
▁yuv	-11.3173
▁Tamsis	-11.3187
▁CAN	-11.3196
▁WE	-11.3199
▁restaurant	-11.3206
▁Touby	-11.3206
▁PEM	-11.3207
▁worker	-11.3207
▁jail	-11.3208
▁phiam	-11.3208
▁KAV	-11.3208
▁ni	-11.3209
▁nteeg	-11.3211
▁tseb	-11.3214
▁deal	-11.3216
bh	-11.3217
▁Xus	-11.3217
▁nree	-11.3217
▁ON	-11.3221
ilwaukee	-11.3236
nruag	-11.3238
▁limhiam	-11.3253
▁moslwj	-11.3256
haum	-11.3257
▁ntsaum	-11.3258
▁Nyas	-11.3266
▁50%	-11.3285
▁guys	-11.3286
▁interview	-11.3291
▁She	-11.3297
▁Xeng	-11.3303
▁Xam	-11.3306
▁xev	-11.3307
▁TES	-11.3309
▁depend	-11.3323
▁book	-11.3325
muag	-11.3329
▁txum	-11.3329
▁iav	-11.3333
▁08	-11.3337
▁children	-11.3349
▁Txus	-11.335
▁qoog	-11.3351
▁lhub	-11.3357
▁dam	-11.3358
▁tuj	-11.3362
▁groups	-11.337
▁article	-11.3384
▁Chi	-11.3388
▁park	-11.3394
▁important	-11.3397
▁Asmeskas	-11.3397
▁TSOV	-11.3398
▁Hmoov	-11.34
▁Moj	-11.3401
▁phas	-11.3402
▁Nkaj	-11.3402
▁TXWV	-11.3403
▁except	-11.3406
▁Ntu	-11.3408
▁pwg	-11.3411
▁blood	-11.3414
▁ibtug	-11.3419
▁sister	-11.3421
Q	-11.3423
▁phub	-11.3426
unrise	-11.3429
▁198	-11.3432
▁label	-11.3434
▁wonder	-11.3442
▁Vaam	-11.3445
▁document	-11.3445
▁refer	-11.3453
▁officer	-11.3455
▁fall	-11.3457
▁dis	-11.3457
▁KWV	-11.3458
▁namtxiv	-11.3458
▁lake	-11.3463
▁ed	-11.3463
▁thi	-11.3474
▁Mos	-11.3478
pheej	-11.348
iOC	-11.3482
▁AK	-11.3485
▁MEEJ	-11.3493
▁txheev	-11.3494
▁told	-11.3496
▁Is	-11.3502
▁ntsaj	-11.3513
uv	-11.3519
meC	-11.352
▁Nong	-11.3523
ntsuab	-11.3524
▁watch	-11.353
▁focus	-11.3538
ruam	-11.3538
▁khee	-11.3542
▁professor	-11.3542
▁Phaya	-11.3542
▁cousin	-11.3543
▁HE	-11.3544
▁Cher	-11.3546
▁sorry	-11.3546
▁tagkis	-11.3547
▁simple	-11.3549
▁ntiab	-11.3557
▁qeg	-11.3579
W	-11.3584
▁$20	-11.3589
▁easy	-11.3591
▁solve	-11.3593
▁Nruas	-11.3593
▁Krabo	-11.3594
▁Lug	-11.3599
▁luab	-11.3604
▁ciasiab	-11.3605
▁tshis	-11.3605
▁quag	-11.3614
▁Sab	-11.3615
▁NH	-11.3619
▁Well	-11.362
▁losmas	-11.3622
▁TAW	-11.3626
▁ntos	-11.363
Li	-11.363
▁lwg	-11.363
▁Tong	-11.363
ther	-11.3631
▁SO	-11.3632
▁See	-11.3638
cov	-11.3639
▁Mar	-11.364
▁CIAJ	-11.3643
▁iblub	-11.3645
▁davhlau	-11.3656
nd	-11.3671
▁guy	-11.3674
geC	-11.368
▁Ywj	-11.3685
▁affair	-11.369
▁subject	-11.3692
▁pheev	-11.3696
▁nyug	-11.3699
▁loojceeb	-11.3699
▁natural	-11.3699
▁Who	-11.3699
▁Fue	-11.37
▁zias	-11.3703
▁naag	-11.3708
▁411	-11.371
▁phuv	-11.3715
▁ntseeb	-11.3715
▁CEG	-11.372
▁sibpab	-11.3723
▁explain	-11.3739
▁black	-11.374
▁NTEV	-11.374
▁LEM	-11.3741
▁ntxuv	-11.3742
▁miao	-11.3749
▁house	-11.375
▁claimed	-11.3756
▁pau	-11.3757
▁similar	-11.3759
▁xampha	-11.3759
▁Vajlugku	-11.376
▁tshob	-11.3766
nkauj	-11.3769
▁Hi	-11.3779
aturday	-11.3785
▁charlie	-11.3789
▁Tubntsuag	-11.379
voos	-11.379
▁master	-11.3791
▁CEEB	-11.3792
▁qabhau	-11.3792
▁pawv	-11.3795
ship	-11.3804
▁xuam	-11.3807
▁source	-11.3809
▁ONE	-11.382
xav	-11.3837
choj	-11.3838
▁North	-11.3839
▁insurance	-11.384
▁remember	-11.384
▁LAIB	-11.3843
LOS	-11.3843
▁dau	-11.3845
▁Xws	-11.3846
▁NCO	-11.3858
▁npluav	-11.3873
land	-11.3877
▁xoo	-11.3881
▁Khao	-11.3887
▁Wow	-11.389
▁cassette	-11.3892
▁npuj	-11.3894
▁pliaj	-11.3898
▁faab	-11.3899
▁TXHUA	-11.3899
▁khuaj	-11.39
▁eyes	-11.3904
▁qhauv	-11.3906
▁Mes	-11.3909
▁HA	-11.3916
▁lej	-11.3921
▁Qha	-11.3929
▁sawb	-11.3936
▁return	-11.3941
▁Dua	-11.3941
▁main	-11.3943
▁option	-11.3943
▁role	-11.3944
▁khuab	-11.3966
▁nig	-11.3979
▁Npe	-11.3983
▁ncaw	-11.3986
▁TOS	-11.3992
▁QUAV	-11.3993
▁clean	-11.3994
▁ZAB	-11.3995
▁AUB	-11.3998
▁101%	-11.4003
▁victims	-11.4005
▁ntswv	-11.4006
tsawg	-11.401
▁tsha	-11.4016
▁thev	-11.4016
▁Khu	-11.4023
where	-11.4042
▁NCAJ	-11.4044
▁qhwv	-11.4044
▁hias	-11.4045
▁course	-11.4047
▁suavdaw	-11.405
▁kha	-11.4052
▁'.	-11.4056
▁Communit	-11.4058
▁Mee	-11.4063
▁luav	-11.4068
▁32	-11.407
▁ntxo	-11.4073
▁196	-11.4081
LAWM	-11.4081
tim	-11.4084
▁contract	-11.4093
▁Lab	-11.4097
▁Feb	-11.4099
▁Xieng	-11.4103
▁win	-11.4104
▁Coob	-11.4105
▁ibyam	-11.4105
WG	-11.4107
▁nras	-11.4113
▁bla	-11.4118
▁miss	-11.4123
▁POOB	-11.4123
dag	-11.4128
▁31	-11.4138
▁expect	-11.4146
▁QUAJ	-11.4147
▁welfare	-11.4147
▁WILL	-11.4147
▁evil	-11.4147
▁Yawglaus	-11.4153
▁Npua	-11.4156
ung	-11.4157
▁Hmoobdawb	-11.4159
▁iv	-11.4161
▁nplim	-11.4166
▁Mis	-11.4171
▁LPR	-11.4179
▁nw	-11.419
▁ia	-11.4193
▁hehehehehehe	-11.4194
nws	-11.4194
▁vab	-11.4197
▁LAOS	-11.42
▁npojyai	-11.4202
▁Jan	-11.4204
▁pod	-11.4206
▁Khw	-11.4207
quav	-11.4214
▁Qee	-11.4217
▁clan	-11.4221
awv	-11.423
▁kaasmoo	-11.423
ke	-11.4239
▁CARP	-11.4251
▁ticket	-11.4251
▁buy	-11.4252
▁nqov	-11.4252
▁WHO	-11.4255
▁nchav	-11.4256
▁Now	-11.4256
▁HU	-11.426
▁Npuag	-11.4261
▁cover	-11.4261
▁chao	-11.4262
▁hliv	-11.4264
▁Chang	-11.4266
▁willing	-11.4275
ttle	-11.4278
Nplog	-11.4285
▁joke	-11.4295
txug	-11.4303
▁LAJ	-11.4303
▁Ne	-11.4303
▁jungle	-11.4304
▁Asmesliska	-11.4304
▁common	-11.4304
▁tugkheej	-11.4306
▁sivyis	-11.4307
▁Ncuab	-11.4312
▁dawj	-11.4313
▁TAB	-11.4317
▁baj	-11.4321
▁rovlos	-11.4327
▁34	-11.4327
▁Can	-11.4332
▁Houa	-11.4334
▁)?	-11.4334
▁120	-11.4343
▁cost	-11.4352
▁Washington	-11.4356
▁khuvxim	-11.4357
cai	-11.4357
▁ZE	-11.436
▁election	-11.436
▁2009	-11.4365
▁Beer	-11.4367
▁txhib	-11.4367
▁Ceev	-11.4369
▁Taab	-11.4375
▁tshaw	-11.4377
▁fav	-11.4379
▁ntsais	-11.4383
▁Jun	-11.4385
▁Brig	-11.441
▁dlog	-11.4416
koom	-11.4418
tawg	-11.442
▁thao	-11.4425
▁pojntxoo	-11.4426
▁ve	-11.443
▁ntsoo	-11.4433
each	-11.4436
little	-11.444
▁pass	-11.4445
....	-11.4445
$	-11.4446
▁phlus	-11.4462
▁certain	-11.4463
▁early	-11.4464
▁chais	-11.4464
▁Chinese	-11.4464
▁medical	-11.4465
▁Tseg	-11.4465
▁version	-11.4466
▁visit	-11.4471
▁hmov	-11.4478
▁Tsum	-11.4481
SGU	-11.4488
▁yt	-11.4508
▁PEOPLE	-11.4517
▁tuabyaam	-11.4519
▁nrhab	-11.4519
▁VAM	-11.452
▁Hehehe	-11.4522
▁plhis	-11.4522
▁txojsia	-11.4524
▁nwj	-11.4528
▁nt	-11.4532
▁Liaj	-11.4535
▁qwb	-11.4537
▁theev	-11.4556
▁full	-11.4566
▁.............	-11.4569
▁cujpwm	-11.4571
▁Happy	-11.4572
▁contact	-11.4572
▁Best	-11.4574
▁Vp	-11.4574
French	-11.4579
▁khiab	-11.4586
▁Dok	-11.4587
▁npliag	-11.4588
▁husband	-11.459
▁Hab	-11.4618
▁confirm	-11.4626
▁XYOOJ	-11.4626
▁Melikas	-11.4629
▁qev	-11.4629
▁Asian	-11.4635
▁Tuag	-11.4636
▁phais	-11.4636
▁Wausa	-11.4638
▁ntxhua	-11.4638
▁dob	-11.4639
▁doesn	-11.4642
▁brothers	-11.4642
▁Xa	-11.4643
▁class	-11.4647
▁zo	-11.4649
▁!.	-11.4651
▁Phau	-11.4662
ybe	-11.4669
▁parent	-11.4674
▁WITH	-11.468
▁WHAT	-11.468
▁Board	-11.468
▁nasthis	-11.4681
wd	-11.4682
▁tamsimno	-11.4682
▁zuv	-11.4685
▁crazy	-11.4686
▁niab	-11.4696
▁dance	-11.4696
▁chaofa	-11.4698
▁conference	-11.47
24	-11.4708
▁tx	-11.4715
PM	-11.472
▁process	-11.473
pawg	-11.4731
▁repeat	-11.4731
▁soob	-11.4732
▁pejkum	-11.4735
▁Nyeem	-11.4736
▁vs	-11.474
▁search	-11.4754
▁yogli	-11.4771
▁couple	-11.4791
▁NTXIV	-11.4791
▁Tsaav	-11.4791
▁hurt	-11.4792
▁PHD	-11.4793
liam	-11.4793
▁Kaus	-11.4793
▁Ntxim	-11.4794
50	-11.4802
▁earth	-11.4805
▁lho	-11.4807
_0	-11.4812
▁intention	-11.4819
▁ty	-11.4828
▁heaven	-11.4846
▁HOTEL	-11.4846
▁NYABLAJ	-11.4846
▁leave	-11.4849
▁Tha	-11.4851
▁Luj	-11.4858
▁phaab	-11.4863
▁One	-11.4864
hlob	-11.4868
▁ntaux	-11.4873
▁NKAUS	-11.4879
▁pug	-11.4909
▁ts	-11.4915
▁sibhaum	-11.4916
▁paam	-11.4916
▁kids	-11.4922
erver	-11.4923
ntsis	-11.4928
▁yawgnomd	-11.4929
▁Dai	-11.4935
▁NYUJ	-11.4944
▁food	-11.4947
▁POJNIAM	-11.4958
▁candidate	-11.4958
▁Court	-11.4958
▁center	-11.4961
▁Nruag	-11.4963
▁At	-11.4966
tsheej	-11.499
▁economic	-11.5013
te	-11.5013
▁wisdom	-11.5014
▁Education	-11.5014
▁HDD	-11.5014
▁according	-11.5015
▁himself	-11.5015
▁maaj	-11.5023
▁ntw	-11.5031
▁recognize	-11.5033
▁News	-11.5052
ang	-11.5054
▁dluav	-11.5055
▁South	-11.5059
▁NPAUM	-11.5065
ES	-11.5068
▁Naikong	-11.5071
▁july	-11.5072
▁MAUM	-11.5072
▁Yaam	-11.5074
txog	-11.5074
▁KOOM	-11.5075
line	-11.5076
uam	-11.5077
▁www	-11.5079
▁Thorns	-11.5094
▁Fro	-11.5094
nab	-11.5099
▁06	-11.5108
▁...."	-11.5117
▁NUM	-11.5118
▁seems	-11.5119
▁thia	-11.5123
▁Bia	-11.5126
▁!...	-11.5126
▁Buddha	-11.5128
▁Tzexa	-11.5128
▁Ambassador	-11.5128
▁cancer	-11.5129
▁IF	-11.513
▁Michiga	-11.513
▁War	-11.5132
▁xovxwm	-11.5138
▁zu	-11.5139
▁37	-11.5148
▁Pajyeeb	-11.5162
▁Dep	-11.5169
rhiav	-11.5171
▁Vw	-11.5172
▁provide	-11.5182
file	-11.5184
▁Thornspear	-11.5186
▁SAUB	-11.5191
▁ncav	-11.5193
▁kus	-11.5195
▁based	-11.5196
▁bye	-11.52
▁East	-11.5202
▁created	-11.5204
MOG	-11.5205
▁nplaw	-11.5207
▁nwslub	-11.5218
▁muj	-11.5226
▁dlu	-11.5233
▁Vieng	-11.5234
▁NAS	-11.5236
suab	-11.5237
▁mojthe	-11.5239
▁YajTshajKoob	-11.5244
pem	-11.5244
▁NTSHE	-11.5244
▁nature	-11.5244
▁among	-11.5248
▁fij	-11.5249
▁lubneej	-11.5251
▁Vibnais	-11.5252
▁txhub	-11.5255
▁YAWM	-11.526
went	-11.5277
▁mai	-11.5282
▁ntxhib	-11.5286
▁sharing	-11.5287
▁final	-11.5296
/0	-11.5299
▁though	-11.53
▁Bill	-11.5301
▁Veteran	-11.5302
▁worry	-11.5302
▁NEOHOM	-11.5302
▁sound	-11.5304
▁koomtsih	-11.5304
▁license	-11.5314
▁RE	-11.5317
▁HAVE	-11.5326
▁leeb	-11.5326
▁thais	-11.5328
▁Xang	-11.5329
▁info	-11.533
=1	-11.5337
thiab	-11.534
▁coobx	-11.5354
▁tsus	-11.5355
▁present	-11.5356
▁thom	-11.5357
▁Merced	-11.5358
▁pai	-11.5359
▁NTSHAI	-11.5359
▁Nyaablaaj	-11.5361
▁TSHIAB	-11.5362
▁Xib	-11.5363
ncuab	-11.5363
▁nrhia	-11.5364
▁RAUG	-11.5364
▁won	-11.5365
▁ntxhuv	-11.5365
▁left	-11.5367
▁yaiv	-11.5368
▁small	-11.537
▁zas	-11.5378
▁lack	-11.5381
▁txojcai	-11.5385
▁dollar	-11.5385
▁Las	-11.5389
▁key	-11.5395
▁tagx	-11.5397
▁involve	-11.5413
▁saam	-11.5415
▁txajmuag	-11.5421
ust	-11.5421
▁PhD	-11.5422
▁theory	-11.5425
▁Dluag	-11.5427
▁02	-11.543
awg	-11.5433
▁Hmoobvajusa	-11.5436
Sunrise	-11.5444
▁style	-11.5444
▁detail	-11.5446
▁pre	-11.5452
▁sw	-11.5452
▁kw	-11.5456
▁covlus	-11.5456
▁dia	-11.5458
▁hot	-11.5465
"	-11.5466
siv	-11.5471
▁Green	-11.5478
▁rather	-11.5478
▁Them	-11.5479
▁Nkias	-11.548
▁ncaig	-11.5482
cam	-11.5482
▁Again	-11.5483
▁GO	-11.5485
▁Hmoobsib	-11.5491
tebchaws	-11.5496
▁complete	-11.5513
▁save	-11.5513
...............	-11.5528
▁Xauv	-11.5533
▁PLIG	-11.5539
▁lagluam	-11.5539
▁plua	-11.5546
▁poor	-11.5546
▁simpl	-11.5548
▁LE	-11.5549
▁MESKAS	-11.5552
▁qhaub	-11.5569
ic	-11.5571
▁Zam	-11.5575
▁txiab	-11.5576
▁star	-11.5578
▁Yah	-11.5594
▁protect	-11.5597
▁LAURA	-11.5597
▁value	-11.5599
▁1987	-11.56
▁PHOM	-11.5601
▁phob	-11.5603
▁pws	-11.5613
▁Iab	-11.5614
▁students	-11.5617
2003	-11.5619
▁risk	-11.562
oog	-11.562
▁haavzoo	-11.5624
▁qhi	-11.5638
▁lives	-11.564
▁GOOD	-11.5658
▁SWB	-11.5658
▁QUB	-11.5659
▁HLOB	-11.5659
▁Tsua	-11.566
▁States	-11.5661
▁xoob	-11.5671
▁due	-11.5673
▁site	-11.568
▁meet	-11.568
kaub	-11.5684
▁reasons	-11.5696
▁khom	-11.5705
▁TAIS	-11.5713
▁Ntxwj	-11.572
▁Faiv	-11.5721
ee	-11.5728
▁paiv	-11.573
▁koog	-11.5745
▁kawmntawv	-11.5751
▁!"	-11.5766
▁MAJ	-11.5778
▁TsoobNiam	-11.5779
▁RHIAB	-11.578
▁screen	-11.578
▁forget	-11.578
▁TSAV	-11.578
▁RIGHT	-11.5782
▁phiv	-11.5783
▁TIB	-11.5783
▁summer	-11.5784
▁busy	-11.5784
▁bill	-11.5787
▁qabzib	-11.5788
▁seconds	-11.5789
▁major	-11.5795
▁nk	-11.5797
▁relationship	-11.5799
▁Min	-11.5802
▁Tubcajceszo	-11.5805
▁nu	-11.5807
▁Nce	-11.5814
tseeb	-11.5814
▁nkawg	-11.5815
Nancy	-11.5818
▁Vag	-11.5822
▁fit	-11.5829
▁hold	-11.5833
▁Naiphom	-11.5841
▁Cobtsib	-11.5841
▁CSY	-11.5842
▁naiphoo	-11.5846
bH	-11.5853
▁ro	-11.5855
▁01	-11.5858
▁yej	-11.5859
▁dhos	-11.5859
▁qig	-11.5859
▁txu	-11.5863
▁CAV	-11.5864
▁Hahahahaha	-11.5866
et	-11.5867
▁Hli	-11.5868
ias	-11.5873
▁Tis	-11.5875
▁kee	-11.5883
▁base	-11.5891
▁npa	-11.5894
▁Vas	-11.59
▁Meej	-11.5903
▁hmantsuab	-11.5904
▁npib	-11.5905
▁THOJ	-11.5906
▁exist	-11.5909
▁Tshiab	-11.5915
▁yi	-11.5918
▁npis	-11.5927
dua	-11.5932
▁ra	-11.5933
edit	-11.5933
▁listen	-11.5943
dev	-11.5949
ug	-11.595
LqZ	-11.5956
▁promise	-11.596
▁MI	-11.5962
▁33	-11.5964
▁middle	-11.5966
▁california	-11.5966
▁Txawjvamyia	-11.5966
▁NUG	-11.5966
▁hnug	-11.5966
▁Keeb	-11.5967
▁thawv	-11.597
▁single	-11.5971
US	-11.5983
▁qhob	-11.599
▁Right	-11.5992
▁ntsees	-11.6
▁$200	-11.6015
▁train	-11.6018
▁hahahahahahaha	-11.602
▁rw	-11.602
▁ZOS	-11.6027
index	-11.6028
▁ibleeg	-11.6029
IG	-11.6031
▁hmuv	-11.6031
▁rhais	-11.6031
thaibteb	-11.6032
▁tswg	-11.6043
▁xawb	-11.6046
ally	-11.6049
iego	-11.605
▁BS	-11.606
hack	-11.6061
▁maab	-11.6068
▁90%	-11.6069
▁market	-11.6069
▁Thong	-11.6081
▁reveal	-11.609
▁Vietnamese	-11.609
▁HAWM	-11.609
▁forward	-11.6091
▁kooj	-11.6092
▁Chai	-11.6093
▁govern	-11.6094
▁PDR	-11.6095
noob	-11.6096
▁LAUJ	-11.6097
noj	-11.6099
▁loog	-11.6101
▁yauj	-11.6101
▁Nyuam	-11.6104
▁Kuas	-11.611
▁tubsab	-11.6115
▁UNPO	-11.6116
▁Ncu	-11.6122
▁lol	-11.6126
▁Hav	-11.6131
▁Toulia	-11.6135
▁NY	-11.6136
10	-11.615
▁comments	-11.6151
▁themselve	-11.6153
▁Sommer	-11.6154
▁snow	-11.6155
▁sas	-11.6156
▁vaajtswv	-11.6158
▁kuav	-11.6158
▁xeb	-11.6158
▁cell	-11.6161
au	-11.6176
▁ntsaig	-11.6178
▁thu	-11.6181
▁PH	-11.6184
▁HAUM	-11.6192
madison	-11.6195
▁koo	-11.6195
▁nrob	-11.6195
▁author	-11.6196
ij	-11.6199
▁safe	-11.6208
▁Ku	-11.621
%20	-11.621
▁Youa	-11.6211
▁Prime	-11.6216
▁stabbing	-11.6217
▁24/7	-11.6217
▁suggest	-11.6217
▁SI	-11.6217
▁compromise	-11.6218
▁trau	-11.622
▁pheem	-11.6221
▁Hwm	-11.6222
▁phaw	-11.623
▁ple	-11.6234
▁ncia	-11.6237
**	-11.6239
ajlaj	-11.624
com	-11.6241
▁add	-11.625
▁month	-11.6251
▁press	-11.6253
uab	-11.6263
(	-11.6264
man	-11.6271
▁veteran	-11.6274
▁Not	-11.6275
▁Koo	-11.6275
▁Tseemfw	-11.6276
▁Mi	-11.6278
▁spirit	-11.628
▁HAUJ	-11.6281
▁Army	-11.6282
▁build	-11.6282
▁pressure	-11.6282
▁Dablaug	-11.6283
▁Rock	-11.6283
▁Paab	-11.6284
▁City	-11.6289
▁ncab	-11.6293
▁ideas	-11.6298
▁thuj	-11.6304
▁dhla	-11.6313
▁nqia	-11.6315
▁Tswj	-11.6326
▁Xya	-11.6328
▁nee	-11.6331
▁Meb	-11.6337
aking	-11.6338
▁Kheev	-11.6341
▁Monday	-11.6346
▁attention	-11.6346
▁gossip	-11.6347
▁tswjfwm	-11.6347
▁NTXHAIS	-11.6347
▁smart	-11.6347
▁LOM	-11.6348
November	-11.6348
▁SYS	-11.635
▁BA	-11.6351
▁water	-11.6351
▁race	-11.6352
▁Koua	-11.6354
▁having	-11.6356
▁looking	-11.6361
▁Phiab	-11.6362
▁dla	-11.6363
▁dawg	-11.6364
▁NTSIB	-11.6366
▁nuam	-11.6369
KOM	-11.637
▁abuse	-11.6371
ta	-11.6375
▁tsaib	-11.638
▁muskawm	-11.6385
▁didn	-11.6396
txim	-11.6399
▁-"	-11.6404
▁loob	-11.6406
▁Inc	-11.6413
▁Plog	-11.642
▁majorit	-11.6429
▁nraub	-11.6429
▁dlai	-11.6435
▁KAB	-11.6435
seC	-11.6438
qq	-11.6448
40	-11.645
▁Npau	-11.6464
Lao	-11.6466
self	-11.647
▁mistake	-11.6474
▁update	-11.6476
▁TSAUG	-11.6476
▁assume	-11.6477
▁NRAM	-11.6477
▁taamsim	-11.6477
▁Think	-11.6477
▁current	-11.6477
▁crime	-11.6477
▁Detroi	-11.6478
▁txiavtxim	-11.6478
▁Every	-11.6479
▁Oib	-11.648
▁txeev	-11.648
▁tuskheej	-11.6483
teg	-11.6483
▁deg	-11.6484
)	-11.6485
Zhen	-11.6489
▁bias	-11.6494
▁problems	-11.6495
▁Phia	-11.6495
▁Political	-11.6497
▁niamyau	-11.6501
▁super	-11.6504
▁girl	-11.6514
25	-11.6523
▁vav	-11.6526
eej	-11.653
▁trust	-11.6532
▁Wayn	-11.6533
▁Saint	-11.6542
▁TXOM	-11.6542
▁David	-11.6543
▁Police	-11.6544
▁TSUAS	-11.6548
▁miles	-11.6553
▁ywv	-11.6555
ance	-11.6556
▁sexual	-11.6557
▁haislus	-11.6558
▁tsimnyo	-11.6568
HAB	-11.657
▁brain	-11.6571
vim	-11.6574
ying	-11.6575
▁pobtw	-11.6575
▁Ntiaj	-11.6575
▁Nus	-11.6579
nuav	-11.6582
▁ex	-11.6587
▁tradition	-11.6587
▁10%	-11.6589
▁ntxoo	-11.659
mam	-11.6599
rd	-11.6603
▁HAV	-11.6603
used	-11.6609
▁ZAUG	-11.6609
▁SIJ	-11.661
▁KHIB	-11.661
▁NOOB	-11.6611
▁kwvtxhiaj	-11.6615
▁ph	-11.6615
oob	-11.6617
head	-11.6623
▁txhias	-11.6631
▁nphoo	-11.6636
▁khoov	-11.6641
▁55	-11.6642
▁define	-11.6648
na	-11.6649
▁Tua	-11.6649
%3	-11.6656
▁MY	-11.6656
▁abtsi	-11.6657
▁rev	-11.6661
▁thuv	-11.6662
▁write	-11.667
▁Miv	-11.6673
▁Liajdawb	-11.6675
▁dirty	-11.6675
▁XAIV	-11.6676
▁clarify	-11.6676
▁ntxwj	-11.6677
▁Muastony	-11.6679
▁HLWB	-11.6679
nyog	-11.6681
▁Haub	-11.6683
ploog	-11.6684
▁Phanya	-11.6684
▁fail	-11.6684
posting	-11.669
hum	-11.6694
▁Tsa	-11.6694
▁Sua	-11.6699
▁seen	-11.6701
thaum	-11.6708
▁whe	-11.6712
▁roos	-11.6712
▁khia	-11.6721
▁swm	-11.6725
▁khauv	-11.6729
▁ntoj	-11.6729
▁Iha	-11.6737
▁DKJ	-11.6742
▁TXAWM	-11.6742
niajhnub	-11.6743
▁cheb	-11.6743
▁Nhub	-11.6744
▁gain	-11.6744
written	-11.6744
▁cheeb	-11.6745
▁Viet	-11.6745
▁Tswvyim	-11.6745
▁ntaubntawv	-11.6745
▁LUG	-11.6747
▁meejpem	-11.6748
▁qov	-11.6749
▁deja	-11.6754
▁xyeem	-11.6754
alone	-11.6755
▁nkaub	-11.6762
▁tshos	-11.6768
▁inside	-11.6771
▁bo	-11.6775
▁less	-11.678
HOV	-11.6788
▁propose	-11.6796
daws	-11.6797
▁yaug	-11.6798
▁Christ	-11.6804
▁dlee	-11.6804
▁Chief	-11.6809
▁connection	-11.6809
▁authority	-11.681
technology	-11.681
tij	-11.6812
▁trip	-11.6813
▁txoob	-11.6819
▁cheej	-11.6824
▁auv	-11.6831
▁et	-11.6839
▁LT	-11.684
▁discussion	-11.6842
lo	-11.6845
▁hero	-11.6846
ted	-11.6853
▁dluag	-11.6856
▁$2	-11.6857
▁tibsis	-11.6866
▁xais	-11.6876
▁advance	-11.6877
▁Pubthawj	-11.6878
▁lawbdab	-11.688
▁1977	-11.6881
mavtais	-11.6884
▁Khai	-11.6885
▁LAO	-11.6885
▁Noi	-11.6889
▁honor	-11.6891
kaum	-11.6896
▁pl	-11.6898
▁99	-11.6909
IB	-11.6913
▁break	-11.6923
tuaj	-11.6924
▁civ	-11.6924
fwm	-11.6925
1978	-11.6925
▁tsoov	-11.6939
▁LosTsuas	-11.6946
▁study	-11.6946
▁York	-11.6947
▁tshiaj	-11.6949
▁enforce	-11.6949
▁!,	-11.695
▁xw	-11.6952
asthiv	-11.6952
▁Hiv	-11.6956
eck	-11.6956
▁TIME	-11.6957
USA	-11.6958
ncauj	-11.6962
▁Nchaiv	-11.6968
lwj	-11.6971
ummer	-11.6976
▁tsiag	-11.6977
re	-11.6979
▁Even	-11.698
▁total	-11.6984
▁Xibfw	-11.6984
▁card	-11.699
▁kig	-11.7003
▁compare	-11.7006
▁!!!!!	-11.7007
▁Ma	-11.7009
▁KAVLIAM	-11.7015
▁HND	-11.7015
▁1990	-11.7018
▁Cuab	-11.7024
▁hluasnkauj	-11.7029
ONG	-11.7031
browse	-11.7033
14	-11.7036
▁Social	-11.7036
Lue	-11.7037
▁vajmoob	-11.7037
▁gay	-11.705
lees	-11.7056
▁Some	-11.7074
▁WH	-11.7082
▁Embass	-11.7084
▁QEEJ	-11.7084
▁HLUAS	-11.7087
ism	-11.7088
▁Kum	-11.7089
▁writing	-11.7089
▁MOV	-11.709
▁kavtsi	-11.7095
nyiab	-11.7096
tag	-11.71
▁nquam	-11.7103
koobhmoov	-11.7118
▁intellectual	-11.712
▁wants	-11.7121
▁Noogqejqaw	-11.7124
▁mother	-11.713
tseg	-11.7139
vong	-11.7141
▁preach	-11.7142
▁demand	-11.715
dr	-11.7151
gOC	-11.7154
▁Brav	-11.7155
▁release	-11.7155
▁congress	-11.7156
▁customer	-11.7156
▁npug	-11.7158
▁txheebze	-11.7159
▁yong	-11.7161
▁txoov	-11.7164
▁npuag	-11.7171
▁phuaj	-11.7171
▁laum	-11.7172
sharing	-11.7172
▁picture	-11.7173
ities	-11.7177
▁nca	-11.7181
▁recruit	-11.7184
▁images	-11.7209
▁Histor	-11.7213
▁hlav	-11.7222
▁wedding	-11.7225
▁definition	-11.7225
▁religious	-11.7226
▁PIV	-11.7227
▁along	-11.7228
▁npub	-11.7231
tiag	-11.7235
▁date	-11.7239
▁OUR	-11.724
▁Ameka	-11.7242
▁light	-11.7245
▁Phee	-11.7249
▁deserve	-11.7264
ntej	-11.7272
awb	-11.7276
▁ntxaa	-11.7279
▁khauj	-11.7279
ntsuag	-11.7286
..	-11.7287
vaj	-11.729
▁physical	-11.7293
▁taubhaus	-11.7295
▁representative	-11.7295
▁finger	-11.7295
▁illegal	-11.7296
▁Date	-11.7296
▁price	-11.7297
▁propagand	-11.7297
▁adopt	-11.7298
▁CAWM	-11.7299
▁shall	-11.73
▁nthab	-11.7304
dkj	-11.7305
▁dlav	-11.7307
▁Fuabtais	-11.7307
▁Phoos	-11.7307
▁Va	-11.7315
NO	-11.7317
▁celebrate	-11.7318
▁plia	-11.732
▁lawyers	-11.7325
new	-11.7331
▁expert	-11.7332
▁suam	-11.7339
cause	-11.7341
der	-11.7344
▁nyho	-11.7346
xyoo	-11.7352
▁ball	-11.7364
▁hleb	-11.7366
▁Chuhu	-11.7367
▁Listhoj	-11.7367
▁Brother	-11.7367
▁VajTswv	-11.7368
▁thabham	-11.7368
▁raise	-11.737
▁kham	-11.7378
yesxus	-11.7379
▁Pub	-11.7381
▁ceslawv	-11.7393
mob	-11.7401
▁ban	-11.7411
cy	-11.7424
▁PLOJ	-11.7431
ability	-11.7438
▁strategy	-11.7439
▁Suritha	-11.7439
▁exactly	-11.7439
▁TEEB	-11.744
▁pilot	-11.744
▁bau	-11.7442
▁listhoj	-11.7442
▁LUAJ	-11.7442
▁LEEG	-11.7444
▁allow	-11.7444
▁penny	-11.7445
▁HUMAN	-11.7445
▁xas	-11.7446
▁paws	-11.745
▁casino	-11.745
▁hate	-11.745
▁tee	-11.7456
orry	-11.7456
▁hib	-11.746
▁vaub	-11.7461
▁toward	-11.7465
pob	-11.7466
▁animal	-11.7474
▁38	-11.7475
▁Tsu	-11.7477
dlawg	-11.749
▁Bro	-11.7494
▁Cav	-11.7498
▁mee	-11.7499
tion	-11.75
▁nri	-11.7508
▁Mo	-11.7509
▁innocent	-11.7511
▁worth	-11.7512
▁Anyway	-11.7512
▁nploj	-11.7515
▁yiag	-11.7516
▁YES	-11.7518
▁cug	-11.752
▁Nev	-11.752
▁aiv	-11.7527
▁file	-11.7533
IES	-11.7534
▁took	-11.7536
▁low	-11.7544
▁Xyu	-11.7545
▁xh	-11.7546
▁qaus	-11.7548
▁cut	-11.7555
▁Seng	-11.7565
reC	-11.7569
▁vib	-11.757
▁npauv	-11.7571
▁media	-11.7574
▁...?	-11.7577
▁Cambodia	-11.7581
▁hands	-11.7582
▁Sob	-11.7583
▁treat	-11.7585
▁investigate	-11.7585
▁soc	-11.7586
▁Pej	-11.7586
▁station	-11.7586
▁ZEB	-11.7588
▁Chaw	-11.759
RTG	-11.759
▁regardles	-11.7592
▁Bis	-11.7604
NYUAM	-11.7605
TWG	-11.7608
▁Qho	-11.762
▁protest	-11.7626
▁zau	-11.7629
▁ntsav	-11.7644
▁table	-11.7644
▁sawdaw	-11.7657
▁Phabmab	-11.7658
▁QOS	-11.7659
▁Minneapolis	-11.766
▁TOOJ	-11.766
▁TSUJ	-11.766
▁Cua	-11.7661
▁spelling	-11.7661
▁kotaw	-11.7661
▁txhi	-11.7665
▁99%	-11.7668
plogliab	-11.7669
▁Note	-11.767
▁ethnic	-11.7684
uag	-11.7685
▁tsheeb	-11.7688
▁ncha	-11.769
▁nqee	-11.7712
▁ntsag	-11.7722
▁peej	-11.7724
▁65	-11.7729
▁hl	-11.7729
ntxwv	-11.773
▁Oshkosh	-11.7732
▁mouth	-11.7733
▁Souphanouvong	-11.7733
▁TSAWG	-11.7733
▁myself	-11.7734
▁choose	-11.7735
▁room	-11.7746
▁thiav	-11.7747
wise	-11.7753
▁MEV	-11.7755
▁pham	-11.7757
▁caam	-11.7766
▁rank	-11.7769
▁txee	-11.777
mej	-11.7774
uas	-11.779
▁PW	-11.7795
▁wisconsin	-11.7807
▁JUST	-11.7807
▁block	-11.7807
▁carry	-11.7808
▁mentality	-11.7808
▁KHIAV	-11.7811
▁Keep	-11.7818
▁eat	-11.7822
▁?...	-11.7831
▁Dav	-11.7833
28	-11.7834
▁meant	-11.7838
LX	-11.7842
▁Phong	-11.7843
▁pheeb	-11.7844
ovtshua	-11.7845
▁tshom	-11.7846
▁plhaw	-11.7852
▁NP	-11.7853
55	-11.7854
▁thav	-11.7862
hauv	-11.7862
tais	-11.7866
▁Ameska	-11.787
▁yee	-11.7871
▁waste	-11.7872
▁Are	-11.7873
▁town	-11.7875
▁Leng	-11.7878
ieC	-11.7879
▁advisor	-11.7882
▁conclusion	-11.7882
▁KHEEJ	-11.7882
▁attitude	-11.7883
▁DAV	-11.7883
▁tshov	-11.7884
▁CEV	-11.7884
▁Time	-11.7886
▁touch	-11.7887
▁HAUS	-11.7889
▁1970	-11.789
▁welcome	-11.789
▁laab	-11.789
▁Yesu	-11.7896
▁txhaub	-11.7898
▁39	-11.7898
▁deep	-11.7899
▁mias	-11.7909
▁SIS	-11.7914
▁rape	-11.7915
▁working	-11.7916
tshiab	-11.7917
▁Ej	-11.7921
hau	-11.793
▁nrub	-11.7932
▁AG	-11.7933
▁nation	-11.7933
▁Ah	-11.7942
nyiav	-11.7946
▁Dlha	-11.7948
paj	-11.7953
pao	-11.7954
sitebuilder	-11.7957
▁Association	-11.7958
▁Center	-11.7958
▁status	-11.7958
▁TXAWV	-11.7958
▁va	-11.7959
▁txhooj	-11.7959
▁disagree	-11.7959
▁Master	-11.796
LAWV	-11.796
▁txeej	-11.7964
▁county	-11.7964
kwvtij	-11.7966
▁huh	-11.7966
▁Twg	-11.7968
▁Doua	-11.7971
▁Ciaj	-11.7974
▁federa	-11.7975
▁register	-11.798
▁almos	-11.7983
▁employee	-11.7986
muab	-11.7988
▁corruption	-11.7998
▁rumor	-11.7999
▁lso	-11.7999
▁72	-11.8003
▁declare	-11.8017
tej	-11.8019
▁events	-11.8021
▁logic	-11.8021
▁rules	-11.8022
PC	-11.8026
▁further	-11.8034
▁TSHUM	-11.8034
▁Vuag	-11.8035
▁discuss	-11.8035
▁!....	-11.8036
▁ZAM	-11.8036
▁Rooj	-11.8036
▁click	-11.8036
▁2002	-11.8037
▁Lav	-11.8037
▁minnesota	-11.8038
Txivneej	-11.8039
▁paa	-11.8045
la	-11.8052
▁SCHler	-11.8053
▁ye	-11.8062
▁yogkuv	-11.8066
tseem	-11.8071
▁ntaws	-11.8072
▁id	-11.8072
▁Nhia	-11.8076
▁Ge	-11.8078
▁150	-11.8083
123	-11.8084
▁Quav	-11.8084
▁hell	-11.8088
usp	-11.8089
▁drive	-11.8091
▁witness	-11.8091
▁nrw	-11.8093
▁Phak	-11.8097
ei	-11.8103
▁qabteb	-11.8103
▁Free	-11.8106
▁dee	-11.8108
▁insult	-11.8111
▁qualified	-11.8111
▁Appleton	-11.8111
▁rock	-11.8111
▁April	-11.8111
ctober	-11.8111
▁honest	-11.8111
▁request	-11.8111
▁Gary	-11.8112
▁paper	-11.8112
▁vajhuam	-11.8113
ve	-11.8117
▁Mua	-11.8124
▁hnyia	-11.8126
▁ways	-11.8127
▁..............	-11.8135
nyiaj	-11.8136
▁gab	-11.8136
▁....!	-11.8136
▁poobsiab	-11.814
ai	-11.8156
txeeb	-11.8156
nk	-11.8162
▁poo	-11.8164
IA	-11.8169
▁bro	-11.8172
▁80%	-11.8173
▁sometime	-11.8173
▁$50	-11.8174
uring	-11.8177
▁fo	-11.8178
▁owner	-11.8184
▁Maab	-11.8187
▁passport	-11.8188
▁income	-11.8189
▁guilt	-11.8189
▁.'	-11.819
dej	-11.8192
▁jesus	-11.8193
▁PIB	-11.8194
▁sibcav	-11.8195
▁YAU	-11.8197
▁type	-11.8198
▁Pe	-11.8199
▁phoom	-11.8199
▁Phauj	-11.8202
▁LP	-11.8211
▁LoojCee	-11.8212
▁tiagx	-11.8215
KUV	-11.8216
▁activit	-11.8218
▁music	-11.8221
▁proposal	-11.8224
▁roojteb	-11.8225
▁?..	-11.8229
▁known	-11.823
===============	-11.8234
AG	-11.8256
▁constitution	-11.8257
▁baby	-11.8257
Michael	-11.8259
▁cheat	-11.8262
▁Oct	-11.8266
▁Lajntxiag	-11.8266
▁local	-11.8267
lOC	-11.8267
▁hi	-11.8267
▁ZAJ	-11.8268
▁Txais	-11.827
▁Ntev	-11.8272
▁German	-11.8273
ndigenous	-11.8285
▁mig	-11.8287
ig	-11.8288
▁tsej	-11.829
▁Khang	-11.8292
▁proper	-11.8299
▁xuvtooj	-11.8302
drive	-11.8302
son	-11.8302
▁YUAM	-11.8312
ma	-11.8313
▁VN	-11.8319
2014	-11.8322
▁space	-11.8325
▁doog	-11.833
nam	-11.8332
low	-11.8335
TED	-11.8335
▁found	-11.8338
▁Doctors	-11.8344
▁sibtua	-11.8344
▁impact	-11.8345
▁Committee	-11.8345
▁countries	-11.8346
▁Ger	-11.8346
▁KNOW	-11.8346
▁Txaij	-11.8347
▁responsibilit	-11.8355
▁reading	-11.8358
pim	-11.836
▁400	-11.8361
▁nplos	-11.8361
▁LEE	-11.8362
ring	-11.8364
▁Muam	-11.8364
▁nya	-11.837
▁Da	-11.8373
auj	-11.839
tog	-11.839
▁appreciate	-11.84
▁blind	-11.8403
▁vees	-11.8407
▁ANY	-11.8413
she	-11.8421
nt	-11.8421
▁express	-11.8424
▁Txug	-11.8425
▁...!	-11.8425
▁defense	-11.8425
▁model	-11.8426
▁kawb	-11.8426
▁:)	-11.8427
▁Vej	-11.8427
▁Latin	-11.8427
iaj	-11.843
▁txos	-11.8442
qus	-11.8444
▁?,	-11.8445
▁traditional	-11.845
▁gov	-11.8454
▁Rua	-11.8456
▁Tx	-11.8457
▁Si	-11.8461
▁Vajmoob	-11.8469
▁Boun	-11.8471
▁partner	-11.8482
▁lws	-11.8482
▁txaug	-11.8484
▁xyaws	-11.8485
nrog	-11.8495
puj	-11.8496
▁colonel	-11.8504
▁mebthaub	-11.8505
sij	-11.8506
▁AW	-11.8507
▁?)	-11.8507
▁pepsi	-11.8507
▁minyua	-11.8508
▁VANG	-11.851
▁skills	-11.852
▁tsujsua	-11.8529
Mong	-11.853
▁vos	-11.854
▁noun	-11.8548
riav	-11.8554
▁travel	-11.8558
▁Ko	-11.8561
ha	-11.8561
▁Xaab	-11.8562
yaam	-11.8566
MEEM	-11.8572
▁advise	-11.8581
▁criminal	-11.8585
Quincy	-11.8586
▁ntlaj	-11.8586
▁YANG	-11.8587
▁minority	-11.8587
▁mivnyuag	-11.859
▁ncajncees	-11.859
▁TSAB	-11.859
▁NQA	-11.8591
▁laav	-11.8592
▁MAN	-11.8592
▁SCL	-11.8596
▁yeev	-11.8598
▁sibceg	-11.8602
heev	-11.8603
▁txhaaj	-11.8605
▁04	-11.8607
▁Tuab	-11.8611
▁Blia	-11.8612
▁np	-11.8616
wmzeej	-11.8618
▁character	-11.862
▁Deja	-11.862
mxeeb	-11.8621
AIM	-11.8633
▁Thau	-11.864
▁sources	-11.8641
▁mim	-11.8654
▁txhaw	-11.8655
▁pobtxha	-11.8655
▁ntoob	-11.8659
▁Ntxhoo	-11.866
▁fais	-11.8661
▁invest	-11.8662
▁jump	-11.8666
XejThim	-11.8667
▁pegsuab	-11.8667
▁tsuis	-11.8668
ze	-11.8669
▁DAJ	-11.8669
▁staff	-11.867
▁fool	-11.8673
▁training	-11.8673
▁hamtsi	-11.8675
▁mooj	-11.8697
▁obtug	-11.8699
▁xwmtxhee	-11.8707
▁Wa	-11.8708
91	-11.8708
mtxom	-11.871
▁girls	-11.8711
ts	-11.8725
▁Thia	-11.8726
ONE	-11.8727
▁song	-11.8732
▁$500	-11.8736
▁nimno	-11.8744
▁47	-11.8747
▁respond	-11.8749
▁Lawyer	-11.8749
▁RAWS	-11.8749
▁Txaus	-11.8749
▁thojnam	-11.8749
▁blooj	-11.875
▁Tsaab	-11.8751
▁NKAWV	-11.8752
▁ID	-11.8753
▁ntxhab	-11.8758
▁basic	-11.8759
▁Dan	-11.8763
▁dejdawb	-11.8766
▁HAU	-11.877
▁Xyeej	-11.8773
▁Boua	-11.8775
▁ONL	-11.8776
ice	-11.8779
▁air	-11.878
▁aus	-11.878
▁800	-11.878
▁RUA	-11.8781
co	-11.8787
▁haab	-11.879
taw	-11.879
11	-11.8797
kwv	-11.8798
▁HAS	-11.8817
LuI	-11.8831
▁NRHIAV	-11.8831
▁ROOJ	-11.8831
▁MENYUAM	-11.8833
▁khavthee	-11.8833
▁dongdo	-11.8834
▁NYOG	-11.8834
▁NEEB	-11.8834
▁phabej	-11.8834
qhuab	-11.8834
▁Jews	-11.8835
▁1991	-11.8835
▁front	-11.8843
▁1985	-11.8843
las	-11.8844
▁teng	-11.8844
nraug	-11.8844
▁prett	-11.8845
▁specific	-11.8856
▁TZ	-11.8863
▁PRO	-11.8866
▁sibtw	-11.8873
▁NTSES	-11.8874
▁coming	-11.888
▁khis	-11.8882
▁xaum	-11.8893
▁bus	-11.8893
▁txhai	-11.8908
▁foo	-11.8909
▁Txwj	-11.8914
▁constructive	-11.8915
▁Amelivka	-11.8915
▁quarter	-11.8915
▁forgive	-11.8915
▁Plig	-11.8917
▁PHEEJ	-11.8917
▁nujnqi	-11.8917
▁TWM	-11.8918
▁YEES	-11.8918
▁ziab	-11.8919
▁Xoom	-11.892
▁Pany	-11.8928
▁DON	-11.8929
▁divorce	-11.8939
▁donate	-11.894
ah	-11.8943
khawv	-11.8944
time	-11.8955
aW	-11.8956
▁ssi	-11.8962
he	-11.8962
▁sponsor	-11.8968
▁Khouan	-11.8972
photos	-11.8973
Liab	-11.8978
▁tuabsi	-11.8979
▁Go	-11.8984
▁nawv	-11.8985
▁hmloo	-11.8992
▁Pheng	-11.8995
▁destroy	-11.8998
▁three	-11.8998
▁truck	-11.8998
▁ritual	-11.8999
▁TXHAWJ	-11.8999
▁NTXUB	-11.9
▁LOD	-11.9001
▁TUAV	-11.9001
▁911	-11.9001
▁chinese	-11.9002
▁Bay	-11.9003
▁152	-11.9005
▁lasvoos	-11.9005
▁passed	-11.9006
▁nruam	-11.9009
▁cej	-11.9013
▁Chaleun	-11.9019
▁thread	-11.9022
▁Cim	-11.9024
▁Hmob	-11.9024
▁ysu	-11.903
▁npluas	-11.9032
haiv	-11.9033
▁Tsoomfw	-11.9041
at	-11.9042
▁sibkoom	-11.9042
▁Pro	-11.9063
cia	-11.9064
▁meska	-11.9067
▁Shan	-11.9074
▁Hang	-11.9074
more	-11.9079
▁foundation	-11.9083
▁Very	-11.9083
▁Nyuag	-11.9084
▁Fong	-11.9085
▁MUAS	-11.9085
▁tshaab	-11.9087
▁Zaaj	-11.9089
▁Npaj	-11.9089
▁bother	-11.9089
▁phaib	-11.909
▁quite	-11.9091
qhia	-11.9093
▁txhov	-11.9098
▁YY	-11.91
▁pleb	-11.9101
▁nyaaj	-11.9106
▁saws	-11.9107
▁surprise	-11.9109
▁txhaus	-11.9111
txuj	-11.9111
▁suaj	-11.9116
▁yai	-11.9125
▁dlaa	-11.9136
▁India	-11.9142
tuam	-11.9143
xab	-11.9154
▁verb	-11.9157
xaiv	-11.9159
▁NAI	-11.9166
▁VAJTSWV	-11.9169
▁soldier	-11.9169
▁boss	-11.9169
▁TXHAUM	-11.9169
▁PLAB	-11.917
▁TAWG	-11.917
▁mlom	-11.9171
▁txaav	-11.9174
▁nyuv	-11.9176
LUB	-11.9178
ible	-11.9179
▁Joe	-11.9183
▁healthy	-11.9184
▁Kou	-11.9186
▁Phub	-11.9186
▁nyos	-11.9187
▁plho	-11.9192
thaub	-11.9202
phem	-11.9204
▁PUAV	-11.9205
▁qaabhau	-11.9207
▁ntee	-11.9209
▁achieve	-11.9211
ie	-11.9214
▁%	-11.9215
lhoov	-11.9219
▁mub	-11.922
▁Txwv	-11.9221
out	-11.9221
▁Iraq	-11.9222
▁nyoob	-11.9239
▁works	-11.9243
▁contribute	-11.9244
ubject	-11.9245
un	-11.9248
PAUL	-11.925
nyuj	-11.925
▁Organization	-11.9255
▁effort	-11.9255
▁integrity	-11.9255
▁stress	-11.9255
▁DAUM	-11.9256
▁Laotian	-11.9256
AL	-11.9257
▁CAIJ	-11.9258
▁Sisavang	-11.9258
enver	-11.9264
▁TOO	-11.9264
kab	-11.9266
▁tseej	-11.9267
▁signed	-11.9268
▁sibntsib	-11.9272
74	-11.9274
▁hlaub	-11.9278
▁Aw	-11.9282
KPiA	-11.9289
▁Chiang	-11.9294
▁hee	-11.9297
▁gone	-11.9298
▁Noom	-11.9299
▁txivneeb	-11.9301
▁send	-11.9303
▁koov	-11.9303
▁Meka	-11.9307
▁Senator	-11.9307
▁haha	-11.9311
▁Politic	-11.9313
▁nraa	-11.9315
▁eh	-11.9315
▁Nao	-11.9325
▁hour	-11.9329
▁lai	-11.9337
▁Africa	-11.9339
LuJ	-11.934
▁fuck	-11.934
▁NYIAS	-11.9342
▁TAWV	-11.9343
▁phluav	-11.9345
▁PAO	-11.9345
▁yawmyij	-11.9345
▁1995	-11.9346
▁ANTI	-11.9346
▁42	-11.9346
▁ethical	-11.9349
▁Yuam	-11.935
▁china	-11.9351
nplog	-11.9351
▁PUV	-11.9353
▁XWM	-11.9357
▁Genev	-11.9358
abliam	-11.9371
▁NKAUJST	-11.9382
▁yawmtxiv	-11.9383
▁XI	-11.9389
▁SCHer	-11.939
▁xee	-11.9395
▁Kha	-11.9422
▁flick	-11.9423
▁Nqua	-11.9426
▁Japan	-11.943
▁weak	-11.9431
▁RIS	-11.9431
▁referred	-11.9433
▁voo	-11.9434
▁east	-11.9434
▁pick	-11.9434
▁green	-11.9435
▁nyiajtxiag	-11.9437
▁ntaaj	-11.9439
▁Black	-11.9447
liag	-11.9448
▁maslawv	-11.945
▁voice	-11.9451
▁criticize	-11.9463
▁Or	-11.9466
▁CHAW	-11.9467
tsi	-11.9469
▁cawmsee	-11.9474
▁metub	-11.9482
▁Lajlee	-11.9484
▁Chiv	-11.9489
▁Ministr	-11.9492
aim	-11.9494
▁attend	-11.9516
▁web	-11.9517
▁gave	-11.9519
▁campaign	-11.9519
▁behavior	-11.9521
▁THUAM	-11.9523
Lqx	-11.9523
▁SAUM	-11.9527
▁chair	-11.9527
muam	-11.9529
▁AB	-11.9529
▁05	-11.953
ko	-11.953
▁):	-11.9533
▁des	-11.9534
hnub	-11.9535
▁half	-11.954
▁nroov	-11.9541
▁ntshaa	-11.9541
▁visa	-11.9556
▁Xoua	-11.9556
▁victor	-11.9557
▁xi	-11.9573
▁violate	-11.9579
kuamuag	-11.9591
▁condition	-11.9594
▁posting	-11.9599
▁nkua	-11.9605
▁npaus	-11.9605
▁.....!	-11.9605
▁double	-11.9607
LuA	-11.9607
▁NYUAJ	-11.9608
▁Nongkhai	-11.9608
▁NyabLaj	-11.9608
▁chimsiab	-11.9609
▁stage	-11.9609
▁hospital	-11.961
▁box	-11.9611
▁Nouka	-11.9611
▁arrest	-11.9614
▁vietnam	-11.9615
▁minister	-11.9616
▁km	-11.9616
▁code	-11.9616
▁Cais	-11.9619
ntawm	-11.9627
ist	-11.9627
▁NOV	-11.9631
▁tsub	-11.9636
▁$3	-11.9637
▁xyo	-11.9638
ais	-11.9642
▁phd	-11.9648
amp	-11.965
▁ceskuv	-11.9666
▁hit	-11.9676
▁count	-11.969
▁murder	-11.9695
▁Operation	-11.9697
▁resign	-11.9697
▁remind	-11.9698
▁nick	-11.9698
▁LIKE	-11.9698
▁incident	-11.9698
▁phwj	-11.9699
▁alive	-11.9699
▁target	-11.9699
▁LAV	-11.97
▁CUAB	-11.9701
▁Brando	-11.9704
▁ol	-11.9705
roob	-11.9706
▁chi	-11.9708
▁involved	-11.9713
▁Hahahahahaha	-11.9724
▁ntxua	-11.9727
▁mivntsiv	-11.9736
▁tuv	-11.9739
▁cash	-11.9742
▁MTT	-11.9745
hluas	-11.9747
▁hloo	-11.975
▁Phone	-11.9751
▁ones	-11.9754
▁ugl	-11.9763
▁SD	-11.977
▁100%.	-11.9774
ra	-11.978
▁stick	-11.9781
▁npauj	-11.9784
▁Sept	-11.9786
▁faith	-11.9786
▁hloob	-11.9788
▁YESUS	-11.9788
▁dogdig	-11.9789
▁White	-11.9789
▁ROOB	-11.979
▁Pajtsab	-11.979
▁Democrac	-11.9791
▁Taj	-11.9792
▁Txam	-11.9792
▁necessar	-11.9792
▁CAUM	-11.9793
▁Taumd	-11.9795
▁cuv	-11.9797
▁improve	-11.9804
AS	-11.9805
stpaul	-11.9805
▁thij	-11.9807
ous	-11.9811
▁xai	-11.9815
▁Sij	-11.9819
▁Last	-11.9821
▁09	-11.9825
▁Uab	-11.9825
▁intellectuals	-11.9834
▁conflict	-11.9844
caug	-11.9848
▁hlauv	-11.9852
cheng	-11.9863
TY	-11.9863
shoua	-11.9866
▁Wang	-11.9866
▁Hmoo	-11.9867
▁Love	-11.9872
▁pobntse	-11.9874
▁THAI	-11.9879
▁Religion	-11.988
▁influence	-11.988
▁Lisfoo	-11.988
▁flien	-11.9881
▁SOME	-11.9882
▁favor	-11.9882
▁fbi	-11.9883
▁CAIV	-11.9884
▁ROJ	-11.9885
▁funding	-11.9889
▁Liag	-11.9899
▁600	-11.99
▁ros	-11.9901
▁dy	-11.9902
▁active	-11.9902
IS	-11.9906
▁Kim	-11.9911
▁TSHUA	-11.9911
▁response	-11.9912
▁xwsli	-11.9914
SE	-11.9915
▁khaj	-11.9916
▁KOOB	-11.9919
dlub	-11.9919
uang	-11.9922
el	-11.9929
True	-11.9931
▁hahahhaha	-11.9934
▁txai	-11.9935
▁cees	-11.9935
fab	-11.9937
▁ntig	-11.994
▁grow	-11.9941
eem	-11.9942
▁His	-11.9943
▁khao	-11.9953
▁hm	-11.997
▁SUN	-11.997
▁VWJ	-11.9973
▁Paris	-11.9973
▁NIAJ	-11.9973
▁cu	-11.9973
▁monitor	-11.9973
▁NEW	-11.9974
▁tawj	-11.9976
▁yeebceeb	-11.9978
▁TUM	-11.9979
▁Nug	-11.998
▁xiav	-11.9983
▁txuv	-11.9983
▁print	-11.9985
▁tubki	-11.9988
▁PHOOJ	-11.9989
▁field	-11.9993
▁xom	-12.0004
ting	-12.0006
▁Qhua	-12.0009
▁coos	-12.0009
aub	-12.001
ees	-12.0015
nthav	-12.0019
▁AT	-12.0021
tsim	-12.0022
▁bis	-12.0024
▁phoos	-12.0029
▁thornsp	-12.0033
▁dabqhua	-12.0037
▁Haus	-12.0043
ter	-12.0047
▁Governor	-12.0066
▁Clinton	-12.0066
▁GENERAL	-12.0066
▁energy	-12.0066
▁Saykao	-12.0066
▁Dear	-12.0067
▁Geu	-12.0067
▁TIAV	-12.0068
▁zamtxim	-12.0068
▁fuas	-12.0068
90	-12.0069
▁nkaujnyiag	-12.0071
▁profile	-12.0076
▁caim	-12.008
▁xyw	-12.0081
teC	-12.0087
▁tree	-12.0088
:	-12.0088
▁44	-12.0089
ywm	-12.0093
pa	-12.0094
▁tape	-12.0097
▁AWS	-12.0098
▁Neohome	-12.0103
▁tshaum	-12.0103
anuary	-12.011
▁Yai	-12.011
▁NOW	-12.0115
▁affect	-12.012
▁Nyav	-12.0121
▁HOS	-12.0132
▁xaaj	-12.0143
▁flexib	-12.0147
▁1%	-12.0149
▁Qab	-12.0152
▁UW	-12.0153
▁...............	-12.016
▁Public	-12.016
▁circle	-12.016
▁Tuesday	-12.016
▁scholarship	-12.0161
▁Houei	-12.0161
▁nyhuv	-12.0162
▁figure	-12.0163
▁LUAM	-12.0164
▁ground	-12.0165
▁YOM	-12.0165
▁era	-12.0165
▁nabkaj	-12.0166
▁HUAB	-12.0169
▁moment	-12.017
▁ntxee	-12.0172
▁YIM	-12.0174
▁reach	-12.0175
ew	-12.0176
▁daug	-12.0177
▁LWJ	-12.0178
AV	-12.0178
▁bor	-12.0187
▁ntsaa	-12.0192
▁phwvyaw	-12.0205
▁cij	-12.0209
▁Phuv	-12.0214
▁qu	-12.0215
book	-12.0215
▁rai	-12.0221
▁critic	-12.0225
▁DIG	-12.0235
▁LA	-12.0237
▁mask	-12.0237
▁HIS	-12.0237
▁beginn	-12.0239
thiaj	-12.024
seem	-12.0243
▁naib	-12.0247
Party	-12.0248
▁kug	-12.0249
▁Hluas	-12.0249
▁chia	-12.0254
▁legitimate	-12.0256
▁Internet	-12.0256
▁NCAUJ	-12.0256
poj	-12.0257
▁Tsawg	-12.0258
▁NUJ	-12.0259
▁qaws	-12.026
▁anyway	-12.0261
▁prepare	-12.0263
▁Thuam	-12.0265
▁Day	-12.0265
▁sivyig	-12.0268
▁phej	-12.0274
▁nquab	-12.0276
si	-12.0279
▁nyov	-12.028
▁niamtij	-12.0281
▁XK	-12.0281
▁txaws	-12.0283
▁kavxwm	-12.0283
has	-12.0287
▁dhua	-12.0291
▁vias	-12.0292
hoom	-12.0304
opposite	-12.0306
▁Hua	-12.031
▁nru	-12.031
▁engineer	-12.0312
▁phib	-12.0318
coj	-12.032
peC	-12.0321
rau	-12.0323
▁kid	-12.0337
txawm	-12.034
▁txus	-12.0342
▁After	-12.0352
▁responsible	-12.0352
▁folk	-12.0352
▁prevent	-12.0352
▁TUBNTSUAGRUAM	-12.0352
▁happiness	-12.0352
▁ameka	-12.0352
▁bottom	-12.0353
▁piece	-12.0353
▁apartment	-12.0355
▁hnoob	-12.0357
▁haslug	-12.0358
▁Christma	-12.0367
▁terms	-12.038
▁Nqe	-12.0384
▁bit	-12.0391
ION	-12.0393
taws	-12.0393
yees	-12.0396
player	-12.0397
kevcai	-12.0402
▁dle	-12.0409
▁beyon	-12.0412
ial	-12.0415
oogle	-12.0418
ruce	-12.0426
▁zai	-12.0428
▁Twm	-12.043
▁car	-12.0431
▁chat	-12.0432
▁Luam	-12.0435
▁tn	-12.0436
▁tasli	-12.0441
▁Bloglia	-12.0443
photo	-12.0447
▁aud	-12.0448
embedded	-12.0449
▁associate	-12.0449
▁remain	-12.0449
▁senator	-12.0449
▁NKAG	-12.045
▁okay	-12.045
▁Laaj	-12.045
▁GED	-12.045
▁justice	-12.045
▁qualification	-12.045
▁MoobSib	-12.0451
▁DVD	-12.0451
▁NGO	-12.0452
▁NTSUAB	-12.0452
ence	-12.0452
▁zawv	-12.0454
▁Npoos	-12.0454
▁Hwb	-12.0455
▁stories	-12.0456
▁homphaj	-12.0456
▁pi	-12.0457
▁Tsiaj	-12.0464
▁Zaubntsu	-12.0476
▁FRO	-12.0486
ually	-12.0497
lim	-12.05
rchan	-12.05
hiaj	-12.0501
▁Veesca	-12.0505
▁changed	-12.0507
▁nkaj	-12.0517
▁maas	-12.0525
hahahahahahahaha	-12.0535
▁advocate	-12.0537
▁spiritual	-12.0545
▁nces	-12.0546
▁MPLS	-12.0547
▁Sheboygan	-12.0547
▁communities	-12.0547
▁proud	-12.0547
▁PUAG	-12.0548
▁SUAB	-12.055
▁lady	-12.0552
▁kkk	-12.0554
▁probabl	-12.0559
▁RAB	-12.056
▁quality	-12.0561
▁nphau	-12.0563
▁photo	-12.0564
▁kj	-12.0568
▁havzoo	-12.0569
▁Lha	-12.057
▁niamtais	-12.0572
▁ZOOV	-12.0575
▁LAW	-12.0579
▁txwg	-12.0587
▁survive	-12.0587
tshoj	-12.0609
▁LOOJ	-12.0612
▁1/10	-12.062
▁tshawbfaw	-12.0624
▁dlo	-12.0624
ci	-12.0633
nrauj	-12.0637
▁Sep	-12.0644
▁Al	-12.0645
▁percent	-12.0646
▁Rhwbliag	-12.0646
▁freezer	-12.0646
▁TSHUAV	-12.0646
▁membership	-12.0647
▁TXEEB	-12.0647
▁NQQ	-12.0647
▁Vaajncuab	-12.0647
▁Air	-12.0647
▁Reply	-12.0647
▁TOG	-12.0648
▁stabber	-12.0649
▁Fawm	-12.0651
▁1968	-12.0651
▁James	-12.0653
▁pojnrauj	-12.0655
▁Mem	-12.0656
▁Militar	-12.0656
▁Mouang	-12.0656
▁ncaujlus	-12.0657
united	-12.0659
maum	-12.0665
▁nkais	-12.0674
▁Mov	-12.0675
▁ntsov	-12.0677
▁approve	-12.0678
▁plhws	-12.0678
▁HEHEHE	-12.0679
▁1982	-12.068
ful	-12.0684
▁Tiaj	-12.0686
▁xees	-12.0691
▁peaceful	-12.0701
▁gettin	-12.0709
▁Hope	-12.0718
ey	-12.0726
▁MLOOG	-12.0741
▁belong	-12.0744
▁Nt	-12.0745
15	-12.0745
▁delegation	-12.0746
▁suspect	-12.0746
▁environment	-12.0746
▁reference	-12.0748
▁film	-12.0748
▁HIAM	-12.0749
▁Tomqab	-12.0751
ive	-12.0751
▁GOD	-12.0752
▁Bo	-12.0753
▁earn	-12.0755
ntshis	-12.0755
▁Herr	-12.0756
▁fake	-12.0756
▁killing	-12.0756
▁muang	-12.0757
▁xeej	-12.0759
▁operation	-12.076
nej	-12.0765
▁damage	-12.0768
▁UP	-12.079
▁TH	-12.0794
Zeb	-12.0794
▁53	-12.0797
▁bua	-12.08
asseng	-12.0805
▁politik	-12.0808
chaw	-12.0815
▁donation	-12.0817
qauj	-12.0818
▁Jon	-12.0823
▁npia	-12.0825
▁al	-12.083
▁nrhov	-12.0832
rn	-12.0832
▁NTS	-12.0833
ntseeg	-12.0834
▁quote	-12.0837
hli	-12.0841
▁qhaus	-12.0842
▁tz	-12.0843
▁realize	-12.0844
▁tusneeg	-12.0845
▁psycholog	-12.0845
92	-12.0846
▁THINK	-12.0847
▁Dongdok	-12.0847
▁Phajej	-12.0848
▁method	-12.0848
▁West	-12.0848
▁Th	-12.0852
▁Fang	-12.0858
▁plob	-12.0861
▁citizens	-12.0863
▁hws	-12.0865
lauj	-12.087
SIAB	-12.087
ORE	-12.0873
▁Chav	-12.0873
▁Tshuaj	-12.0873
▁KAS	-12.0878
▁seek	-12.088
▁klos	-12.0892
▁Bon	-12.0895
▁thorn	-12.0901
▁nem	-12.0909
lem	-12.091
yig	-12.0911
loo	-12.0917
▁rawg	-12.092
uty	-12.0922
▁naam	-12.0926
▁kan	-12.0926
▁LIG	-12.0927
▁organize	-12.0928
awj	-12.0932
IAS	-12.0935
▁Cy	-12.0935
▁color	-12.0939
▁txh	-12.094
▁threat	-12.0949
▁statue	-12.0949
▁Japanese	-12.0949
▁TXAJ	-12.0949
▁HOW	-12.095
IOC	-12.095
▁raag	-12.095
▁mark	-12.095
▁spy	-12.0951
▁sin	-12.0952
▁xeebntxwv	-12.0953
▁Heev	-12.0953
▁impossib	-12.0956
▁REAL	-12.0959
▁north	-12.096
ntau	-12.0965
Lis	-12.0965
00	-12.0966
▁lhuas	-12.0967
▁understanding	-12.0969
vice	-12.097
Vaj	-12.0972
▁txho	-12.0972
▁xx	-12.0974
▁qhaib	-12.0978
▁07	-12.0987
▁famili	-12.0991
▁introduce	-12.0994
▁population	-12.0997
HAUM	-12.1006
cuam	-12.1009
▁khas	-12.1029
▁pais	-12.1032
▁Phala	-12.1036
saub	-12.1036
▁south	-12.1038
nyawm	-12.1041
▁muv	-12.1045
maj	-12.1048
▁TP	-12.1048
▁lc	-12.105
▁FREE	-12.1051
▁Example	-12.1052
▁pretend	-12.1052
▁criticism	-12.1052
▁NYEM	-12.1052
▁THaum	-12.1052
▁County	-12.1053
▁TSUV	-12.1053
▁soccer	-12.1053
▁Lyfong	-12.1053
▁nyuamqhuav	-12.1055
▁cajdab	-12.1055
▁Email	-12.1057
xaj	-12.1059
▁Laib	-12.1063
dlawb	-12.1065
▁cent	-12.1071
▁Po	-12.1071
▁LIM	-12.1074
▁push	-12.1077
xub	-12.108
▁pias	-12.1081
ham	-12.1082
==	-12.1085
▁KUA	-12.1086
▁NAM	-12.1087
txiaj	-12.109
▁?????	-12.1093
▁Hnubka	-12.1096
▁nki	-12.1097
ntsoov	-12.1099
▁soo	-12.11
▁mr	-12.1101
▁kasmia	-12.1104
ntxoog	-12.1104
▁PE	-12.1109
▁PAUL	-12.1111
▁XAB	-12.1113
▁Xaj	-12.1125
▁kau	-12.1137
▁agreed	-12.1154
▁neutral	-12.1155
▁trouble	-12.1156
▁chief	-12.1156
▁violation	-12.1156
▁Florida	-12.1156
Square	-12.1156
▁FABKIS	-12.1156
▁Report	-12.1157
▁NYAJ	-12.1157
▁QHUAS	-12.1157
▁CUAV	-12.1158
▁oz	-12.1159
▁trick	-12.1159
▁THERE	-12.116
▁OTHER	-12.1161
▁nploos	-12.1163
▁building	-12.1163
▁sy	-12.1168
▁period	-12.1172
▁cis	-12.1177
▁shot	-12.118
IR	-12.118
▁encourage	-12.1183
▁Fwj	-12.1184
▁draw	-12.1189
▁techaw	-12.1202
▁Of	-12.1202
▁txhaab	-12.1204
▁sus	-12.1208
ntxawg	-12.1211
▁Lai	-12.1213
▁phwvxe	-12.1214
▁boy	-12.1221
▁chai	-12.1225
▁keev	-12.1226
nto	-12.123
▁foreign	-12.1233
▁convert	-12.1235
huam	-12.1246
CMA	-12.1251
killed	-12.1252
▁western	-12.1253
▁ect	-12.1253
▁celebration	-12.1261
▁Thursday	-12.1262
▁argument	-12.1262
▁decide	-12.1262
▁NCAWS	-12.1262
▁council	-12.1263
▁mercenar	-12.1264
▁POST	-12.1264
▁deny	-12.1265
▁capital	-12.1265
▁nyaa	-12.1268
▁image	-12.1268
▁1984	-12.1272
▁prefer	-12.1273
qaib	-12.1274
▁ntsau	-12.1276
▁lots	-12.1284
oeC	-12.1292
to	-12.1299
▁teach	-12.1302
▁Special	-12.1304
--------------	-12.1305
wiki	-12.1307
▁Force	-12.1307
▁thej	-12.1313
▁Case	-12.1314
paug	-12.1318
▁area	-12.1318
tsuag	-12.1329
rely	-12.1331
▁suggestion	-12.1333
▁dialect	-12.1333
▁YP	-12.1333
▁NTSOO	-12.1335
▁student	-12.1335
▁stone	-12.1343
▁Assistan	-12.1344
suav	-12.1347
▁koomhu	-12.1351
▁Chou	-12.1362
▁$25	-12.1362
▁Constitution	-12.1368
▁Science	-12.1368
▁department	-12.1368
▁CHOJ	-12.1369
▁txiajntsim	-12.1369
▁Nyiam	-12.137
▁Txoos	-12.137
RISE	-12.1371
▁bless	-12.1371
▁reply	-12.1371
▁npluanu	-12.1376
▁root	-12.1378
▁qabrooj	-12.1378
▁saturday	-12.1378
▁Marc	-12.138
▁Txheej	-12.1381
article	-12.1388
21	-12.1394
▁59	-12.1404
▁HMO	-12.1406
▁nris	-12.141
▁YA	-12.141
▁gas	-12.142
▁Su	-12.1421
oos	-12.1422
▁maina	-12.1423
▁fi	-12.1431
▁dad	-12.1434
▁nrooj	-12.144
▁teacher	-12.1441
▁kuvli	-12.1442
▁ceb	-12.1442
▁letter	-12.1447
▁Achan	-12.145
▁Uas	-12.145
ho	-12.146
foom	-12.1461
▁Hey	-12.1461
▁mid	-12.1468
saib	-12.1471
▁success	-12.1472
▁Tziane	-12.1475
▁Since	-12.1475
▁Indochina	-12.1475
▁First	-12.1476
▁Thu	-12.1477
▁nephew	-12.1477
▁popular	-12.1477
▁PHAJ	-12.1479
▁universit	-12.1479
▁marry	-12.148
▁SIAV	-12.1481
▁Zaab	-12.1482
▁txham	-12.1491
▁txawjntse	-12.1494
8&	-12.1496
▁xyuav	-12.1498
▁actuall	-12.1498
▁zoonkauj	-12.1501
▁Lat	-12.1501
▁inche	-12.1502
▁xuav	-12.1505
▁TAUB	-12.1509
▁vajtse	-12.1509
▁reported	-12.1509
▁laugh	-12.151
way	-12.1512
▁hlaab	-12.1512
hwm	-12.1515
▁fill	-12.1521
HUB	-12.1525
▁BUS	-12.1528
▁ntsua	-12.1541
▁bride	-12.1545
luam	-12.1554
▁dhaw	-12.1554
▁48	-12.1562
▁kej	-12.1564
▁DownUn	-12.1564
▁pin	-12.1565
▁says	-12.1573
▁nqag	-12.1576
twb	-12.1578
▁pho	-12.1579
▁spell	-12.158
luj	-12.1581
▁recommend	-12.1584
▁Bachelor	-12.1584
▁Faabkis	-12.1584
▁Medical	-12.1584
▁rebecca	-12.1584
▁straight	-12.1584
▁Service	-12.1584
▁NPlog	-12.1584
▁spouse	-12.1585
▁dear	-12.1585
▁adjective	-12.1585
▁doctawm	-12.1585
▁HIGH	-12.1586
▁digmuag	-12.1586
▁safet	-12.1588
▁Phem	-12.1588
▁Officer	-12.1588
▁Ms	-12.159
clear	-12.1592
EVER	-12.1592
▁XZ	-12.1593
rry	-12.1597
▁Chij	-12.1598
▁cook	-12.1605
▁ntsawv	-12.1608
▁Mhong	-12.161
▁meejx	-12.1611
▁none	-12.1619
▁Phav	-12.1619
▁approach	-12.1628
▁Lord	-12.1631
▁Camp	-12.1633
tsab	-12.1644
oo	-12.1646
▁Tseemy	-12.1658
▁marrie	-12.166
▁Ze	-12.1666
▁rich	-12.1667
hlau	-12.1667
▁With	-12.1669
▁Ka	-12.1673
▁plhus	-12.1681
gu	-12.1682
▁philosoph	-12.1687
▁surrender	-12.1694
▁doubt	-12.1694
▁DOCTOR	-12.1694
▁third	-12.1694
▁NCUAB	-12.1694
▁SAM	-12.1695
▁ntsias	-12.1695
▁TEEV	-12.1695
▁KHAV	-12.1696
▁THAJ	-12.1697
▁honey	-12.1699
▁ntxuaj	-12.17
▁vaajtsw	-12.1705
▁dd	-12.1705
tham	-12.1708
▁zum	-12.1709
▁Most	-12.171
▁nkoos	-12.1711
▁relatives	-12.1715
▁nwm	-12.1725
unday	-12.1728
yeem	-12.1728
MA	-12.1735
▁Ntsia	-12.1741
▁dl	-12.1741
▁Daj	-12.1752
tsawb	-12.1769
▁213	-12.1773
▁Marx	-12.1779
▁npla	-12.1783
0&	-12.1798
________________	-12.1799
KOJ	-12.1801
▁TB	-12.1803
▁bab	-12.1804
▁plooj	-12.1805
▁NYEEM	-12.1805
▁Adam	-12.1806
▁FFC	-12.1806
▁Where	-12.1806
▁HLOOV	-12.1807
▁koomtsishaum	-12.1807
▁Dlaab	-12.1807
▁THAUB	-12.1808
▁GET	-12.1809
▁Look	-12.1812
▁amelikas	-12.1813
▁copv	-12.1813
▁large	-12.1814
▁dho	-12.1816
▁Nuj	-12.1819
▁ntas	-12.182
).	-12.1823
▁Taam	-12.1824
qawg	-12.1826
▁develop	-12.1827
txheem	-12.1828
rhav	-12.1832
?	-12.1839
▁heem	-12.1845
muas	-12.1846
aib	-12.1848
▁estimate	-12.1849
▁SAI	-12.1849
ntsaag	-12.185
▁Xai	-12.186
▁BY	-12.1864
Foom	-12.1865
▁Hell	-12.1867
Leeg	-12.1868
▁ZAUB	-12.187
▁clip	-12.1872
▁xyem	-12.1872
▁txivtub	-12.1877
▁pure	-12.1879
▁POWER	-12.1879
▁hahahahha	-12.1884
▁plaubhau	-12.1887
▁EVEN	-12.1894
▁Souvanna	-12.1896
▁)"	-12.1899
txawj	-12.1902
▁design	-12.1903
▁TW	-12.191
LqU	-12.1911
UM	-12.1915
▁outside	-12.1917
▁William	-12.1917
▁interpretation	-12.1918
▁noogqejqawg	-12.1918
▁HMOOV	-12.1918
▁Attorney	-12.1918
▁available	-12.1919
▁Video	-12.1919
▁qoj	-12.192
it	-12.192
▁regular	-12.1921
▁FAB	-12.1922
yeeg	-12.1923
▁YOOJ	-12.1924
1600	-12.1925
▁parking	-12.1927
▁nteev	-12.1929
Ntxheb	-12.1931
▁Ntsej	-12.1933
▁mix	-12.1934
▁sacrifice	-12.1937
▁thiag	-12.1939
▁phu	-12.1942
04	-12.1943
jeC	-12.1944
▁hawb	-12.195
su	-12.195
▁yoglawv	-12.1953
▁Non	-12.1956
▁Quas	-12.1957
huab	-12.1976
▁Raug	-12.1982
hom	-12.1985
▁mine	-12.1993
▁cross	-12.1996
▁NTOO	-12.2003
▁Sa	-12.2005
npe	-12.2011
da	-12.2011
30	-12.2028
▁predict	-12.2031
▁homework	-12.2031
▁Txaijnrob	-12.2031
▁Watch	-12.2031
▁VUE	-12.2031
93	-12.2031
▁ZOV	-12.2032
▁Life	-12.2032
▁KGB	-12.2033
▁unko	-12.2033
▁HlubHmoob	-12.2034
▁xibhw	-12.2035
▁army	-12.2037
▁95%	-12.2038
▁ntsauv	-12.2039
plaws	-12.204
▁txivntxawm	-12.2042
pheeb	-12.2044
▁kablis	-12.2047
▁BG	-12.2049
75	-12.2053
▁Nomdub	-12.2053
content	-12.2058
dig	-12.2058
▁followers	-12.206
identity	-12.2061
teeb	-12.2085
▁ntav	-12.2086
▁Txawjxa	-12.2086
▁xaub	-12.2089
gPiA	-12.2091
▁Zong	-12.2094
▁Os	-12.2095
▁Menyuam	-12.2101
▁$1000	-12.2102
aol	-12.2105
▁bastard	-12.2107
▁Tho	-12.2107
tiam	-12.2111
▁Other	-12.2111
▁plhw	-12.2114
dlej	-12.2115
▁Tav	-12.2115
▁tojsiab	-12.2117
mos	-12.2117
▁nts	-12.2118
Fab	-12.2121
▁Twin	-12.2122
images	-12.2123
▁nci	-12.2125
▁kip	-12.2127
▁offend	-12.2141
▁haw	-12.2143
▁attorney	-12.2146
▁Group	-12.2147
kag	-12.2147
▁Nou	-12.2147
▁clue	-12.2147
▁camera	-12.2148
▁XEEB	-12.2149
▁hunting	-12.2149
LqB	-12.215
▁sawvcev	-12.215
▁pobkws	-12.2151
▁HMong	-12.2154
▁following	-12.2162
HOSE	-12.2163
say	-12.2166
▁lintawd	-12.2168
▁Say	-12.2179
▁huj	-12.218
hOC	-12.2198
▁caslos	-12.2203
▁Huam	-12.2203
ruly	-12.2204
NTSES	-12.2211
cua	-12.2212
nas	-12.2217
▁Qaib	-12.2219
eeb	-12.222
▁paas	-12.222
▁maskuv	-12.222
▁chang	-12.2228
▁69	-12.223
▁nia	-12.2231
▁HOV	-12.2239
▁yamli	-12.2244
nyuag	-12.2245
kho	-12.2247
▁PA	-12.2254
▁player	-12.2257
the	-12.2258
▁Heaven	-12.2262
▁brgd	-12.2262
▁Soviet	-12.2262
▁Captain	-12.2262
▁chicken	-12.2262
▁exercise	-12.2262
▁technique	-12.2263
▁Koomhaum	-12.2263
▁Culture	-12.2264
▁medicine	-12.2265
▁Business	-12.2265
de	-12.2265
▁PEJ	-12.2266
▁1/2	-12.2267
▁usual	-12.2268
▁appropriate	-12.2269
aag	-12.2271
▁Puag	-12.2272
▁Tsib	-12.2273
▁naas	-12.2276
▁bath	-12.2277
▁kwvyees	-12.2277
▁npai	-12.2282
go	-12.2284
pas	-12.2284
▁Leader	-12.2285
▁OUT	-12.2291
▁wow	-12.2293
▁sit	-12.2296
khi	-12.2296
▁Ntaub	-12.2301
keo	-12.2301
▁Kiabtoo	-12.2302
▁west	-12.2302
▁birthda	-12.2302
▁Xais	-12.2306
rk	-12.2307
▁vig	-12.231
▁dhi	-12.2315
▁acre	-12.2315
▁ler	-12.2325
▁"..	-12.2328
▁nplag	-12.2336
khwb	-12.2337
zug	-12.234
▁Teem	-12.2347
orrow	-12.2352
▁Qhab	-12.2353
▁xoos	-12.2353
▁ri	-12.2357
▁**	-12.2357
▁receive	-12.2359
▁vi	-12.2362
cities	-12.2365
▁Txo	-12.2366
docs	-12.2372
▁yahoo	-12.2373
▁Thi	-12.2376
▁txomfa	-12.238
▁Judge	-12.238
▁INTERNET	-12.238
▁Beeveev	-12.238
▁DHIA	-12.2381
▁Cross	-12.2381
▁river	-12.2382
▁retirement	-12.2382
▁Arkansas	-12.2382
▁fear	-12.2383
▁kabmob	-12.2384
▁npawv	-12.2386
▁hauvpaus	-12.2387
▁osxaum	-12.2388
▁nreg	-12.2388
▁idiot	-12.2391
▁Apr	-12.2392
▁tawd	-12.2393
▁XAM	-12.2394
▁melikas	-12.2394
▁zauv	-12.2396
▁ntxws	-12.2396
▁peebzee	-12.2398
▁accuse	-12.2404
wayne	-12.2409
▁SAY	-12.241
▁Mao	-12.2411
▁ass	-12.2413
▁Ntxua	-12.2417
▁door	-12.2417
▁Saw	-12.242
▁phus	-12.2424
▁58	-12.2449
terrorism	-12.245
eup	-12.2454
▁KE	-12.2455
▁PUAB	-12.2455
▁yuab	-12.2458
▁WAS	-12.2467
1969	-12.2469
sam	-12.2471
▁tibzoo	-12.2471
THING	-12.2471
▁ntxha	-12.2472
ble	-12.2472
▁qham	-12.2474
▁governor	-12.2477
▁saiv	-12.248
txeem	-12.2483
▁Ki	-12.2489
▁worship	-12.2489
cm	-12.249
▁neighbor	-12.2499
▁WOW	-12.2499
▁Alien	-12.2499
▁WRONG	-12.2499
▁Awb	-12.25
▁SCIENCE	-12.25
▁AGAIN	-12.25
▁croc	-12.25
▁Ntsuag	-12.2501
▁limham	-12.2501
▁Ntsib	-12.2501
▁gift	-12.2501
▁Daus	-12.2504
▁AMEN	-12.2505
▁DOG	-12.2505
txheej	-12.2507
▁vuab	-12.2507
▁actions	-12.251
▁Phouma	-12.2511
▁xyob	-12.2511
▁tank	-12.2516
▁aid	-12.2516
▁english	-12.2517
▁Xwb	-12.2517
IC	-12.2518
ant	-12.252
▁POLITIC	-12.252
▁bass	-12.2521
▁nkas	-12.2522
▁tseebx	-12.2528
▁PHOO	-12.2529
▁ET	-12.2529
▁qhovrooj	-12.2531
▁haukev	-12.2532
▁tsaw	-12.2532
▁Pam	-12.2533
▁Indian	-12.2534
!	-12.2539
you	-12.2543
▁Kua	-12.2543
▁DE	-12.2548
▁nyuajsiab	-12.2548
cha	-12.2549
▁facts	-12.2551
▁map	-12.2555
txoog	-12.2556
▁ignore	-12.2561
▁Taub	-12.2565
▁Xay	-12.2573
▁kiss	-12.2581
▁xyu	-12.2581
▁formula	-12.2585
▁Hej	-12.2597
▁Heu	-12.2598
▁ruav	-12.2602
ntoo	-12.2609
▁interpret	-12.2611
▁dumb	-12.2611
OR	-12.2612
za	-12.2615
▁expense	-12.2619
▁recent	-12.262
▁across	-12.262
▁temptation	-12.262
▁threaten	-12.262
▁regret	-12.262
▁NTSHAW	-12.262
▁false	-12.2621
▁Naisphoo	-12.2621
▁Khoom	-12.2622
▁slow	-12.2624
▁Vaajlug	-12.2625
▁57	-12.2626
▁Pas	-12.2627
▁ntxheb	-12.2628
▁elders	-12.2631
▁missionar	-12.2632
▁plev	-12.2632
▁ntxhuav	-12.2635
▁nyub	-12.2636
▁comprehensi	-12.2637
▁hoo	-12.2637
▁blablabla	-12.2638
▁shake	-12.2638
▁millionaire	-12.2639
▁ntsawj	-12.264
▁Ntoo	-12.2643
▁Kam	-12.2645
▁suit	-12.2646
=0	-12.2648
▁qaj	-12.2653
▁ncas	-12.2654
▁hmob	-12.2656
▁je	-12.2663
▁haam	-12.2665
▁TS	-12.2666
tsug	-12.2673
sh	-12.2676
▁NCE	-12.2678
tong	-12.2682
▁txaw	-12.2691
▁npl	-12.2693
zos	-12.2694
Yaj	-12.2703
▁fish	-12.2709
▁Vau	-12.2712
twm	-12.2714
▁ntxab	-12.2719
▁compete	-12.2727
▁ntia	-12.2727
▁require	-12.2732
▁harm	-12.2732
twv	-12.2735
▁pray	-12.2736
▁translate	-12.2737
▁advantage	-12.2741
▁teleport	-12.2741
▁Europe	-12.2741
▁NQAIJ	-12.2742
▁chose	-12.2742
▁FEEM	-12.2743
▁huamnab	-12.2743
▁Naiphoo	-12.2743
▁POINT	-12.2743
▁rhab	-12.2743
▁76	-12.2746
▁msu	-12.2748
Lqa	-12.2748
▁khaiv	-12.275
▁CARE	-12.275
Lqt	-12.2752
Dawb	-12.2755
▁ciov	-12.2755
▁diplomatic	-12.2756
▁Caiv	-12.2765
▁hahahha	-12.2766
▁WAY	-12.2768
▁zeg	-12.2773
ch	-12.2773
ntev	-12.2775
▁careful	-12.2778
▁NT	-12.278
▁Maivna	-12.2783
▁Nav	-12.2785
▁KAJ	-12.2787
▁sur	-12.2789
sOC	-12.279
▁minor	-12.2802
▁poov	-12.2804
entral	-12.2804
▁Ty	-12.2804
▁Thua	-12.2807
▁participate	-12.2808
▁Dee	-12.2816
feemcoob	-12.2819
▁refuse	-12.282
▁Pho	-12.2821
▁WORK	-12.2829
▁NEV	-12.2835
▁ntxhoo	-12.2835
qaum	-12.2845
▁Qau	-12.2846
▁nrhu	-12.2848
xay	-12.2849
mom	-12.2854
▁progress	-12.2856
▁$300	-12.286
▁effect	-12.2863
▁Degree	-12.2865
▁Hotel	-12.2865
▁Sombath	-12.2865
▁NEED	-12.2865
▁Tsimmuaj	-12.2866
▁Ntxhiav	-12.2866
▁Brg	-12.2866
▁NUAV	-12.2866
▁ndlav	-12.2869
▁hehe	-12.2871
▁TUAM	-12.2873
▁shit	-12.2874
▁HLAU	-12.2874
▁store	-12.2876
▁PC	-12.2884
▁hna	-12.2886
▁,,,,	-12.2888
▁TAUG	-12.2894
▁Phoum	-12.2895
▁Vajlus	-12.2895
HUAV	-12.29
▁...)	-12.2908
▁DABTSI	-12.2909
iddle	-12.291
▁sd	-12.291
nv	-12.2919
Former	-12.2923
▁Tshuas	-12.2923
▁fr	-12.2933
▁YWM	-12.2936
ged	-12.2937
wvnyawm	-12.2952
▁civilize	-12.2954
▁soul	-12.2955
▁Ex	-12.2956
▁hoos	-12.2957
▁thua	-12.2959
AWM	-12.2959
▁elect	-12.2964
▁Phus	-12.2964
▁Khwv	-12.2975
▁tivthai	-12.2975
▁nka	-12.2988
▁contradict	-12.2989
▁disappoint	-12.299
▁NQE	-12.299
AB	-12.299
▁worst	-12.2991
▁racist	-12.2992
▁TWJ	-12.2992
▁movement	-12.2993
▁san	-12.2994
▁Khou	-12.2998
▁warning	-12.2999
▁thws	-12.3
▁Plaub	-12.3001
▁BEER	-12.301
hav	-12.3012
▁MOOS	-12.3017
▁HER	-12.3018
%2	-12.3019
▁grand	-12.3033
▁scam	-12.3037
▁lev	-12.3037
▁phuam	-12.3038
▁194	-12.3039
▁zwj	-12.3044
hov	-12.3051
ntseg	-12.3054
▁:):):)	-12.3056
ST	-12.3056
▁fu	-12.3067
gDQo	-12.308
▁Tsiab	-12.3082
▁ZK	-12.3085
lean	-12.3085
▁qabntuj	-12.309
▁phlom	-12.3091
▁evidences	-12.3092
▁met	-12.3095
▁ray	-12.3104
yem	-12.3104
▁PO	-12.3105
▁eye	-12.3108
▁npaw	-12.3108
▁tshi	-12.3111
▁Flip	-12.3117
▁budget	-12.3117
▁dlhuav	-12.3117
▁avoid	-12.3118
▁denie	-12.3119
▁Charles	-12.3119
▁SCAM	-12.312
▁77	-12.312
▁internal	-12.3123
▁ntaim	-12.3125
▁LS	-12.3125
▁Qaum	-12.3129
ology	-12.313
LqH	-12.3132
▁Dlua	-12.3138
▁gene	-12.314
▁FACT	-12.3144
▁online	-12.3148
▁khes	-12.3151
▁nkawj	-12.3152
▁Vong	-12.316
khib	-12.3162
▁Luv	-12.3165
caij	-12.3167
▁ABOU	-12.3173
txhia	-12.3176
▁plhaub	-12.3179
▁?".	-12.3183
▁sport	-12.3185
▁handle	-12.3186
▁con	-12.3187
▁edu	-12.3192
▁Ee	-12.3192
▁oblub	-12.3194
nuj	-12.3199
▁qhos	-12.3201
▁Song	-12.3201
▁drop	-12.3202
▁KOOS	-12.3203
▁yawglaus	-12.3216
▁Neu	-12.3219
▁Jul	-12.3227
younger	-12.3231
ceg	-12.3232
▁78	-12.3241
▁Alaska	-12.3245
▁machine	-12.3245
▁txiabneeb	-12.3245
▁RUB	-12.3245
▁LPB	-12.3246
▁NTUG	-12.3246
▁beside	-12.3247
▁Ncauj	-12.3248
▁direction	-12.3248
▁ourselve	-12.3248
▁tshaam	-12.3248
▁riag	-12.3249
▁beat	-12.3252
▁jee	-12.3253
hi	-12.3254
▁Dlej	-12.3256
▁CAJ	-12.3258
▁thoughts	-12.3259
free	-12.3261
looj	-12.3262
▁heheheh	-12.3265
▁txawjx	-12.3268
moos	-12.3277
▁thee	-12.3279
▁Lag	-12.3279
phoojywg	-12.328
▁ceebtshee	-12.3284
hu	-12.3285
▁pen	-12.3285
tua	-12.3286
▁size	-12.3287
▁Xia	-12.3289
▁Doc	-12.3304
ried	-12.3307
▁Xat	-12.3308
kiv	-12.3308
xam	-12.3315
▁...(	-12.3319
▁phaaj	-12.3331
▁73	-12.3331
▁sao	-12.3335
▁path	-12.3335
▁haivhmoob	-12.3335
nraim	-12.3337
▁sofa	-12.3341
▁WAR	-12.3346
▁ntxai	-12.3353
▁easi	-12.3356
▁PAS	-12.336
▁haujsa	-12.3366
▁Qav	-12.3366
▁Bank	-12.3369
▁Office	-12.337
▁Sen	-12.3372
▁CHURCH	-12.3374
▁beautiful	-12.3374
▁ideology	-12.3374
▁drink	-12.3375
▁Accord	-12.3375
▁excuse	-12.3375
▁wausau	-12.3375
▁TXIAV	-12.3375
▁protection	-12.3375
▁versa	-12.3375
▁XYOV	-12.3376
▁benefits	-12.3378
▁virus	-12.3378
▁AEON	-12.3378
▁khe	-12.338
▁YIG	-12.338
▁nruabnrab	-12.3381
▁Pawg	-12.3384
▁Rag	-12.3385
▁Ken	-12.3385
▁Then	-12.3385
▁NEB	-12.3385
▁NAB	-12.3387
kos	-12.3388
▁POG	-12.3393
caus	-12.3393
▁npiab	-12.3393
▁qhuabke	-12.3394
▁bush	-12.3395
▁hnyos	-12.3396
▁publish	-12.3399
tsav	-12.34
how	-12.3401
▁scholars	-12.3407
Teb	-12.3409
▁250	-12.3409
▁haud	-12.341
▁Secret	-12.3412
▁observe	-12.3413
paum	-12.3421
▁SEE	-12.3424
ti	-12.3431
▁LAU	-12.3438
aid	-12.3439
▁TSW	-12.3441
▁opinions	-12.3444
▁pees	-12.3453
YW	-12.3456
phaj	-12.3458
▁Hai	-12.3467
▁divide	-12.3473
▁fruit	-12.3481
▁yuavluag	-12.3484
▁Hmmm	-12.349
▁plu	-12.3491
▁modern	-12.3493
▁Park	-12.3502
▁discredit	-12.3506
▁reflect	-12.3506
▁SNOW	-12.3506
▁Foundation	-12.3506
▁reputation	-12.3506
▁KHWV	-12.3507
▁nominate	-12.3507
▁SUPPORT	-12.3507
▁baht	-12.3507
▁YAV	-12.3508
▁nplij	-12.3508
▁financial	-12.3509
▁commander	-12.351
▁Txaj	-12.3511
▁NYOO	-12.3517
▁invite	-12.3517
ap	-12.3518
▁Securit	-12.3518
▁Sia	-12.3519
12	-12.3526
▁NYAB	-12.3531
▁Paum	-12.3532
men	-12.3532
▁nthw	-12.3534
and	-12.3534
▁peblub	-12.3536
nh	-12.3539
arch	-12.354
uaj	-12.3541
▁speaker	-12.3544
muC	-12.355
Tek	-12.3553
▁sick	-12.3556
▁schedule	-12.3557
▁LOV	-12.3564
▁Tsoob	-12.3566
▁Tshoob	-12.3568
▁Act	-12.3572
!!!!!!!!!!!!!!!!	-12.3576
NR	-12.3585
xiong	-12.3586
▁Tec	-12.3587
▁Secretar	-12.36
rabang	-12.3605
▁Hmoog	-12.3605
▁KL	-12.3617
▁fine	-12.3621
▁Take	-12.3623
▁collect	-12.3626
▁ba	-12.3628
▁5%	-12.3631
▁corrupt	-12.3631
▁ntsaub	-12.3634
▁Mormon	-12.3639
▁verify	-12.3639
▁iliki	-12.364
▁NPAJ	-12.364
▁danger	-12.364
▁catholic	-12.364
▁input	-12.364
▁scientific	-12.364
▁FAIB	-12.364
▁memtoj	-12.364
▁DNR	-12.364
▁Havzoov	-12.3641
▁often	-12.3642
▁manager	-12.3642
▁vientiane	-12.3643
▁parties	-12.3643
▁Lajhais	-12.3643
Lql	-12.3643
▁Laugtxaw	-12.3643
▁daughter	-12.3644
sijhawm	-12.3645
▁separate	-12.3646
▁Np	-12.3646
▁proclaim	-12.3647
▁700	-12.3647
▁Ncai	-12.3647
▁puavpheej	-12.365
▁Oo	-12.3651
▁FAJ	-12.3653
▁tiny	-12.3657
▁pasdej	-12.3658
ETC	-12.3658
hnov	-12.3661
▁xyaa	-12.3667
▁Kangaroo	-12.3668
url	-12.3683
image	-12.3687
▁Tshe	-12.3695
Southeast	-12.3695
▁pu	-12.37
given	-12.3702
▁TSIV	-12.3702
nyom	-12.3705
▁51	-12.3707
▁nraj	-12.3719
▁swv	-12.372
tshaj	-12.373
▁billion	-12.3734
▁:"	-12.3739
nyab	-12.3739
▁Zaub	-12.3741
▁MAV	-12.3742
▁Pev	-12.3742
▁Ciab	-12.3745
▁BEE	-12.3749
▁xia	-12.3752
▁red	-12.3758
▁ameska	-12.3759
ating	-12.3768
pwm	-12.3769
▁Tai	-12.377
▁Second	-12.3775
▁background	-12.3775
▁virgin	-12.3775
▁wikipedia	-12.3775
▁TxawjvamYia	-12.3775
▁Sinwung	-12.3775
▁yopg	-12.3776
▁kpnp	-12.3778
▁khawvkoob	-12.3779
▁THAB	-12.378
▁OZ	-12.378
▁Kevin	-12.3781
▁PLAM	-12.3783
▁npawm	-12.3785
phav	-12.3785
HMOOB	-12.3786
▁ABC	-12.3787
aung	-12.3787
▁lisnom	-12.3788
▁blue	-12.3788
▁dlab	-12.3788
▁85	-12.3789
txawg	-12.379
▁Nyawm	-12.3795
▁Ntsum	-12.38
▁CD	-12.3802
ntsej	-12.3802
ntsib	-12.3803
ngfu	-12.3804
▁yours	-12.3804
aws	-12.3808
▁converter	-12.381
pog	-12.381
▁memor	-12.3814
WS	-12.3824
▁ram	-12.3831
▁Defens	-12.3832
▁states	-12.3835
▁unite	-12.3837
▁$$$$	-12.3838
▁ml	-12.3839
▁plas	-12.384
▁videos	-12.3844
▁TL	-12.3856
chim	-12.3865
▁Thaij	-12.3872
rel	-12.3874
▁Taug	-12.3875
▁zaw	-12.3883
▁civil	-12.3893
▁Pi	-12.3893
▁ndl	-12.3897
▁hahahah	-12.3907
▁adult	-12.3908
▁71	-12.3909
▁Korea	-12.3909
▁FIRST	-12.3911
▁imagine	-12.3911
▁HELP	-12.3912
▁Aderhol	-12.3912
▁republican	-12.3912
▁XXXXXXXXXXXXXX	-12.3912
▁Vega	-12.3912
▁Jack	-12.3912
▁comprehend	-12.3912
▁Welcome	-12.3912
▁Poob	-12.3912
▁phi	-12.3913
▁permanent	-12.3914
▁lobby	-12.3915
▁NIM	-12.3915
▁zaab	-12.3916
▁KWVTIJ	-12.3918
▁CUA	-12.392
▁MAB	-12.3921
▁near	-12.3922
▁thailand	-12.3922
▁fws	-12.3923
▁pla	-12.3926
▁cool	-12.3928
▁rob	-12.3929
▁Mesliska	-12.393
▁asia	-12.3931
▁----	-12.3935
▁LEGAL	-12.3936
▁complaint	-12.3938
▁nplhu	-12.394
▁LOVE	-12.3944
▁Muag	-12.3945
eemouachaofa	-12.3949
▁Ta	-12.3961
▁begin	-12.3961
▁Nqai	-12.3977
▁PAM	-12.3984
xx	-12.3985
▁caused	-12.3996
▁TAUS	-12.3999
xob	-12.4
▁Phajhau	-12.4001
▁mobx	-12.4002
▁46	-12.4005
EN	-12.4005
▁Tig	-12.4007
OJ	-12.4011
▁certificate	-12.4014
▁ru	-12.4021
▁Tawg	-12.4025
▁knowing	-12.4028
▁art	-12.4029
▁NAJ	-12.403
▁dawv	-12.4035
▁naim	-12.4041
▁NROV	-12.405
▁street	-12.405
▁applie	-12.405
▁activist	-12.405
▁paragraph	-12.4051
▁CHEEM	-12.4051
▁resistance	-12.4051
▁lunch	-12.4051
▁BKK	-12.4051
▁Medicine	-12.4051
▁ah	-12.4051
▁NYUAG	-12.4052
▁Eau	-12.4052
▁shame	-12.4052
▁Ntsuj	-12.4053
▁TAV	-12.4054
▁round	-12.4054
oom	-12.4055
▁sensitiv	-12.4055
▁grant	-12.4058
▁graduate	-12.4058
▁ndlag	-12.4061
range	-12.4062
▁yawmsaub	-12.4064
▁kiam	-12.4065
▁qhovchaw	-12.4069
▁MOUA	-12.407
▁Cuag	-12.4071
uary	-12.4071
▁txhawm	-12.4071
▁NTSUAG	-12.4074
▁TA	-12.4078
▁Haib	-12.408
inner	-12.408
▁application	-12.4095
▁asking	-12.4096
liaj	-12.4099
▁Hong	-12.41
set	-12.4113
▁npuam	-12.4113
ya	-12.4114
usa	-12.4114
▁Vic	-12.4117
▁Hinh	-12.413
unity	-12.4136
▁tsws	-12.4143
cub	-12.4145
age	-12.4145
▁victim	-12.4147
▁BIG	-12.4153
▁Nis	-12.4153
▁scholar	-12.4158
▁Home	-12.4166
AAB	-12.4174
▁propert	-12.4176
▁pain	-12.4179
▁delete	-12.4181
▁dom	-12.4182
▁Phagna	-12.4191
▁Earth	-12.4191
▁morning	-12.4191
▁SCHOOL	-12.4192
▁intelligence	-12.4192
▁NTXIM	-12.4192
▁forgot	-12.4192
▁priest	-12.4192
▁monkey	-12.4193
▁NYIAG	-12.4195
nouvong	-12.4195
▁!!!!!!	-12.4196
▁Like	-12.4197
▁commie	-12.4198
▁central	-12.4199
▁CAB	-12.4201
Lqh	-12.4204
▁nurse	-12.4205
▁loom	-12.4205
huav	-12.421
orado	-12.4213
OM	-12.4217
=3	-12.4222
▁yib	-12.4223
▁nqaaj	-12.4226
ton	-12.4229
▁huua	-12.4232
▁emotional	-12.4234
▁)....	-12.4242
▁dlaig	-12.4244
huv	-12.4252
▁Pim	-12.4255
▁Lom	-12.4256
▁content	-12.4257
▁Nos	-12.4262
▁months	-12.4267
older	-12.4276
loog	-12.4277
▁nor	-12.4277
▁Pw	-12.428
▁scientist	-12.4288
▁dem	-12.4291
▁Ny	-12.4296
▁note	-12.4303
▁follower	-12.4303
Indigenous	-12.4304
▁$40	-12.4306
▁Pastor	-12.4306
ntse	-12.4315
DAY	-12.4317
rought	-12.4318
▁??????	-12.4318
▁qej	-12.4324
▁kuvlub	-12.4327
acific	-12.4333
▁Vow	-12.4333
▁AMELIVKA	-12.4334
▁Txheev	-12.4334
▁favorite	-12.4334
▁Taamsim	-12.4335
▁NTIAJ	-12.4335
▁Sayasith	-12.4335
▁intend	-12.4336
▁react	-12.4337
▁Tsaib	-12.4338
▁kajntug	-12.4338
47	-12.4339
▁spend	-12.4339
▁location	-12.4341
▁zomzaw	-12.4342
▁ruj	-12.4345
▁Xim	-12.4348
▁cher	-12.435
kav	-12.4351
▁ywjsiab	-12.4355
▁LAUG	-12.4356
▁Dlub	-12.4357
off	-12.4359
▁learning	-12.4368
▁Huv	-12.4368
▁vimkuv	-12.4373
34	-12.4378
luaj	-12.4387
▁kais	-12.439
▁Hma	-12.439
video	-12.4399
long	-12.4399
paid	-12.441
▁NKAUJSTP	-12.4412
▁TUBNTSUAGHMOOB	-12.4419
▁details	-12.4419
▁describe	-12.442
▁TswvYi	-12.442
Xyoo	-12.4421
▁zogli	-12.4421
▁PS	-12.4424
▁trash	-12.443
▁Ci	-12.4435
dao	-12.4441
▁XUB	-12.4442
▁kai	-12.4443
IE	-12.4452
▁TSHO	-12.4455
▁gun	-12.4461
▁COMMIE	-12.4464
wanted	-12.4465
uLi	-12.4471
moobleeg	-12.4473
emember	-12.4477
hlwb	-12.4478
▁kv	-12.4479
▁assumption	-12.4479
▁Chairman	-12.4479
▁uniform	-12.4479
▁TXUJ	-12.4479
▁RIAM	-12.4479
▁Union	-12.4479
▁TSIAJ	-12.4481
▁Tsaam	-12.4482
▁zero	-12.4483
▁phajhauj	-12.4484
▁NTSHAV	-12.4484
▁nqaum	-12.4485
▁npaab	-12.4485
rs	-12.449
▁sacrame	-12.4492
▁TOJ	-12.4492
khiav	-12.4493
▁Khav	-12.4494
▁career	-12.4499
▁Twv	-12.4499
upon	-12.4499
▁TIV	-12.4501
▁pliab	-12.4505
▁hide	-12.4505
▁nij	-12.4508
▁Teg	-12.4511
tally	-12.4512
▁ntsho	-12.4513
▁sentence	-12.4514
▁vom	-12.4519
qub	-12.452
▁vajhmoob	-12.4523
unknown	-12.4527
▁vis	-12.453
▁suffer	-12.453
▁wise	-12.4532
KM	-12.4536
AUL	-12.4546
▁rumors	-12.4546
▁appoint	-12.455
hl	-12.4553
ITY	-12.4566
▁apple	-12.458
taug	-12.4583
▁nhria	-12.4584
▁Khe	-12.4586
▁fellow	-12.4591
▁bylaw	-12.4592
▁Lak	-12.4594
XX	-12.4599
▁vaag	-12.4602
▁!.....	-12.4602
▁sue	-12.4602
▁cau	-12.4608
▁Western	-12.4608
tsawv	-12.4611
aGF	-12.4612
kam	-12.4613
▁econom	-12.4614
tiab	-12.4615
io	-12.4617
▁WHITE	-12.4626
▁apolog	-12.4626
▁NKIM	-12.4626
▁fault	-12.4626
▁guest	-12.4627
▁TSHEB	-12.4627
▁$$$	-12.4627
▁TSHOOB	-12.4629
▁wives	-12.463
▁sleep	-12.463
▁subtuam	-12.463
▁chapter	-12.4631
▁zawj	-12.4632
▁nqhes	-12.4635
▁channel	-12.4635
▁aware	-12.4639
▁Kuab	-12.4641
▁oppose	-12.4643
▁dovca	-12.4643
▁Sayabour	-12.4644
pdf	-12.4644
▁180	-12.4645
▁yaag	-12.4646
came	-12.4646
txhoov	-12.4653
▁thaumkuv	-12.4657
▁nyaus	-12.466
▁Meng	-12.4662
▁Phan	-12.4666
ad	-12.4667
vaaj	-12.4668
▁ice	-12.4668
▁ordina	-12.467
txiag	-12.4676
mong	-12.4678
▁therap	-12.4683
▁lhi	-12.4684
▁Yau	-12.4687
▁HS	-12.4688
LFF	-12.4697
▁argue	-12.4699
▁Vajhmoob	-12.4706
▁tamsi	-12.4708
▁Xiengkhoua	-12.4711
▁TK	-12.472
VP	-12.4721
ithay	-12.4726
IV	-12.4736
▁mais	-12.474
▁bark	-12.4749
▁Vu	-12.4749
▁MEO	-12.475
▁nrhau	-12.4755
ily	-12.4756
faab	-12.4757
▁Lim	-12.4761
▁SE	-12.4763
▁Xou	-12.4768
▁Than	-12.4771
▁Health	-12.4771
▁pluam	-12.4772
▁COURT	-12.4775
▁Hartwi	-12.4775
▁OTV	-12.4776
▁mistress	-12.4776
▁mesnyuam	-12.4776
▁BIBLE	-12.4776
▁CHIJ	-12.4776
▁desire	-12.4776
▁expression	-12.4776
▁MOOG	-12.4776
▁TXWM	-12.4776
▁Sisi	-12.4777
▁nyablaaj	-12.4777
▁prejudice	-12.4777
▁NRAB	-12.4777
▁NTSEJ	-12.4778
▁cancel	-12.4778
=1&	-12.4778
▁kingdom	-12.4779
▁LAWB	-12.478
▁motel	-12.478
▁---------	-12.4784
▁LAUD	-12.4784
▁Village	-12.4784
▁Kaw	-12.4784
town	-12.4785
▁Loom	-12.4786
category	-12.4787
▁THEN	-12.4787
▁nploog	-12.4787
▁LF	-12.4789
▁plw	-12.479
/?	-12.4791
raham	-12.4792
▁Thab	-12.4793
▁Yaim	-12.4793
4&	-12.4793
npais	-12.4796
▁Am	-12.4797
▁hlaws	-12.4801
▁ncawg	-12.4803
▁Raw	-12.4804
▁produce	-12.4809
Lqb	-12.4813
▁faim	-12.4815
▁TSIJ	-12.4818
ONEY	-12.482
▁coog	-12.4825
▁ntaa	-12.484
▁MEAN	-12.4844
▁MEJ	-12.4851
▁fighter	-12.4853
tawv	-12.4858
▁HmoobVaj	-12.4859
mem	-12.4859
tshuaj	-12.486
▁xaib	-12.486
▁wa	-12.487
search	-12.4874
▁extra	-12.4893
▁khuas	-12.4909
LE	-12.4912
▁jack	-12.4915
▁TSUA	-12.4916
yaj	-12.4917
pawj	-12.4919
▁mho	-12.4924
oalition	-12.4926
▁contribution	-12.4927
▁pride	-12.4927
▁Wednesday	-12.4927
ghia	-12.4928
▁Pejxeem	-12.4928
▁testify	-12.4928
alentine	-12.4928
▁alphabet	-12.4928
▁perspective	-12.4928
▁FREEDOM	-12.4928
▁kong	-12.4929
▁ENGLISH	-12.4929
▁Namphong	-12.4929
▁Federal	-12.4929
▁Tank	-12.4929
▁STD	-12.493
▁PLAWV	-12.493
2000	-12.493
▁vinai	-12.4932
▁!!,	-12.4932
▁npleg	-12.4932
▁quick	-12.4933
▁1966	-12.4935
▁miskas	-12.4937
▁kevxaav	-12.4939
▁askiv	-12.4941
▁disease	-12.4944
ph	-12.4947
▁thuav	-12.4948
▁ntshia	-12.495
▁nyhia	-12.4956
▁nthos	-12.4958
▁phm	-12.4959
UCH	-12.496
▁rhe	-12.4963
pic	-12.4965
mov	-12.4967
▁billions	-12.4969
▁49	-12.497
▁NAV	-12.4971
▁poos	-12.4974
▁hn	-12.4975
▁Nqi	-12.4977
▁npu	-12.4978
ll	-12.4978
▁Taag	-12.4983
tooj	-12.4985
ct	-12.4992
▁bar	-12.4996
▁fix	-12.4996
▁Liv	-12.4998
txob	-12.5
▁oy	-12.5003
▁ged	-12.5007
▁Thom	-12.501
13	-12.5015
guC	-12.502
▁khai	-12.5036
▁origin	-12.5036
▁Men	-12.5037
▁ntximli	-12.5041
▁npaas	-12.5048
xico	-12.5053
▁3000	-12.5055
▁Refugee	-12.5059
▁daib	-12.506
wjpheej	-12.5061
▁PHAB	-12.5062
phom	-12.5066
▁data	-12.5073
ATION	-12.5075
day	-12.5075
ca	-12.5076
▁loyal	-12.5079
▁conversation	-12.5081
▁PAWG	-12.5081
▁reunion	-12.5081
▁NPAM	-12.5082
▁translation	-12.5082
▁festival	-12.5082
▁counter	-12.5082
▁broken	-12.5082
▁observation	-12.5082
▁xabdia	-12.5082
hwv	-12.5083
▁female	-12.5084
▁1997	-12.5084
▁phlis	-12.5084
▁productive	-12.5085
▁tshiav	-12.5085
▁TAWB	-12.5087
▁Theor	-12.5088
tshoob	-12.5092
▁TSHEE	-12.5099
▁invit	-12.5101
▁tsaaj	-12.5101
▁NRHO	-12.5102
▁foot	-12.5104
▁kick	-12.5105
▁ntom	-12.5108
▁exchange	-12.512
▁nraw	-12.5124
▁reasoning	-12.5129
19	-12.5129
imhiam	-12.5131
▁qaa	-12.5133
LHUB	-12.5136
▁Kee	-12.5137
ajyeeb	-12.5138
▁NTSIA	-12.5143
Lqn	-12.5145
▁muav	-12.5145
▁yia	-12.5146
▁HR	-12.5148
ought	-12.5148
▁nations	-12.5152
tam	-12.5153
ntag	-12.5157
▁AN	-12.5164
loob	-12.5169
▁dedicate	-12.5171
▁seeb	-12.5174
MEKAS	-12.5175
▁yard	-12.5177
▁Pum	-12.5179
▁WANT	-12.5186
▁khij	-12.5187
▁Small	-12.5187
▁?....	-12.519
▁KAW	-12.5193
phone	-12.5193
▁Hahahahahahaha	-12.5195
▁xyau	-12.5196
▁195	-12.5197
▁drs	-12.5199
ga	-12.5201
▁nphob	-12.5206
▁mia	-12.5209
PX	-12.5212
▁finish	-12.5224
▁Sex	-12.5235
▁tejno	-12.5235
▁khus	-12.5236
▁Representative	-12.5237
▁hundred	-12.5237
▁particular	-12.5237
▁compound	-12.5237
▁River	-12.5237
▁throw	-12.5237
▁deport	-12.5237
▁VUAG	-12.5237
▁PAJCAI	-12.5237
▁STUPID	-12.5237
▁turkey	-12.5238
▁Point	-12.5238
▁concept	-12.5238
▁PLUAG	-12.5238
▁Uablag	-12.5238
▁catch	-12.5239
▁firm	-12.5239
▁BLOGLIAB	-12.524
▁Foun	-12.524
▁Tobe	-12.524
Hamilton	-12.5241
▁ja	-12.5241
2001	-12.5241
▁nkuj	-12.5242
tab	-12.5243
▁groom	-12.5244
▁thaag	-12.5244
▁TSWJ	-12.5244
vu	-12.5246
▁1999	-12.5246
▁Blogteb	-12.5247
▁farmer	-12.5247
▁79	-12.5249
▁TIG	-12.5249
rua	-12.5254
▁plav	-12.5256
▁rice	-12.5256
▁Nees	-12.5259
▁harmon	-12.5261
▁$4	-12.5263
▁struggle	-12.5267
▁asian	-12.5271
▁WB	-12.5274
▁hahahahah	-12.5276
▁newspaper	-12.5276
▁nploojsiab	-12.5277
▁VM	-12.5277
1967	-12.5279
▁accident	-12.5289
▁meka	-12.529
▁died	-12.529
▁ntseej	-12.529
tawb	-12.5295
▁NTI	-12.5297
▁vaugh	-12.5298
Yeej	-12.5304
▁tone	-12.5308
▁Sang	-12.5313
txheeb	-12.5315
pub	-12.533
▁Chuc	-12.5331
ur	-12.5343
▁==	-12.5344
▁Nra	-12.5358
TER	-12.5372
plab	-12.5381
ON	-12.5384
43	-12.5387
▁fantas	-12.5388
▁duali	-12.539
▁LONG	-12.5395
▁Carolina	-12.5396
▁conclude	-12.5396
▁glad	-12.5396
▁Xaivnceb	-12.5396
▁holiday	-12.5396
▁absolute	-12.5397
▁Ntshaw	-12.5398
quC	-12.5399
▁consult	-12.5399
▁Txawv	-12.5399
thuam	-12.54
▁Texa	-12.5401
▁Khuam	-12.5401
▁HAJ	-12.5403
▁vajncuab	-12.5404
▁Yej	-12.5406
▁dictionary	-12.541
LHI	-12.5412
rg	-12.5422
▁HLI	-12.5425
▁ntsu	-12.5427
▁Burm	-12.5429
▁vo	-12.5435
depression	-12.5437
▁leejtxiv	-12.5445
▁Hla	-12.5447
▁HERE	-12.5448
▁perform	-12.545
▁Van	-12.5452
▁phum	-12.5457
thab	-12.5479
▁sun	-12.5488
thooj	-12.5495
54	-12.5501
▁ntsoos	-12.5504
▁Thos	-12.5507
▁worse	-12.5513
▁spread	-12.5516
▁LES	-12.5519
▁bigge	-12.5528
▁views	-12.553
▁gang	-12.5532
▁LEADER	-12.5538
▁rep	-12.5538
▁relate	-12.5541
▁hin	-12.5545
▁isn	-12.5546
▁duj	-12.5548
lias	-12.5551
▁56	-12.5555
npua	-12.5557
▁bangkok	-12.5557
▁discipline	-12.5557
▁pocket	-12.5557
▁Beemoua	-12.5557
▁weakness	-12.5557
▁Professor	-12.5557
▁CEEV	-12.5558
▁$600	-12.5558
▁audience	-12.5558
▁MASTER	-12.5559
▁rally	-12.5559
▁hatred	-12.5559
▁tittle	-12.5559
▁XOV	-12.5559
▁NRAUG	-12.5559
▁Tsawb	-12.556
▁thru	-12.5561
▁nyaablaaj	-12.5561
▁DejNts	-12.5561
▁pobtaw	-12.5563
▁fuaj	-12.5564
▁MONG	-12.5567
▁thum	-12.5567
▁qh	-12.557
▁tyog	-12.557
▁Forum	-12.5574
▁Port	-12.5575
▁vuas	-12.5576
▁tiom	-12.5577
▁lbs	-12.5578
▁tshawv	-12.5579
▁kutaw	-12.5579
▁Nod	-12.5587
▁Ntujka	-12.5588
WHP	-12.5591
sin	-12.5595
▁ND	-12.5604
▁yub	-12.5612
▁QAU	-12.5613
lee	-12.5613
hai	-12.5614
▁Khamta	-12.5621
▁priorit	-12.5623
▁Moo	-12.5624
▁tubntxhais	-12.5642
▁ikuv	-12.5643
▁Ntxoo	-12.5645
▁20%	-12.5645
▁Will	-12.5647
LAND	-12.565
▁43	-12.565
▁der	-12.5651
▁tsislam	-12.5652
ruag	-12.5652
▁ncee	-12.5652
▁Nplia	-12.5659
▁phia	-12.5663
▁yum	-12.5664
HERE	-12.5667
▁ntshoo	-12.5668
▁tshawj	-12.5668
tsov	-12.5674
NY	-12.5674
▁Kaison	-12.5676
▁review	-12.5679
tis	-12.5683
▁SC	-12.5686
▁fes	-12.5691
AKA	-12.5691
▁pr	-12.5696
▁zi	-12.5698
▁kablia	-12.5704
▁jhai	-12.5705
53	-12.5707
▁Nkau	-12.5708
nram	-12.5709
94	-12.5712
tLS	-12.5719
▁universe	-12.5721
▁floor	-12.5721
▁NKAUM	-12.5721
▁NPEEG	-12.5721
▁Hloov	-12.5722
▁deliver	-12.5722
thong	-12.5722
▁TAKE	-12.5722
▁pwv	-12.5722
▁clinic	-12.5722
▁Interesting	-12.5723
▁obama	-12.5723
▁disappear	-12.5723
▁Clair	-12.5723
▁village	-12.5724
▁communication	-12.5724
▁dvd	-12.5724
▁Tsaug	-12.5725
▁Ba	-12.5725
▁juror	-12.5725
▁books	-12.5726
▁Mayor	-12.5726
▁cwjsoqua	-12.5726
▁Nraj	-12.5726
▁drug	-12.5727
▁Asmelika	-12.5727
kli	-12.5728
▁milwaukee	-12.5728
RUAM	-12.5732
▁1998	-12.5733
▁$3000	-12.5734
▁READ	-12.5735
tOC	-12.5739
▁hunter	-12.574
▁nqas	-12.5742
khong	-12.5743
▁heevx	-12.5744
▁zoosab	-12.575
▁LIFE	-12.575
▁killer	-12.5754
▁tubntsuag	-12.5755
▁wear	-12.5756
▁secretar	-12.5756
aij	-12.5758
puas	-12.5758
=9	-12.576
▁taa	-12.576
▁THai	-12.5764
kaus	-12.5766
▁khosiab	-12.577
asmoos	-12.5777
▁sexy	-12.5777
▁xubntia	-12.5777
▁75%	-12.5783
xfree	-12.5787
▁Dejdaw	-12.5792
),	-12.5797
▁eliminate	-12.5799
▁npeeg	-12.5803
▁topics	-12.5803
▁tri	-12.5805
KEV	-12.5807
iuC	-12.5814
noog	-12.5815
▁kao	-12.5819
view	-12.582
▁access	-12.5825
nyiag	-12.583
uk	-12.5834
▁mess	-12.5836
▁Ceevfa	-12.5844
ved	-12.585
ino	-12.5852
meo	-12.5856
nce	-12.5857
ach	-12.586
giving	-12.5866
leC	-12.587
▁commit	-12.5882
▁regime	-12.5884
▁JESUS	-12.5888
▁ZERO	-12.5888
▁nowaday	-12.5888
▁LOMZEM	-12.5888
▁Enjoy	-12.5888
▁section	-12.5888
▁FOOM	-12.5888
▁LEVEL	-12.5888
▁Hlwb	-12.5888
▁ZAIS	-12.5888
▁CAWV	-12.5889
▁phrase	-12.5889
▁independent	-12.5889
▁reaction	-12.5889
▁Ncaimtseemnco	-12.589
▁HIM	-12.589
▁txavtxim	-12.5891
▁reward	-12.5892
▁NOOG	-12.5892
▁nchaav	-12.5894
▁producer	-12.5898
▁OLD	-12.5898
▁RS	-12.59
ds	-12.5903
▁....,	-12.5906
▁Smi	-12.5909
▁diaj	-12.5911
Our	-12.5911
▁kaim	-12.5915
▁burn	-12.5915
olf	-12.5918
▁Qub	-12.5919
▁ibzaug	-12.5926
▁politically	-12.5927
ian	-12.593
▁74	-12.5939
▁SIA	-12.5945
▁Npab	-12.595
▁zejzo	-12.5951
▁nqhua	-12.5952
▁Sun	-12.5959
09	-12.5962
▁yoob	-12.5968
dministration	-12.5968
side	-12.5977
▁reli	-12.5986
▁sawd	-12.5996
UG	-12.5998
classified	-12.6001
▁evolve	-12.6013
▁UNITE	-12.6013
dlaab	-12.6018
xa	-12.6018
▁exception	-12.6023
▁addition	-12.6026
▁Nimno	-12.6028
▁sent	-12.6033
▁xabmai	-12.6035
▁AID	-12.6039
▁De	-12.6039
ak	-12.604
▁pajpaw	-12.6044
▁Nkaujhmoob	-12.6048
▁Npoj	-12.6049
▁Nin	-12.6053
▁Meem	-12.6055
▁Vaugh	-12.6055
▁COMPUTER	-12.6057
▁kitchen	-12.6057
▁difficult	-12.6057
▁iraq	-12.6057
▁previous	-12.6057
▁dangerous	-12.6057
▁Dibiab	-12.6057
▁mormon	-12.6057
▁Quaspuj	-12.6057
▁planning	-12.6058
nger	-12.6058
▁naikhu	-12.6058
WV	-12.6058
▁Vaag	-12.6059
▁cibnyeej	-12.606
▁afr	-12.6061
▁OH	-12.6062
▁HWM	-12.6062
▁tsaag	-12.6063
▁hiavtxwv	-12.6068
▁pull	-12.6069
khaum	-12.6071
▁naws	-12.6073
▁Puav	-12.6073
▁Nang	-12.6074
VERY	-12.6075
▁txhog	-12.6076
ier	-12.6077
▁Tes	-12.6078
▁Daws	-12.6078
▁nraws	-12.6084
▁vajlug	-12.6088
▁blua	-12.6091
▁Hlau	-12.6092
▁determine	-12.6096
▁oil	-12.6096
yob	-12.6097
▁txhau	-12.6098
ory	-12.6099
'	-12.6099
▁rav	-12.61
Lqq	-12.6101
▁manage	-12.6105
▁daily	-12.6109
aw	-12.6111
yang	-12.6112
▁CAUS	-12.6117
▁Rhaw	-12.6123
▁TSOO	-12.6125
xov	-12.6125
▁Wahou	-12.6128
▁yawb	-12.613
▁Son	-12.6131
nco	-12.614
▁material	-12.6143
▁suicid	-12.6148
▁Zaa	-12.6159
▁nrua	-12.616
▁MAKE	-12.6163
▁qhu	-12.6164
shua	-12.6181
Saub	-12.6182
▁hahhahaha	-12.6183
▁cat	-12.6187
laaj	-12.6188
▁Py	-12.619
ine	-12.619
▁tabmee	-12.6193
▁Meska	-12.6196
tsaig	-12.6199
all	-12.6205
▁plhom	-12.6206
▁religions	-12.621
▁Never	-12.6217
▁Uali	-12.622
▁Pak	-12.6221
▁evolution	-12.6221
▁oui	-12.6227
amphong	-12.6227
▁WOULD	-12.6229
▁satisfy	-12.6229
▁Regard	-12.6229
▁mainstream	-12.623
▁TSHAIB	-12.623
▁Conference	-12.623
▁FRESNO	-12.623
▁Lynhiavu	-12.623
▁PHIAJ	-12.623
▁window	-12.6231
TES	-12.6231
▁condemn	-12.6231
▁TRUE	-12.6231
▁BAD	-12.6232
▁Father	-12.6233
▁HSP	-12.6233
▁zaubmov	-12.6233
▁1950	-12.6233
▁ncaa	-12.6234
▁development	-12.6234
▁Xyuam	-12.6236
▁Thorps	-12.6236
▁Khib	-12.6237
thana	-12.6238
▁math	-12.624
▁lawn	-12.6244
▁huag	-12.6245
▁Thim	-12.6246
times	-12.6246
▁rescue	-12.6253
daus	-12.6258
▁Lia	-12.6259
il	-12.626
651	-12.626
▁nkab	-12.6265
▁cwb	-12.6271
▁bat	-12.6273
▁Vaajm	-12.6274
▁qaim	-12.6274
▁doc	-12.6274
▁nplaub	-12.6278
AIB	-12.6281
▁plov	-12.6281
verage	-12.6282
ghais	-12.6282
▁beeveev	-12.6287
ntug	-12.629
log	-12.6291
▁yawj	-12.6292
▁blaj	-12.6304
chaws	-12.6307
▁LET	-12.6309
▁reduce	-12.6309
▁MHoob	-12.6311
NCj	-12.6313
▁54	-12.6322
▁YOO	-12.6325
tu	-12.6329
bee	-12.6333
nyuam	-12.6335
▁kad	-12.6342
▁sawvdaw	-12.6344
▁mammus	-12.6348
evelopment	-12.6353
them	-12.6353
▁COUNTR	-12.6353
ate	-12.6356
mab	-12.6357
▁region	-12.6358
▁Khuv	-12.6359
night	-12.6363
▁Tak	-12.6363
▁Mouano	-12.6363
DY	-12.6364
LEASE	-12.6365
LWM	-12.6366
▁nplhi	-12.637
▁nchos	-12.6372
▁ntho	-12.6373
▁thaumkawg	-12.6382
▁resource	-12.6395
▁deeg	-12.6395
west	-12.6395
Xeeb	-12.6397
▁pooj	-12.6398
KIAG	-12.6399
▁TURN	-12.6405
▁mountain	-12.6405
▁allegation	-12.6405
▁TXHEEB	-12.6405
▁competition	-12.6405
▁Kingdom	-12.6406
▁intent	-12.6406
▁thoobtsib	-12.6406
▁treatment	-12.6406
WORLD	-12.6406
▁EARTH	-12.6406
▁GROUP	-12.6406
▁NTXIAS	-12.6406
▁MUAM	-12.6406
▁Dara	-12.6407
LqX	-12.6408
▁PUJ	-12.6409
▁---------------	-12.6409
▁track	-12.6411
▁LAB	-12.6412
▁nthawv	-12.6412
▁Yaag	-12.6413
▁Did	-12.6414
▁Daum	-12.6415
▁hnag	-12.6418
▁rate	-12.6418
▁plain	-12.6419
albums	-12.6422
▁ntob	-12.6422
▁Base	-12.6423
▁ntxhe	-12.6425
▁Hnia	-12.6425
▁Oop	-12.6425
▁chimx	-12.6427
▁HTT	-12.6431
▁Nyaw	-12.6432
rhuav	-12.6433
hiangmai	-12.6439
▁Ntaus	-12.6441
▁grave	-12.6444
TEB	-12.6444
▁nyoj	-12.6445
▁gt	-12.6446
▁telepho	-12.645
cawv	-12.6451
▁QH	-12.6453
▁inform	-12.6453
▁PAY	-12.646
sau	-12.6462
▁Xis	-12.6466
▁spoke	-12.647
▁MIS	-12.6474
▁67	-12.6475
lav	-12.6476
▁THING	-12.6485
▁tsooj	-12.6493
web	-12.651
pes	-12.6514
▁1500	-12.6521
▁heat	-12.6522
▁hlas	-12.6523
khoom	-12.6523
▁-----	-12.653
▁nrhw	-12.6532
HMOOBRUAM	-12.6533
TRE	-12.6541
▁Mivk	-12.6542
▁relative	-12.6548
▁devil	-12.6548
UV	-12.6548
kim	-12.6553
kawv	-12.6554
▁plaj	-12.6564
lliance	-12.6565
▁WIS	-12.6566
AIV	-12.6566
▁mon	-12.6573
nus	-12.658
▁perhap	-12.6584
▁Republican	-12.6584
▁Region	-12.6585
▁dark	-12.6585
▁buffalo	-12.6585
enant	-12.6587
▁LAKE	-12.6587
▁Sac	-12.6588
▁trial	-12.6589
▁convince	-12.659
ming	-12.659
▁analyze	-12.6591
▁embass	-12.6591
▁naisphoo	-12.6592
▁Keo	-12.6594
▁nkuav	-12.6597
▁Phwvnyaw	-12.6599
ka	-12.6603
▁fau	-12.6603
ILL	-12.6603
▁KAUB	-12.6604
▁thug	-12.6605
▁critical	-12.6609
▁consequences	-12.6612
▁".....	-12.6617
▁osh	-12.6617
▁Vision	-12.662
▁tactic	-12.6626
▁kia	-12.6627
▁Lan	-12.6629
aus	-12.6631
/2010	-12.6633
▁whom	-12.6638
nhub	-12.6644
▁TI	-12.6645
▁Us	-12.6651
▁155	-12.6653
uneral	-12.6653
▁mws	-12.6654
▁hahahhahaha	-12.6654
▁txhaav	-12.6654
▁han	-12.6657
▁cuamtshua	-12.6657
▁Khong	-12.6662
▁Ok	-12.6665
show	-12.6681
ike	-12.6687
lu	-12.6698
▁duaj	-12.6702
▁ncov	-12.6702
RY	-12.6714
pw	-12.6715
kuab	-12.6716
▁ntshab	-12.6716
lig	-12.6717
ling	-12.6719
▁Haj	-12.672
▁tournament	-12.6725
ure	-12.6727
ical	-12.673
▁Leaders	-12.6734
▁:):)	-12.6734
▁txhiam	-12.6735
▁Nan	-12.6735
▁lwb	-12.6742
toua	-12.6747
▁australia	-12.6763
▁valid	-12.6764
auv	-12.6764
▁hohoho	-12.6765
▁apart	-12.6765
▁SECRET	-12.6765
▁survey	-12.6765
▁elaborate	-12.6765
▁potential	-12.6765
▁NYHAV	-12.6765
liv	-12.6766
▁Luther	-12.6766
▁Islam	-12.6766
▁TXHAIS	-12.6766
▁Justice	-12.6766
▁Rhwv	-12.6766
▁attempt	-12.6766
▁DEEV	-12.6767
▁Txajdlis	-12.6768
▁virtual	-12.6768
▁ibtxhis	-12.6768
▁DAO	-12.6769
▁PAUM	-12.6769
▁KWS	-12.6769
▁nhav	-12.6769
▁extreme	-12.6769
▁NEES	-12.677
▁Rab	-12.6771
▁qoovsua	-12.6772
▁saibx	-12.6772
▁Women	-12.6773
▁HAIB	-12.6773
▁txhuax	-12.6775
▁Tiv	-12.6775
▁Pajcai	-12.6777
▁THIM	-12.6777
▁Heem	-12.6777
nees	-12.678
▁Ntshav	-12.6782
▁Xiam	-12.6784
▁JD	-12.6787
▁Npla	-12.6789
▁square	-12.679
▁86	-12.6791
▁nplais	-12.6793
ekong	-12.6794
▁Khaum	-12.6797
▁demonstrate	-12.68
▁diab	-12.6801
▁hrs	-12.6804
▁Tuav	-12.6805
▁wash	-12.6806
▁pojkoob	-12.6808
Pov	-12.6811
▁planet	-12.6813
▁gover	-12.6815
story	-12.6819
▁Pua	-12.6825
▁NK	-12.683
365	-12.6836
▁Abya	-12.6843
▁judgement	-12.6846
▁41	-12.6848
▁qhaab	-12.6855
▁reporter	-12.6855
▁81	-12.6857
▁$30	-12.6859
▁phee	-12.6861
YAWM	-12.6862
hiav	-12.687
▁cojdab	-12.687
nyiam	-12.6871
tsaam	-12.6872
▁Rep	-12.6874
▁host	-12.6877
▁twglos	-12.6879
▁70%	-12.6881
▁Yo	-12.6884
▁Npa	-12.6886
▁credibil	-12.689
kis	-12.6902
▁DID	-12.6904
pe	-12.6905
▁male	-12.6911
▁caivplaw	-12.6911
▁Ngu	-12.6917
▁Phom	-12.692
▁rhi	-12.6921
Yeeb	-12.6922
▁ncus	-12.6922
▁hahhahah	-12.6926
▁hahhaha	-12.6927
kabxev	-12.6927
▁Laws	-12.6928
riday	-12.693
▁heal	-12.693
▁ring	-12.693
▁SU	-12.6932
aG	-12.6933
ol	-12.6938
frm	-12.6948
▁Russia	-12.6948
▁hmmmmm	-12.6948
▁tshuag	-12.695
▁HAM	-12.695
▁VOTE	-12.695
▁Khamkeut	-12.695
▁confidential	-12.6951
▁client	-12.6951
▁HAVZOOV	-12.6951
▁executive	-12.6952
▁Tseev	-12.6952
▁Sai	-12.6952
▁humble	-12.6952
▁Mother	-12.6952
▁hnyuv	-12.6952
▁Hmooob	-12.6952
▁accurate	-12.6953
▁Blue	-12.6954
Lqw	-12.6954
▁KASMOOS	-12.6954
▁context	-12.6954
▁discrimination	-12.6954
▁Thajkhu	-12.6954
▁Nyajlaj	-12.6955
▁yrs	-12.6955
▁KEEJ	-12.6955
▁match	-12.6955
▁TXAIS	-12.6957
▁npws	-12.6957
tswb	-12.6959
zza	-12.6959
▁khev	-12.6959
▁division	-12.6961
▁COG	-12.6963
▁nkhawb	-12.6964
▁analysis	-12.6965
▁faav	-12.6967
klos	-12.6967
▁founder	-12.6968
▁Nkag	-12.6969
▁_	-12.697
▁structure	-12.697
▁evaluate	-12.6972
▁")	-12.6975
▁Club	-12.6976
▁Plawv	-12.6977
▁temporar	-12.6978
ning	-12.698
▁ill	-12.698
▁phlws	-12.6982
▁tasluaj	-12.6984
cab	-12.699
ao	-12.6991
eev	-12.6992
▁slave	-12.6996
▁COME	-12.6997
▁sports	-12.7001
EJ	-12.7002
▁dha	-12.7004
tic	-12.7005
▁libert	-12.701
kuam	-12.7013
AAV	-12.7015
ization	-12.7023
txiab	-12.7027
sistance	-12.703
▁PAG	-12.7036
▁nre	-12.7036
▁nrha	-12.7041
xecutive	-12.7042
▁Yawgnom	-12.7043
▁OO	-12.705
mo	-12.705
▁rhau	-12.7056
▁arm	-12.7059
▁multi	-12.7066
MUS	-12.7075
▁sort	-12.7077
yoog	-12.7081
savang	-12.7085
▁fast	-12.7091
▁Eve	-12.7093
txawv	-12.7104
▁skill	-12.7105
▁Keng	-12.7109
ping	-12.7109
▁nroglawv	-12.711
▁Cal	-12.713
▁thias	-12.7135
=5	-12.7136
▁bail	-12.7139
▁SEX	-12.7139
▁RELIGIO	-12.7139
▁Would	-12.7139
▁Great	-12.7139
▁score	-12.7139
▁software	-12.7139
▁plastic	-12.7139
my	-12.7139
▁VUB	-12.714
▁sweet	-12.714
▁appear	-12.714
▁viagra	-12.714
▁chu	-12.714
▁Csy	-12.714
▁!!!,	-12.7141
▁john	-12.7141
▁thob	-12.7142
▁committe	-12.7142
▁lajkam	-12.7143
▁STATE	-12.7143
▁blej	-12.7144
▁PAUV	-12.7144
▁FAMILY	-12.7144
▁driver	-12.7144
▁npliaj	-12.7145
▁effective	-12.7145
▁Mok	-12.7146
▁NRAUJ	-12.7147
▁skin	-12.7148
▁nrawj	-12.7149
▁BUFFALO	-12.7149
▁1981	-12.715
theeb	-12.7151
▁agreement	-12.7151
▁OVER	-12.7153
▁nthua	-12.7154
▁psychological	-12.7156
ffee	-12.7158
▁Fall	-12.7163
▁qhaim	-12.7168
OUS	-12.7169
▁shoppin	-12.717
▁Haha	-12.7171
▁PHWV	-12.7174
▁Taws	-12.7175
▁thimxa	-12.718
TS	-12.7184
zaus	-12.7185
▁haaj	-12.7187
▁TXIJ	-12.7188
▁taugkev	-12.719
▁symbol	-12.7191
/07	-12.7195
▁enter	-12.7205
▁cold	-12.721
▁Huaj	-12.7214
lag	-12.7221
▁Mu	-12.7221
▁ten	-12.7221
Farm	-12.7225
radio	-12.7228
chupheng	-12.723
▁neejtsaa	-12.7234
po	-12.7236
files	-12.7236
▁yd	-12.7236
▁thjia	-12.7238
buck	-12.724
▁dreams	-12.724
▁Un	-12.7241
▁LOOJCEE	-12.7242
itarian	-12.7243
▁CH	-12.7247
▁68	-12.7249
▁pronoun	-12.7251
▁LAI	-12.7253
▁Sala	-12.7254
▁An	-12.7254
qha	-12.7266
PKM	-12.7267
▁130	-12.7268
ngsy	-12.7273
tsuj	-12.7274
▁metal	-12.7276
▁hang	-12.7282
▁lum	-12.7286
tw	-12.7288
rooj	-12.7288
▁dus	-12.7289
tawj	-12.7293
▁KIS	-12.7294
▁Ts	-12.73
▁Sou	-12.73
MC	-12.7303
led	-12.7304
▁nak	-12.7308
▁Les	-12.7309
▁THAN	-12.7311
od	-12.7313
▁shoot	-12.7317
▁SHE	-12.7318
▁formal	-12.7318
of	-12.7324
▁npli	-12.7325
▁Ti	-12.7329
▁ntevx	-12.733
▁CHARGE	-12.7331
▁delegate	-12.7331
▁Project	-12.7331
▁obvious	-12.7331
▁Market	-12.7332
▁Chertoua	-12.7332
▁KASXIM	-12.7332
▁Section	-12.7332
▁Thanksgiving	-12.7332
▁explanation	-12.7333
▁Beemouachaofa	-12.7335
▁cry	-12.7335
▁THAIV	-12.7335
▁Ave	-12.7336
▁laujkaub	-12.7337
▁Phim	-12.734
▁Read	-12.7341
▁$7	-12.7341
▁session	-12.7342
▁Rhia	-12.7343
▁Npia	-12.7344
▁......!	-12.7346
▁Hmu	-12.735
▁WW	-12.7351
▁zaim	-12.7351
GAIN	-12.7354
▁Txuas	-12.7354
vajusa	-12.7358
ou	-12.7361
▁inter	-12.7361
▁thousands	-12.7365
▁Yogli	-12.7366
▁phlaw	-12.7366
lais	-12.737
▁xxx	-12.7374
ea	-12.7374
▁thiam	-12.7377
MR	-12.738
ish	-12.7385
ngry	-12.7388
▁$5000	-12.739
▁ntseem	-12.7401
▁94	-12.7402
lfc	-12.7404
OG	-12.741
pwg	-12.7414
forms	-12.7418
▁cho	-12.7418
▁!!!!!!!	-12.7424
▁daab	-12.7425
VE	-12.7426
▁Chu	-12.743
▁loan	-12.7432
▁caas	-12.7447
▁multipl	-12.7449
zeej	-12.745
▁ncw	-12.7451
YI	-12.7452
▁gate	-12.7452
▁AR	-12.7453
▁txhimkh	-12.7456
▁kh	-12.7456
▁feature	-12.7457
▁Yaw	-12.7459
▁liar	-12.746
ay	-12.7465
▁khiv	-12.7465
ablaj	-12.7475
LqN	-12.7477
▁Uabny	-12.7478
phd	-12.7481
txom	-12.7481
ncaug	-12.7483
▁ntswm	-12.7484
▁tshwjxee	-12.7484
▁xat	-12.7485
▁Vis	-12.749
▁Bouam	-12.7492
▁thos	-12.7495
▁...!!!	-12.7497
▁cum	-12.7501
▁Ra	-12.7502
xiv	-12.7502
▁Hoob	-12.7503
▁identif	-12.7504
ow	-12.7506
nkawv	-12.7508
▁singer	-12.7508
npis	-12.751
▁Cuam	-12.751
thaib	-12.7511
▁DI	-12.7519
=6	-12.7521
tsa	-12.7522
▁sea	-12.7523
▁Mysterious	-12.7528
▁Pilot	-12.7528
▁dynast	-12.7528
▁initial	-12.7528
▁instinct	-12.7528
▁Official	-12.7528
▁quiet	-12.7528
▁Yeah	-12.7528
▁tribal	-12.7528
▁TXIAJ	-12.7528
▁resolution	-12.7528
▁nplaam	-12.7529
▁YawgLaus	-12.7529
▁investment	-12.7529
▁dawwg	-12.7529
library	-12.7529
▁accusation	-12.7529
▁kauslim	-12.753
▁punish	-12.753
▁nplo	-12.753
▁TWV	-12.753
▁friendship	-12.753
▁surger	-12.7531
▁PIM	-12.7531
LqK	-12.7531
▁famous	-12.7531
▁backward	-12.7531
▁talks	-12.7533
▁heheheheh	-12.7533
▁Yessu	-12.7533
▁flag	-12.7534
▁Kws	-12.7535
▁BANK	-12.7535
▁SOOB	-12.7535
▁npleem	-12.7535
▁engineering	-12.7536
▁Does	-12.7537
▁Xuas	-12.7538
caimtseemnco	-12.7541
▁il	-12.7542
▁chery	-12.7543
▁Luangpraban	-12.7546
▁practices	-12.7547
▁qhaa	-12.7551
▁Khamtai	-12.7555
Liy	-12.7556
▁spot	-12.7557
▁advertise	-12.7558
▁EVERY	-12.756
▁nrhiab	-12.756
▁Moobthaibteb	-12.7564
ZW	-12.7564
iag	-12.7566
ongmeng	-12.7566
▁meat	-12.758
▁replace	-12.7581
▁Nplaj	-12.7582
▁dejsiab	-12.7585
▁zia	-12.7585
hmo	-12.7586
▁op	-12.759
▁ntsawg	-12.7593
▁Mog	-12.7596
▁Cuaj	-12.7598
▁tsamno	-12.7601
▁ad	-12.7603
▁Kia	-12.7603
nless	-12.7605
list	-12.7609
▁cyber	-12.762
▁pop	-12.7621
personality	-12.7623
▁Vias	-12.7623
ler	-12.7626
blog	-12.7626
wood	-12.7629
IAB	-12.7629
LiB	-12.7632
▁62	-12.7635
▁Thaks	-12.7636
Ly	-12.7637
▁Stop	-12.7641
▁Chanthala	-12.7643
▁sem	-12.7649
▁Nya	-12.7654
qeej	-12.7661
▁mees	-12.7664
▁wishe	-12.7672
saab	-12.7674
MENT	-12.7678
Kuv	-12.768
▁kavhlau	-12.7682
uY	-12.7686
pictures	-12.7688
▁chong	-12.7689
▁yuavtau	-12.7691
▁OD	-12.7693
▁BI	-12.7694
▁thousand	-12.7694
▁Lej	-12.7697
▁Clan	-12.7697
▁tsauj	-12.77
▁reform	-12.7704
▁iob	-12.7705
hlo	-12.7712
mfu	-12.7716
▁Txojkev	-12.7716
▁Federat	-12.7717
▁poster	-12.7719
▁dauv	-12.7721
▁hunt	-12.7725
▁adverb	-12.7728
▁entitle	-12.7728
▁demonstration	-12.7728
▁hamburger	-12.7728
▁curious	-12.7728
▁PhoojYwg	-12.7728
▁BACK	-12.7728
▁CUAM	-12.7729
▁Fund	-12.7729
▁Wrong	-12.7729
▁poison	-12.7729
pheng	-12.7729
▁road	-12.7731
▁FWJ	-12.7732
▁tswjhwm	-12.7732
▁Xum	-12.7732
▁patient	-12.7734
▁vaug	-12.7737
▁transfer	-12.7737
▁fly	-12.774
▁BV	-12.774
▁....?	-12.7744
▁mayor	-12.7747
▁PHUV	-12.7747
▁hw	-12.775
▁WELL	-12.775
pojniam	-12.7756
▁qoo	-12.7756
▁PART	-12.7756
▁pawglug	-12.7761
95	-12.7767
YTT	-12.7768
▁lubtsev	-12.7768
▁qij	-12.7769
▁95	-12.7773
tsuas	-12.7775
▁en	-12.778
hab	-12.779
▁$2000	-12.7792
ouk	-12.7793
▁Luck	-12.7795
moj	-12.7798
▁DAM	-12.7808
yaus	-12.7808
▁phlw	-12.7808
▁dlawm	-12.7809
Next	-12.7809
humanright	-12.7815
rize	-12.7817
▁xes	-12.7825
TH	-12.7825
▁Shu	-12.7826
▁successful	-12.7826
▁Khi	-12.7836
niag	-12.7837
▁!..	-12.7843
post	-12.7843
▁hnyo	-12.7847
qhua	-12.7849
▁huvsi	-12.7849
▁Yao	-12.7855
▁nquas	-12.7855
▁tsee	-12.7861
▁birth	-12.7862
ir	-12.7862
▁AIM	-12.7862
▁nrogkuv	-12.7868
yeah	-12.7871
city	-12.7875
▁haa	-12.7876
▁..!	-12.7877
Zoo	-12.7879
▁referr	-12.788
yus	-12.788
▁plaus	-12.7881
foob	-12.7882
ooblwj	-12.7889
▁bone	-12.7891
▁battle	-12.7898
KPg	-12.7899
▁prison	-12.7902
▁Pav	-12.7905
▁COM	-12.7909
▁VAAJ	-12.7915
mdub	-12.7916
so	-12.7916
KAWG	-12.7916
sua	-12.7917
▁Zen	-12.792
▁Tshaaj	-12.7927
▁LY	-12.793
kota	-12.793
▁SHOULD	-12.7932
▁stuff	-12.7932
▁Hawaii	-12.7932
▁chemical	-12.7932
▁TXHEEV	-12.7932
▁Assembly	-12.7932
▁Lieut	-12.7932
▁McCain	-12.7932
▁CWJ	-12.7932
▁entire	-12.7932
▁fulfill	-12.7932
▁QHUAV	-12.7933
▁earlie	-12.7933
▁kaosiab	-12.7933
▁BORN	-12.7934
▁LVTL	-12.7934
▁Team	-12.7934
▁Thaam	-12.7935
▁caa	-12.7935
▁nqog	-12.7937
▁KHUAJ	-12.7938
▁Korean	-12.7938
▁function	-12.7939
▁obpeb	-12.7941
nrho	-12.7942
▁mnus	-12.7943
▁64	-12.7944
%26	-12.7945
▁yoom	-12.7945
▁nreb	-12.7945
▁chaav	-12.7946
▁powerful	-12.7948
▁democratic	-12.795
▁kin	-12.795
▁jur	-12.7952
▁hmmmm	-12.7953
▁pawm	-12.7956
▁,,,,,	-12.7958
▁newhom	-12.7958
▁norm	-12.7965
▁$6	-12.7966
▁Au	-12.7966
ories	-12.7966
xyooj	-12.7972
▁Kh	-12.7975
▁tasx	-12.7975
ichiga	-12.798
dee	-12.7986
iane	-12.7988
▁Dov	-12.7989
▁KING	-12.7991
yau	-12.7993
▁educational	-12.7998
▁nko	-12.7999
▁LUV	-12.8002
▁zaumno	-12.8005
▁Xas	-12.8018
▁tsuvtu	-12.8026
ntsug	-12.8033
oops	-12.8038
▁xwbx	-12.804
▁forth	-12.8043
ien	-12.8044
cuag	-12.8046
▁factor	-12.8049
WM	-12.8052
=2	-12.8057
▁farm	-12.8058
OUT	-12.8063
▁nkee	-12.8068
▁nplu	-12.8072
▁Npuas	-12.8075
▁qablos	-12.8079
▁xy	-12.8079
▁Xaivxw	-12.8084
▁Back	-12.8085
▁legac	-12.8089
▁Nruab	-12.8091
ge	-12.8096
78	-12.8096
▁AU	-12.81
maha	-12.8108
YEEJ	-12.8109
▁101	-12.8111
▁dlaabqhua	-12.8113
▁twin	-12.8115
luas	-12.8117
▁sum	-12.8117
▁tsismuaj	-12.8119
▁Xyau	-12.8119
▁CAUG	-12.812
▁mak	-12.812
▁Vajlug	-12.8121
▁sojntsua	-12.8122
xoom	-12.8122
▁ntxhas	-12.8126
▁laaglua	-12.8128
▁tshu	-12.8128
pam	-12.8129
poob	-12.8131
▁india	-12.8138
▁democrat	-12.8138
MESKAS	-12.8139
▁MEMTOJ	-12.814
▁agencies	-12.814
▁Commission	-12.814
▁agency	-12.814
▁complex	-12.814
▁WHEN	-12.814
▁Standard	-12.814
▁Valentine	-12.8141
▁professionalism	-12.8141
▁permission	-12.8141
▁wild	-12.8141
▁outcome	-12.8141
▁ALASKA	-12.8141
▁COMMUNIST	-12.8141
▁QAUM	-12.8141
▁prime	-12.8141
▁CIM	-12.8141
▁CUAG	-12.8141
▁NCEJ	-12.8141
▁Phonesavan	-12.8142
▁nthoob	-12.8142
▁province	-12.8143
▁tourist	-12.8143
▁apologize	-12.8144
▁taagnrho	-12.8144
▁hnuv	-12.8145
witz	-12.8145
▁bridge	-12.8146
▁Thum	-12.8148
▁Big	-12.8148
▁Ye	-12.8148
▁barbari	-12.8154
▁zone	-12.8154
▁LIAJ	-12.8154
▁asp	-12.8156
▁1964	-12.8156
▁Nyag	-12.8156
▁COMMUNISM	-12.8158
strategies	-12.8158
▁Lang	-12.8159
▁res	-12.8159
nb	-12.8162
▁qwv	-12.8163
KHAIB	-12.8164
▁Noo	-12.8166
haws	-12.8168
▁diploma	-12.8168
▁TAM	-12.817
arried	-12.817
dhau	-12.8173
▁global	-12.8178
ither	-12.8188
XM	-12.8191
COM	-12.8194
ide	-12.82
▁taabsi	-12.82
▁Movie	-12.8202
ball	-12.8203
▁Som	-12.8204
▁Koomtsha	-12.8207
▁plos	-12.8212
▁HMT	-12.8217
eme	-12.8224
khaws	-12.8225
▁mug	-12.8226
▁PhwvNyaw	-12.8228
kig	-12.8228
tsoom	-12.8229
▁nkaujfa	-12.8233
▁Km	-12.8237
coob	-12.8239
Thaib	-12.8241
▁1600	-12.8242
▁kiddi	-12.8247
mim	-12.8247
siav	-12.8247
are	-12.8251
▁phaws	-12.8255
▁VaajM	-12.8256
deb	-12.8256
▁Txia	-12.8265
▁Mon	-12.8278
tujlub	-12.828
body	-12.8283
▁Kubxa	-12.829
▁Serv	-12.8293
ntxub	-12.8301
▁Hwj	-12.8301
ancy	-12.8309
ntsa	-12.8315
1989	-12.8316
.....	-12.8317
▁Vat	-12.8323
▁saving	-12.8325
▁Nyaab	-12.8325
▁Ntxhw	-12.8326
gan	-12.8327
do	-12.833
▁looks	-12.833
nyeem	-12.8331
▁Lyte	-12.8333
▁COB	-12.8334
▁IQ	-12.8336
ngland	-12.8337
▁phlo	-12.8341
▁reserve	-12.8343
▁xoj	-12.8348
vog	-12.835
▁Congratulation	-12.8353
▁Lacross	-12.8353
▁owe	-12.8353
▁ZHEN	-12.8353
▁TALK	-12.8353
▁Taiwan	-12.8353
▁extend	-12.8353
▁felt	-12.8353
▁psychologist	-12.8354
plaub	-12.8354
▁Language	-12.8354
▁NTXOOG	-12.8355
▁MLM	-12.8355
▁Kujxaj	-12.8356
▁yw	-12.8357
▁pujntxoog	-12.8357
▁vivncaus	-12.8359
▁hmmm	-12.836
▁dws	-12.8363
▁Caij	-12.8363
▁ntivtes	-12.8364
▁NAIS	-12.8364
▁lajfai	-12.8366
/50	-12.8366
▁Muslim	-12.8367
▁hajtsi	-12.8368
▁Phonsavan	-12.8369
resources	-12.8376
▁xyaab	-12.8376
▁novqaab	-12.8378
▁UNCLE	-12.8378
▁ncaajncee	-12.8378
▁Yum	-12.8379
▁Kaum	-12.8381
▁statistic	-12.8381
▁kij	-12.8382
▁establish	-12.8385
▁Najkhoo	-12.8385
▁PARK	-12.8389
▁$15	-12.839
▁koobmoo	-12.839
▁lor	-12.8396
▁fully	-12.8397
▁rug	-12.8402
▁mp	-12.8404
▁maib	-12.8407
aaj	-12.8408
▁npoog	-12.8412
▁rid	-12.8413
erland	-12.8415
▁temple	-12.8417
▁!!!!!!!!	-12.8418
▁Txawjxoo	-12.8422
▁dialects	-12.8423
▁yuglos	-12.8424
▁MOST	-12.8425
▁nhiav	-12.8427
▁automatic	-12.8429
cem	-12.8433
▁nyai	-12.8435
▁yawv	-12.8439
▁sell	-12.8446
NCEES	-12.8449
zoov	-12.8454
▁command	-12.8457
▁shoe	-12.8459
▁Down	-12.8482
▁fat	-12.8482
▁rus	-12.8485
thao	-12.849
▁Kip	-12.8491
▁hehehehehehehe	-12.8498
▁NOS	-12.85
▁ntxw	-12.8503
▁neg	-12.8512
LESS	-12.8513
half	-12.8517
▁trap	-12.8524
npab	-12.8526
xxx	-12.8527
PAB	-12.8528
▁taslos	-12.8532
▁corner	-12.8533
▁bird	-12.8534
▁consequence	-12.8535
gen	-12.8535
▁weapon	-12.8536
▁qaabzi	-12.8537
=-	-12.8543
zaj	-12.8544
tou	-12.8554
xej	-12.8557
IRS	-12.8557
wn	-12.8562
rlington	-12.8562
▁discover	-12.8563
▁compani	-12.8563
IN	-12.8566
ana	-12.8568
▁VIETNAM	-12.857
▁orgasm	-12.857
▁caabsaab	-12.857
▁pyramid	-12.8571
▁recommendation	-12.8571
▁xijpeem	-12.8571
▁ZUAJ	-12.8571
▁Pacha	-12.8571
▁qoov	-12.8572
▁Foreign	-12.8572
▁unique	-12.8572
▁connect	-12.8572
▁Asmeliskas	-12.8572
▁Nyuaj	-12.8573
▁password	-12.8573
▁calendar	-12.8573
▁leemcai	-12.8573
▁Buddhism	-12.8573
▁BETTE	-12.8574
▁KHOOM	-12.8575
▁HAWJ	-12.8575
HA	-12.8576
idden	-12.8576
▁Zabdag	-12.8577
▁Foob	-12.8578
▁LyFo	-12.8578
▁xwmkab	-12.8578
▁physically	-12.8578
▁locha	-12.8579
▁YUAG	-12.858
▁numbers	-12.858
▁HIV	-12.858
▁Tax	-12.8581
▁network	-12.8582
▁Cev	-12.8583
▁NTAUB	-12.8584
▁torture	-12.8585
▁84	-12.8586
▁maker	-12.8587
▁reverse	-12.8587
▁chom	-12.859
▁coin	-12.8593
▁nplawv	-12.8601
▁loose	-12.8603
▁seat	-12.8603
▁DL	-12.8611
▁thaw	-12.8613
▁Com	-12.8616
▁CHA	-12.8617
▁Peg	-12.8617
ouang	-12.8617
▁Cheeb	-12.8619
sing	-12.8621
ANCE	-12.8622
▁Individual	-12.8624
▁Seem	-12.8633
****************	-12.8635
▁phuas	-12.8636
▁churches	-12.8637
▁Roman	-12.8638
▁kees	-12.8642
kept	-12.8644
taff	-12.8648
SA	-12.865
▁Hmonglao	-12.8658
▁Hue	-12.8663
▁cure	-12.8671
▁NTSA	-12.8675
▁resist	-12.8689
▁sale	-12.8691
▁koomtxoo	-12.8692
xy	-12.8694
kib	-12.8703
hia	-12.8707
▁ntxhee	-12.8708
▁za	-12.872
yag	-12.8727
ATF	-12.8728
▁thabhaa	-12.8733
Form	-12.8733
▁TSOOB	-12.8733
txoj	-12.8739
UAV	-12.874
zaub	-12.874
DAWS	-12.8741
▁Xh	-12.8747
bc	-12.8748
▁scare	-12.875
raug	-12.875
▁indicate	-12.8751
dlua	-12.8756
▁pound	-12.8757
▁product	-12.876
▁neo	-12.876
cycle	-12.8761
das	-12.8761
tswj	-12.8764
▁niamtsev	-12.8772
▁)..	-12.8775
▁tshajli	-12.8775
avong	-12.8778
▁admit	-12.8783
▁tel	-12.8786
dlev	-12.8788
▁Pop	-12.8789
▁Lytec	-12.8792
▁Oklahoma	-12.8792
▁Program	-12.8792
▁ISSUE	-12.8792
▁Jewish	-12.8792
▁Terrorist	-12.8793
▁garage	-12.8793
▁NTOG	-12.8793
▁nongkhai	-12.8793
▁TSUAG	-12.8793
▁ceremon	-12.8793
▁dismiss	-12.8793
▁signature	-12.8793
▁illness	-12.8793
▁involvement	-12.8793
▁mivmiv	-12.8794
▁Tuamlijkoo	-12.8795
zej	-12.8795
▁NAME	-12.8795
▁AGREE	-12.8795
▁tubcajces	-12.8796
▁Npawv	-12.8796
▁dias	-12.8796
▁PEEV	-12.8796
▁Thanouxa	-12.8797
▁concret	-12.8798
▁npwg	-12.8798
▁TSWB	-12.8798
▁KIM	-12.88
tive	-12.8801
▁PUBLIC	-12.8803
▁Taw	-12.8803
/2011	-12.8803
▁NR	-12.8803
▁kawgli	-12.8805
▁equally	-12.8805
▁lease	-12.8805
▁Satan	-12.8807
▁Ntxoog	-12.8808
aa	-12.8812
▁CAM	-12.8812
yij	-12.8815
▁Tees	-12.8818
▁taste	-12.8818
golden	-12.8821
▁maus	-12.8822
▁HmongLao	-12.8823
▁QHO	-12.8824
▁tip	-12.8828
xaum	-12.8829
ssara	-12.883
ku	-12.8831
▁assum	-12.8833
▁ntsus	-12.8844
▁GOT	-12.8849
▁zaugli	-12.8851
▁viet	-12.8853
▁DAI	-12.8853
old	-12.8863
▁bear	-12.8865
nm	-12.8865
▁Khoue	-12.8866
vxwm	-12.8871
▁QE	-12.8875
▁measure	-12.8875
veral	-12.8876
moog	-12.8878
▁-------------	-12.8878
▁Fu	-12.8881
▁ran	-12.8887
▁award	-12.889
OOB	-12.8891
que	-12.8891
aiv	-12.8893
▁allerg	-12.8895
06	-12.8903
▁appointe	-12.8907
▁Asca	-12.8911
ABLE	-12.8912
qees	-12.8913
OOS	-12.8926
▁82	-12.8927
▁Ntxia	-12.8932
nna	-12.8933
▁faiv	-12.8937
TSUM	-12.8938
▁lak	-12.8946
▁maav	-12.8947
fe	-12.8948
▁nrhai	-12.8948
▁Ai	-12.896
xws	-12.896
toog	-12.8961
world	-12.8961
▁moon	-12.8966
▁Yab	-12.897
yard	-12.8973
ZKY	-12.8976
▁Thoos	-12.8979
▁prediction	-12.8982
▁5$	-12.8982
▁fuabtai	-12.8985
▁ntha	-12.8989
▁PLAY	-12.8991
ros	-12.8994
chang	-12.8996
▁xem	-12.9001
▁hlu	-12.9001
tsiab	-12.9001
▁verse	-12.9003
▁daiv	-12.9006
▁Uatsau	-12.9008
▁ncuj	-12.9013
▁remove	-12.9015
▁hole	-12.9018
▁complicate	-12.902
▁participant	-12.902
▁Reagan	-12.902
▁SMELT	-12.902
▁Misliskas	-12.902
▁empty	-12.902
▁destruction	-12.902
▁txwjnkawm	-12.902
▁xuajmoos	-12.902
Pajnplaimcua	-12.902
▁immediate	-12.902
nuC	-12.902
▁Faajkum	-12.902
▁adultery	-12.902
▁Leadership	-12.9021
txhob	-12.9021
▁independence	-12.9021
▁offense	-12.9021
▁gangster	-12.9021
▁orange	-12.9022
▁jhaw	-12.9022
▁Today	-12.9022
▁exile	-12.9022
▁Jay	-12.9024
▁yellow	-12.9024
▁speed	-12.9024
▁CHINA	-12.9025
▁Kauj	-12.9025
▁Zajlaug	-12.9026
▁dovtawm	-12.9028
▁phou	-12.9028
▁AMERICAN	-12.9029
▁impress	-12.903
▁Cem	-12.9031
▁CIAM	-12.9033
▁Sue	-12.9035
▁Txiav	-12.9035
host	-12.9037
▁qaav	-12.9038
EB	-12.9039
▁settle	-12.904
▁acting	-12.9041
▁LAG	-12.9044
▁nyha	-12.9051
▁900	-12.9058
▁CI	-12.9059
▁faabki	-12.906
▁yawgnom	-12.9062
▁haug	-12.9066
▁Pem	-12.9067
menyuam	-12.9069
▁cycle	-12.907
▁trade	-12.9071
▁jib	-12.9072
▁christ	-12.9081
ize	-12.9081
herself	-12.9082
▁hlai	-12.9085
▁pebhmoob	-12.9086
lom	-12.9089
cais	-12.909
22	-12.9091
vd	-12.9093
OV	-12.9096
▁Pes	-12.91
▁LOO	-12.9105
thaj	-12.9106
▁phawv	-12.9108
▁organ	-12.911
▁treasure	-12.911
▁khais	-12.911
▁paste	-12.9117
▁laajfa	-12.9125
▁LHO	-12.9129
toojcua	-12.9135
▁nreej	-12.9135
▁Dam	-12.9141
▁tablaj	-12.9154
xu	-12.9156
▁Max	-12.9156
▁blow	-12.9158
▁tr	-12.9163
▁dli	-12.9166
▁nc	-12.9166
hong	-12.917
▁Nuv	-12.917
qaug	-12.9172
▁201	-12.9176
▁believer	-12.918
▁nkoo	-12.9181
▁tech	-12.9182
Mexico	-12.919
▁Mavta	-12.919
▁paint	-12.9192
Neohom	-12.92
Dok	-12.9201
field	-12.9201
▁geo	-12.9205
▁Friend	-12.9206
▁HEM	-12.9213
▁Eco	-12.9213
▁sawvkev	-12.9217
Tuam	-12.9218
▁tea	-12.9229
▁receipt	-12.923
▁LIVE	-12.9231
▁mile	-12.9232
▁nyobzoo	-12.9232
▁bi	-12.9234
▁betray	-12.9237
▁fus	-12.9238
▁flow	-12.924
yer	-12.9241
▁61	-12.9246
▁submit	-12.9249
▁lostsua	-12.9251
luv	-12.9251
▁NAJKHAV	-12.9252
▁ocean	-12.9252
▁wikileak	-12.9252
▁enomy	-12.9252
▁XYAUM	-12.9252
▁NKEEG	-12.9252
▁ladies	-12.9252
▁monday	-12.9252
▁thawjx	-12.9252
▁yesterday	-12.9252
▁failure	-12.9252
▁selfish	-12.9252
▁escape	-12.9253
▁Palestine	-12.9253
▁resolve	-12.9253
▁Town	-12.9253
▁flirt	-12.9253
▁Engineer	-12.9253
▁investigation	-12.9253
▁criteria	-12.9253
▁NYAS	-12.9253
▁QAV	-12.9253
▁brand	-12.9253
▁PERSON	-12.9253
▁fuabcua	-12.9253
▁narrow	-12.9254
▁Hill	-12.9254
▁negotiate	-12.9254
▁TRAS	-12.9254
▁brush	-12.9255
▁TSAWV	-12.9255
▁TXHIAB	-12.9257
▁PLAUB	-12.9258
▁Zeej	-12.9258
▁Old	-12.9259
▁NEWS	-12.926
▁Noogdej	-12.926
▁petition	-12.926
▁acceptable	-12.9263
▁nplob	-12.9264
▁Koum	-12.9266
▁Vi	-12.9267
▁mentally	-12.9268
▁tshij	-12.9269
les	-12.9271
▁Tawv	-12.9271
▁shut	-12.9273
arry	-12.9273
▁Moobdlawb	-12.9274
▁rent	-12.9275
▁HWJ	-12.9276
▁__________	-12.9277
▁technical	-12.9278
hupheng	-12.9278
▁damn	-12.9279
▁pack	-12.9281
▁KOS	-12.9281
▁serv	-12.9286
▁tseemx	-12.9288
▁notice	-12.9289
▁BM	-12.9289
pum	-12.9289
▁sincere	-12.9291
pb	-12.9292
▁Maslis	-12.9295
▁bet	-12.9295
▁joe	-12.9297
▁Bang	-12.9302
piav	-12.9304
▁mature	-12.9313
▁tru	-12.9314
iac	-12.9316
▁guide	-12.9316
▁bang	-12.9318
▁Sher	-12.9324
ntxawm	-12.9326
tsho	-12.9332
▁pic	-12.9344
▁RAW	-12.9346
▁!!!!!!!!!	-12.9346
▁--------------	-12.9346
▁Hinheu	-12.9347
▁songs	-12.935
▁Bac	-12.9352
▁Same	-12.9354
▁Sem	-12.9354
▁Nok	-12.9359
▁Tsha	-12.9364
▁ntxho	-12.937
hood	-12.9376
▁cy	-12.9387
▁quavntse	-12.9392
nyaum	-12.9394
▁Bus	-12.9403
▁sibkho	-12.9406
▁emotion	-12.9419
yuaj	-12.9422
▁125	-12.9425
▁__	-12.9427
▁Nplua	-12.9428
▁Xyeejts	-12.9429
▁named	-12.9432
qhuav	-12.9433
pobzeb	-12.9438
Ntsuab	-12.9439
▁ZN	-12.944
One	-12.9441
NIA	-12.9446
▁quam	-12.9452
thwm	-12.9452
▁van	-12.9454
▁scene	-12.9455
▁educator	-12.9455
▁xubx	-12.9458
__	-12.9466
seeb	-12.9467
▁Nosavan	-12.9472
▁buil	-12.9473
▁PHIM	-12.9475
ba	-12.9475
▁Hehehehe	-12.9482
▁Find	-12.9486
▁island	-12.9486
▁ibsij	-12.9489
▁OWN	-12.949
▁SHOW	-12.949
▁ancestor	-12.949
▁occasion	-12.949
▁classify	-12.949
▁Doyle	-12.949
▁Isreal	-12.949
▁clarification	-12.949
▁TSHAWB	-12.949
▁crisis	-12.949
▁Tshwj	-12.9491
▁TXUJCI	-12.9491
YAG	-12.9491
▁Forward	-12.9491
▁CAUJ	-12.9491
▁boat	-12.9492
▁talent	-12.9492
▁Ntxub	-12.9492
▁TSHWM	-12.9492
▁HUABTAIS	-12.9492
▁salary	-12.9492
▁curse	-12.9493
▁Naikhu	-12.9493
▁NTIAV	-12.9494
▁KHAWS	-12.9494
▁npwb	-12.9494
▁NROOG	-12.9494
▁VIm	-12.9495
▁CAUB	-12.9495
▁wheel	-12.9495
▁TEEM	-12.9495
▁unto	-12.9495
▁Come	-12.9496
▁sake	-12.9496
▁XUM	-12.9497
▁hlwv	-12.9497
▁Patikan	-12.9498
▁TEM	-12.9498
▁nruaj	-12.9498
▁thuaj	-12.95
▁Cambodian	-12.9501
▁TABSI	-12.9501
▁Care	-12.9502
▁tsoog	-12.9502
▁Nyabla	-12.9505
▁Khaab	-12.9505
▁minds	-12.9506
▁Kevcai	-12.9507
▁====	-12.9508
tting	-12.951
▁Bla	-12.951
▁TXHA	-12.9512
▁KUAM	-12.9513
▁ntsiagto	-12.9514
▁nplab	-12.9515
khawm	-12.9516
cast	-12.9516
▁HAND	-12.9517
cv	-12.9517
opher	-12.9519
▁thawjthiab	-12.9519
▁40%	-12.9526
▁nqib	-12.9527
▁TE	-12.9532
▁ch	-12.9534
▁555555	-12.9537
zuag	-12.9539
▁$800	-12.9541
▁leng	-12.9542
nim	-12.9542
▁AWB	-12.9543
▁xabpha	-12.9546
ntxiv	-12.9547
pi	-12.9555
laws	-12.9555
▁pebhmoobrua	-12.9558
=7	-12.956
hawj	-12.9562
▁NPAU	-12.9563
▁kips	-12.9564
XUS	-12.9565
▁ntoog	-12.9566
▁xyee	-12.9571
KING	-12.9572
▁Npas	-12.9574
hur	-12.9575
▁Pebhmoobrua	-12.9578
▁==============	-12.958
fg	-12.9585
tshum	-12.9585
sao	-12.9586
▁Paoze	-12.9586
▁bog	-12.9587
6000	-12.9591
▁DAY	-12.9598
Paul	-12.9598
▁Vab	-12.9605
▁txauv	-12.9606
nyas	-12.9609
▁ip	-12.961
aav	-12.9613
hornspear	-12.9613
▁paubqab	-12.9624
ijhawm	-12.9624
▁som	-12.9625
▁nyoojhoo	-12.9626
txhais	-12.9632
▁Tubcajces	-12.9632
▁ntshau	-12.9634
qau	-12.9638
▁ntawn	-12.9639
ERS	-12.9641
=4	-12.9642
daj	-12.9644
▁hauvlub	-12.9645
af	-12.9647
▁Kai	-12.965
ft	-12.9652
▁carp	-12.9653
▁lock	-12.9655
▁believ	-12.966
▁Npl	-12.966
PLIS	-12.9663
ri	-12.9667
enty	-12.9669
nawb	-12.967
ht	-12.9671
mode	-12.9675
ancient	-12.9676
▁TABTO	-12.9677
TSIS	-12.9678
▁heej	-12.968
charter	-12.9681
▁PUA	-12.9688
▁pij	-12.969
NG	-12.9691
▁shop	-12.9692
▁Nru	-12.9693
Dag	-12.9695
▁Vibnai	-12.9697
RS	-12.97
▁guard	-12.97
▁LEG	-12.9701
▁Qw	-12.9716
▁gold	-12.9718
▁mib	-12.9722
▁Nta	-12.9726
▁hlaw	-12.9727
tage	-12.9729
▁trace	-12.9731
▁Dekfangkh	-12.9731
▁Suprem	-12.9734
▁immigrant	-12.9734
▁shift	-12.9734
▁spring	-12.9734
▁summary	-12.9734
▁airport	-12.9734
▁DULUG	-12.9734
▁Easter	-12.9734
▁Self	-12.9734
▁recognition	-12.9734
▁creator	-12.9734
▁superior	-12.9734
▁Martin	-12.9735
▁indeed	-12.9735
▁Member	-12.9735
▁manner	-12.9735
▁nationalism	-12.9735
▁Boum	-12.9735
▁ghost	-12.9736
▁intelligent	-12.9736
▁minneapolis	-12.9736
▁Nyaaj	-12.9736
▁critique	-12.9737
▁mluas	-12.9737
▁northern	-12.9737
▁lecture	-12.9737
▁House	-12.9738
▁NQEEB	-12.9738
▁nqha	-12.9738
▁Caj	-12.9739
▁district	-12.9739
▁QHEV	-12.9739
▁ZAG	-12.9739
▁grammar	-12.974
▁indian	-12.974
%	-12.974
▁tubnkeeg	-12.974
▁ntxheev	-12.9742
▁tshuv	-12.9742
▁Original	-12.9743
▁COL	-12.9743
▁DUAB	-12.9745
anthon	-12.9747
▁nan	-12.9748
▁Kongphan	-12.9748
▁tisbe	-12.9749
▁ntxug	-12.9752
▁Ncaim	-12.9752
▁txoom	-12.9753
▁nhro	-12.9753
▁adam	-12.9754
▁required	-12.9755
▁candy	-12.9757
▁Tsuv	-12.9758
paab	-12.9758
▁Lake	-12.9759
▁Train	-12.9762
▁khaab	-12.9763
▁haulwm	-12.9764
dont	-12.9765
▁Cuav	-12.9767
structive	-12.9768
aison	-12.9771
ority	-12.9772
tso	-12.9773
zab	-12.9776
▁Ntxhi	-12.9777
kong	-12.978
hajying	-12.9787
▁generalize	-12.9788
▁nkagsab	-12.9788
▁charter	-12.9788
▁Asmeka	-12.9789
Tshiab	-12.979
ent	-12.9797
▁IAB	-12.9801
▁ntshaj	-12.9804
taus	-12.9804
▁Late	-12.9806
▁klawv	-12.9806
▁nyamx	-12.9809
▁SAV	-12.9812
▁klawm	-12.9812
UN	-12.9812
▁abandon	-12.9826
▁smell	-12.9827
▁feed	-12.9829
▁ntai	-12.983
▁asmeska	-12.9838
▁npi	-12.984
pr	-12.9842
▁.?	-12.9844
▁roobri	-12.985
▁idon	-12.9851
GAB	-12.9854
mloog	-12.9854
▁experts	-12.9856
▁nteb	-12.9856
▁Gov	-12.9857
txag	-12.9857
▁Press	-12.9864
▁nge	-12.9866
MS	-12.9867
▁txab	-12.9869
puav	-12.987
▁Yoo	-12.9873
▁TXHIAJ	-12.9876
▁helps	-12.9878
▁Fact	-12.988
▁SAN	-12.9885
▁roll	-12.9886
▁TXO	-12.9887
kham	-12.9891
sible	-12.9892
▁txhe	-12.9892
km	-12.9893
xus	-12.9893
▁Missionar	-12.9904
▁qhovtseeb	-12.9906
bo	-12.991
olar	-12.9911
▁TT	-12.9912
▁min	-12.9916
▁beemoua	-12.9917
▁kevhlub	-12.9918
dluag	-12.9918
▁cares	-12.9919
tswvyim	-12.9922
▁Kang	-12.9924
▁revolution	-12.9924
Phwvnyawm	-12.9932
Khaum	-12.9935
moo	-12.9936
ntees	-12.9936
▁..)	-12.994
txhawb	-12.9941
beer	-12.9942
▁$250	-12.9942
duab	-12.9944
▁ohy	-12.9945
▁subgroup	-12.9945
UAJ	-12.9949
▁vuj	-12.995
ND	-12.9952
nug	-12.9952
03	-12.9953
OS	-12.9955
nraab	-12.9957
▁Shi	-12.9959
cheej	-12.9962
active	-12.9969
▁$150	-12.9972
naj	-12.9973
SELF	-12.9975
▁mivx	-12.9976
▁Mad	-12.9977
▁DOV	-12.9981
▁opportunist	-12.9983
▁Affair	-12.9984
▁REASON	-12.9984
▁Sihanou	-12.9984
▁succeed	-12.9984
▁CLAN	-12.9984
▁SORRY	-12.9984
▁violence	-12.9984
▁adapt	-12.9984
▁bullet	-12.9984
▁confidence	-12.9984
▁PRESIDENT	-12.9984
▁Money	-12.9984
ospital	-12.9985
▁invention	-12.9985
▁fivyeem	-12.9985
▁bread	-12.9985
▁Metro	-12.9985
▁Peaco	-12.9985
LqI	-12.9986
▁motor	-12.9986
▁boycott	-12.9986
▁NTSIAB	-12.9987
▁Yaajtshajkoo	-12.9988
hub	-12.9989
▁stamp	-12.999
aug	-12.9993
Lqr	-12.9994
▁teaching	-12.9994
▁Fair	-12.9994
▁'?	-12.9995
▁Hooj	-12.9996
▁qawv	-12.9996
1945	-12.9996
▁TSOB	-12.9997
▁dealer	-12.9997
▁twist	-12.9998
▁anger	-12.9999
▁Tshab	-13
▁ntsauj	-13
▁tshim	-13.0002
nkaum	-13.0003
▁ibqho	-13.0003
▁Khas	-13.0012
▁Loos	-13.0017
▁vais	-13.0017
38	-13.0021
▁Yuephe	-13.0025
▁ntwb	-13.0025
▁cus	-13.0028
▁feej	-13.0029
▁band	-13.0029
▁khovkho	-13.0029
▁?'	-13.0036
▁Part	-13.0036
▁khum	-13.0039
▁tshoo	-13.0039
▁luang	-13.004
▁Luaj	-13.0043
▁cojlos	-13.0047
diB	-13.0051
ef	-13.0055
▁thoo	-13.0061
▁Tsw	-13.0063
▁magic	-13.0065
▁Como	-13.0066
▁hauvqhua	-13.007
▁ntxiav	-13.0071
▁ndlaj	-13.0073
blah	-13.0076
▁ref	-13.0078
▁soua	-13.0079
mzuag	-13.0079
▁nobody	-13.008
ris	-13.0082
▁ntxhaw	-13.0083
OB	-13.0087
▁mivnyua	-13.009
▁shaman	-13.0095
▁$$	-13.0096
eration	-13.0096
▁Hummm	-13.0099
klawv	-13.0099
▁mar	-13.0101
aab	-13.0102
▁buffe	-13.0106
▁Mose	-13.0108
Nasxus	-13.0111
▁auto	-13.0116
▁Phwvxe	-13.0116
▁PLAW	-13.0118
bSB	-13.0119
▁reject	-13.0126
khu	-13.0128
▁nhia	-13.0128
onto	-13.0132
CC	-13.0135
▁Tsoobku	-13.0138
▁$400	-13.0145
▁Red	-13.0149
▁nplee	-13.0153
online	-13.0154
▁ASK	-13.016
eu	-13.016
▁yy	-13.0164
know	-13.0165
▁ICE	-13.0169
CY	-13.0177
ified	-13.0185
▁discriminate	-13.0186
▁Youtub	-13.0188
ner	-13.0188
music	-13.0189
xij	-13.0189
txhij	-13.019
▁$.	-13.0191
▁HATE	-13.0192
ntxhiab	-13.0192
▁nrom	-13.0195
meow	-13.0198
ntxov	-13.0198
▁pia	-13.0201
▁element	-13.0211
Yog	-13.0213
▁Author	-13.0214
tojsiab	-13.0218
▁horse	-13.0218
Ao	-13.0221
▁ntsiaj	-13.0221
▁ji	-13.0222
▁ear	-13.0223
▁MAIV	-13.0235
▁Cultural	-13.0241
▁bachelor	-13.0241
▁Robert	-13.0241
▁offensive	-13.0241
▁mankind	-13.0241
▁afford	-13.0241
▁QUESTION	-13.0241
▁Institute	-13.0241
▁Asmeslika	-13.0241
▁dragon	-13.0241
▁Kauslim	-13.0241
LuN	-13.0241
▁ZEEM	-13.0241
▁wake	-13.0241
▁EXAMPLE	-13.0241
▁NTXOV	-13.0241
▁DAIG	-13.0241
▁kavtheej	-13.0242
▁flea	-13.0242
▁Final	-13.0242
▁Merritt	-13.0242
▁typical	-13.0242
▁khaublig	-13.0242
▁ultimate	-13.0243
▁Should	-13.0243
▁speculation	-13.0243
▁lycee	-13.0243
▁STROKE	-13.0244
▁HOME	-13.0245
▁McCo	-13.0245
▁PHAV	-13.0245
▁LC	-13.0246
▁calm	-13.0247
▁immigration	-13.0247
▁pawgntseeg	-13.0247
▁txaam	-13.025
monthly	-13.0251
▁Khaws	-13.0254
▁MSP	-13.0257
lib	-13.0257
▁Sometime	-13.0258
▁Tshau	-13.0258
▁KHOV	-13.0258
▁trained	-13.0259
BS	-13.026
▁Try	-13.026
▁NTXA	-13.0263
AWS	-13.0266
WAY	-13.0267
puag	-13.0267
▁Thorsp	-13.0267
361	-13.027
▁Xuv	-13.0274
jxeem	-13.0274
DNA	-13.0278
▁guards	-13.0278
chong	-13.0279
▁verbal	-13.0282
▁LPD	-13.0283
AUV	-13.0284
▁MOO	-13.0285
▁correction	-13.0287
sion	-13.0288
zus	-13.029
▁dress	-13.029
-------------	-13.029
▁tactics	-13.029
▁hnee	-13.0291
ndi	-13.0292
▁Lawb	-13.0298
▁pobkub	-13.0303
ki	-13.0304
▁chue	-13.0307
▁KN	-13.0315
▁Ter	-13.0316
▁popcor	-13.0316
sama	-13.0317
fue	-13.0318
▁pronounce	-13.0321
over	-13.0328
marketing	-13.0329
▁bas	-13.0329
PY	-13.0334
AIS	-13.0335
kaws	-13.0336
????????????????	-13.0337
▁Ni	-13.0338
Lu	-13.0339
▁mika	-13.0342
▁phwvnyaw	-13.0343
▁GUY	-13.0345
▁Pre	-13.0357
▁LAS	-13.0365
▁kay	-13.0367
▁DLAAB	-13.0373
TWO	-13.0378
FWM	-13.0382
AUM	-13.0384
▁haws	-13.0384
▁bav	-13.0386
MAS	-13.0388
▁Phasnya	-13.0391
care	-13.0392
▁193	-13.0394
▁cheng	-13.0394
▁KILL	-13.0397
▁nyau	-13.0403
SAID	-13.0403
▁Bin	-13.0406
tem	-13.0416
▁hauvkev	-13.0419
=_	-13.0423
cyB	-13.0426
▁Tshajplaw	-13.0428
▁Ntxi	-13.0429
tknow	-13.043
▁Power	-13.0432
by	-13.0435
▁Faki	-13.0436
ification	-13.0438
▁Lau	-13.0441
tos	-13.0449
NEEG	-13.045
youtube	-13.0451
woman	-13.0451
Vision	-13.0452
ciab	-13.0456
▁Fav	-13.0458
▁Him	-13.0461
house	-13.0462
CE	-13.0464
▁bon	-13.0465
▁txhw	-13.0466
▁leak	-13.0467
▁ntx	-13.0468
▁ntshu	-13.0468
363	-13.0468
served	-13.047
lej	-13.0479
▁hlubx	-13.0483
▁Somphon	-13.0487
▁kung	-13.0492
lauv	-13.0494
▁lhau	-13.0497
▁africa	-13.0498
▁solid	-13.0498
▁HAI	-13.0498
▁QHUA	-13.0501
▁thaug	-13.0503
nyablaj	-13.0503
▁misunderstand	-13.0504
▁disturb	-13.0504
lloween	-13.0504
▁Medal	-13.0504
01085/	-13.0504
▁dictatorship	-13.0504
▁fabrication	-13.0504
▁Keebkwm	-13.0504
▁Country	-13.0504
▁prosecutor	-13.0504
▁Maabdlawb	-13.0504
▁monster	-13.0504
▁unlike	-13.0504
▁Txhawb	-13.0504
LiZ	-13.0504
▁Caug	-13.0504
▁Ntsimtxh	-13.0504
▁Studies	-13.0504
▁CHIANGMAI	-13.0505
▁adjust	-13.0505
▁separatist	-13.0505
▁TXAIJ	-13.0505
▁Labor	-13.0505
LuB	-13.0505
▁Txoovkav	-13.0505
▁labor	-13.0505
▁maintain	-13.0505
▁gathering	-13.0506
▁nrhaab	-13.0506
▁fundrais	-13.0506
▁niece	-13.0506
▁communis	-13.0506
▁Thooj	-13.0507
▁saykao	-13.0507
▁announce	-13.0507
▁aspx	-13.0507
▁opposition	-13.0507
▁HISTOR	-13.0508
▁Kaav	-13.0508
▁script	-13.0508
▁QES	-13.0509
▁conduct	-13.051
▁Sad	-13.051
▁oneself	-13.0511
▁txhwj	-13.0511
▁tavsu	-13.0511
▁Khoos	-13.0511
▁reasonable	-13.0511
▁Phetsara	-13.0511
yas	-13.0513
▁nrhaiv	-13.0515
ijuana	-13.0517
▁hoskuv	-13.0519
▁khaim	-13.0521
▁Chair	-13.0522
▁povfwm	-13.0522
▁ruv	-13.0523
pv	-13.0523
▁Puv	-13.0523
▁xeebleej	-13.0527
▁writer	-13.053
▁greed	-13.0531
ane	-13.0531
▁vajvovvajpam	-13.0531
tor	-13.0532
▁Qua	-13.0534
▁hmooob	-13.0537
▁amp	-13.0538
poom	-13.0539
▁finding	-13.0542
▁loud	-13.0543
▁capabilit	-13.0543
▁educators	-13.0544
▁wi	-13.0549
▁thaws	-13.0549
▁makers	-13.055
Yob	-13.0551
▁khim	-13.0552
▁Civ	-13.0552
About	-13.0553
ith	-13.0554
▁cow	-13.0554
▁....."	-13.0554
▁?.....	-13.0556
xang	-13.0556
OHR	-13.0557
▁thovpab	-13.0559
Saddam	-13.0562
▁Nk	-13.0566
▁UNDER	-13.0567
▁ceskawg	-13.057
ver	-13.057
hauj	-13.0574
user	-13.0575
lwmtus	-13.0576
▁maa	-13.0578
▁pursu	-13.058
▁Qu	-13.0583
▁vers	-13.0584
▁lhua	-13.0586
▁bam	-13.059
▁Hmao	-13.059
▁kor	-13.0591
▁teachers	-13.0591
▁TSOM	-13.0592
▁Kin	-13.0595
NT	-13.0595
▁Sent	-13.0604
▁xuj	-13.0605
▁loov	-13.0605
▁NPLUA	-13.0606
▁qag	-13.0606
▁Jane	-13.0608
▁Sisou	-13.0608
▁mij	-13.061
▁Tsob	-13.0612
xis	-13.0612
▁noodle	-13.0621
▁chem	-13.0621
▁accomplish	-13.0623
▁pk	-13.0627
▁Cat	-13.0635
▁Te	-13.0635
▁soft	-13.0638
Tony	-13.0639
▁Kais	-13.064
gx	-13.0643
▁thian	-13.0644
▁logical	-13.0647
▁Et	-13.0653
▁lun	-13.0653
lwg	-13.0655
99	-13.0665
ar	-13.0668
tsoob	-13.0668
▁sky	-13.0668
▁Fai	-13.0675
▁Du	-13.0676
ac	-13.0679
▁REPEAT	-13.0681
▁tae	-13.0683
stas	-13.0684
lt	-13.0686
▁Pra	-13.0689
page	-13.0689
uz	-13.069
ff	-13.069
▁YWJ	-13.0693
▁peter	-13.0694
NA	-13.0699
",	-13.0708
▁FRANC	-13.0711
▁Tao	-13.072
CAS	-13.0721
ncig	-13.0722
ors	-13.0723
tsw	-13.0725
▁phoj	-13.0729
▁plo	-13.073
bel	-13.0735
▁khaug	-13.0738
▁FIGHT	-13.0739
ue	-13.0739
yaim	-13.074
▁AL	-13.074
▁TXI	-13.0745
rov	-13.0749
cag	-13.0755
yug	-13.0755
▁Visa	-13.0759
▁POS	-13.0762
▁broke	-13.0766
vang	-13.0767
▁lay	-13.0771
▁TRAITOR	-13.0772
▁Egypt	-13.0774
▁PROBLEM	-13.0774
▁Perhap	-13.0774
▁association	-13.0774
▁huvtuabsi	-13.0774
▁violent	-13.0774
▁Centurio	-13.0774
▁ignorance	-13.0774
▁SHARE	-13.0774
▁Phouthen	-13.0774
▁Computer	-13.0774
▁Print	-13.0774
▁TCMD	-13.0774
▁minimu	-13.0774
▁implement	-13.0774
▁NRES	-13.0774
▁Hanoi	-13.0774
▁FOOB	-13.0775
▁EDUCATION	-13.0775
▁Txheeb	-13.0775
▁Tsabmim	-13.0775
▁NRUJ	-13.0775
▁gamblin	-13.0775
▁NTUAS	-13.0776
▁desperate	-13.0776
▁ZAUS	-13.0776
▁moron	-13.0776
ermanent	-13.0776
▁NATION	-13.0776
▁NeoHom	-13.0777
▁NTSIS	-13.0777
▁TEBCHAW	-13.0778
▁border	-13.0778
▁Grand	-13.0778
▁Economic	-13.0779
▁vdo	-13.0779
▁Baccalaureate	-13.0779
LqC	-13.078
▁KEEP	-13.078
faj	-13.0782
▁763	-13.0782
▁rheev	-13.0782
▁cooperate	-13.0785
▁hmongmen	-13.0785
▁Aws	-13.0785
▁tsausntuj	-13.0786
▁dwb	-13.0786
▁Sister	-13.079
▁pamle	-13.0792
▁Land	-13.0793
▁WWII	-13.0795
▁Hitle	-13.0795
▁activity	-13.0798
txuas	-13.0799
▁Real	-13.0802
▁secrete	-13.0803
▁zajlaug	-13.0809
▁nrhaw	-13.0809
▁communicate	-13.0809
ni	-13.0809
▁ntxeeb	-13.081
▁destin	-13.0815
▁engage	-13.0816
hmoobrua	-13.0816
net	-13.0817
ied	-13.082
▁Yi	-13.082
▁relax	-13.0822
nyuab	-13.0834
▁mock	-13.0838
ui	-13.084
▁FU	-13.0845
▁SEA	-13.0849
▁Personal	-13.0849
bby	-13.0852
▁Nqa	-13.0854
▁Xaus	-13.0857
UB	-13.0862
▁letters	-13.0864
▁ntsaus	-13.0864
▁npluj	-13.087
nan	-13.0871
VTE	-13.0873
▁sacrif	-13.0877
▁rhee	-13.0886
▁ntsee	-13.0887
▁tobhau	-13.0888
dison	-13.0893
▁characters	-13.0893
KL	-13.0895
jhe	-13.0907
▁Phwvyaw	-13.0908
▁kli	-13.0912
▁comfortabl	-13.0921
person	-13.0923
▁zee	-13.0925
▁Vav	-13.0925
▁Hn	-13.0929
▁gods	-13.0929
▁hauvsiab	-13.0933
▁visions	-13.0936
▁lone	-13.0937
▁credib	-13.0945
▁Pan	-13.0945
▁ncai	-13.0945
▁warn	-13.0946
rub	-13.0947
IEN	-13.0949
▁pomkev	-13.0951
▁yiv	-13.0952
▁actual	-13.0955
▁Ntses	-13.0955
▁Poo	-13.0957
ntaub	-13.0959
▁lawvle	-13.0962
▁phuab	-13.0963
Lit	-13.0963
efore	-13.0966
/.	-13.0966
▁qui	-13.0967
cover	-13.0968
TURE	-13.097
▁VIS	-13.0971
pib	-13.0973
▁Capital	-13.0977
▁plane	-13.0979
lf	-13.0983
▁hlaug	-13.0985
cc	-13.0988
▁hahahahhaha	-13.0995
▁Lw	-13.0996
▁Georgi	-13.1012
koos	-13.1013
▁Wed	-13.1014
▁opponent	-13.1016
▁legend	-13.1017
▁xang	-13.1019
nkawm	-13.1022
▁Naphi	-13.1028
▁ees	-13.1028
state	-13.1029
yi	-13.1031
skas	-13.1032
LOJ	-13.1032
ging	-13.1034
▁Star	-13.104
▁solutions	-13.104
▁Kj	-13.1041
▁profession	-13.1043
▁PT	-13.1044
▁alien	-13.1044
kaajsab	-13.105
lhub	-13.105
▁63	-13.1051
▁engine	-13.1051
▁PERSONAL	-13.1052
JvdGU	-13.1052
▁hehehhehe	-13.1052
▁BECAUSE	-13.1052
▁Madame	-13.1052
▁QUALIFY	-13.1052
▁SOLDIER	-13.1052
▁WORD	-13.1052
▁modify	-13.1052
▁senior	-13.1052
▁crocodile	-13.1052
▁BOSS	-13.1052
▁jealous	-13.1052
▁survival	-13.1052
▁flight	-13.1052
▁cheap	-13.1052
▁EVIDENCE	-13.1052
▁entertain	-13.1052
▁CLAIM	-13.1052
▁bunch	-13.1053
▁VOM	-13.1053
▁booth	-13.1053
▁attached	-13.1053
▁YEARS	-13.1053
▁plaig	-13.1053
▁Province	-13.1054
▁fiction	-13.1055
▁miracle	-13.1056
▁Island	-13.1056
▁ambassador	-13.1056
▁MEM	-13.1057
▁CALL	-13.1058
▁tshwv	-13.1058
▁QEB	-13.1058
▁hehehehhe	-13.1058
▁MHOOB	-13.1059
▁significant	-13.1059
▁TSAJ	-13.1059
▁koomntsw	-13.1059
▁porn	-13.1059
▁suffering	-13.106
▁povthaw	-13.106
loos	-13.1061
ouC	-13.1061
▁NTXHW	-13.1061
▁ntxaum	-13.1061
▁NTSEG	-13.1063
▁classes	-13.1063
▁adin	-13.1063
EZ	-13.1063
▁Top	-13.1064
▁Vaub	-13.1065
▁Local	-13.1065
memiab	-13.1067
▁hnoos	-13.1067
ized	-13.1068
▁mongkey	-13.1069
▁ristsho	-13.1069
▁mabdawb	-13.107
▁bond	-13.1071
▁Asmiska	-13.1073
HM	-13.1074
▁Hmoobleejtub	-13.1075
ite	-13.1079
tockton	-13.108
▁remark	-13.1082
▁leading	-13.1083
▁Two	-13.1087
▁TAX	-13.1088
▁Yunna	-13.1089
hos	-13.1089
TSHAV	-13.1093
txig	-13.1095
▁products	-13.1096
taag	-13.1097
AN	-13.1099
▁plauv	-13.1101
▁xajn	-13.1102
▁TJ	-13.1106
▁shape	-13.1111
▁hey	-13.1113
lum	-13.1114
▁pleg	-13.1117
▁attract	-13.1121
▁zimtxw	-13.1133
▁nyi	-13.1134
▁HAHAHA	-13.1135
▁praise	-13.1136
lk	-13.1138
▁CHANGE	-13.114
▁ASEA	-13.114
▁ur	-13.1145
▁covkwvtij	-13.1148
▁87	-13.1152
UAG	-13.1153
POM	-13.1158
▁taim	-13.1162
▁Najv	-13.1168
▁15%	-13.117
ZH	-13.117
▁Tagki	-13.117
loojceeb	-13.1171
▁NL	-13.1173
▁Tshav	-13.1175
▁tsawj	-13.1176
▁Pay	-13.1181
miao	-13.1182
CIALI	-13.1198
▁NTE	-13.1206
▁Tejno	-13.1207
yiam	-13.1208
URE	-13.121
▁TOB	-13.1214
900	-13.1214
▁nhya	-13.1218
ajtsab	-13.1219
▁vet	-13.1221
▁nqho	-13.1224
▁pli	-13.1225
▁Tshajpl	-13.1226
▁tojroo	-13.1231
▁Somsava	-13.1234
BMh	-13.1234
LK	-13.1235
▁BB	-13.1235
paubkuv	-13.1236
mi	-13.1236
▁kablau	-13.1237
▁nyhoo	-13.1238
▁links	-13.1238
▁Hum	-13.1239
▁Dana	-13.1241
▁hmu	-13.1249
▁Nka	-13.1259
▁Mountain	-13.1262
his	-13.1263
▁sortie	-13.1265
hehehehehehehehe	-13.1268
▁manipulate	-13.127
gT	-13.127
▁WA	-13.127
yias	-13.127
339	-13.1272
▁tolera	-13.1277
LWJ	-13.1285
▁inch	-13.1296
HEEJ	-13.1297
ster	-13.1297
▁Prince	-13.1301
▁Hmoon	-13.1308
xyeej	-13.1308
▁cup	-13.1313
laag	-13.1314
IHdy	-13.1316
nag	-13.1316
▁98	-13.1322
txaj	-13.1323
▁ethic	-13.1324
LIAB	-13.1325
▁nplaaj	-13.1325
▁AMERICA	-13.1326
▁tshajplaw	-13.1326
ywj	-13.1327
▁faa	-13.1334
ield	-13.1335
▁royal	-13.1336
elfare	-13.1337
▁CALIFO	-13.1337
▁SYSTEM	-13.1337
▁Shiiyi	-13.1338
▁domestic	-13.1338
▁wealth	-13.1338
▁Antho	-13.1338
▁Fairground	-13.1338
▁Croc	-13.1338
▁Beside	-13.1338
▁Unknown	-13.1338
▁chivkeeb	-13.1338
▁Realist	-13.1338
▁LAWYER	-13.1338
▁NRUAB	-13.1338
▁EXPERT	-13.1338
▁junk	-13.1338
▁Khmer	-13.1338
▁indirect	-13.1339
▁liberate	-13.1339
▁Laonork	-13.1339
▁commitment	-13.1339
▁MINORIT	-13.1339
▁Pobntoos	-13.1339
▁RAS	-13.134
▁Book	-13.134
▁institution	-13.134
▁UNDERSTAND	-13.1342
▁kabtsib	-13.1342
▁Amkha	-13.1342
▁namyau	-13.1343
▁Maivkau	-13.1343
▁PHONE	-13.1343
▁Chor	-13.1344
▁jews	-13.1345
▁walleye	-13.1345
▁SKS	-13.1347
ire	-13.1348
▁txawjxoom	-13.1353
▁hlw	-13.1354
dwas	-13.1356
▁cuagli	-13.1356
▁comparis	-13.1359
▁MAJTRA	-13.136
▁pabtha	-13.1361
bodies	-13.1361
▁XIM	-13.1363
▁ceevx	-13.1363
▁mekong	-13.1363
pua	-13.1365
▁Phwnyaw	-13.1365
▁Aim	-13.1365
▁chib	-13.1365
▁organized	-13.1367
PAUS	-13.1369
▁SN	-13.1372
pt	-13.1374
▁thaas	-13.1374
▁organizer	-13.1376
▁Lispov	-13.1376
▁Loas	-13.1379
▁roo	-13.1381
INTO	-13.1384
▁muscle	-13.1385
▁Tsevnee	-13.1386
▁zoozoo	-13.139
▁Xaam	-13.139
▁WEEK	-13.1391
▁xwg	-13.1393
▁Interio	-13.1394
▁HUV	-13.1394
loskuv	-13.1395
ntiav	-13.1398
▁sang	-13.14
▁vum	-13.1404
▁plhe	-13.1404
▁xavkom	-13.1405
understood	-13.1405
xias	-13.1405
kiab	-13.1406
▁Moon	-13.1408
▁Yeem	-13.141
nti	-13.1413
▁answers	-13.1417
▁Xy	-13.142
05	-13.1422
▁tubse	-13.1435
▁cents	-13.1438
▁Vangvien	-13.1442
gc	-13.1447
▁MON	-13.1457
▁supporter	-13.146
PR	-13.1462
=8	-13.1462
▁twh	-13.1468
▁hahah	-13.1468
▁Plan	-13.1469
AME	-13.1477
▁expire	-13.1485
▁lujx	-13.1488
npuas	-13.149
▁Kv	-13.1497
ska	-13.15
▁deed	-13.1503
▁Ever	-13.1503
015	-13.1505
nyaj	-13.1507
▁core	-13.1511
▁HI	-13.1514
▁Sat	-13.1515
▁...).	-13.152
▁rhua	-13.1521
sawv	-13.1525
▁MOVIE	-13.1532
till	-13.1532
Muas	-13.1533
Dr	-13.1535
Fa	-13.1537
elementary	-13.1537
▁select	-13.1543
haj	-13.1546
▁Both	-13.1549
IAM	-13.155
▁suavteb	-13.1552
tees	-13.1557
cker	-13.1558
▁dec	-13.156
txhaum	-13.156
08	-13.156
▁SA	-13.1563
▁96	-13.1563
Lem	-13.1564
▁!!!.	-13.1565
lhob	-13.1568
▁ntshw	-13.1571
ja	-13.1576
global	-13.1578
Cheng	-13.1579
▁!!.	-13.1583
▁possess	-13.1583
▁qhovquav	-13.1586
▁sws	-13.1589
ez	-13.159
▁===	-13.1593
▁sh	-13.1596
▁Citizen	-13.1605
lawj	-13.1611
▁ves	-13.1613
▁nyu	-13.1615
lajkab	-13.1616
▁Frank	-13.1616
law	-13.1618
▁Trust	-13.1628
▁DEMOCRAC	-13.1632
▁Festival	-13.1632
▁Which	-13.1632
▁Traitor	-13.1632
▁persue	-13.1632
▁repent	-13.1632
▁oversea	-13.1632
▁brief	-13.1632
LmA	-13.1632
▁silent	-13.1632
▁Learn	-13.1632
▁Check	-13.1632
▁equipment	-13.1632
▁privac	-13.1632
▁winner	-13.1632
▁underage	-13.1633
▁nchaa	-13.1633
▁strike	-13.1633
▁Student	-13.1633
▁pennies	-13.1633
▁Zoua	-13.1633
▁Angola	-13.1633
▁NCIG	-13.1634
▁Hmmob	-13.1634
▁Dien	-13.1634
▁confident	-13.1634
▁seminar	-13.1634
▁regulation	-13.1634
▁Ri	-13.1635
▁weight	-13.1635
▁KUv	-13.1636
▁KABLIAM	-13.1636
lij	-13.1637
▁lower	-13.1638
▁KEEB	-13.1638
▁racis	-13.1638
▁nyaib	-13.164
▁polite	-13.164
▁npos	-13.1641
▁memorial	-13.1642
▁Xyom	-13.1642
▁TOD	-13.1644
▁admitt	-13.1644
une	-13.1645
▁ntxawv	-13.1647
▁literal	-13.1648
inwung	-13.165
▁sistxuas	-13.1652
LAWS	-13.1657
▁hij	-13.1657
▁piaj	-13.1657
▁89	-13.1658
▁dlob	-13.1658
▁RADI	-13.166
▁TAUJ	-13.1661
txias	-13.1664
TEG	-13.1664
light	-13.1664
▁ibpliag	-13.1673
▁thoos	-13.1674
Lqe	-13.1676
▁juic	-13.1676
▁speculate	-13.1677
▁bid	-13.1681
▁qhabna	-13.1684
▁npooj	-13.1684
▁dominate	-13.1685
pussy	-13.1686
garden	-13.1686
▁Maam	-13.1689
xes	-13.1691
AKE	-13.1696
▁taxi	-13.1696
▁Mav	-13.1698
zaum	-13.1699
▁FA	-13.1701
▁lubcev	-13.1701
dib	-13.1704
▁DA	-13.1709
sev	-13.1711
lau	-13.1719
▁STOP	-13.1724
▁UV	-13.1724
meskas	-13.1725
▁ndla	-13.1728
▁wide	-13.173
▁yad	-13.173
▁Ou	-13.1731
▁practic	-13.1732
1954	-13.1733
sted	-13.1733
▁LIBER	-13.1738
▁cable	-13.1746
kasmoos	-13.1747
▁cojnoj	-13.1747
▁det	-13.1749
ec	-13.175
▁sibhaumxee	-13.1751
plaim	-13.1757
nia	-13.1757
▁Temsi	-13.1758
▁zoglawm	-13.1758
▁Aud	-13.1765
true	-13.1769
▁60%	-13.1771
▁wing	-13.1773
▁comfort	-13.1774
KPiAN	-13.1775
▁fan	-13.1778
plag	-13.1782
▁Caw	-13.1783
▁georg	-13.1783
▁LOOK	-13.1786
▁qob	-13.1787
▁eve	-13.1788
xi	-13.1789
▁Cag	-13.1796
620	-13.1797
▁Dlai	-13.1799
▁Phon	-13.18
▁Tauj	-13.1801
dlaag	-13.1807
▁Nyo	-13.1812
di	-13.1814
▁TSAU	-13.1816
toom	-13.1817
npawg	-13.1818
Jr	-13.182
▁commercial	-13.182
▁BC	-13.1821
▁spokes	-13.1821
▁rise	-13.1825
▁phan	-13.1834
nqa	-13.1834
gd	-13.1836
▁CAUSE	-13.1838
▁xuvxw	-13.1841
▁dlais	-13.1844
▁Yiv	-13.185
key	-13.1853
▁Yor	-13.1854
39	-13.1854
▁GA	-13.1854
▁error	-13.1857
35	-13.1859
▁slaver	-13.186
istic	-13.186
959	-13.1866
txhiaj	-13.1867
▁plabplaw	-13.1876
▁tool	-13.1876
tbn	-13.1881
▁suprem	-13.1884
702	-13.1885
▁$60	-13.1886
XWM	-13.1886
Rwg	-13.1888
▁articles	-13.1889
▁myth	-13.1889
▁Hna	-13.1892
ntshiab	-13.1893
coming	-13.1902
den	-13.1903
▁350	-13.1906
▁Support	-13.1914
tsua	-13.1915
▁audio	-13.1916
▁crap	-13.1916
▁****	-13.1921
byB	-13.1922
▁naha	-13.1926
▁Txawjvam	-13.1928
▁Txua	-13.1929
ves	-13.1929
▁Yin	-13.1932
Pheej	-13.1934
▁Guyan	-13.1934
ROUND	-13.1935
▁CONTACT	-13.1935
▁Mutual	-13.1935
▁SIJHAWM	-13.1935
▁Street	-13.1935
▁strength	-13.1935
▁dialogue	-13.1935
▁distinguish	-13.1935
▁Francisco	-13.1935
▁PERFECT	-13.1935
▁TAMSIM	-13.1935
▁hotdog	-13.1935
▁ignorant	-13.1935
▁Canber	-13.1935
▁Jungle	-13.1935
▁permit	-13.1935
▁Angeles	-13.1935
▁classmate	-13.1935
▁doens	-13.1935
▁Saab	-13.1935
▁knock	-13.1935
▁greenbay	-13.1935
▁HAIVNEEG	-13.1935
▁caubmoos	-13.1936
▁RESPECT	-13.1936
▁Sadam	-13.1936
cav	-13.1936
▁riov	-13.1936
▁TSWM	-13.1936
▁BEST	-13.1936
▁servant	-13.1936
▁Beginanew	-13.1936
▁ygo	-13.1937
▁Still	-13.1937
▁TXAV	-13.1937
▁TAJ	-13.1937
▁tseeem	-13.1938
▁Dollar	-13.1938
▁Daniel	-13.1938
▁TSHIAJ	-13.1939
▁paajlug	-13.1939
▁Jose	-13.1939
▁ton	-13.1939
▁burger	-13.194
▁download	-13.194
Khekme	-13.1941
▁buddh	-13.1941
▁Bliatou	-13.1942
▁huabcua	-13.1943
▁emergenc	-13.1944
▁historical	-13.1945
▁fiab	-13.1945
▁93	-13.1946
▁blessing	-13.1946
▁Nrau	-13.1947
▁Kabliab	-13.1947
▁dawbpaug	-13.1948
▁KHAWB	-13.1949
▁decades	-13.195
▁carpe	-13.1952
▁dump	-13.1953
hawv	-13.1954
LUS	-13.1955
unning	-13.1959
SX	-13.1962
▁Zone	-13.1964
xaim	-13.1964
▁prayer	-13.1964
▁dlhos	-13.1965
▁Make	-13.1973
▁tuias	-13.1978
▁ntugkev	-13.198
▁rocket	-13.1981
▁weapons	-13.1984
▁tshaajplaw	-13.1986
ber	-13.1986
▁suck	-13.199
lino	-13.1991
▁ceebtoo	-13.1991
▁sibsau	-13.1992
we	-13.1993
Yaig	-13.1999
▁hire	-13.1999
▁Deng	-13.2002
swjhwm	-13.2003
oth	-13.2006
▁thw	-13.2007
%.	-13.2007
▁ana	-13.2017
▁Nob	-13.2019
▁cows	-13.202
aying	-13.2024
TSWV	-13.2036
▁OG	-13.2045
ISA	-13.2054
▁edit	-13.2056
▁bu	-13.2057
▁fam	-13.2064
▁ntawdlos	-13.2071
ped	-13.2075
66	-13.2077
▁timub	-13.2079
▁DIAM	-13.208
AWB	-13.208
IM	-13.2083
▁Nyavd	-13.2084
ut	-13.2084
NH	-13.2084
▁npho	-13.2088
▁ying	-13.2092
▁Txhoj	-13.2095
▁HN	-13.2098
xawm	-13.2106
FL	-13.2113
vwm	-13.2123
▁1200	-13.2125
artial	-13.2126
▁Thas	-13.2128
▁Tsavli	-13.213
chaofa	-13.2133
▁Ntxw	-13.2139
ital	-13.215
▁Ther	-13.2154
2005	-13.2164
tan	-13.2165
YN	-13.2166
pp	-13.2167
txhua	-13.2167
▁30%	-13.2171
him	-13.2172
▁reconciliat	-13.2173
xas	-13.2173
fortune	-13.2175
▁YU	-13.2179
▁acts	-13.2181
lr	-13.2181
▁KH	-13.2184
asith	-13.2186
XOB	-13.2187
▁approv	-13.2187
BLOG	-13.2195
hloov	-13.2195
Ntuj	-13.2196
▁$120	-13.2197
cal	-13.2197
local	-13.2199
txivneej	-13.2204
▁Ees	-13.2208
nyag	-13.2209
▁Khet	-13.2209
▁kou	-13.221
▁consonant	-13.2212
tomntej	-13.2213
▁Fuabtai	-13.2214
▁Hihihi	-13.2215
DAG	-13.2216
mhoob	-13.2227
▁Txi	-13.2231
OOJ	-13.2233
qw	-13.2233
▁Kan	-13.2234
▁Iran	-13.2234
▁Mag	-13.2237
▁Kablia	-13.2239
▁Wis	-13.224
▁Saum	-13.2243
▁plans	-13.2245
▁exact	-13.2245
▁counsel	-13.2246
▁sudden	-13.2247
▁CHRISTIAN	-13.2247
▁GENERATION	-13.2247
▁recipe	-13.2247
▁LABEL	-13.2247
▁SOCIAL	-13.2247
▁NPLAIG	-13.2247
▁joking	-13.2247
▁Phomvihan	-13.2247
▁Abuse	-13.2247
▁JAIL	-13.2247
▁WHOLE	-13.2247
▁Tsachij	-13.2247
▁season	-13.2248
uOC	-13.2248
khuam	-13.2248
▁righteous	-13.2248
▁Greek	-13.2248
▁BLACK	-13.2248
▁TXHIAJLIS	-13.2248
▁NPWB	-13.2248
▁NTXHOV	-13.2248
▁alternative	-13.2248
▁Khmu	-13.2248
▁Northern	-13.2248
▁HC	-13.2249
▁Kenne	-13.2249
▁Hau	-13.2249
▁yeeej	-13.225
▁Distric	-13.225
▁phabnab	-13.2251
▁CREDIT	-13.2251
▁limpiam	-13.2252
▁ntlag	-13.2252
LqV	-13.2253
▁TXHOM	-13.2254
avior	-13.2254
▁borrow	-13.2254
▁bright	-13.2254
▁bait	-13.2255
▁mobile	-13.2256
▁Tsaus	-13.2258
▁mauv	-13.2261
▁collective	-13.2261
▁PERSECUTE	-13.2262
Xab	-13.2265
▁boil	-13.2267
▁luagntxhi	-13.2269
faib	-13.2271
▁zauj	-13.2274
▁Puam	-13.2278
▁Ce	-13.2282
▁harrass	-13.2282
▁saav	-13.2282
▁LEADERS	-13.2283
phiaj	-13.2285
▁tusiav	-13.2287
▁saved	-13.2289
▁naus	-13.2289
lc	-13.229
Suav	-13.2293
gU	-13.2294
▁dare	-13.2294
tI	-13.2297
▁nchu	-13.2297
▁NOG	-13.2298
▁totall	-13.23
RFA	-13.2302
▁GENE	-13.2306
▁Mary	-13.2308
main	-13.231
▁HMOO	-13.2313
sp	-13.2314
va	-13.2316
▁Name	-13.2316
ese	-13.2317
eker	-13.232
▁tseen	-13.2321
tha	-13.2321
▁Nig	-13.2322
kg	-13.2322
▁Toob	-13.2323
ithout	-13.2324
▁hnya	-13.2325
rious	-13.2325
="	-13.2327
▁kwjha	-13.233
LG	-13.2331
▁useful	-13.2335
▁joint	-13.234
▁piab	-13.2346
▁yeb	-13.2348
▁Hopeful	-13.2349
▁Chan	-13.2349
DA	-13.2351
▁Con	-13.2352
YIJ	-13.2352
▁Mission	-13.2353
fishing	-13.2357
▁dc	-13.2357
haav	-13.2358
▁Ev	-13.2359
▁scar	-13.236
space	-13.2372
rew	-13.2376
▁TR	-13.238
▁ndlua	-13.2385
ieng	-13.2388
▁loojme	-13.2392
ght	-13.2396
▁uaskuv	-13.2397
▁PX	-13.2398
▁five	-13.2399
OOM	-13.24
Tub	-13.24
▁peoples	-13.2401
lawg	-13.2405
▁Pivtxw	-13.2408
▁nkaujhmoob	-13.2414
▁que	-13.2417
▁cyberspa	-13.2418
▁TSE	-13.2419
▁develope	-13.2426
▁phle	-13.2432
▁khooj	-13.2433
▁,..	-13.2434
pauv	-13.2435
▁TAI	-13.2436
inh	-13.2436
▁prob	-13.2439
▁Tamsisno	-13.2442
▁Cias	-13.2447
▁BZ	-13.2449
▁HMA	-13.2449
▁Acha	-13.2452
▁giv	-13.2456
ooj	-13.2456
ywv	-13.2462
KAUV	-13.2463
valent	-13.2464
IAV	-13.2466
krabok	-13.2466
▁pour	-13.2476
▁NRA	-13.2476
▁EN	-13.2481
▁Hmoobvaj	-13.2482
formed	-13.2482
▁qwj	-13.2487
▁zoonraug	-13.2488
▁txoh	-13.2489
▁PROTEST	-13.249
▁Txaw	-13.249
plawv	-13.2491
▁tough	-13.2493
▁rovlawm	-13.2497
▁ED	-13.2506
cev	-13.2509
▁herb	-13.251
▁Lengsavat	-13.2515
▁coup	-13.2515
ters	-13.2516
board	-13.2517
luang	-13.2521
ntswg	-13.2523
▁203	-13.2526
koov	-13.253
chawj	-13.2534
▁christain	-13.2534
▁ntias	-13.2535
ement	-13.2537
Lm	-13.2538
front	-13.2538
▁vaajpo	-13.2541
TIC	-13.2542
OC	-13.2545
▁LIST	-13.2547
KAWM	-13.255
▁Souk	-13.2551
fu	-13.2554
▁ou	-13.2554
sov	-13.2559
bu	-13.2562
mer	-13.2563
▁2500	-13.2563
AUS	-13.2566
MN	-13.2566
▁COMPATRIOT	-13.257
▁YAWEH	-13.257
▁universal	-13.257
▁BOMB	-13.257
▁Gossip	-13.257
▁sheboygan	-13.257
▁latin	-13.257
▁Brooklyn	-13.257
▁nruabnra	-13.257
▁NPAV	-13.257
▁Rule	-13.257
▁valuable	-13.2571
▁assembly	-13.2571
LuD	-13.2571
▁Ntaaj	-13.2571
▁NPAWS	-13.2571
▁Savannakhe	-13.2571
▁European	-13.2571
▁Host	-13.2571
▁chairman	-13.2571
▁canada	-13.2571
▁rain	-13.2572
▁assessment	-13.2572
▁HOPE	-13.2572
▁everyday	-13.2573
▁KEM	-13.2575
▁HLAWV	-13.2575
LqE	-13.2575
ara	-13.2576
▁signal	-13.2576
▁instrument	-13.2576
▁Samneu	-13.2577
▁Lonewrit	-13.2577
▁LUCK	-13.2578
▁TXOB	-13.2578
▁kablig	-13.258
▁prosperit	-13.2581
▁estate	-13.2581
▁FACE	-13.2586
▁Fire	-13.2586
▁TUAB	-13.2587
▁Yas	-13.2589
▁Isn	-13.2589
▁juj	-13.2591
▁Huay	-13.2592
ruC	-13.2593
shia	-13.2593
cide	-13.2593
▁Lwb	-13.2594
▁Theem	-13.2595
▁Kun	-13.2596
▁Agree	-13.2597
▁westerner	-13.2597
▁ntsaaj	-13.26
▁RED	-13.26
36	-13.26
▁ywb	-13.26
taab	-13.2603
▁FUN	-13.2608
▁REALIST	-13.261
pl	-13.261
▁Miche	-13.2612
▁ntsaav	-13.2614
▁ntxu	-13.2617
▁Mika	-13.2619
media	-13.262
▁tie	-13.262
▁dekfangkho	-13.2623
▁khem	-13.2623
▁paig	-13.2624
▁TubPo	-13.2624
▁vimlawv	-13.2632
▁tubhluas	-13.2635
▁tajla	-13.264
▁Xyo	-13.2643
▁primar	-13.2644
ld	-13.2652
▁qhoom	-13.2655
tsuaj	-13.2659
twincities	-13.2662
▁....(	-13.2668
▁vin	-13.267
TIS	-13.2671
▁calculate	-13.2671
gQ	-13.2673
▁movtshua	-13.2674
maim	-13.2674
▁kl	-13.2679
Nomdub	-13.2683
ud	-13.2685
▁STOR	-13.2691
TSIM	-13.2691
▁thinks	-13.2694
▁qhoo	-13.2696
▁MEN	-13.2696
▁persons	-13.2701
AJ	-13.2702
▁LEV	-13.2708
bok	-13.271
klawm	-13.2712
▁qhaug	-13.2715
41	-13.2721
sia	-13.2726
LINE	-13.2726
▁mloo	-13.2729
▁Ask	-13.2733
▁Fiv	-13.2734
PL	-13.2737
▁butt	-13.274
RE	-13.2749
▁Chaofab	-13.275
venge	-13.2755
▁expose	-13.2755
▁Zooli	-13.2756
IHR	-13.276
▁nrhee	-13.2761
laib	-13.2765
EEV	-13.2769
laos	-13.2771
▁fell	-13.2777
96	-13.2777
▁Hmab	-13.2778
▁cop	-13.2786
▁NOI	-13.2788
▁Dia	-13.2792
▁sibntau	-13.2795
khawb	-13.2798
▁fabricate	-13.2805
▁dlho	-13.2806
▁YOUTUB	-13.2807
tiv	-13.2808
▁polici	-13.2814
right	-13.2819
▁OFF	-13.282
▁Ntshais	-13.2821
tense	-13.2831
▁unit	-13.2832
▁tshia	-13.2832
ns	-13.2833
▁190	-13.2836
▁Tw	-13.2837
▁hahhahahaha	-13.2838
▁sons	-13.2838
ommer	-13.2839
▁phak	-13.284
▁rovmus	-13.284
display	-13.2851
women	-13.2851
▁CF	-13.2855
▁hujsa	-13.2858
▁HT	-13.2865
rb	-13.2867
khouang	-13.2867
▁TN	-13.2878
▁crack	-13.2879
▁FAG	-13.2886
▁Box	-13.2889
hd	-13.2892
AY	-13.2893
roit	-13.2893
▁THANKS	-13.2894
amthong	-13.2895
▁hehehhe	-13.2896
▁pot	-13.2897
▁Moobt	-13.2897
▁hnu	-13.2898
▁che	-13.2898
tsib	-13.2899
▁assign	-13.2902
▁Republic	-13.2903
▁opportuniti	-13.2903
▁Concord	-13.2903
▁KHHX	-13.2903
▁exploit	-13.2903
▁ADMIT	-13.2903
▁TRUTH	-13.2903
▁trend	-13.2903
▁Noobqes	-13.2903
▁Queen	-13.2903
▁TIBSI	-13.2903
▁Wikileak	-13.2903
▁definite	-13.2903
▁NTSUB	-13.2903
▁washington	-13.2903
▁MATTER	-13.2903
▁genetic	-13.2903
▁proverb	-13.2903
▁DABNEEG	-13.2903
▁dozen	-13.2903
▁imagination	-13.2904
▁obligation	-13.2904
▁PEPSI	-13.2904
▁amazing	-13.2904
▁arrange	-13.2904
▁Dream	-13.2904
▁unpo	-13.2904
▁atleast	-13.2904
▁KHUV	-13.2904
▁Teacher	-13.2904
▁TSEEMSW	-13.2905
▁korean	-13.2905
▁larry	-13.2905
▁HinHe	-13.2905
▁Oreg	-13.2905
▁tubntsuaghmoob	-13.2905
▁guideline	-13.2906
▁1930	-13.2906
▁CAWS	-13.2907
▁Uj	-13.2908
▁Savanh	-13.2908
▁QUS	-13.2908
ery	-13.2909
▁Ntiv	-13.2909
▁Sahapha	-13.2909
▁oxy	-13.2909
▁tuition	-13.2909
▁HMANTSUAB	-13.2909
▁troops	-13.291
▁Hlubhmoob	-13.291
▁hahahahahah	-13.291
▁HUAS	-13.291
▁spam	-13.2911
▁acknowledge	-13.2912
▁Naag	-13.2912
▁Zej	-13.2913
▁four	-13.2913
ARY	-13.2914
▁hill	-13.2914
▁KHAWV	-13.2914
▁cuabka	-13.2918
▁quv	-13.292
▁ZEEJ	-13.2921
NCg	-13.2922
▁lajlee	-13.2923
▁Khawv	-13.2924
▁tshavntuj	-13.2926
▁Nrauj	-13.2929
▁pujyawm	-13.293
ssenger	-13.293
▁Doos	-13.293
▁Dawm	-13.2931
▁?......	-13.2932
▁Tell	-13.2933
▁MAY	-13.2934
▁peaco	-13.2935
▁lesbian	-13.2935
▁WERE	-13.2937
▁FL	-13.2937
▁612	-13.2939
▁Mae	-13.294
▁resettlemen	-13.2941
▁Phao	-13.2942
SUAV	-13.2943
▁Yawd	-13.2943
▁flower	-13.2944
▁AA	-13.2945
▁lnk	-13.2945
▁txop	-13.2946
▁combine	-13.2946
▁Nyom	-13.2949
▁mosX	-13.295
rt	-13.2952
▁SP	-13.2952
lz	-13.2955
NTAJ	-13.2958
▁mall	-13.2959
YOG	-13.2963
▁Phuajxa	-13.2968
txha	-13.2968
▁Huh	-13.2971
▁thoojsiab	-13.2976
UJ	-13.2978
mog	-13.2981
▁zob	-13.2981
▁kevkawm	-13.2983
▁graduati	-13.2983
▁kwb	-13.2986
▁yoos	-13.2986
▁SELF	-13.2993
▁txujlug	-13.2993
▁foreigner	-13.2995
▁Bei	-13.2997
lhau	-13.2997
mis	-13.3001
▁nplai	-13.3009
37	-13.3011
cim	-13.3013
▁nyus	-13.3016
▁AIB	-13.3018
anning	-13.3027
▁broad	-13.3028
paus	-13.3036
▁Ro	-13.3038
▁Qhuas	-13.3041
arma	-13.3041
▁Maib	-13.3042
▁Tsus	-13.3043
▁NRAU	-13.3044
▁Tri	-13.3044
ZS	-13.305
for	-13.3051
▁Tsoo	-13.3054
▁nio	-13.3054
▁Txab	-13.306
caws	-13.3061
▁hr	-13.3063
standing	-13.3067
RAWM	-13.3073
Taste	-13.3075
Company	-13.3075
OUR	-13.3079
WB	-13.308
▁Eh	-13.308
yaum	-13.3086
▁Ulia	-13.3091
▁Ntxa	-13.3094
KOOB	-13.31
▁tshw	-13.3108
▁LOGIC	-13.311
AR	-13.311
▁dh	-13.3115
HAIV	-13.3117
▁txivtsev	-13.3125
EW	-13.3128
▁Vajtsw	-13.313
▁Cu	-13.3132
▁Phra	-13.3142
▁suj	-13.3143
eplay	-13.3143
registered	-13.3144
ot	-13.3145
▁Sy	-13.3147
▁exam	-13.3149
ro	-13.315
▁youth	-13.3153
miv	-13.3155
▁vaajm	-13.3161
logy	-13.3161
▁tejlub	-13.3162
ihrw	-13.3162
year	-13.3162
fong	-13.3165
▁NQI	-13.3165
▁WIN	-13.3165
▁suppl	-13.3166
AUJ	-13.3168
deev	-13.3169
HWV	-13.3172
qaub	-13.3173
dWF	-13.3173
▁TNB	-13.3179
not	-13.3181
▁)))	-13.3191
english	-13.3195
▁Nplob	-13.3198
▁heheheheheh	-13.3199
▁Sing	-13.3202
peg	-13.3205
wo	-13.3205
msg	-13.3206
Koj	-13.3208
▁Yua	-13.3209
rain	-13.3211
▁hou	-13.3211
▁Friends	-13.3213
DT	-13.3217
avanh	-13.3218
▁ASIA	-13.3219
▁Fo	-13.3219
▁elder	-13.322
▁160	-13.3222
▁ego	-13.3226
▁Ed	-13.3227
Dub	-13.3229
▁MOM	-13.323
cuj	-13.3233
▁Uta	-13.3234
leev	-13.3237
▁temper	-13.3237
▁reg	-13.3238
▁Tel	-13.3238
▁Ntsuabxw	-13.3242
▁nyw	-13.3244
▁shock	-13.3246
▁PEACE	-13.3248
▁NTXEEV	-13.3248
▁ALWAY	-13.3248
▁Click	-13.3248
▁diaper	-13.3248
▁expertise	-13.3248
▁Baptist	-13.3248
▁TxawjVamYia	-13.3248
▁denomination	-13.3248
▁determination	-13.3248
▁GIVE	-13.3248
▁umbrella	-13.3248
▁champion	-13.3248
▁childish	-13.3248
▁Txhawj	-13.3248
▁teejtu	-13.3249
▁rebel	-13.3249
▁MEDAL	-13.3249
▁powerball	-13.3249
▁fundamental	-13.3249
▁milk	-13.3249
▁Hzen	-13.3249
▁dok	-13.3249
▁DPT	-13.3249
▁merced	-13.3249
▁Surge	-13.3249
▁XUAS	-13.3249
▁KLG	-13.325
▁IRC	-13.325
▁blank	-13.325
▁expectation	-13.325
▁mor	-13.325
▁Archive	-13.3251
▁Issue	-13.3251
▁object	-13.3252
▁usage	-13.3252
▁upper	-13.3252
▁BELIEVE	-13.3252
▁Dejtshiab	-13.3253
▁Mn	-13.3253
▁TIAJ	-13.3253
▁Yeebceeb	-13.3253
▁Finding	-13.3254
▁NQES	-13.3254
▁QHUAB	-13.3254
▁LUJ	-13.3254
▁fiav	-13.3254
▁FULL	-13.3255
▁THIAJLI	-13.3255
▁Pia	-13.3256
▁jhav	-13.3256
▁Ntxhua	-13.3256
▁Zwj	-13.3256
▁Npog	-13.3257
Thawj	-13.3257
▁hihihi	-13.3257
xev	-13.3258
▁Kheng	-13.3258
▁Khaub	-13.3258
ausuav	-13.3259
▁administration	-13.3259
Qo	-13.3261
▁...".	-13.3262
▁Huana	-13.3262
▁QWS	-13.3262
▁doctrine	-13.3262
Golden	-13.3263
▁actors	-13.3265
▁Give	-13.3268
▁Turn	-13.3269
▁york	-13.327
▁agthi	-13.327
▁elite	-13.3271
▁Qaug	-13.3273
▁Gate	-13.3277
▁governments	-13.3278
▁Diab	-13.3278
▁Qhuab	-13.3279
▁HMONGS	-13.3282
▁Nel	-13.3283
LA	-13.3284
try	-13.3284
▁nkuag	-13.3284
▁Bouas	-13.3289
▁restrain	-13.3292
▁Faib	-13.3295
ok	-13.3302
0800	-13.3306
khw	-13.3306
▁sej	-13.3306
▁tshawg	-13.331
▁HNO	-13.3311
▁saint	-13.3313
▁Duab	-13.3315
cum	-13.3316
▁brave	-13.3319
caav	-13.332
▁researcher	-13.332
▁imply	-13.3325
▁reps	-13.3325
laig	-13.3327
▁Han	-13.3328
▁siabntev	-13.333
▁stopp	-13.333
lawvlub	-13.3332
▁TSHI	-13.3333
▁ntxhwb	-13.3337
▁Vongsavan	-13.3339
02	-13.3343
lasmas	-13.3343
nev	-13.3343
▁Ntsha	-13.3354
▁fem	-13.3359
HL	-13.3364
▁Hot	-13.3365
fuam	-13.3365
▁Het	-13.3371
▁nqaag	-13.3376
EY	-13.338
▁tight	-13.3384
laud	-13.3385
▁xabn	-13.3388
hj	-13.3391
▁Craz	-13.3392
lang	-13.3394
▁TC	-13.3396
▁heevkawg	-13.3396
▁Hehehehehe	-13.3397
▁92	-13.3399
rocket	-13.34
▁Touge	-13.3402
▁boundar	-13.3404
▁beevee	-13.3405
eo	-13.3405
▁eng	-13.3408
tauj	-13.3412
sty	-13.3415
▁9%	-13.3416
BASS	-13.3418
▁Nak	-13.3424
▁intentional	-13.3425
▁Lij	-13.3428
▁yawgkoob	-13.3428
ative	-13.3429
nts	-13.3431
ility	-13.3433
▁israel	-13.344
kaoly	-13.344
▁55555	-13.3446
▁task	-13.3448
▁excit	-13.3448
▁Blooj	-13.345
hev	-13.3453
riam	-13.3455
sw	-13.3455
▁temp	-13.3461
▁Paus	-13.3463
ated	-13.3463
lai	-13.3464
tired	-13.3465
▁Daw	-13.3466
▁camps	-13.3469
▁Solomo	-13.347
tib	-13.3477
kua	-13.3481
▁MO	-13.3481
▁Unit	-13.3484
▁Mung	-13.3508
▁siabzoo	-13.3514
▁bitch	-13.3516
▁muslim	-13.352
▁jet	-13.3526
▁NTX	-13.3528
ciaj	-13.3535
yfoung	-13.3536
leb	-13.3537
/9	-13.3538
quot	-13.3539
xibfwb	-13.3553
▁cobqh	-13.3554
▁nplho	-13.3556
profit	-13.3557
mu	-13.3559
mphaj	-13.3561
MNZ	-13.3562
▁MB	-13.3566
xyeem	-13.3567
▁PR	-13.357
ught	-13.3575
ore	-13.3576
▁muaslw	-13.3582
ADE	-13.3582
tian	-13.3583
▁bed	-13.3588
mev	-13.3588
▁nyuabx	-13.3589
ngu	-13.359
▁tshoobko	-13.359
▁nthaw	-13.3591
▁XEEV	-13.3591
▁boon	-13.3592
Lij	-13.3594
▁angel	-13.3594
▁EXP	-13.3595
▁suppose	-13.3595
mboo	-13.3596
▁$80	-13.3597
iving	-13.3598
yav	-13.36
QN	-13.3601
▁user	-13.3603
▁Change	-13.3603
eginanew	-13.3603
relevant	-13.3605
▁Advisor	-13.3605
▁bargain	-13.3605
▁legitimacy	-13.3605
▁breath	-13.3605
▁BUSINESS	-13.3605
▁fashion	-13.3605
▁profanity	-13.3605
▁Website	-13.3605
▁HASTING	-13.3605
▁gender	-13.3605
▁resort	-13.3605
▁civilization	-13.3605
▁prominent	-13.3605
▁disaster	-13.3605
▁Brown	-13.3605
▁Walk	-13.3605
▁Chiangrai	-13.3605
▁tongue	-13.3605
▁baseball	-13.3605
▁NRIG	-13.3605
▁duties	-13.3605
▁toilet	-13.3605
▁NTXAWG	-13.3605
▁NKUAJ	-13.3605
▁Cwjso	-13.3606
▁NEGATI	-13.3606
▁dabntub	-13.3606
▁shadow	-13.3606
▁Nyuab	-13.3606
▁cruise	-13.3606
▁KHWB	-13.3606
▁grandpa	-13.3606
▁Jail	-13.3606
▁Talk	-13.3606
BODY	-13.3606
▁journalist	-13.3607
▁airplane	-13.3607
▁batter	-13.3608
▁Politician	-13.3608
▁FOU	-13.3608
▁vowel	-13.3608
▁mercy	-13.3608
▁ministry	-13.3609
▁THIB	-13.3609
▁NCUAV	-13.3609
▁DOLLAR	-13.3609
▁motivate	-13.3609
▁secure	-13.3609
▁DAIS	-13.3609
▁Nebra	-13.3609
▁kooshaum	-13.3609
▁grill	-13.3609
▁Ceebtsheej	-13.361
▁xaslas	-13.361
▁LEARN	-13.361
▁realistic	-13.361
imply	-13.361
▁txhoob	-13.361
▁XEJ	-13.361
▁angle	-13.3611
▁weird	-13.3611
▁NRAWM	-13.3611
▁Paajnruag	-13.3612
II	-13.3612
▁LEAD	-13.3612
▁Ntujceeb	-13.3613
▁Naikho	-13.3613
▁25%	-13.3614
▁wall	-13.3614
▁luangp	-13.3616
▁spoken	-13.3617
▁nujnqes	-13.3617
▁Use	-13.3617
70	-13.3618
▁ORDER	-13.362
▁NTXWV	-13.362
▁npawj	-13.3622
XEEM	-13.3622
▁blaum	-13.3623
cog	-13.3624
▁procedure	-13.3624
▁ciamteb	-13.3625
▁Share	-13.3625
▁coinciden	-13.3626
▁Rub	-13.3627
▁Npi	-13.3627
▁timmeskas	-13.3627
▁treated	-13.3628
Academ	-13.3628
▁lugtxaj	-13.3628
▁Zaam	-13.3629
▁Members	-13.3629
▁Stone	-13.363
LIS	-13.363
▁creation	-13.3631
▁Fib	-13.3633
▁Phoojywgzoo	-13.3633
▁laas	-13.3634
▁Phuan	-13.3635
▁tend	-13.3639
▁txhaij	-13.364
▁tshws	-13.364
▁CAIS	-13.364
▁SUA	-13.3641
▁KHOOV	-13.3643
▁Hie	-13.3645
=20	-13.3645
▁consonants	-13.3646
ual	-13.3647
▁mutual	-13.3647
▁450	-13.3648
▁tools	-13.3648
▁Aiv	-13.3648
▁suavtawg	-13.3653
▁LEJ	-13.3654
▁Phoufa	-13.3656
▁Pol	-13.3658
▁tiagX	-13.3659
▁Democratic	-13.3661
▁pounds	-13.3662
▁tubtxawj	-13.3664
▁pee	-13.3664
ajteb	-13.3664
▁Lawj	-13.3665
▁Yub	-13.367
NTUJ	-13.3675
▁koospha	-13.3678
▁txausx	-13.3679
▁Yajtshaj	-13.3679
▁Nonghe	-13.3681
gage	-13.3681
▁Mom	-13.3681
dding	-13.3681
eekend	-13.3684
▁ntxiaj	-13.3685
SIB	-13.3689
▁XAJ	-13.3689
▁nga	-13.369
▁Paula	-13.369
01	-13.3691
▁arrive	-13.3692
▁DOESN	-13.3692
dium	-13.3692
▁Sacto	-13.3693
vauv	-13.3694
▁route	-13.3695
OMAN	-13.3696
nuv	-13.3699
▁Pivxa	-13.3699
▁piamsi	-13.3706
VAS	-13.3707
▁cc	-13.3708
outhern	-13.3708
pajhuam	-13.3714
raya	-13.3717
▁91	-13.3717
POG	-13.3718
▁sys	-13.372
ncaws	-13.3724
YM	-13.3724
▁koomtsis	-13.3725
this	-13.3726
nqe	-13.3728
▁linked	-13.3729
▁Ted	-13.3733
Mhong	-13.3736
niv	-13.3736
▁Der	-13.3736
▁KHU	-13.3738
ivkas	-13.3738
▁dhuas	-13.374
▁plom	-13.375
▁Dlaa	-13.3753
58	-13.3753
▁xoomxai	-13.3756
▁tseemmuaj	-13.3756
▁lyte	-13.3757
▁Xaysombou	-13.3757
▁Yu	-13.3759
XAIM	-13.3762
▁NKAW	-13.3762
fawm	-13.3767
hour	-13.3771
▁oos	-13.3775
▁reports	-13.3775
▁Ntsa	-13.3777
fi	-13.3778
DD	-13.3782
YiB	-13.3783
▁cave	-13.3787
▁Tse	-13.3787
▁Thak	-13.379
▁Form	-13.3792
▁YOUNG	-13.3794
▁MHoobVa	-13.3803
▁dualawm	-13.3804
▁mouas	-13.3804
ville	-13.3811
▁quajx	-13.3816
▁tssi	-13.3817
tre	-13.3822
iew	-13.3825
fc	-13.3829
▁Kar	-13.3833
▁Soj	-13.3834
▁)-	-13.3835
▁clans	-13.3839
nis	-13.3841
▁Thej	-13.3842
▁mw	-13.3842
▁$70	-13.3843
▁Leo	-13.3844
▁nqajtaw	-13.3846
▁274	-13.3848
▁tuabyw	-13.385
▁!!!!!!!!!!	-13.3852
▁budd	-13.3852
unny	-13.3853
▁nerve	-13.3855
noi	-13.3859
▁Tshi	-13.3859
asia	-13.386
ncua	-13.3861
ntaus	-13.3861
_______________	-13.3863
▁egg	-13.3871
▁jar	-13.3873
itty	-13.3874
▁RI	-13.3874
HAUB	-13.3875
▁ibhom	-13.3878
▁copie	-13.3878
niaj	-13.3879
▁DES	-13.388
atter	-13.3883
▁LAST	-13.3884
▁xun	-13.3886
nrab	-13.3889
▁kaij	-13.389
▁xyas	-13.3892
▁xyiv	-13.3895
pj	-13.3896
▁TXIA	-13.3898
puam	-13.3899
iblub	-13.3913
▁HERO	-13.3914
▁!".	-13.3915
ALLY	-13.3917
lly	-13.3921
TO	-13.3922
html	-13.3923
DUB	-13.3924
havzoov	-13.3925
61	-13.3927
▁Phi	-13.3927
JVA	-13.3927
xawj	-13.3927
Xeem	-13.3927
Tais	-13.3927
▁nqo	-13.3927
Zab	-13.393
▁Lengsava	-13.3931
▁vu	-13.3937
▁dictator	-13.3939
▁Huabtai	-13.3941
zaug	-13.3945
▁historian	-13.3945
▁Bar	-13.3948
▁grat	-13.3955
rnsp	-13.3958
▁ibtxha	-13.3967
laim	-13.3972
▁Rat	-13.3972
▁Je	-13.3972
▁VINAI	-13.3974
▁AUTO	-13.3974
▁Nnk	-13.3975
▁experiment	-13.3975
▁Financ	-13.3975
UA	-13.3975
▁ACCEPT	-13.3975
▁Phoubia	-13.3975
▁RESULT	-13.3975
▁Argentin	-13.3975
▁YEXUS	-13.3975
▁harsh	-13.3975
▁syllable	-13.3975
▁throat	-13.3975
globe	-13.3975
▁FUCK	-13.3976
▁JULY	-13.3976
▁NKIAS	-13.3976
▁registration	-13.3976
▁Potter	-13.3976
▁SivYis	-13.3976
▁Chicago	-13.3976
▁Research	-13.3976
▁CHINES	-13.3976
▁Believe	-13.3976
▁Haujsam	-13.3976
▁amount	-13.3976
IMG	-13.3976
▁elevat	-13.3976
▁controvers	-13.3976
▁Kaysone	-13.3976
▁MILLIONS	-13.3977
▁draft	-13.3977
▁SECOND	-13.3977
▁boyfriend	-13.3977
▁perception	-13.3977
▁huajvam	-13.3977
▁characteristic	-13.3977
▁putting	-13.3977
▁SoobLwj	-13.3977
▁ropv	-13.3977
▁autonom	-13.3977
▁Work	-13.3977
▁recover	-13.3977
▁Xabtham	-13.3977
LiH	-13.3977
▁civilian	-13.3977
▁xtou	-13.3977
▁Udon	-13.3977
▁alot	-13.3977
▁NYOM	-13.3978
▁nthxa	-13.3978
▁presentation	-13.3978
nOC	-13.3978
▁OHYO	-13.3979
▁stranger	-13.3979
▁YEAR	-13.3979
▁although	-13.3979
▁ntlav	-13.3979
▁SHIT	-13.398
▁cambodia	-13.398
▁500$	-13.3981
▁invent	-13.3982
▁japan	-13.3982
▁DIB	-13.3983
▁BYE	-13.3984
▁TRY	-13.3985
▁dolas	-13.3985
▁tiger	-13.3985
▁supposed	-13.3986
caum	-13.3987
▁courage	-13.3987
ME	-13.3987
▁entertainment	-13.3987
▁nhab	-13.3988
▁Until	-13.3989
▁CHAV	-13.3989
▁ceej	-13.399
▁pobtsuas	-13.3993
▁install	-13.3995
▁interprete	-13.3995
▁povkhawv	-13.3995
▁NplogTeb	-13.3997
▁Thonglit	-13.3997
▁paw	-13.3999
▁Hak	-13.3999
qe	-13.3999
pos	-13.4004
▁kangaroo	-13.4005
▁QHA	-13.4005
ious	-13.4006
▁ntawj	-13.4007
▁circumstance	-13.4007
MEM	-13.4009
nda	-13.401
▁thaumntawd	-13.4012
▁pliv	-13.4012
▁wat	-13.4013
nrhiav	-13.4014
ture	-13.4014
▁kilo	-13.402
AWJ	-13.4024
nyias	-13.4025
▁motion	-13.4025
▁HEAR	-13.4028
tt	-13.4028
op	-13.4029
▁nchai	-13.4031
▁SEEM	-13.4038
▁nkaujhmoobli	-13.404
▁Txha	-13.4046
▁210	-13.4047
▁preacher	-13.4051
▁retard	-13.4055
▁kabntsa	-13.4059
▁gum	-13.406
▁Newhom	-13.4064
▁ualuam	-13.4071
71	-13.4073
▁detect	-13.4076
1921	-13.4076
▁.....,	-13.4077
▁par	-13.4079
▁txhuatug	-13.408
Item	-13.4086
thoj	-13.4087
zeeg	-13.4087
▁Suavdlaw	-13.409
▁Cawm	-13.409
abroad	-13.409
teev	-13.4091
wat	-13.4092
▁Cub	-13.4094
▁Tsem	-13.4095
▁None	-13.4096
operation	-13.4099
▁hopeful	-13.41
▁supplie	-13.4103
▁MIA	-13.4106
KO	-13.4106
▁Cog	-13.4107
▁miab	-13.4108
haib	-13.4109
PA	-13.411
▁EJ	-13.4112
▁????????	-13.4117
▁TSAW	-13.4118
saam	-13.4119
▁NkaujSt	-13.412
▁range	-13.4123
▁nrus	-13.4123
▁Yatho	-13.4125
▁stream	-13.4126
olitburo	-13.4127
▁PhabE	-13.4128
▁jai	-13.4129
▁$8	-13.413
▁phoojyw	-13.4137
▁Socie	-13.4139
▁sid	-13.414
▁pool	-13.4143
tL	-13.4148
▁load	-13.4151
▁til	-13.4154
07	-13.4158
pter	-13.4161
▁minorit	-13.4163
thaam	-13.4164
▁nq	-13.4169
ouager	-13.4172
vt	-13.4172
▁tall	-13.4177
▁Khabna	-13.4181
▁txhee	-13.4183
▁nkausli	-13.4184
▁roman	-13.4193
▁Fay	-13.4194
luib	-13.4194
▁CASE	-13.4194
▁Get	-13.4196
▁tsawgx	-13.4198
▁Nr	-13.4198
▁depart	-13.4203
CA	-13.4204
▁hihihihihihihi	-13.4206
▁51%	-13.4207
▁assist	-13.4208
ERD	-13.4212
ntsuav	-13.4212
▁peacefull	-13.4213
Ab	-13.4213
▁legs	-13.4215
84	-13.422
▁thong	-13.4226
▁nqiv	-13.4227
▁operate	-13.4229
▁nste	-13.4231
ouby	-13.4233
▁phe	-13.4239
LCB	-13.4241
▁gw	-13.4241
txij	-13.4244
▁PHAU	-13.4247
▁tour	-13.4248
maab	-13.425
earthlin	-13.4255
▁SOC	-13.4255
▁FAR	-13.426
▁DOES	-13.4268
▁foe	-13.4269
kuvlub	-13.427
▁Lauv	-13.4271
▁kuvniam	-13.4271
▁nplhai	-13.4278
▁Fil	-13.4281
▁bag	-13.4282
▁1800	-13.4286
▁Tsiv	-13.4287
huaj	-13.4289
NIAM	-13.4293
▁Phuaj	-13.4296
▁NTU	-13.4297
Tswb	-13.4298
nkag	-13.4302
▁)--	-13.4305
▁Diplom	-13.4306
ntsws	-13.4306
square	-13.4307
SCL	-13.4308
ntiajteb	-13.4311
dabneeg	-13.4312
TXWV	-13.4317
AMA	-13.4318
PT	-13.432
▁PLA	-13.4324
▁thajchaw	-13.4327
▁Teu	-13.433
joov	-13.4333
▁ibsab	-13.4335
▁archive	-13.4337
▁Dyna	-13.4338
▁Naiphon	-13.4339
LER	-13.434
▁------	-13.4341
▁NkaujHmoob	-13.4341
born	-13.4342
cent	-13.4343
▁heheh	-13.4344
AWV	-13.4346
▁Million	-13.4347
▁=========	-13.4348
▁Nc	-13.4348
▁Photo	-13.4351
xais	-13.4354
▁aimpim	-13.4355
/-	-13.4358
▁Ncaj	-13.4359
[...]
