<unk>	0
<s>	0
</s>	0
[CLS]	0
[SEP]	0
[MASK]	0
.	-3.31997
,	-3.59032
▁yog	-3.9735
▁li	-4.10749
▁ua	-4.21045
▁los	-4.29877
▁kuv	-4.33246
▁no	-4.33881
▁koj	-4.3707
▁tsis	-4.37848
▁yuav	-4.40602
▁tau	-4.43617
▁cov	-4.4858
▁lawm	-4.48811
▁thiab	-4.56531
▁hais	-4.6203
▁muaj	-4.64773
▁xwb	-4.68706
▁hmoob	-4.68879
▁ces	-4.69269
▁rau	-4.7212
▁tus	-4.76393
▁mus	-4.76613
▁ib	-4.78263
▁peb	-4.80324
▁mas	-4.82745
▁lub	-4.86062
▁tias	-5.03878
▁nws	-5.0449
▁zoo	-5.05134
▁yeej	-5.07914
▁lawv	-5.14165
▁tsi	-5.17467
▁nyob	-5.22307
▁qhov	-5.31458
▁kom	-5.37152
▁neeg	-5.40164
▁kev	-5.40242
▁tuaj	-5.40859
▁	-5.42059
▁tej	-5.4409
▁paub	-5.45581
▁tug	-5.48421
▁es	-5.49631
▁tseem	-5.50753
▁ntawd	-5.55835
▁twb	-5.56232
▁xav	-5.56887
▁muab	-5.60449
▁thiaj	-5.60928
?	-5.62133
...	-5.63155
▁nej	-5.65727
▁twg	-5.703
▁txog	-5.70948
▁thaum	-5.7469
▁yus	-5.75842
▁cas	-5.79521
▁lus	-5.80402
▁siab	-5.8345
▁le	-5.84088
▁luag	-5.85088
▁teb	-5.86609
▁sib	-5.88983
▁pab	-5.98915
▁vim	-5.99846
▁coj	-6.00162
▁uas	-6.00973
▁tas	-6.02064
▁txiv	-6.07327
▁nawb	-6.08311
▁saib	-6.08425
▁hauv	-6.09985
▁kawg	-6.10381
▁pom	-6.11307
▁tiag	-6.12425
▁puas	-6.13008
▁tag	-6.14314
▁me	-6.14535
▁yawg	-6.19229
▁nrog	-6.19928
-	-6.2232
▁ntau	-6.23635
▁yam	-6.23712
▁ho	-6.2425
▁ntawm	-6.24794
▁noj	-6.25027
▁leej	-6.25475
▁tub	-6.25617
▁niam	-6.26987
▁kiag	-6.27341
▁hab	-6.3031
▁the	-6.30537
▁sis	-6.31679
▁"	-6.31928
▁has	-6.32043
▁tom	-6.36314
▁txoj	-6.36838
▁txhob	-6.37424
▁to	-6.38876
▁lwm	-6.39859
2	-6.40676
▁qab	-6.40858
▁rov	-6.40948
▁os	-6.41267
▁nplog	-6.42385
▁txawm	-6.45683
▁hnub	-6.46127
▁(	-6.47984
▁tim	-6.48833
▁kuj	-6.49529
/	-6.50535
▁neej	-6.51477
▁lug	-6.52722
▁cia	-6.55252
▁dab	-6.55817
▁tawm	-6.55846
▁tuag	-6.56362
▁tham	-6.56777
▁siv	-6.56792
▁moob	-6.57212
▁ntawv	-6.57639
▁mam	-6.58784
▁tsev	-6.59546
▁ob	-6.59796
"	-6.62379
▁rua	-6.63631
▁tso	-6.64105
▁txawj	-6.65627
....	-6.67139
)	-6.67563
▁tua	-6.68306
▁nyiaj	-6.68541
▁heev	-6.68546
▁kawm	-6.71341
▁tab	-6.71628
▁sab	-6.71634
▁moog	-6.72878
s	-6.73102
▁sawv	-6.74203
▁ntseeg	-6.7805
▁ntag	-6.78552
▁tsum	-6.79394
▁lam	-6.7976
▁nuav	-6.81906
▁ntuj	-6.83208
▁tsuas	-6.84005
▁and	-6.84378
▁qhia	-6.84736
▁tseeb	-6.85337
▁tswv	-6.85364
▁kwv	-6.85838
▁xyoo	-6.88047
▁niag	-6.89942
▁suav	-6.9002
▁tshaj	-6.91721
▁coob	-6.92262
▁raug	-6.9384
▁muag	-6.9467
▁hos	-6.95391
▁loj	-6.96025
▁nwg	-6.96266
▁txhua	-6.97456
▁hu	-6.98207
▁laus	-6.98447
▁dua	-6.9891
▁poj	-6.99321
▁sau	-6.99427
▁cai	-6.99957
▁of	-7.00013
▁thov	-7.00144
▁daws	-7.00346
!	-7.00799
▁zaum	-7.0116
▁pheej	-7.01528
▁raws	-7.02474
▁tabsis	-7.02949
▁you	-7.02951
▁hlub	-7.03594
▁tes	-7.03879
▁tsam	-7.04178
▁sim	-7.04699
▁zog	-7.05198
▁kws	-7.05987
▁ne	-7.06204
▁yug	-7.06442
▁tib	-7.06467
▁yawm	-7.07367
▁tij	-7.08479
▁hluas	-7.09493
▁nkauj	-7.09811
▁i	-7.09937
▁nom	-7.10971
▁haiv	-7.1143
▁npe	-7.12514
▁ntxiv	-7.12614
▁vaj	-7.12626
▁hnov	-7.13278
▁tsim	-7.13504
▁is	-7.14663
▁puab	-7.14668
▁dhau	-7.16189
:	-7.16191
▁phem	-7.16375
▁dag	-7.17458
▁a	-7.17519
▁npaum	-7.17739
▁chaws	-7.18049
▁hmong	-7.1834
▁pov	-7.21362
▁dr	-7.21439
▁ntej	-7.22354
'	-7.22823
▁thaib	-7.23745
▁ntshai	-7.23928
▁koom	-7.24224
▁ub	-7.24955
▁xeem	-7.26543
▁ntse	-7.26928
▁yim	-7.28564
▁yaj	-7.3035
▁tos	-7.31102
▁ov	-7.3197
▁chaw	-7.32358
▁tseg	-7.32683
▁txaus	-7.33536
▁nyiam	-7.33633
▁ntev	-7.33777
▁dawb	-7.33872
▁in	-7.34138
▁lis	-7.34481
▁mob	-7.34837
▁pob	-7.3599
▁thawj	-7.36221
▁seb	-7.37272
▁vp	-7.3761
▁ruam	-7.37715
▁mej	-7.37782
▁kam	-7.38406
▁leeg	-7.38816
▁dej	-7.41
▁maj	-7.42345
▁2	-7.42861
▁ntsib	-7.42988
▁xaav	-7.43457
.....	-7.44181
▁luaj	-7.4442
--	-7.44837
▁meej	-7.45153
v	-7.45668
▁ntxhais	-7.46528
▁khiav	-7.46612
▁nyuam	-7.46917
▁nco	-7.47314
▁poob	-7.47361
▁tsaug	-7.47617
▁nkaus	-7.47676
▁daim	-7.47761
▁qub	-7.47881
▁tu	-7.47891
▁nug	-7.47987
kuv	-7.48597
▁pub	-7.48657
▁na	-7.4875
▁naj	-7.49089
▁tiam	-7.49113
......	-7.49248
▁nyias	-7.50199
▁ntshe	-7.51171
▁lo	-7.5163
▁pem	-7.52397
▁hlob	-7.52848
b	-7.54224
▁kho	-7.54899
▁laug	-7.56024
▁kav	-7.56164
▁pojniam	-7.57209
▁nrhiav	-7.57412
▁txug	-7.57731
▁haus	-7.59226
;	-7.59725
▁wb	-7.60289
▁caag	-7.60312
m	-7.61245
▁caij	-7.61313
▁-	-7.61603
▁for	-7.63167
▁as	-7.63177
▁mloog	-7.63477
▁tog	-7.63518
com	-7.63525
▁cem	-7.63963
▁nkawv	-7.64304
▁tabsi	-7.64456
▁kheej	-7.64927
▁it	-7.6526
▁liab	-7.65333
▁neb	-7.65389
▁txim	-7.66244
▁tsawg	-7.66671
▁that	-7.66888
▁tebchaws	-7.67359
▁nyuag	-7.68987
▁nas	-7.69119
▁born	-7.69332
▁meem	-7.69376
▁laiv	-7.69997
▁teeb	-7.70124
▁niaj	-7.70771
▁si	-7.71249
▁ze	-7.71887
yog	-7.72058
▁3	-7.731
▁txhaj	-7.73894
▁chim	-7.74445
▁hom	-7.74699
▁kwvtij	-7.74799
▁zaug	-7.75124
▁haum	-7.75557
▁nam	-7.76067
▁ko	-7.76472
▁hov	-7.77047
▁txuj	-7.77388
▁quav	-7.7802
▁phoojywg	-7.78226
▁tsa	-7.78455
▁rog	-7.78491
▁sawvdaws	-7.78786
▁rooj	-7.78894
▁ncaj	-7.78938
▁meskas	-7.80461
▁xa	-7.81093
▁taag	-7.81542
▁puav	-7.81667
▁taub	-7.82099
▁nram	-7.82249
▁pib	-7.82407
▁huv	-7.82763
▁yuam	-7.82887
▁kub	-7.83196
4	-7.83221
j	-7.83339
▁kuas	-7.84416
▁ceeb	-7.84473
koj	-7.84761
.......	-7.84865
://	-7.84899
▁zaj	-7.8498
▁ywg	-7.85028
g	-7.85445
▁piav	-7.85563
▁nua	-7.85727
▁nyaj	-7.85827
▁txawv	-7.85858
▁hauj	-7.86731
▁lauj	-7.86902
▁phooj	-7.87369
▁txhais	-7.87783
▁xwm	-7.88233
▁mog	-7.88422
▁av	-7.8873
▁saum	-7.8896
▁tshuav	-7.88974
▁hau	-7.8951
▁ytk	-7.89837
▁deb	-7.905
▁he	-7.90781
▁them	-7.91037
▁ntsis	-7.91568
▁pum	-7.93041
▁6	-7.93358
▁not	-7.93424
▁tshiab	-7.9345
▁mos	-7.93575
▁mag	-7.94251
▁taug	-7.94269
▁taw	-7.94272
▁tam	-7.94575
▁laj	-7.95269
t	-7.9527
▁tseemyeej	-7.95882
▁zos	-7.97201
▁be	-7.97359
▁sij	-7.97774
▁ke	-7.98045
▁dabtsi	-7.9833
▁are	-7.98412
▁neeb	-7.98994
▁tuav	-7.99202
▁txom	-7.99852
▁koob	-8.00232
▁nim	-8.007
▁yeeb	-8.00804
▁cev	-8.01478
▁1	-8.01552
▁blog	-8.01577
▁http	-8.01767
▁pw	-8.01803
▁qho	-8.01873
▁co	-8.02246
▁hav	-8.02753
▁or	-8.02873
▁mov	-8.0289
▁vajtswv	-8.03042
▁xeeb	-8.0315
▁nyog	-8.03321
=	-8.035
▁feem	-8.03772
▁luas	-8.03949
▁taus	-8.04594
▁cais	-8.05042
▁cav	-8.05636
www	-8.05724
▁nyeem	-8.06097
▁yav	-8.06158
▁hawm	-8.06909
▁leejtwg	-8.08264
▁tuab	-8.08918
▁puag	-8.09542
▁cuab	-8.09651
▁ma	-8.09665
▁thaub	-8.09777
▁hloov	-8.09968
▁sub	-8.1001
▁your	-8.10506
▁tais	-8.10541
▁yang	-8.11155
▁this	-8.11266
▁on	-8.11506
▁yau	-8.11906
▁paj	-8.13095
▁ntiaj	-8.13551
▁sch	-8.13872
▁miv	-8.13887
▁laura	-8.13968
▁so	-8.1447
▁lau	-8.14953
▁dev	-8.14979
▁nov	-8.14979
▁ms	-8.15001
▁yaam	-8.15637
▁qhuas	-8.15699
▁have	-8.16012
▁pao	-8.16304
▁xov	-8.16849
▁suab	-8.17016
▁txwm	-8.17612
▁ntsej	-8.1834
▁xyuas	-8.18491
▁lov	-8.1864
▁muas	-8.18804
▁kab	-8.18954
▁gvp	-8.18965
▁post	-8.19025
d	-8.19059
▁menyuam	-8.1914
▁noog	-8.19654
▁liam	-8.19802
▁tawg	-8.19999
li	-8.20422
▁ned	-8.20633
▁phwvnyawm	-8.21105
▁xyov	-8.21361
▁nyuj	-8.21499
▁teev	-8.21649
▁xaiv	-8.21874
▁tsoom	-8.22788
▁las	-8.23379
▁tsua	-8.23396
▁phom	-8.23431
▁num	-8.24108
▁nav	-8.24179
▁nkag	-8.24507
▁noob	-8.24616
▁xub	-8.25594
ua	-8.25826
▁zoov	-8.25976
▁pawg	-8.26064
▁ncauj	-8.26362
▁cuag	-8.26616
▁paab	-8.27112
▁we	-8.27312
▁lees	-8.27758
▁aw	-8.27841
▁txais	-8.28021
▁30	-8.28658
▁nrho	-8.29042
▁txwv	-8.29352
▁txhaum	-8.29468
▁vam	-8.29726
▁hlo	-8.29738
▁quas	-8.29764
▁by	-8.2985
▁faj	-8.29887
▁plaub	-8.30323
▁ca	-8.30344
▁do	-8.30873
▁dlaab	-8.31064
▁puj	-8.31406
▁txij	-8.31567
▁qhuav	-8.31711
▁nrug	-8.31859
▁all	-8.32504
▁zag	-8.32611
▁nkawd	-8.32873
▁haujlwm	-8.32877
▁b	-8.33663
8	-8.33737
▁nqa	-8.34036
▁ce	-8.3413
▁txheeb	-8.34635
▁xam	-8.34712
▁tig	-8.34855
▁toj	-8.34886
▁haj	-8.35052
▁thaj	-8.35126
▁tsav	-8.35768
▁what	-8.36315
▁hmo	-8.36717
▁mhoob	-8.37126
▁roob	-8.37159
▁4	-8.37999
▁saub	-8.38149
▁hlwb	-8.38302
▁ntaus	-8.38733
▁ntshaw	-8.38745
▁tawv	-8.39012
▁us	-8.39067
▁vwm	-8.39129
▁tsab	-8.3921
6	-8.39325
▁will	-8.40011
▁tooj	-8.40035
▁lao	-8.40639
▁with	-8.40775
▁ceg	-8.40836
▁txhia	-8.41357
▁ntsoov	-8.41395
).	-8.41432
▁but	-8.42051
▁nyem	-8.42144
▁nqi	-8.42346
▁npaj	-8.42419
peb	-8.42515
▁tuam	-8.43472
▁nyab	-8.43545
▁my	-8.43602
▁nub	-8.43618
▁ciaj	-8.43661
▁qaab	-8.4394
▁tshuaj	-8.43955
▁caum	-8.43967
x	-8.44284
▁hwv	-8.44456
▁dub	-8.44576
▁ham	-8.4574
▁aws	-8.45885
▁nraug	-8.46111
▁u	-8.46398
▁tijlaug	-8.47201
▁xyooj	-8.47428
▁thoj	-8.47597
▁zhen	-8.47842
▁plig	-8.47981
▁ha	-8.48095
▁tsij	-8.48098
▁10	-8.48192
▁pog	-8.48298
▁txhawb	-8.48959
▁pej	-8.49742
▁vang	-8.49959
▁laud	-8.50006
▁kas	-8.50411
▁txeeb	-8.51012
▁ntug	-8.51114
▁ceev	-8.51404
▁nab	-8.51743
▁1.	-8.52051
▁hli	-8.52086
▁qha	-8.52242
▁ntsuab	-8.53247
▁txiav	-8.53625
▁tswvyim	-8.53724
▁dav	-8.53805
▁tsov	-8.54108
▁nrov	-8.54245
▁plaws	-8.54717
▁pauv	-8.55501
▁zaub	-8.55852
▁yis	-8.56052
k	-8.56165
▁2.	-8.56301
1	-8.56328
▁teg	-8.5664
▁npau	-8.56872
▁thuam	-8.56877
cov	-8.57314
▁khav	-8.57487
▁muam	-8.57608
▁luj	-8.57872
▁piv	-8.58346
▁&	-8.58514
3	-8.58823
▁teebmeem	-8.58834
▁ntoo	-8.58884
▁can	-8.58937
▁luam	-8.59193
▁hl	-8.59582
▁=	-8.59665
▁moos	-8.59798
▁nad	-8.59892
▁pes	-8.59898
▁fab	-8.60016
▁phiaj	-8.60052
▁one	-8.60093
▁txaj	-8.60352
▁tiav	-8.6056
▁nyablaj	-8.60922
▁tshoob	-8.60982
▁xws	-8.61366
▁kuam	-8.61676
▁at	-8.61735
▁church	-8.61809
▁nce	-8.61967
▁quaj	-8.62339
e	-8.62434
▁sijhawm	-8.62502
▁tshwm	-8.62698
▁tsuav	-8.62709
▁qaib	-8.6271
▁qw	-8.62781
▁ntes	-8.62979
▁kua	-8.63101
n	-8.63891
▁rab	-8.63984
▁zeb	-8.64111
▁people	-8.64243
▁tw	-8.64361
▁zab	-8.6437
▁ntsia	-8.64376
▁from	-8.64588
........	-8.6551
▁thoob	-8.65651
▁yooj	-8.66031
▁khoom	-8.66097
▁if	-8.66207
▁nyuaj	-8.66624
▁pos	-8.67187
0	-8.674
▁tiv	-8.6763
▁kis	-8.67946
▁they	-8.6862
▁cua	-8.68891
▁tsheej	-8.6924
▁5	-8.69653
▁tsuj	-8.70029
▁nqaij	-8.70403
▁col	-8.71365
▁good	-8.71669
▁nev	-8.7217
▁un	-8.72671
▁thaus	-8.72945
."	-8.73555
los	-8.73613
▁yom	-8.7465
▁america	-8.7499
▁ris	-8.75423
hmoob	-8.75452
▁sai	-8.75639
▁khwv	-8.76085
▁ncaws	-8.761
a	-8.76163
▁nyoog	-8.7633
▁ntxim	-8.76389
▁npua	-8.76519
▁duab	-8.7715
▁moobsib	-8.77587
▁ya	-8.77835
▁sia	-8.77845
▁cias	-8.77916
▁huab	-8.77928
▁swb	-8.78013
▁ploj	-8.78015
▁ab	-8.783
▁thaam	-8.78619
▁maum	-8.7863
5	-8.78779
▁zam	-8.7878
youtube	-8.78818
▁dhia	-8.78877
▁khaws	-8.78944
watch	-8.79274
▁nyuas	-8.79469
▁neohmong	-8.79476
▁lwj	-8.79619
▁mn	-8.79717
▁zaus	-8.79782
▁npawg	-8.79817
▁peev	-8.79841
▁xab	-8.80061
▁18	-8.80101
▁dlua	-8.80407
▁who	-8.80417
▁thab	-8.80453
▁haivneeg	-8.80864
▁ci	-8.80867
▁more	-8.80993
▁qhua	-8.81454
▁ntxub	-8.81796
▁noogdlej	-8.8197
▁kaw	-8.82267
▁mekas	-8.82269
▁laos	-8.82378
▁txheej	-8.82404
▁ntxawm	-8.82446
▁looj	-8.82475
▁tis	-8.82532
▁tsheb	-8.8296
▁ntxias	-8.83041
tsis	-8.83187
▁ncig	-8.83202
lawv	-8.8369
▁hawj	-8.83883
▁hlau	-8.83929
▁time	-8.84357
▁khib	-8.84366
▁kaj	-8.84692
▁yeem	-8.84779
vim	-8.84836
▁twm	-8.84931
▁3.	-8.85201
".	-8.85203
▁ntaub	-8.86021
i	-8.86622
▁lawd	-8.87289
▁tswj	-8.88005
▁zus	-8.88587
▁vaaj	-8.88652
▁kos	-8.88685
▁xyaum	-8.88758
▁nai	-8.88836
▁taws	-8.88957
▁choj	-8.89063
▁cob	-8.89137
▁just	-8.89246
9	-8.89424
moob	-8.90296
▁maam	-8.90321
▁ncees	-8.90874
▁tshua	-8.91371
▁fajkhaum	-8.91644
▁txhawj	-8.91704
▁nruab	-8.9174
▁there	-8.92313
▁faib	-8.9239
▁txiaj	-8.92458
▁kag	-8.92559
▁nrauj	-8.92676
▁zuj	-8.92804
thaum	-8.92977
c	-8.93364
▁dim	-8.93407
▁tav	-8.93452
▁txivneej	-8.93859
▁cawm	-8.93975
lub	-8.94015
▁loo	-8.94073
▁usa	-8.94109
nws	-8.94127
▁puv	-8.94354
(	-8.9444
▁thaiv	-8.9445
▁nqe	-8.94508
ing	-8.94522
▁tsiaj	-8.9457
▁nyam	-8.95176
▁xob	-8.95379
tus	-8.95495
▁licas	-8.95531
▁nyiag	-8.95694
▁about	-8.95702
▁x	-8.95726
▁ntses	-8.95834
es	-8.9591
▁cawv	-8.96064
▁***	-8.96589
_	-8.96848
bh	-8.96864
▁fresno	-8.96925
▁xij	-8.96978
▁nkaum	-8.97029
▁zov	-8.97379
▁xuas	-8.97827
▁charlie	-8.97849
&	-8.97907
▁his	-8.9796
▁xiong	-8.98083
▁lod	-8.98501
▁sav	-8.98546
behmong	-8.98587
▁siav	-8.98756
▁was	-8.99007
ib	-8.9907
▁nqis	-8.99301
▁am	-8.99839
▁ntshav	-8.99959
),	-9.00114
▁plab	-9.00428
▁cog	-9.00724
▁tsw	-9.01512
▁khov	-9.01984
▁ti	-9.02209
▁caj	-9.02298
▁lpdr	-9.02453
▁kaus	-9.02499
▁thanks	-9.02828
▁lee	-9.02844
▁hahaha	-9.03396
▁our	-9.03807
▁nuj	-9.04075
▁tshum	-9.04396
▁tsuag	-9.04453
▁aub	-9.04558
▁vwj	-9.0471
▁haib	-9.04895
hmong	-9.05151
▁txha	-9.05373
▁tiamsis	-9.05664
▁ncuab	-9.05881
▁qhib	-9.05889
▁meb	-9.05991
▁xyoos	-9.06091
▁foom	-9.06101
▁know	-9.06675
▁new	-9.0671
qhov	-9.06912
▁etc	-9.0698
▁qaum	-9.07055
▁vaajmoob	-9.07244
▁lom	-9.08101
o	-9.0837
▁doctor	-9.08528
▁m	-9.08604
▁py	-9.08821
▁dig	-9.09029
▁nplooj	-9.09246
▁twv	-9.09487
▁paul	-9.09518
▁tsawv	-9.09589
▁dd	-9.1002
▁pejxeem	-9.10064
▁pim	-9.10146
▁dao	-9.10275
▁yob	-9.1034
aw	-9.10363
▁yaim	-9.10408
▁tshav	-9.10482
▁human	-9.10545
▁don	-9.10606
▁iab	-9.10622
▁cuav	-9.10676
▁twj	-9.10759
▁paus	-9.11028
▁right	-9.11634
▁dyd	-9.11698
▁lu	-9.1187
▁cab	-9.1212
▁nqq	-9.12712
▁phaj	-9.12715
▁like	-9.13013
▁hastas	-9.13161
▁caug	-9.13258
▁only	-9.1333
▁nti	-9.13627
▁yij	-9.13888
▁sob	-9.14195
▁keeb	-9.14517
▁cuam	-9.14531
▁ntseg	-9.14831
▁xf	-9.15012
▁xejthim	-9.15123
▁ntu	-9.15316
▁tuabneeg	-9.15615
▁laid	-9.16327
▁'	-9.16404
▁tshaaj	-9.16455
▁hwm	-9.16492
▁case	-9.1658
▁ywm	-9.16862
muaj	-9.16922
▁st	-9.17033
▁xeev	-9.1717
▁phoo	-9.17209
▁2-3	-9.17222
▁rhuav	-9.17227
▁tshawb	-9.17508
▁nrab	-9.17528
▁phau	-9.17655
▁haistias	-9.17696
▁laam	-9.17793
▁pas	-9.18122
▁lav	-9.18227
▁og	-9.18518
▁dlawb	-9.1891
▁e	-9.18976
▁caw	-9.19161
▁moua	-9.19295
▁pe	-9.19351
▁ntsiab	-9.19355
▁cheem	-9.19567
▁yaweh	-9.19969
▁hlis	-9.20067
▁kwm	-9.20086
▁lig	-9.20218
▁tsiv	-9.20284
▁very	-9.20436
▁hmoov	-9.2045
▁qee	-9.20562
▁nais	-9.20593
▁t	-9.20628
y	-9.20634
▁bee	-9.20783
▁hnav	-9.21072
▁qeej	-9.21472
▁ntsuag	-9.21839
▁qau	-9.22065
▁khu	-9.22162
▁make	-9.22195
org	-9.22377
▁other	-9.22529
▁phwv	-9.22624
▁up	-9.22904
▁cam	-9.2317
▁dlawg	-9.23258
▁quaspuj	-9.2338
▁their	-9.23388
▁lauv	-9.23489
▁saab	-9.23756
▁ncu	-9.23812
7	-9.23819
▁neohom	-9.23982
▁ntaag	-9.24518
▁--	-9.25086
▁roj	-9.25261
▁tawb	-9.25282
▁qe	-9.2529
▁txiag	-9.25783
▁yees	-9.25816
▁sov	-9.25909
▁her	-9.26133
tsi	-9.26162
▁lossis	-9.26186
yuav	-9.26217
▁sam	-9.26376
▁lag	-9.26675
ces	-9.27388
▁p	-9.27676
▁pam	-9.27726
▁soj	-9.27736
▁tsoob	-9.27912
▁tony	-9.27933
▁kasmoos	-9.28009
▁tamsim	-9.28101
▁see	-9.28147
▁any	-9.28327
▁lab	-9.28382
tej	-9.28441
▁txuas	-9.2849
▁how	-9.29148
▁lostsuas	-9.29215
▁vajncuab	-9.29366
▁tia	-9.29416
▁tsaam	-9.29732
▁need	-9.29936
▁family	-9.30194
▁huas	-9.30218
▁tsho	-9.30348
h	-9.30432
▁vmged	-9.31108
▁zais	-9.31183
▁...	-9.31385
▁qaug	-9.31719
▁rub	-9.3186
▁fabkis	-9.31935
▁rho	-9.32048
▁vaajtswv	-9.32397
▁riam	-9.3266
!!!	-9.32671
▁laib	-9.32752
▁huabtais	-9.32793
▁way	-9.33066
▁fwv	-9.33115
▁general	-9.33167
▁nos	-9.3348
▁tsaus	-9.33606
▁nroog	-9.33725
***	-9.33882
▁go	-9.33914
▁out	-9.34017
ed	-9.3417
▁ntxov	-9.34181
▁ntxawg	-9.34264
▁nuv	-9.3441
kom	-9.34485
▁dlaag	-9.347
▁tshab	-9.3476
▁life	-9.34861
▁txias	-9.34908
▁email	-9.34982
▁tsob	-9.35116
▁dlhau	-9.35119
▁pluag	-9.35248
u	-9.35413
▁too	-9.35528
▁tid	-9.35562
▁zej	-9.35685
▁think	-9.35712
▁txia	-9.36352
▁text	-9.3647
lawm	-9.36583
▁phim	-9.36894
▁xaus	-9.37022
▁hlua	-9.37039
▁daj	-9.3736
haj	-9.37519
▁foob	-9.37639
▁khawv	-9.37664
zoo	-9.37782
▁why	-9.37798
▁4.	-9.37803
▁nkaujnyiag	-9.37836
▁yaus	-9.38051
▁nrhav	-9.38189
yawg	-9.38211
▁lim	-9.38245
▁deev	-9.38265
▁txob	-9.38283
▁tou	-9.38473
▁thooj	-9.38535
▁yig	-9.38768
▁tsoo	-9.38797
▁zeem	-9.38961
▁kubxaj	-9.38968
▁pua	-9.39245
▁mab	-9.39245
▁zug	-9.39315
▁z	-9.39429
▁tswb	-9.3945
lao	-9.39493
▁plawv	-9.39825
▁ly	-9.39833
▁xim	-9.4006
▁txhiaj	-9.40127
▁luv	-9.40153
▁thib	-9.4024
▁thao	-9.40344
▁xib	-9.40576
▁ntiajteb	-9.40587
culture	-9.40741
▁txhim	-9.40798
▁ntiav	-9.40802
▁quoted	-9.4086
▁hla	-9.41014
▁txhiab	-9.41175
▁god	-9.41697
▁would	-9.41704
▁state	-9.41909
▁tob	-9.41974
▁ntxeev	-9.42325
▁pa	-9.42812
▁nrau	-9.42889
▁said	-9.42933
▁victor	-9.43267
▁some	-9.43377
▁fwm	-9.4339
▁paum	-9.43444
feature	-9.43677
▁ziag	-9.43761
no	-9.44227
▁chao	-9.44303
▁support	-9.44432
▁12	-9.44529
▁take	-9.44635
▁od	-9.44802
▁s	-9.45359
▁when	-9.45834
▁xaj	-9.4591
l	-9.45962
▁txhom	-9.4607
▁22	-9.46115
▁8	-9.46118
▁k	-9.46486
▁miskas	-9.46665
▁amen	-9.46807
▁nyag	-9.47198
▁nraim	-9.47279
▁nag	-9.474
▁dlej	-9.47482
▁lawb	-9.47498
▁du	-9.47606
▁tejzaum	-9.4777
▁wrote	-9.47874
▁khawb	-9.4845
▁long	-9.48497
▁mad	-9.48883
▁nees	-9.49224
▁txav	-9.49289
nej	-9.49352
▁nto	-9.4944
▁show	-9.49459
▁nkawm	-9.49482
▁huam	-9.49534
▁phab	-9.49574
▁les	-9.49671
▁nres	-9.49893
yahoo	-9.50019
▁then	-9.50154
▁ntsuj	-9.50458
▁hmoo	-9.50524
▁posted	-9.5054
hais	-9.50994
▁caiv	-9.51032
▁qhev	-9.51153
▁hle	-9.51372
▁lino	-9.51493
▁pliag	-9.51506
▁president	-9.51568
yus	-9.51705
▁nyuab	-9.51779
▁khaub	-9.51824
▁vauv	-9.51973
▁freedom	-9.52044
▁qhuab	-9.52082
▁fawm	-9.52179
▁here	-9.5257
▁many	-9.52593
▁tod	-9.5263
▁man	-9.52646
----------------	-9.52668
▁kov	-9.52703
luag	-9.5297
▁ntees	-9.53073
▁mev	-9.53186
▁kaub	-9.53312
▁mt	-9.53453
▁law	-9.53543
▁dog	-9.53589
▁peg	-9.53601
▁cha	-9.53649
▁hlawv	-9.53729
▁phav	-9.53795
▁ntus	-9.5395
▁dlaim	-9.54116
▁may	-9.54168
▁phaum	-9.54364
▁9	-9.54504
▁own	-9.54565
▁caubfab	-9.55002
▁ntsiag	-9.55106
▁teem	-9.55187
▁cwjmem	-9.55428
▁say	-9.55801
▁yingb	-9.56099
▁koos	-9.5613
▁american	-9.56174
▁tibsi	-9.56538
▁o	-9.56985
▁rights	-9.57295
▁nraum	-9.57325
▁mom	-9.57325
▁n	-9.57426
▁nkagsiab	-9.57947
▁cwj	-9.57986
▁zaaj	-9.58517
▁taab	-9.58613
▁ev	-9.58652
▁ntsim	-9.58685
▁nplogliab	-9.59064
▁thai	-9.59196
▁back	-9.5931
related	-9.59508
.........	-9.59677
▁kaum	-9.59867
▁zem	-9.60081
▁mai	-9.60264
▁kevcai	-9.60292
▁nawj	-9.60335
▁ywj	-9.60426
▁an	-9.60441
▁dai	-9.60515
▁ntxwv	-9.60676
▁tibneeg	-9.60896
▁havzoov	-9.61028
▁school	-9.61496
▁txo	-9.61512
mus	-9.61577
▁world	-9.61948
▁maiv	-9.61991
▁khi	-9.62271
▁than	-9.62426
▁work	-9.6248
▁totaub	-9.62524
▁yaig	-9.6279
▁tiaj	-9.62924
▁year	-9.63181
▁xej	-9.63315
▁yaaj	-9.63335
▁pav	-9.63403
▁him	-9.6396
▁issue	-9.64075
▁awd	-9.64084
▁get	-9.64206
▁vue	-9.64221
▁liaj	-9.64248
▁information	-9.64321
▁h	-9.64332
▁maag	-9.64495
▁xiam	-9.64742
▁tshaib	-9.64754
▁thaibteb	-9.64781
▁nthuav	-9.6493
txiv	-9.65184
▁peevxwm	-9.65297
▁qhabnab	-9.65475
▁now	-9.6569
▁beer	-9.66101
▁tebchaw	-9.66107
lgate	-9.66131
▁cim	-9.66135
▁hm	-9.6675
▁tsau	-9.66974
▁nyav	-9.67104
▁hlais	-9.67331
▁tshem	-9.67532
ly	-9.67579
▁point	-9.67632
▁should	-9.67776
▁mis	-9.67845
▁even	-9.67931
▁those	-9.67984
▁diam	-9.67991
▁communist	-9.67994
▁nkuaj	-9.68068
▁rawv	-9.6811
▁ruaj	-9.68285
▁xum	-9.68692
▁pauj	-9.68828
▁because	-9.68929
▁tsib	-9.69023
▁court	-9.69393
▁nus	-9.69547
▁tshuab	-9.69709
as	-9.6977
ha	-9.69809
▁yauv	-9.70084
▁uake	-9.70185
▁tshuam	-9.70288
▁yexus	-9.70345
▁ntiag	-9.70435
▁ceem	-9.7063
▁want	-9.70671
▁movie	-9.70896
▁mamli	-9.7108
▁agree	-9.71119
▁keej	-9.71124
▁tsom	-9.71309
▁suabnoog	-9.71313
▁20	-9.71439
▁dlev	-9.71604
▁thau	-9.71816
▁week	-9.71833
▁party	-9.71988
▁100	-9.72016
▁moo	-9.72227
▁politic	-9.72251
▁kaam	-9.72662
▁tswm	-9.72836
▁thim	-9.72869
▁7	-9.73525
▁thauj	-9.73537
siab	-9.73544
▁leader	-9.7404
▁cobfab	-9.74548
▁txhij	-9.74549
▁uncle	-9.74642
▁cag	-9.7476
▁history	-9.7477
▁government	-9.74907
▁c	-9.74987
▁theem	-9.75179
th	-9.7534
thiab	-9.75432
▁let	-9.75471
lol	-9.75494
▁seem	-9.75673
▁ciali	-9.75708
▁bawg	-9.7585
▁please	-9.75937
▁hnab	-9.75955
▁hum	-9.76002
▁person	-9.76595
▁rawm	-9.76602
▁nyoo	-9.7686
▁zooli	-9.77108
▁qib	-9.77189
▁political	-9.77502
▁share	-9.77573
▁su	-9.78083
▁love	-9.78277
▁ntxoog	-9.78422
▁ok	-9.78459
▁sibtham	-9.78486
▁nyhav	-9.78506
▁npis	-9.78521
▁tusiab	-9.78866
▁gen	-9.78929
▁100%	-9.79022
▁5.	-9.79095
213	-9.79221
▁xauj	-9.7937
▁fa	-9.79401
the	-9.79408
▁nkim	-9.79458
▁vibnais	-9.79655
▁zoj	-9.80084
▁txua	-9.80136
▁caub	-9.80231
▁same	-9.80242
▁nplua	-9.80293
▁yesxus	-9.80509
▁business	-9.80608
▁pm	-9.81077
▁moj	-9.81566
▁high	-9.81977
▁1975	-9.82055
▁qus	-9.82111
▁never	-9.82145
▁hus	-9.82163
▁tagnrho	-9.8218
▁tsaj	-9.82187
▁she	-9.82608
▁ntsug	-9.83082
▁tswvntuj	-9.83145
▁message	-9.83166
▁nyas	-9.83456
▁day	-9.83499
▁qis	-9.83583
▁thaij	-9.83682
▁community	-9.84069
▁ntua	-9.84284
▁hwj	-9.84299
▁duas	-9.84362
▁nplogteb	-9.84477
▁news	-9.84537
▁true	-9.84545
p	-9.85035
▁ntsws	-9.85157
▁religion	-9.85184
▁lha	-9.85324
▁se	-9.85346
▁ncaim	-9.85616
▁dony	-9.85663
nyob	-9.85686
▁kuamemiab	-9.85732
▁puam	-9.85817
▁tauj	-9.86105
▁still	-9.86397
▁men	-9.86566
w	-9.86794
▁personal	-9.86877
▁xyuam	-9.86996
yeej	-9.87089
au	-9.87191
▁yaav	-9.8733
▁$	-9.87387
▁raus	-9.87396
▁mr	-9.87415
▁vientiane	-9.8754
▁tshoj	-9.87541
▁ntiv	-9.87545
▁these	-9.87919
▁come	-9.87921
▁hiam	-9.88333
▁tse	-9.88333
▁july	-9.88337
▁xyoob	-9.88502
▁ntxhov	-9.88552
▁nyom	-9.88581
▁aib	-9.88611
▁npas	-9.8864
▁nes	-9.88923
▁police	-9.89045
▁kaav	-9.89117
▁cub	-9.89477
▁group	-9.89534
▁nuas	-9.89595
▁chaofa	-9.89665
▁ntxoov	-9.89858
▁mong	-9.89912
▁yoog	-9.90095
▁khw	-9.90112
▁well	-9.90256
temsis	-9.90287
▁d	-9.90352
▁tshev	-9.90587
▁years	-9.90616
▁ntog	-9.90703
▁de	-9.90944
▁qhab	-9.9107
▁theeb	-9.91197
f	-9.91199
▁xaam	-9.91556
▁chij	-9.91649
▁ntsuas	-9.91735
▁ntsuam	-9.91811
▁wrong	-9.91844
▁over	-9.91949
▁pwm	-9.91972
▁ciam	-9.91992
kev	-9.92054
▁xyom	-9.92074
▁losyog	-9.92167
▁anti	-9.92326
▁power	-9.92423
▁yoojyim	-9.92552
▁internet	-9.92794
!!	-9.92934
▁paaj	-9.93082
▁csy	-9.93127
▁level	-9.93139
▁thing	-9.93254
▁bible	-9.93281
▁txooj	-9.93524
▁public	-9.93746
▁ntxuav	-9.94117
▁nothing	-9.94148
oo	-9.94246
▁computer	-9.94458
ab	-9.9447
▁hniav	-9.94619
▁phauj	-9.94724
▁play	-9.95061
▁were	-9.95102
lolz	-9.95216
▁tsiab	-9.95569
▁y	-9.96041
▁ncaaj	-9.96095
▁question	-9.96409
▁vammeej	-9.96448
▁hma	-9.96548
▁did	-9.96552
▁every	-9.96584
▁mi	-9.9667
▁care	-9.96948
▁qos	-9.97043
▁first	-9.97466
▁caav	-9.97468
▁kuab	-9.97547
▁had	-9.97682
▁ntxhi	-9.97707
▁mav	-9.97938
▁example	-9.97957
▁minnesota	-9.98305
▁weekend	-9.98311
▁khob	-9.98563
▁qua	-9.98611
▁video	-9.98618
▁soob	-9.98811
▁name	-9.99059
▁nriav	-9.99216
▁such	-9.99284
▁thiajli	-9.99589
▁koomhaum	-10.0013
▁reason	-10.0021
▁must	-10.0023
▁xaa	-10.0069
▁yias	-10.0082
▁l	-10.01
▁kauv	-10.0105
▁kk	-10.0105
▁free	-10.0115
niam	-10.0129
▁brother	-10.013
▁fuab	-10.0134
▁temsis	-10.0141
▁story	-10.0146
▁mo	-10.0147
r	-10.0177
▁report	-10.0208
▁believe	-10.0217
▁hide	-10.0233
▁chob	-10.0234
▁nruj	-10.0234
▁npog	-10.0249
▁again	-10.0264
▁phabej	-10.0274
▁phone	-10.0277
---	-10.0289
▁lt	-10.0311
▁zuag	-10.0326
▁khwb	-10.0333
▁npab	-10.0342
▁pobzeb	-10.0358
▁old	-10.0383
ob	-10.0384
▁respect	-10.0389
▁khuam	-10.0396
▁khaus	-10.0397
▁ntsiv	-10.0399
▁nruas	-10.0408
▁tabtom	-10.0413
▁dov	-10.0419
txhob	-10.0421
▁ntaj	-10.0426
▁xoom	-10.0429
▁california	-10.0433
▁peace	-10.0434
▁best	-10.0435
▁nqes	-10.0437
about	-10.0439
▁oh	-10.0439
▁4-5	-10.0442
▁mivnyuas	-10.0447
▁caws	-10.0466
▁radio	-10.0489
▁hod	-10.0492
▁xavzoo	-10.0509
tseem	-10.0533
▁qheb	-10.0542
▁qauv	-10.0545
▁english	-10.0559
talk	-10.0565
▁yajtshajkoob	-10.0569
▁sad	-10.0584
▁been	-10.0588
▁npam	-10.0611
▁plam	-10.0611
▁king	-10.0618
▁txi	-10.0636
▁yuavtsum	-10.0647
▁degree	-10.0651
▁much	-10.0664
▁tsaws	-10.0667
▁christian	-10.0668
▁yes	-10.067
▁member	-10.0672
▁zom	-10.0692
▁khawm	-10.0696
▁ntim	-10.0706
▁laub	-10.072
▁kwvtijhmoob	-10.0766
▁qws	-10.0776
and	-10.0778
▁kaws	-10.0794
▁ntsw	-10.0794
▁dleb	-10.0815
▁zujzus	-10.0816
▁hua	-10.0825
▁opinion	-10.0834
▁after	-10.0846
▁aim	-10.0861
▁topic	-10.0869
▁via	-10.0871
▁lem	-10.0873
os	-10.0881
▁nhub	-10.0903
txawm	-10.0917
▁txhajle	-10.0931
▁mes	-10.0932
▁3-4	-10.0936
▁lomzem	-10.0958
▁suavdlawg	-10.0958
▁raw	-10.0969
lwm	-10.0998
▁hotel	-10.1002
▁vaam	-10.1015
▁nqaj	-10.1035
▁kim	-10.1041
▁help	-10.1042
▁stupid	-10.1059
▁faus	-10.1073
▁/	-10.1075
▁tseemceeb	-10.1078
▁ntsi	-10.1078
▁tshajplaws	-10.1088
▁amelikas	-10.1101
▁tsawb	-10.1103
▁meo	-10.1118
▁qav	-10.1119
▁most	-10.113
▁txawb	-10.113
▁khuv	-10.1131
us	-10.1162
http	-10.1166
▁better	-10.1187
is	-10.1191
google	-10.1211
▁hneev	-10.1216
▁where	-10.1217
▁ntswg	-10.1226
▁problem	-10.1229
▁cwjpwm	-10.123
▁chav	-10.1234
▁qaub	-10.1257
▁real	-10.1265
▁txomnyem	-10.1289
▁ncua	-10.1295
▁tws	-10.1303
?"	-10.1306
▁saud	-10.1332
▁j	-10.1335
▁last	-10.1341
???	-10.1343
am	-10.1354
▁plawg	-10.1363
▁paug	-10.1409
▁mean	-10.1409
▁under	-10.1415
▁tsaa	-10.1436
▁qaij	-10.1439
▁education	-10.1466
▁nra	-10.1467
▁kum	-10.1482
▁50	-10.1505
▁thailand	-10.1514
▁dhuav	-10.1527
▁nqaim	-10.1542
▁jesus	-10.1545
hahaha	-10.1548
▁tum	-10.157
▁wi	-10.1571
▁ncej	-10.1572
tab	-10.1585
▁xis	-10.1586
▁mentsis	-10.159
▁keep	-10.1602
▁hahahahaha	-10.1602
▁tev	-10.1651
▁aav	-10.1651
▁ntuas	-10.1653
▁server	-10.1662
▁vuag	-10.1663
▁nro	-10.1664
neeg	-10.167
▁debate	-10.1691
▁nkeeg	-10.1706
▁npav	-10.1724
▁ntshais	-10.173
▁nrig	-10.1755
▁txau	-10.1767
▁sawm	-10.1772
▁thawjcoj	-10.1773
▁tsuv	-10.179
▁fwj	-10.1798
▁laws	-10.1817
▁zoosiab	-10.1824
▁tsaav	-10.1827
▁xwv	-10.1843
▁culture	-10.1857
▁pro	-10.1863
▁nyoos	-10.1884
▁bad	-10.1908
▁nceb	-10.1922
mas	-10.1931
▁nquag	-10.1958
▁hem	-10.196
▁dablaug	-10.1961
▁live	-10.1975
▁hoob	-10.1975
▁kauj	-10.1978
▁loojceeb	-10.1987
▁khub	-10.2003
▁ntsuav	-10.2004
soc	-10.2013
▁into	-10.2036
twb	-10.2048
▁zaag	-10.2051
▁laaj	-10.2052
▁txoov	-10.2062
▁zaws	-10.2082
▁vog	-10.2083
▁national	-10.2085
▁paubtab	-10.2094
▁xuv	-10.2095
leej	-10.213
▁war	-10.2138
▁duav	-10.2138
▁could	-10.2145
▁being	-10.216
▁kheev	-10.2162
▁dlub	-10.2163
▁dabneeg	-10.2194
▁toog	-10.22
▁tseev	-10.221
▁avang	-10.2212
in	-10.2222
▁npoj	-10.223
▁yos	-10.2231
▁tamsis	-10.2235
▁social	-10.224
▁zwm	-10.2242
▁research	-10.2257
▁hahahaha	-10.2261
▁tsuaj	-10.2262
▁college	-10.2292
▁txheem	-10.2306
▁two	-10.2308
▁daig	-10.2314
▁ph	-10.2317
tau	-10.233
▁ras	-10.2355
▁txojkev	-10.2355
▁yas	-10.2366
▁others	-10.2375
▁before	-10.2388
▁university	-10.2405
▁caus	-10.2411
▁does	-10.2411
▁vees	-10.242
▁down	-10.2421
▁vietnam	-10.2421
▁claim	-10.2422
▁taj	-10.2424
▁sure	-10.2432
▁australia	-10.2433
▁chiv	-10.2439
▁forum	-10.2461
▁xauv	-10.2475
▁ntxwg	-10.2503
▁money	-10.2522
▁txib	-10.2527
▁sua	-10.2533
▁cauj	-10.255
▁nawd	-10.2556
▁log	-10.2565
▁txag	-10.2573
▁sa	-10.2588
▁khab	-10.2596
tabsi	-10.2603
▁muang	-10.2644
▁niv	-10.2664
▁tshe	-10.2683
▁company	-10.2686
▁kuamem	-10.2703
▁ntsev	-10.273
▁15	-10.2736
▁ki	-10.2765
▁dos	-10.2769
▁hai	-10.2769
▁peem	-10.2773
▁nraus	-10.2786
▁always	-10.2788
▁zeej	-10.2795
▁yoo	-10.2836
▁loob	-10.2854
▁vote	-10.286
▁uantej	-10.2862
▁uv	-10.2868
group	-10.2877
gt	-10.2881
▁ntsa	-10.2888
▁next	-10.2892
▁give	-10.291
▁thas	-10.2933
▁another	-10.2943
▁city	-10.2947
mail	-10.295
▁tsem	-10.2965
▁qias	-10.2965
▁ncuav	-10.2966
▁mind	-10.2971
▁rhiab	-10.2976
▁credit	-10.2981
▁qees	-10.2989
cas	-10.3028
▁look	-10.3037
▁haub	-10.3044
▁which	-10.305
▁plan	-10.3052
html	-10.3059
▁organization	-10.3068
▁....	-10.3088
tiam	-10.3091
▁faaj	-10.3117
▁40	-10.3135
muab	-10.3155
▁tsevneeg	-10.3167
q	-10.3168
▁hmos	-10.3178
▁plag	-10.3187
▁loos	-10.3191
▁ualuaj	-10.3204
▁secret	-10.3212
cia	-10.3222
▁system	-10.3229
▁words	-10.325
kawg	-10.3256
▁chia	-10.3256
▁ntuag	-10.3267
▁qoob	-10.3275
▁ntws	-10.3333
▁thornsp	-10.3353
hos	-10.3356
▁nqig	-10.3358
▁xibfwb	-10.3366
▁zib	-10.3368
▁friend	-10.3388
▁change	-10.3392
▁yaum	-10.3418
▁against	-10.342
▁)	-10.3436
▁tiab	-10.344
▁nkaug	-10.344
▁nkaag	-10.3445
▁yag	-10.3468
▁use	-10.3477
▁zis	-10.3497
▁hope	-10.3503
▁ntxa	-10.3516
▁txov	-10.3543
av	-10.3584
▁qoos	-10.3603
▁txuam	-10.3631
▁retire	-10.3656
▁without	-10.366
▁la	-10.366
▁pha	-10.3668
ntuj	-10.3697
▁xyum	-10.3697
▁position	-10.3702
noj	-10.371
▁country	-10.3715
▁cig	-10.3716
..."	-10.3719
▁evidence	-10.3721
▁khau	-10.3748
▁hiv	-10.375
▁experience	-10.3756
▁txuag	-10.3777
puas	-10.3786
▁different	-10.379
▁txawg	-10.379
▁kib	-10.382
▁ej	-10.3826
▁dlha	-10.3836
▁hlab	-10.3847
▁khej	-10.3847
▁things	-10.3849
▁got	-10.385
▁hk	-10.3888
id	-10.3889
▁part	-10.3902
▁yov	-10.3926
▁nta	-10.394
▁baum	-10.3945
▁hno	-10.3954
▁txaij	-10.396
or	-10.3993
tub	-10.4005
▁understand	-10.4016
▁each	-10.4018
▁international	-10.4019
▁txig	-10.4046
▁aka	-10.4049
▁nplaig	-10.4057
▁theej	-10.4069
▁dollars	-10.4081
▁members	-10.4087
xav	-10.4088
▁yawgloj	-10.4124
▁seev	-10.4127
▁lawyer	-10.4161
thov	-10.4164
▁txwj	-10.4165
▁khaum	-10.4165
▁xu	-10.4176
▁ntov	-10.4189
▁tho	-10.4191
▁lias	-10.4192
▁nplej	-10.4193
▁feeb	-10.4196
▁democracy	-10.4197
cha	-10.4204
▁phd	-10.422
▁doctors	-10.4225
▁office	-10.4237
mai	-10.4242
▁nruag	-10.4253
▁nraag	-10.4253
smiles	-10.4272
▁phou	-10.4275
▁board	-10.4287
▁tha	-10.4289
▁homphiaj	-10.4294
▁matter	-10.4297
▁ssi	-10.4297
▁thorn	-10.4297
▁qas	-10.4304
▁director	-10.4318
▁r	-10.4328
▁xyeej	-10.4353
▁qes	-10.4358
▁mouatony	-10.4371
▁idonotknow	-10.4372
▁neo	-10.4373
▁nis	-10.4379
▁thank	-10.438
▁congress	-10.4391
▁kiab	-10.44
................	-10.4402
▁fbi	-10.4414
▁cib	-10.4422
▁dejnum	-10.4431
▁vision	-10.4439
▁side	-10.4447
▁21	-10.4452
it	-10.446
▁fact	-10.4462
▁daum	-10.4475
▁tx	-10.4481
▁vimhlub	-10.4484
▁jim	-10.4489
..........	-10.45
▁colonel	-10.4519
ov	-10.452
▁qeb	-10.4532
▁rwg	-10.4533
▁yawgnomdub	-10.4533
▁re	-10.4542
▁toom	-10.4542
▁:	-10.4548
▁talk	-10.4566
▁mauj	-10.4574
▁vij	-10.4589
▁also	-10.4593
▁txhum	-10.4595
▁dib	-10.4597
▁link	-10.46
▁6.	-10.4604
18	-10.4609
▁wisconsin	-10.4614
▁yuag	-10.4616
▁taubhau	-10.4618
▁ntshaws	-10.4618
re	-10.4621
▁nkoj	-10.4625
etc	-10.4626
▁list	-10.4632
▁united	-10.4639
▁leaders	-10.4639
▁leg	-10.4642
▁1-2	-10.465
▁future	-10.4657
▁laij	-10.4676
▁ntxiab	-10.4692
▁ntab	-10.4694
bemhong	-10.4694
▁kujxaj	-10.4697
▁xyaw	-10.47
▁asia	-10.4732
hnub	-10.4732
▁really	-10.4736
▁txiab	-10.4749
▁pluj	-10.4758
▁nchuav	-10.4778
▁tseemfwv	-10.4779
▁hmab	-10.479
tuaj	-10.48
▁qualify	-10.4819
▁hahahahahaha	-10.4828
▁rhawv	-10.4832
teb	-10.4839
▁kaab	-10.4842
▁lw	-10.4847
▁sais	-10.4862
▁qiv	-10.4867
▁especially	-10.487
▁million	-10.4871
▁try	-10.4882
▁yeebncuab	-10.4883
▁women	-10.4888
▁hehehe	-10.4899
▁learn	-10.4903
▁nkees	-10.4905
st	-10.491
▁miao	-10.4915
▁npaug	-10.4931
▁kod	-10.4936
gmail	-10.4938
▁using	-10.4956
▁tshwj	-10.4967
▁dlaabtsi	-10.4981
▁yd	-10.4982
================	-10.4994
dab	-10.502
▁11	-10.5044
▁tell	-10.5051
▁check	-10.5051
▁oz	-10.5054
▁wife	-10.5055
▁made	-10.5062
meem	-10.5066
▁tsog	-10.5067
▁tshee	-10.5069
▁poog	-10.5076
▁word	-10.5084
▁yourself	-10.5094
▁7.	-10.5097
16	-10.5116
▁hnyav	-10.5116
vaj	-10.5134
▁nrawm	-10.5138
▁happy	-10.5139
▁going	-10.5142
▁qauj	-10.5154
▁yws	-10.5179
▁kuaj	-10.518
▁big	-10.5192
▁txhab	-10.5208
me	-10.5232
▁ais	-10.524
▁funeral	-10.5275
tos	-10.528
▁ciav	-10.5302
▁khaav	-10.5309
▁china	-10.5319
oj	-10.5319
▁sense	-10.5322
▁tsoomfwv	-10.5332
lis	-10.5355
▁nkhaus	-10.5355
▁mejkoob	-10.5358
▁minister	-10.5364
*	-10.538
▁feel	-10.5384
▁yh	-10.5386
▁rebecca	-10.5422
▁kem	-10.5437
▁vag	-10.5438
▁pdy	-10.5443
tsam	-10.5453
▁da	-10.5454
▁khoo	-10.5461
▁khws	-10.5469
▁ntawg	-10.5469
▁hehehehehe	-10.5471
▁maina	-10.5476
▁sex	-10.5492
▁pus	-10.5505
▁txhis	-10.5512
▁call	-10.5529
▁lor	-10.553
▁npuab	-10.5545
▁dawm	-10.5551
!!!!	-10.5561
▁order	-10.5563
▁tsuam	-10.5588
▁place	-10.5606
▁hehehehe	-10.5613
▁few	-10.5645
▁nqeg	-10.5645
▁self	-10.5651
▁tubrog	-10.5672
▁xus	-10.5678
▁ntsig	-10.5697
▁ntais	-10.5739
▁tsujsua	-10.5757
able	-10.5779
▁ta	-10.5787
▁saj	-10.5788
▁nroj	-10.5791
▁kwj	-10.5799
▁home	-10.58
▁sunrise	-10.5807
▁nomtswv	-10.5809
hotmail	-10.581
▁paib	-10.5811
▁vas	-10.5823
▁npuas	-10.5828
▁keebkwm	-10.5828
▁txujci	-10.5833
▁taam	-10.5868
▁60	-10.5871
▁nchai	-10.5872
▁thwj	-10.5897
yaj	-10.5901
▁non	-10.5901
▁ntsai	-10.5911
▁qhas	-10.5912
▁ty	-10.5915
pom	-10.5919
▁nyaum	-10.592
▁ntxhiab	-10.5923
▁read	-10.5929
▁au	-10.5931
▁soua	-10.5933
▁haav	-10.5938
▁qeeb	-10.5944
tom	-10.5945
▁ntsab	-10.5953
▁title	-10.5955
lus	-10.5955
▁nroos	-10.5956
▁sablaj	-10.5971
▁laig	-10.5973
",	-10.5983
▁both	-10.6014
▁fiv	-10.6028
▁shoua	-10.604
▁pev	-10.604
▁nteg	-10.6041
▁including	-10.6045
▁dream	-10.6047
▁millions	-10.6078
nplog	-10.6096
pab	-10.6121
▁txhoj	-10.6134
er	-10.6143
▁mc	-10.6152
▁tuas	-10.6182
▁proof	-10.6191
▁kong	-10.6211
▁ntsha	-10.6218
▁mem	-10.6228
▁poom	-10.6231
smile	-10.6238
paub	-10.6238
he	-10.6242
▁lol	-10.6253
▁ses	-10.6255
sib	-10.6257
▁kind	-10.6286
sab	-10.629
▁nyeg	-10.6301
▁phas	-10.6306
▁awb	-10.6314
▁yong	-10.6325
▁pay	-10.6335
▁defend	-10.6338
▁uacas	-10.6344
▁keb	-10.6344
▁done	-10.6362
▁its	-10.6365
▁ask	-10.6379
▁hwjchim	-10.6397
▁twjywm	-10.6397
pm	-10.6402
▁q	-10.6411
▁seej	-10.6415
jpg	-10.6421
▁hard	-10.6434
to	-10.6444
▁tseeg	-10.6448
▁truth	-10.6451
▁txos	-10.6461
▁neejtsa	-10.6463
▁tubntsuag	-10.6466
▁major	-10.6477
▁kavliam	-10.6497
▁hluav	-10.6518
▁phiajzeb	-10.6526
▁lob	-10.6535
▁yua	-10.6544
▁kajsiab	-10.6548
▁hoom	-10.6559
▁niamtxiv	-10.6573
▁npo	-10.6591
▁13	-10.6616
▁phov	-10.6623
▁issues	-10.6632
▁team	-10.6632
▁website	-10.6635
▁mua	-10.6636
▁around	-10.6645
▁npaaj	-10.6645
▁prove	-10.6653
▁find	-10.6668
▁between	-10.667
▁ban	-10.6671
suav	-10.6717
▁paim	-10.6722
▁neohome	-10.6727
▁weeks	-10.6742
ub	-10.676
▁kajntug	-10.6771
▁ntxuag	-10.6771
▁fwjchim	-10.6771
▁yuamkev	-10.6778
▁nraud	-10.678
dr	-10.6782
▁tsu	-10.6785
▁end	-10.6792
▁2005	-10.68
▁kiv	-10.6808
▁chance	-10.6809
▁npuav	-10.6815
▁tov	-10.6819
kiag	-10.6827
cannot	-10.6837
▁put	-10.6843
▁unko	-10.6846
▁nplajteb	-10.6846
▁dlaav	-10.6847
▁nplaum	-10.6847
you	-10.6856
wb	-10.6891
▁uasi	-10.6895
▁stop	-10.6911
▁pathet	-10.6924
▁everyone	-10.6926
▁hniaj	-10.6928
▁ai	-10.6929
▁dc	-10.6934
en	-10.695
▁ntub	-10.6952
phiaj	-10.6952
▁ntxais	-10.6953
▁politics	-10.6958
▁dluab	-10.6962
▁ywjpheej	-10.6976
▁opportunity	-10.6976
▁dhlau	-10.6978
▁lyteck	-10.7003
▁tsig	-10.7014
▁fim	-10.7029
ruam	-10.7041
▁yuas	-10.7043
▁control	-10.7047
▁luang	-10.705
▁plhu	-10.7071
▁someone	-10.708
▁kiav	-10.708
▁something	-10.7081
▁nqeeb	-10.7083
▁tv	-10.7089
▁however	-10.7109
▁meeting	-10.7119
▁yah	-10.7123
213,	-10.7135
▁zuaj	-10.7158
▁tsawm	-10.7163
▁idea	-10.7167
▁kob	-10.7168
▁w	-10.7183
▁meejmom	-10.7185
▁anyone	-10.7186
▁mojthem	-10.7187
▁san	-10.7187
▁km	-10.72
hehehe	-10.7203
▁leem	-10.7207
▁yab	-10.7213
▁hours	-10.7216
z	-10.7219
▁npaud	-10.7233
mong	-10.7235
▁tsaab	-10.7236
▁ntxhw	-10.7236
▁35	-10.7239
▁peter	-10.7241
▁top	-10.7248
▁ntoos	-10.7248
▁project	-10.7252
▁moov	-10.7254
▁language	-10.7264
txog	-10.7268
▁txoos	-10.7293
▁txhav	-10.7297
▁bank	-10.7299
▁uatsaug	-10.7305
▁dais	-10.7312
▁thaaj	-10.7319
▁yeeg	-10.7321
▁form	-10.7321
net	-10.7341
▁great	-10.7353
paul	-10.7357
▁zeemmuag	-10.7371
▁bush	-10.7374
▁fwb	-10.7374
lam	-10.7386
▁term	-10.7386
▁club	-10.7389
▁nthe	-10.7398
▁yuj	-10.7398
▁else	-10.7398
▁;	-10.7418
raws	-10.743
▁g	-10.7436
▁science	-10.744
▁nte	-10.7441
▁anything	-10.7452
▁lycee	-10.7453
▁obama	-10.7453
▁npaws	-10.7454
▁laim	-10.7455
▁sivyis	-10.7455
▁ny	-10.7458
▁200	-10.7486
▁past	-10.7491
▁txa	-10.7501
▁nplawm	-10.7507
le	-10.751
▁meaning	-10.7525
▁2006	-10.7538
▁txhuv	-10.7541
▁lfc	-10.7562
▁ntxag	-10.7568
▁kao	-10.7574
▁ntuav	-10.7579
▁mobsiab	-10.7579
yam	-10.7583
▁zeeg	-10.76
▁ntaug	-10.7602
▁doing	-10.7604
▁https	-10.7607
ntxhais	-10.7615
▁ciab	-10.7617
▁situation	-10.763
▁special	-10.7637
▁nqos	-10.7638
▁speech	-10.767
on	-10.7704
▁volunteer	-10.7713
▁phua	-10.7719
▁kaaj	-10.7728
▁unhcr	-10.7728
▁pkh	-10.7729
▁sorry	-10.7733
▁tiamsi	-10.7739
▁tshaav	-10.7751
▁line	-10.7754
▁teng	-10.7757
▁master	-10.7765
▁land	-10.7768
▁little	-10.7786
▁cuaj	-10.7795
▁mim	-10.7796
▁judge	-10.7797
▁ruas	-10.7801
▁24	-10.7815
▁mais	-10.7816
▁po	-10.7836
▁ghov	-10.7839
▁nqus	-10.7841
▁answer	-10.7853
▁off	-10.786
▁vib	-10.7861
lug	-10.7864
▁pleev	-10.7868
▁liag	-10.787
▁*	-10.7871
▁tshuas	-10.7871
▁young	-10.7877
▁bangkok	-10.7895
▁ntaiv	-10.7897
▁moobleeg	-10.7903
▁thaud	-10.7904
faq	-10.7922
▁25	-10.7934
xyoo	-10.794
▁plog	-10.7942
▁sacramento	-10.7955
▁fuabtais	-10.796
▁om	-10.7961
▁turn	-10.7984
▁plis	-10.7984
▁youtube	-10.8001
▁fair	-10.8004
news	-10.8004
▁nroo	-10.801
▁gawv	-10.801
▁tai	-10.8012
▁ntxhias	-10.8014
ntshe	-10.8027
▁john	-10.8031
▁legal	-10.805
▁samthong	-10.8068
▁least	-10.8068
▁enjoy	-10.8072
▁nias	-10.8072
▁naw	-10.8074
▁follow	-10.8078
▁copy	-10.8081
▁khees	-10.8102
but	-10.8105
img	-10.8107
▁kawv	-10.813
ll	-10.8132
▁xaim	-10.8134
▁txam	-10.8135
▁xaab	-10.8141
"...	-10.8142
▁ped	-10.8148
▁age	-10.8161
▁white	-10.8164
saib	-10.8171
▁professional	-10.8171
▁far	-10.8175
tsuas	-10.818
▁sy	-10.8182
▁department	-10.8196
▁join	-10.8208
▁lajlim	-10.8214
▁diav	-10.8218
▁fight	-10.8226
▁second	-10.8228
▁ii	-10.8229
▁zaam	-10.8273
▁moghlub	-10.8275
▁yuad	-10.8275
▁tsavneeg	-10.8276
▁madison	-10.828
▁tabsim	-10.8303
▁v	-10.8306
▁phuv	-10.8308
▁vinai	-10.8309
htm	-10.833
▁heart	-10.8337
▁haas	-10.8342
be	-10.8344
poj	-10.8375
thiaj	-10.8382
▁f	-10.8397
▁wow	-10.8397
▁amelicas	-10.8406
▁zes	-10.8411
▁qa	-10.8414
▁vaammeej	-10.842
▁pestsawg	-10.842
▁piam	-10.8422
▁tejzag	-10.8436
▁luck	-10.845
▁ncaug	-10.8487
▁until	-10.8488
▁kes	-10.8498
laus	-10.851
▁already	-10.851
▁nploglab	-10.8514
▁rawsli	-10.852
▁lais	-10.8534
▁pajtsab	-10.8542
▁nthi	-10.8551
▁tomqab	-10.8552
▁action	-10.8559
▁taig	-10.8568
▁nc	-10.8571
▁yet	-10.8572
▁per	-10.8579
▁vdo	-10.8601
rau	-10.8602
▁ntsujplig	-10.8602
▁zim	-10.8603
▁kham	-10.8604
▁ntsaws	-10.8611
▁nyooj	-10.8614
29	-10.8631
▁xovtooj	-10.8632
▁society	-10.8634
▁npuaj	-10.8636
▁hnia	-10.8637
▁night	-10.8651
▁nyo	-10.8661
▁laag	-10.8661
▁vob	-10.8663
▁qi	-10.8664
▁maub	-10.8668
▁khuj	-10.8688
▁leadership	-10.8696
▁mee	-10.8707
▁number	-10.8711
yawm	-10.8726
▁pag	-10.8743
▁gaus	-10.8755
▁body	-10.8757
▁program	-10.8759
▁pebcaug	-10.8761
▁tsag	-10.8765
▁huaj	-10.8772
▁hluag	-10.8774
▁pluaj	-10.8787
▁ntshaav	-10.8788
▁above	-10.8816
▁rhaub	-10.8817
▁ntso	-10.8818
▁rpa	-10.8819
▁hwb	-10.8819
▁bomb	-10.882
▁npuag	-10.8822
▁haam	-10.8826
▁qhovtwg	-10.8831
▁face	-10.8833
▁council	-10.8834
▁committee	-10.8835
▁thought	-10.8837
▁nqhis	-10.8849
kuj	-10.8858
▁8.	-10.8865
▁job	-10.8868
▁hajya	-10.8868
▁colorado	-10.8879
▁te	-10.8879
▁tshwmsim	-10.888
▁fawb	-10.8881
tag	-10.8883
▁kuag	-10.8891
▁sao	-10.8895
▁uali	-10.8903
▁kaug	-10.8913
▁lua	-10.8915
▁quasyawg	-10.8924
▁nrim	-10.8943
▁military	-10.8946
▁sign	-10.895
▁zij	-10.8967
▁1000	-10.8971
▁rig	-10.8971
▁qog	-10.8974
▁ntxhai	-10.8981
▁qhau	-10.8996
▁nuvntses	-10.9005
▁ntwg	-10.9008
kav	-10.9021
▁perfect	-10.9037
▁tsoos	-10.9038
tam	-10.9057
ntshai	-10.9064
▁times	-10.9066
▁tax	-10.9071
tso	-10.9077
▁hlaus	-10.9085
▁security	-10.9102
▁saw	-10.9102
ioc	-10.9105
▁txus	-10.9109
tug	-10.911
▁sibhlub	-10.9123
▁povthawj	-10.9138
▁16	-10.9143
▁stroke	-10.9151
▁ntsub	-10.9166
▁open	-10.9167
▁5-6	-10.9167
tiag	-10.917
▁lolus	-10.9174
▁away	-10.918
▁pham	-10.9182
▁choice	-10.9184
▁povtseg	-10.92
▁14	-10.9212
▁txhuas	-10.9223
▁khaib	-10.9236
▁mission	-10.925
▁bias	-10.9262
▁npliaj	-10.9265
▁tsees	-10.9268
▁lot	-10.9279
▁used	-10.9279
▁dulug	-10.9295
▁ntxiag	-10.9299
▁vt	-10.9308
xeem	-10.9313
▁sunday	-10.9329
kwv	-10.9329
coj	-10.9329
▁lwv	-10.9338
▁happen	-10.934
▁yaw	-10.936
▁accept	-10.9361
ia	-10.9362
▁tibyam	-10.9369
...........	-10.9372
▁subject	-10.9379
▁ruag	-10.9389
▁private	-10.9396
▁yaub	-10.9398
ag	-10.9411
??	-10.9413
▁enough	-10.9422
▁nplaj	-10.9426
▁chua	-10.9432
▁ever	-10.9432
▁commander	-10.9445
▁khoos	-10.9461
▁xyab	-10.9464
▁came	-10.9466
▁nkaj	-10.9468
▁goal	-10.9472
pov	-10.9473
▁khao	-10.9478
▁benefit	-10.9479
▁practice	-10.948
▁yawglaus	-10.9481
▁yaws	-10.9486
▁chong	-10.9492
▁ready	-10.9495
zaum	-10.9499
▁former	-10.9501
▁dluag	-10.9503
▁difference	-10.9511
▁ntr	-10.9523
xwb	-10.9524
▁chwv	-10.9526
▁rag	-10.9538
▁500	-10.9542
▁lake	-10.9549
▁ntxi	-10.9553
▁maim	-10.9555
▁xiv	-10.9558
▁oib	-10.9558
▁txaaj	-10.9559
▁ntsoog	-10.9562
▁52	-10.9563
▁zig	-10.9564
lq	-10.9573
▁phu	-10.9579
▁nkau	-10.958
▁cause	-10.9584
twg	-10.9595
▁unless	-10.9597
▁dabtsis	-10.9613
▁friends	-10.9618
▁through	-10.9622
▁earth	-10.9627
▁vov	-10.9627
▁summer	-10.9628
▁qhias	-10.9629
▁txujkev	-10.9637
▁ed	-10.9648
▁address	-10.9658
▁ntxaws	-10.9661
▁hand	-10.9674
▁movies	-10.9676
▁together	-10.9694
▁fgvp	-10.9694
▁nkaujstpaul	-10.9694
▁zawm	-10.9695
▁chue	-10.9695
mej	-10.9699
▁pluas	-10.97
▁2012	-10.9704
siv	-10.9712
▁ncau	-10.9713
▁bill	-10.9714
her	-10.9716
▁qhovmuag	-10.9724
52	-10.9725
suc	-10.9728
▁george	-10.9729
▁tshauv	-10.9734
▁woman	-10.9734
niag	-10.974
▁park	-10.9741
zhen	-10.9749
▁khabnab	-10.9762
▁lesson	-10.9783
▁refugee	-10.9784
▁catholic	-10.9785
▁nhov	-10.9797
▁phev	-10.9798
▁kaim	-10.9801
▁daus	-10.9803
▁nrad	-10.9838
▁phlu	-10.9858
▁hihrw	-10.9866
▁nyaab	-10.9868
ntau	-10.9872
▁viv	-10.9876
▁father	-10.9889
sis	-10.9894
▁hin	-10.9905
▁tshais	-10.9914
kawm	-10.992
▁late	-10.9933
▁thawb	-10.9937
▁toob	-10.9938
▁run	-10.9941
▁black	-10.995
▁center	-10.9957
▁lyfoung	-10.997
▁thawm	-10.9971
▁cuj	-10.9972
▁tsham	-10.9974
vp	-10.9974
▁nyeej	-10.9974
▁yia	-10.9982
▁naav	-10.9982
▁pk	-10.9993
▁saturday	-11.0006
▁camp	-11.0006
▁neng	-11.001
dag	-11.0014
▁tomntej	-11.0039
▁thwm	-11.0041
▁huav	-11.0046
▁75	-11.0055
▁solution	-11.0062
tes	-11.0071
▁noi	-11.0071
▁askiv	-11.0075
▁ago	-11.0078
▁today	-11.0082
▁chinese	-11.0084
▁generation	-11.0097
▁vau	-11.0098
▁listhoj	-11.0104
▁ka	-11.0107
▁thamkrabok	-11.011
▁dkj	-11.0111
▁cheng	-11.0111
▁raj	-11.0113
▁asmeskas	-11.0113
▁maybe	-11.0116
▁dam	-11.0124
▁phub	-11.014
▁plees	-11.0148
▁xuaj	-11.015
▁quab	-11.0163
▁cases	-11.0166
▁kaas	-11.0176
nkawv	-11.0177
▁2000	-11.018
▁xeebceem	-11.018
▁instead	-11.0182
▁lej	-11.0183
▁north	-11.0186
▁taij	-11.0188
groups	-11.0192
▁individual	-11.0203
▁once	-11.022
▁whole	-11.0225
▁days	-11.0226
so	-11.0239
▁east	-11.026
▁mu	-11.0264
▁attack	-11.0274
▁official	-11.0277
xyov	-11.0277
▁plaab	-11.0289
▁dejdawb	-11.0294
▁feet	-11.0294
▁later	-11.0324
▁tshajlij	-11.0327
▁health	-11.0331
▁capt	-11.0332
▁lwg	-11.0336
▁yoov	-11.0339
if	-11.0341
og	-11.0346
tseemyeej	-11.0354
▁peeb	-11.0356
▁means	-11.0361
▁lhub	-11.0361
▁ceevfaj	-11.0362
▁2)	-11.0363
▁bring	-11.0364
txawj	-11.0364
▁funny	-11.0365
▁txhos	-11.0367
▁hi	-11.0375
▁tshai	-11.0379
▁cuas	-11.0387
tim	-11.0388
▁milwaukee	-11.0397
▁interesting	-11.0399
▁hmoobvajusa	-11.0399
▁npausuav	-11.04
▁sauv	-11.042
tabsis	-11.0453
▁canada	-11.0473
▁txis	-11.0475
▁yuaj	-11.0478
um	-11.0487
▁interest	-11.0492
dej	-11.0498
ho	-11.0501
▁vajmoob	-11.0503
▁medical	-11.0509
▁dlaaj	-11.0511
▁ntxwj	-11.0512
▁comment	-11.0531
20	-11.0531
▁son	-11.0532
▁yawd	-11.0548
▁tiao	-11.0553
▁retired	-11.0554
▁posts	-11.0562
▁pastor	-11.0565
▁khaw	-11.0574
▁dlau	-11.0577
▁since	-11.0582
▁tiamsid	-11.0585
▁minutes	-11.0587
▁rovqab	-11.0593
▁1)	-11.06
▁death	-11.0607
▁txw	-11.0614
one	-11.0616
▁nice	-11.0618
▁cos	-11.0628
▁israel	-11.0654
▁txawjvamyias	-11.0655
▁policy	-11.0658
▁fund	-11.066
▁yoj	-11.0661
▁yaiv	-11.0662
▁vs	-11.0682
▁khoob	-11.0683
▁france	-11.0694
▁remember	-11.0695
▁yesus	-11.0695
▁melikas	-11.0696
▁txaum	-11.0706
nyiaj	-11.0711
▁xaws	-11.0731
▁utc	-11.0731
▁heard	-11.0734
▁nod	-11.0735
▁hiav	-11.0736
▁saying	-11.0736
▁thaab	-11.0737
tham	-11.0751
▁ku	-11.0752
▁tsimnyog	-11.0769
▁friday	-11.077
▁dlig	-11.077
▁sev	-11.08
▁create	-11.0808
▁bro	-11.0813
▁neev	-11.0816
▁vacation	-11.0829
▁rock	-11.083
uas	-11.0831
▁ntshiab	-11.0845
om	-11.0846
▁blogliab	-11.0848
▁pis	-11.0864
▁traitor	-11.0874
dony	-11.0875
▁everything	-11.0885
▁paag	-11.0886
▁lecaag	-11.0888
▁2010	-11.0905
▁66	-11.0911
▁ntxaug	-11.0921
▁kwvluag	-11.0933
▁2007	-11.0939
▁date	-11.0945
▁citizen	-11.0947
ig	-11.0955
▁wausau	-11.0959
▁quj	-11.096
▁clan	-11.0969
▁set	-11.0995
▁kavtsi	-11.1001
▁nqaa	-11.1023
▁rule	-11.1024
▁lawj	-11.1025
▁xuab	-11.1029
▁xwj	-11.1042
▁2004	-11.1046
▁phoos	-11.1048
▁wat	-11.1049
▁xua	-11.1049
▁ibtxwm	-11.1055
▁khuaj	-11.1056
tuag	-11.1061
▁pheeb	-11.1077
▁pojntxoog	-11.1077
▁tagkis	-11.1081
▁nplaim	-11.1082
▁fai	-11.1096
▁continue	-11.1098
▁gm	-11.1099
▁!	-11.1112
▁dlaws	-11.1115
▁reality	-11.1116
▁called	-11.1119
▁maab	-11.1119
▁thiv	-11.1121
▁veteran	-11.1136
▁game	-11.1139
▁south	-11.1153
▁apply	-11.1153
▁nceeg	-11.1156
▁ntsejmuag	-11.1157
▁!!!	-11.1162
▁xau	-11.1163
▁dead	-11.1179
▁knowledge	-11.1179
▁century	-11.1194
▁living	-11.1195
▁either	-11.1196
ve	-11.1209
▁nqua	-11.122
▁limit	-11.122
▁80	-11.1228
▁20-30	-11.123
▁prabang	-11.1233
▁while	-11.1233
▁noobneej	-11.1234
▁rais	-11.1236
▁wish	-11.1247
profit	-11.1249
▁phij	-11.126
▁chawj	-11.1268
▁states	-11.1269
▁vajlugkub	-11.1273
▁possible	-11.1273
▁lulug	-11.1274
▁teej	-11.1275
▁yaa	-11.1278
▁baj	-11.1279
▁move	-11.1284
▁ntsaw	-11.1289
▁challenge	-11.1291
▁record	-11.1297
▁lead	-11.1299
▁yo	-11.13
▁view	-11.1301
eb	-11.1302
▁cale	-11.1304
not	-11.1307
▁positive	-11.1315
▁tshis	-11.1317
▁ntswj	-11.1324
▁koo	-11.1327
▁npaumli	-11.1329
▁santa	-11.135
▁jeeg	-11.1353
▁xev	-11.1356
▁xiab	-11.1357
▁puavleej	-11.1362
▁meme	-11.1362
▁saibseb	-11.1366
▁agenda	-11.1378
▁txhu	-11.1392
▁raab	-11.1392
▁lpd	-11.1393
▁dongdok	-11.1393
▁deja	-11.1394
▁charge	-11.1417
▁di	-11.1419
lo	-11.1424
aj	-11.1432
▁voos	-11.1434
▁nraab	-11.144
loj	-11.1453
thread	-11.1465
▁green	-11.1473
txhua	-11.148
▁bis	-11.149
51	-11.1494
▁ntxeem	-11.1515
▁jail	-11.1515
pheej	-11.1523
▁kaag	-11.1527
▁naab	-11.1528
▁suv	-11.1529
▁step	-11.1529
▁heaven	-11.1543
▁head	-11.1544
▁xya	-11.1547
tswv	-11.1555
ng	-11.158
kub	-11.1588
▁watch	-11.159
▁normal	-11.1596
▁amekas	-11.1596
▁nqai	-11.16
▁1980	-11.1606
▁chai	-11.1608
al	-11.1609
aub	-11.1614
▁agent	-11.1625
▁thaumtwg	-11.1636
we	-11.1639
▁suavdaws	-11.1639
▁mung	-11.1641
nom	-11.1641
▁ntaw	-11.1642
▁fun	-11.1647
▁vab	-11.1648
▁groups	-11.1656
▁walk	-11.1665
▁stay	-11.1665
▁kill	-11.1667
▁stand	-11.1668
▁might	-11.1676
---------------	-11.1677
▁yt	-11.1679
▁taav	-11.1679
▁snow	-11.168
▁army	-11.168
▁pluav	-11.1681
thawj	-11.1684
▁khuav	-11.1688
tias	-11.1716
▁9.	-11.1717
▁short	-11.1721
▁mental	-11.1725
▁ana	-11.1747
▁nation	-11.1752
▁act	-11.1754
▁naiphoo	-11.1757
pao	-11.1758
▁negative	-11.1762
▁touby	-11.1762
▁wayne	-11.1763
▁talking	-11.1764
▁mejthaub	-11.1766
▁ntuv	-11.1776
▁xamphaj	-11.1803
▁xeng	-11.1805
sim	-11.1814
▁daw	-11.1817
▁plus	-11.1852
▁xais	-11.1866
▁pig	-11.1879
▁xo	-11.188
neb	-11.1891
▁theory	-11.1892
▁pubthawj	-11.1894
▁google	-11.1898
$	-11.1899
▁guys	-11.1899
▁nrag	-11.19
▁qia	-11.191
▁become	-11.1917
▁.....	-11.192
hlub	-11.1922
▁plau	-11.1933
▁yogli	-11.1942
▁caab	-11.1945
▁2008	-11.1962
▁tubcajceszoo	-11.1972
▁roog	-11.1973
▁txhuam	-11.1979
▁flip	-11.1985
▁nh	-11.1996
▁statement	-11.2001
at	-11.2001
▁conference	-11.2002
▁medal	-11.2003
hahahaha	-11.2008
▁lolz	-11.2013
▁nkig	-11.2017
▁moslwj	-11.2017
▁nkaub	-11.2023
..?	-11.2024
▁chi	-11.2032
▁zoox	-11.2053
txoj	-11.2053
▁behind	-11.2058
▁child	-11.2058
▁nyaav	-11.2058
▁county	-11.2059
▁thuj	-11.206
▁dlag	-11.2062
▁yu	-11.2069
▁tem	-11.207
▁txum	-11.2081
cab	-11.2085
▁within	-11.2085
▁event	-11.2092
▁xyua	-11.2097
▁children	-11.2101
▁jungle	-11.2102
▁meliskas	-11.2102
▁dheev	-11.2102
▁tshooj	-11.2105
▁yej	-11.2109
▁anyway	-11.213
▁promote	-11.2135
▁ak	-11.2143
▁tseb	-11.2153
nub	-11.216
▁th	-11.217
▁regard	-11.2174
▁das	-11.2176
▁fav	-11.2177
▁hias	-11.2191
▁thinking	-11.2196
▁ntseeb	-11.2198
▁ip	-11.2206
▁force	-11.2208
▁carp	-11.2213
ai	-11.2216
▁house	-11.2221
▁noogqejqawg	-11.2232
▁insurance	-11.2232
▁naag	-11.2233
▁tsoobniam	-11.2234
▁ntis	-11.2236
▁dabqhuas	-11.224
▁nyuav	-11.224
▁vajpov	-11.2243
cj	-11.2252
▁tz	-11.2254
▁vaajmung	-11.2275
▁kaujruam	-11.2275
▁blong	-11.2277
▁nplig	-11.2277
muas	-11.2278
▁questions	-11.2279
▁original	-11.2283
▁book	-11.2294
ntawv	-11.2297
▁khua	-11.2306
im	-11.2309
▁ncho	-11.2309
▁nong	-11.2315
▁tsuab	-11.2318
▁nyaablaaj	-11.2318
▁dlov	-11.2322
dawb	-11.2337
▁michigan	-11.2363
▁nyug	-11.2369
▁xuam	-11.2372
during	-11.2385
▁die	-11.2391
▁marriage	-11.2397
▁hawv	-11.2418
▁ncaus	-11.2426
▁puaj	-11.2435
▁nib	-11.2437
▁simple	-11.2447
▁page	-11.2451
▁npojyaig	-11.2452
▁welfare	-11.2454
ntse	-11.2458
▁hahahahahahaha	-11.2458
▁clear	-11.2458
▁bus	-11.2465
▁ciasiab	-11.2474
▁rest	-11.2493
▁voj	-11.2493
php	-11.2495
▁17	-11.2498
▁deal	-11.25
▁middle	-11.2501
▁yod	-11.2506
▁nig	-11.2513
▁chang	-11.2532
mam	-11.2533
▁hmoobdawb	-11.2546
xeeb	-11.2551
▁thi	-11.2565
▁hub	-11.2576
▁??	-11.2579
▁3)	-11.2588
▁tshob	-11.2592
▁cultural	-11.2593
lqy	-11.2595
▁yuv	-11.2601
mn	-11.2609
▁chief	-11.2621
▁feeling	-11.2624
an	-11.2636
▁laajxeeb	-11.2636
law	-11.2639
▁dawj	-11.264
▁va	-11.2645
▁xwbfwb	-11.2645
▁offer	-11.2648
▁result	-11.2665
▁soon	-11.2665
▁qhaub	-11.2674
▁rhu	-11.2675
▁txheev	-11.2676
▁guarantee	-11.2677
▁dlim	-11.2679
▁hh	-11.2685
▁qhaj	-11.2705
▁guy	-11.2712
▁cher	-11.2716
tu	-11.2718
▁tuj	-11.2721
▁washington	-11.2725
▁nqug	-11.2726
▁ntshis	-11.273
▁phiam	-11.273
▁zooniamtsev	-11.2736
▁ex	-11.2738
▁namtxiv	-11.2747
▁decision	-11.2757
▁qeeg	-11.276
▁taamsim	-11.2771
▁test	-11.2773
▁asian	-11.2774
▁faiv	-11.278
▁ntsaj	-11.2783
▁yawmsib	-11.2789
▁dong	-11.2791
▁txhaa	-11.2796
▁npluav	-11.2798
????	-11.28
▁pajyeeb	-11.2819
▁tshau	-11.2825
▁pwg	-11.2836
sawv	-11.2842
▁lawg	-11.2843
thaib	-11.2847
▁professor	-11.2851
▁grade	-11.2858
▁iav	-11.286
▁chee	-11.2862
▁fee	-11.2863
▁brothers	-11.2865
▁article	-11.2872
▁ts	-11.2872
▁ibtug	-11.2896
▁service	-11.2896
ne	-11.2906
▁guess	-11.2908
liab	-11.2915
50	-11.2921
▁principle	-11.2944
haus	-11.295
▁complain	-11.2952
▁nros	-11.2956
▁7-8	-11.2958
▁5000	-11.2959
▁ntsaum	-11.296
▁personally	-11.2962
▁victims	-11.2963
▁start	-11.2968
▁zehn	-11.3005
▁khuvxim	-11.3006
▁nteeg	-11.3007
▁crazy	-11.3008
▁caaj	-11.301
▁luav	-11.302
nam	-11.3026
▁luab	-11.3031
▁thornspear	-11.3035
▁restaurant	-11.3038
▁fuam	-11.3053
▁told	-11.3053
▁50%	-11.3054
▁royal	-11.3055
▁npuj	-11.3056
▁repeat	-11.3067
▁knows	-11.3083
▁pawv	-11.3087
▁fue	-11.3092
▁tong	-11.3097
▁serious	-11.3099
▁bojyaig	-11.3099
▁tajlaj	-11.3099
▁mavtais	-11.3101
▁ntiab	-11.3108
▁faab	-11.3133
▁thev	-11.3141
▁qoog	-11.3148
▁et	-11.3155
▁hmov	-11.3172
gate	-11.3173
▁represent	-11.3182
▁tsaub	-11.3189
mec	-11.319
▁rovlos	-11.3191
▁common	-11.3191
nkauj	-11.3193
▁easy	-11.3196
▁therefore	-11.3197
▁qhe	-11.3202
▁sibpab	-11.3203
▁xang	-11.3204
▁hlaa	-11.3206
▁refugees	-11.3217
▁dee	-11.3226
ma	-11.3226
▁ba	-11.3227
▁advice	-11.323
that	-11.3232
▁iblub	-11.3233
▁dis	-11.3234
▁forward	-11.3244
▁koomhum	-11.3244
▁iv	-11.3275
▁officer	-11.328
▁belief	-11.3283
tas	-11.3284
▁nyhiab	-11.3292
▁doesn	-11.3294
▁goes	-11.3301
▁meeg	-11.3317
▁xas	-11.3318
▁hehehehehehe	-11.3336
)...	-11.3337
▁important	-11.334
▁constitution	-11.3342
▁contact	-11.3344
▁heup	-11.3344
▁eyes	-11.3347
▁ambassador	-11.3352
▁nrav	-11.3362
▁sd	-11.3371
▁ntos	-11.3376
thank	-11.3378
▁nras	-11.3379
▁xoo	-11.3383
▁balance	-11.3388
▁thais	-11.3399
ntawm	-11.3419
tij	-11.3427
▁plaw	-11.3433
▁tsus	-11.3434
▁nancy	-11.3441
▁according	-11.3444
▁kha	-11.3455
do	-11.3457
▁focus	-11.3466
▁blood	-11.3476
▁qai	-11.3486
gec	-11.3487
▁muastony	-11.3489
▁fire	-11.349
▁buddha	-11.3491
▁pheev	-11.3491
▁claimed	-11.3491
▁zias	-11.3494
▁air	-11.3521
▁lue	-11.3526
▁source	-11.3529
▁standard	-11.3532
▁qeg	-11.3537
▁teck	-11.3538
▁krabok	-11.3539
▁embassy	-11.354
▁defense	-11.3541
▁qhauv	-11.3551
▁qev	-11.3554
▁limhiam	-11.3561
tsev	-11.3567
qab	-11.3576
▁cancer	-11.3589
▁making	-11.3591
▁nkias	-11.3591
nco	-11.3596
▁hmob	-11.3599
▁xh	-11.3612
for	-11.3615
▁dance	-11.3621
▁main	-11.3621
wm	-11.3624
▁course	-11.3624
▁zo	-11.3626
;&	-11.3628
▁bye	-11.3632
▁blame	-11.3638
▁tzexa	-11.3639
▁ni	-11.3639
▁reply	-11.3641
▁class	-11.3647
▁pheejxeeb	-11.3648
▁hear	-11.3656
▁theev	-11.3659
▁ntaux	-11.3661
chim	-11.3676
hl	-11.368
24	-11.3683
▁losmas	-11.3687
nd	-11.3694
▁70	-11.3698
▁dok	-11.3699
▁khuab	-11.3705
▁visa	-11.3712
▁thorns	-11.3713
▁xyav	-11.3718
▁tsha	-11.372
▁nyiav	-11.3722
▁purpose	-11.3727
▁nplim	-11.3735
this	-11.3735
▁surithay	-11.374
▁qhwv	-11.3741
▁monday	-11.3742
▁prime	-11.3743
▁xieng	-11.3762
▁cover	-11.3763
she	-11.3769
tawm	-11.377
▁ntsais	-11.3771
▁serve	-11.3774
▁ibyam	-11.378
▁qwb	-11.3783
▁leng	-11.3789
▁ntxuv	-11.3793
▁nchav	-11.3795
▁nwj	-11.3796
▁food	-11.3797
▁nations	-11.3808
▁quag	-11.3825
▁speak	-11.3828
▁yi	-11.3832
▁diego	-11.3842
▁casino	-11.3842
▁early	-11.3847
wv	-11.3864
laug	-11.388
▁amelivka	-11.3888
▁lubsiab	-11.3889
▁101%	-11.3894
▁nyawm	-11.3896
▁meka	-11.3896
▁phaya	-11.3897
▁cassette	-11.3899
▁based	-11.3899
▁1960	-11.3899
▁rovqaab	-11.3901
▁pliaj	-11.3901
thaub	-11.3909
▁chais	-11.3915
ca	-11.3918
▁txiabneeb	-11.3927
▁dob	-11.3927
what	-11.3931
▁ah	-11.3931
▁pass	-11.3939
▁dear	-11.3946
▁welcome	-11.3946
▁hmantsuab	-11.3947
▁rwj	-11.3948
kas	-11.3949
▁nasthis	-11.395
neej	-11.3953
▁pod	-11.3956
tsua	-11.3959
has	-11.3959
▁song	-11.3959
▁sawb	-11.3979
▁dollar	-11.3985
▁senator	-11.3986
▁version	-11.3987
▁npib	-11.4
▁hliv	-11.4007
▁vav	-11.4014
born	-11.4015
dev	-11.4018
tshum	-11.4028
hauv	-11.4034
▁market	-11.4034
▁1976	-11.4036
▁role	-11.4038
▁ntsoo	-11.4041
▁gain	-11.4049
▁beach	-11.405
▁natural	-11.4052
▁lisfoom	-11.4052
▁trying	-11.4053
▁txhib	-11.4054
▁license	-11.4057
▁students	-11.4058
▁dia	-11.4079
▁ncoo	-11.408
▁fall	-11.4093
▁oo	-11.4102
▁nqov	-11.4103
▁nt	-11.4104
▁tugkheej	-11.4107
▁tsaib	-11.4107
▁sivyig	-11.4109
▁kids	-11.4111
▁phais	-11.4111
hluas	-11.4112
▁cooj	-11.4112
▁36	-11.4116
▁kus	-11.4122
▁phlus	-11.4124
▁qabhau	-11.4133
▁phob	-11.4135
un	-11.414
yim	-11.4141
▁ceebtsheej	-11.4156
▁asmesliskas	-11.4156
▁nrhab	-11.4157
▁xai	-11.417
▁flop	-11.4179
▁khiab	-11.4183
▁maaj	-11.4193
▁evil	-11.4197
nwg	-11.4198
▁cujpwm	-11.4208
▁explain	-11.4209
▁himself	-11.4209
▁nraugnruag	-11.421
32	-11.4211
▁xovxwm	-11.4211
ce	-11.4213
▁pug	-11.4213
▁phiab	-11.4216
▁khai	-11.4235
▁election	-11.4246
▁nrauv	-11.4255
▁though	-11.4258
▁merced	-11.426
▁thom	-11.426
▁plhis	-11.4265
▁kaasmoos	-11.4266
▁tamsimno	-11.427
luj	-11.4276
▁npliag	-11.4283
▁sys	-11.4286
nrog	-11.4299
▁press	-11.4299
paj	-11.4301
▁politician	-11.4304
▁sommer	-11.4304
▁hmoobsib	-11.431
▁qhob	-11.4311
▁simply	-11.4316
▁sgu	-11.4318
ntawd	-11.4321
co	-11.4324
▁poor	-11.4324
▁leeb	-11.4325
▁npoos	-11.4332
▁90	-11.434
▁pws	-11.4349
my	-11.4357
▁went	-11.4372
▁indigenous	-11.4372
▁zuv	-11.4373
▁buy	-11.4374
▁full	-11.4374
▁save	-11.4379
muag	-11.4389
▁nuam	-11.4391
wg	-11.4413
▁moral	-11.4413
▁seems	-11.442
▁npoo	-11.4422
▁cobtsib	-11.4425
▁brig	-11.4426
▁phaab	-11.4426
▁niab	-11.4431
▁economic	-11.4436
▁lubneej	-11.4454
▁txojsia	-11.4459
▁operation	-11.4471
▁covlus	-11.4476
▁gauj	-11.4479
▁qhawv	-11.4482
▁wonder	-11.4482
▁thong	-11.4491
▁...............	-11.4494
▁interview	-11.4507
ws	-11.4519
▁husband	-11.4523
lqz	-11.4526
▁consider	-11.4532
▁solve	-11.4532
▁civ	-11.4534
▁koomtsihaum	-11.4534
▁nature	-11.4536
▁clean	-11.4537
zeb	-11.4539
file	-11.4543
kab	-11.4546
▁loog	-11.455
▁concern	-11.4574
▁mother	-11.4576
▁foundation	-11.4577
oib	-11.4584
▁lagluam	-11.459
▁whatever	-11.4595
▁created	-11.4596
▁cheeb	-11.4598
▁tiagx	-11.4603
▁sivzog	-11.4604
hu	-11.4606
▁2013	-11.4612
▁coobx	-11.4614
▁wisdom	-11.463
▁pre	-11.4631
oh	-11.4634
zog	-11.4637
▁joke	-11.4637
▁hdd	-11.4644
▁swm	-11.4645
hnov	-11.4648
▁hnubkaj	-11.4654
▁nw	-11.4655
▁thia	-11.4661
_0	-11.4663
▁jan	-11.4669
▁kooj	-11.468
▁won	-11.4688
▁leave	-11.469
▁governor	-11.469
▁tswjfwm	-11.4701
▁detroit	-11.4701
▁happened	-11.4702
▁dlejnum	-11.4702
▁minneapolis	-11.4702
▁tshiaj	-11.4703
▁lives	-11.4706
▁muj	-11.4707
▁29	-11.4714
nov	-11.4728
▁york	-11.4732
▁koog	-11.4736
xx	-11.4738
▁lawyers	-11.4741
▁label	-11.4742
▁having	-11.4742
dhau	-11.4742
▁equal	-11.4743
tshuav	-11.4743
up	-11.475
▁sw	-11.4758
nyuj	-11.4759
▁ying	-11.4761
▁paiv	-11.4765
▁phabmab	-11.4766
koob	-11.4776
▁txojcai	-11.4786
▁dluav	-11.4791
▁note	-11.4794
▁smile	-11.4797
▁contract	-11.4798
▁refer	-11.4801
meo	-11.4801
▁md	-11.4806
▁naikong	-11.4808
▁pejkum	-11.4813
▁26	-11.4814
▁nwslub	-11.4816
▁forget	-11.4816
▁december	-11.4817
▁left	-11.4821
▁tagx	-11.4821
▁inc	-11.4821
▁ncaw	-11.4824
▁relationship	-11.4825
▁meet	-11.4838
▁unpo	-11.4841
▁pau	-11.485
▁sharing	-11.4851
▁affair	-11.4859
image	-11.4859
kwvtij	-11.486
▁worry	-11.4871
▁ncav	-11.4872
▁rather	-11.4872
▁reasons	-11.4873
▁involve	-11.4878
▁among	-11.4887
▁win	-11.49
pob	-11.4902
▁correct	-11.4923
▁west	-11.4926
▁enemy	-11.4928
▁xyeem	-11.4929
▁dlog	-11.4934
▁nquab	-11.4937
▁niajhnub	-11.494
▁28	-11.4944
▁zas	-11.4946
▁411	-11.4948
▁willing	-11.4954
rov	-11.4964
▁base	-11.4969
tua	-11.497
▁koua	-11.497
▁houa	-11.4971
god	-11.4979
▁120	-11.4984
▁txajmuag	-11.4986
▁federal	-11.4987
▁txhub	-11.4993
▁tswg	-11.4994
▁bo	-11.4994
▁lai	-11.4994
▁xoob	-11.4994
▁super	-11.4999
▁dau	-11.5001
rd	-11.5004
▁yauj	-11.5004
/0	-11.5006
▁seconds	-11.5012
▁hlos	-11.5014
▁xyas	-11.5027
ther	-11.5031
koom	-11.5032
▁expect	-11.5042
▁ntxheb	-11.5044
▁asked	-11.5045
▁pepsi	-11.5045
▁jib	-11.5047
▁rev	-11.5047
▁phiv	-11.5048
▁needs	-11.505
▁2011	-11.5051
lauj	-11.5056
▁khoov	-11.5063
▁process	-11.5064
haum	-11.5065
quav	-11.5068
▁india	-11.5081
mob	-11.5093
▁meska	-11.5095
▁tsiag	-11.5101
▁bs	-11.5102
▁ibleeg	-11.5108
▁trust	-11.511
posting	-11.5111
▁comes	-11.5113
▁ntxhoo	-11.5122
▁ntxhib	-11.5128
▁info	-11.5129
▁qhiav	-11.5145
▁detail	-11.515
▁iraq	-11.5155
lqx	-11.5162
▁qabzib	-11.5165
▁gab	-11.5165
▁noom	-11.5166
▁hmuv	-11.517
▁sas	-11.5172
"....	-11.5185
▁paam	-11.5198
▁toulia	-11.5213
▁liajdawb	-11.5219
▁koobmeej	-11.522
▁ncaig	-11.522
▁fij	-11.5222
▁bravo	-11.5222
▁present	-11.5226
▁vajhmoob	-11.5229
▁muskawm	-11.5238
"?	-11.524
▁sibhaum	-11.5246
▁kee	-11.5247
▁attorney	-11.5262
▁nrhia	-11.5267
▁style	-11.527
▁haavzoov	-11.5277
▁vieng	-11.5279
▁vws	-11.5279
▁technology	-11.528
▁vice	-11.528
▁march	-11.5281
▁vietnamese	-11.5283
▁phuaj	-11.5288
40	-11.5289
▁khom	-11.5293
ej	-11.53
▁suavteb	-11.5306
▁return	-11.5317
▁train	-11.5318
▁expert	-11.5323
em	-11.5325
▁water	-11.5328
▁$1	-11.5332
uv	-11.5335
▁french	-11.5347
▁08	-11.5349
▁except	-11.5349
▁tubsab	-11.5383
▁19	-11.5386
▁town	-11.5391
▁saykao	-11.5397
▁staff	-11.5399
hab	-11.54
▁majority	-11.5406
▁pajcai	-11.5407
▁qig	-11.5409
▁due	-11.544
▁saint	-11.5445
▁laum	-11.545
▁hnug	-11.5457
maj	-11.5459
▁iabliam	-11.5459
▁phwvyawm	-11.5459
10	-11.546
▁small	-11.5461
▁busy	-11.5462
▁similar	-11.5465
▁david	-11.5466
▁ged	-11.5468
▁cell	-11.547
25	-11.5472
▁bua	-11.5483
▁update	-11.5499
▁ntswv	-11.5499
▁account	-11.5502
▁nongkhai	-11.5503
▁key	-11.5514
▁ncab	-11.5523
▁300	-11.5523
▁xawb	-11.5531
▁ideas	-11.5549
haiv	-11.5555
▁lwmtus	-11.5561
▁davhlau	-11.5565
▁hate	-11.5569
▁africa	-11.5575
▁thawv	-11.5581
▁parents	-11.5582
▁november	-11.5583
▁nkawg	-11.5584
▁zaab	-11.5584
▁txoob	-11.5585
▁txwb	-11.5591
▁soc	-11.5593
dub	-11.5608
▁dec	-11.5613
▁close	-11.5623
=1	-11.5626
▁cousin	-11.5627
▁sister	-11.5634
▁kuav	-11.5636
communist	-11.5639
▁attention	-11.5641
▁pressure	-11.5643
▁generals	-11.5645
▁com	-11.5648
piv	-11.5655
▁kawmntawv	-11.5661
▁iha	-11.5685
▁intention	-11.5688
▁hero	-11.5689
index	-11.569
▁sawdaws	-11.5701
▁exactly	-11.5701
▁vej	-11.5702
▁qov	-11.5703
▁pheem	-11.5704
drg	-11.5727
▁1979	-11.5752
cias	-11.5754
▁card	-11.5755
seb	-11.5757
▁plhuav	-11.5764
▁jerry	-11.5764
▁western	-11.5765
▁naiphom	-11.5766
▁logic	-11.5768
▁looking	-11.5771
▁tshos	-11.5772
▁xw	-11.5774
▁txhias	-11.5779
▁services	-11.5784
▁haislus	-11.5784
▁movtshua	-11.5787
▁comments	-11.5788
▁niamyau	-11.5791
▁phak	-11.5791
▁phia	-11.5792
▁ticket	-11.5812
14	-11.5816
▁problems	-11.5823
▁authority	-11.5826
▁www	-11.5826
▁xwmtxheej	-11.5828
▁6-7	-11.583
▁tsos	-11.5833
neeb	-11.5835
just	-11.584
▁saam	-11.5844
▁khauj	-11.5848
▁auv	-11.5852
▁hmoog	-11.5865
▁blooj	-11.5869
▁writing	-11.5879
▁terrorist	-11.5881
▁youa	-11.5888
▁ntxhuv	-11.5888
▁xibhwb	-11.5889
▁pobntseg	-11.5889
▁wait	-11.5891
▁rhais	-11.5894
▁tshaw	-11.59
▁ntsaig	-11.5901
▁tsug	-11.5901
▁single	-11.5902
▁media	-11.5902
▁03	-11.5912
xwm	-11.5913
▁search	-11.5913
▁ntxhua	-11.5926
▁abuse	-11.5926
...............	-11.5927
▁ntsees	-11.5932
▁bau	-11.5932
-28	-11.5937
▁couple	-11.594
▁dlai	-11.5944
!"	-11.5944
▁thav	-11.595
▁ntaubntawv	-11.5954
ew	-11.5954
▁nhia	-11.5954
▁didn	-11.5959
▁nee	-11.5963
.."	-11.5964
**	-11.5976
▁month	-11.598
▁site	-11.5997
si	-11.5997
lqb	-11.6001
edit	-11.6004
▁less	-11.6006
▁nyobzoo	-11.6015
▁build	-11.6015
▁stabbing	-11.6015
▁maamle	-11.6019
▁haujsam	-11.6019
▁cheej	-11.6023
oob	-11.6023
▁wa	-11.6024
▁nquam	-11.6025
▁lisnom	-11.6026
▁yy	-11.603
tiamsis	-11.6036
▁nrob	-11.6043
meskas	-11.6054
laos	-11.6069
▁protect	-11.608
▁npiab	-11.6082
▁xeb	-11.6083
▁jews	-11.6083
▁miles	-11.6085
▁yaug	-11.6091
▁seen	-11.6101
▁thuv	-11.6103
sec	-11.6136
▁des	-11.6138
▁ntxia	-11.614
▁brgds	-11.6145
▁deg	-11.615
hehehehe	-11.6151
▁working	-11.6154
▁ps	-11.6168
▁nts	-11.6176
▁tsoov	-11.6191
▁association	-11.6195
▁race	-11.6198
yes	-11.62
▁nqhuab	-11.6209
▁themselves	-11.621
▁laab	-11.6215
▁pdr	-11.6218
▁tuskheej	-11.6221
▁local	-11.6222
▁hang	-11.6224
▁dhos	-11.6225
▁direct	-11.6227
▁medicine	-11.6234
tog	-11.6234
▁lhi	-11.6238
cai	-11.6244
▁45	-11.6246
sa	-11.6247
▁hurt	-11.6259
▁whe	-11.6263
▁huh	-11.6265
▁trau	-11.6273
▁further	-11.6275
▁cambodia	-11.6276
▁nyaaj	-11.6276
▁religious	-11.6279
▁ywv	-11.628
▁phus	-11.6286
lawd	-11.6298
▁lho	-11.6301
▁hold	-11.6301
▁1972	-11.6306
lui	-11.6318
▁scam	-11.6324
▁write	-11.6327
▁pilot	-11.6329
▁txiavtxim	-11.634
▁compromise	-11.6343
▁lawbdab	-11.6345
▁dhla	-11.6347
▁dawg	-11.635
▁10.	-11.6351
usp	-11.6356
▁leejhmoob	-11.6357
laj	-11.6361
▁author	-11.6377
▁discussion	-11.6393
▁tshom	-11.6397
▁gay	-11.64
▁tibsis	-11.64
▁beemouachaofa	-11.6401
▁alone	-11.6408
▁koobhmoov	-11.6408
▁penny	-11.6409
▁christianity	-11.6411
▁nyiab	-11.6413
▁kwvtxhiaj	-11.6417
▁doog	-11.6417
▁hluasnkauj	-11.6422
%20	-11.6438
.............	-11.6439
▁phong	-11.6442
▁thauv	-11.6451
▁ntw	-11.6452
%3	-11.6453
▁tank	-11.6454
▁include	-11.6458
▁brain	-11.6462
▁ple	-11.6466
▁add	-11.6473
▁boss	-11.6474
▁tuabyaam	-11.6474
▁latin	-11.6476
▁npub	-11.6477
▁roos	-11.6479
lqh	-11.6495
............	-11.6505
▁dlu	-11.6505
▁hell	-11.651
▁$100	-11.6513
▁organizations	-11.6525
▁training	-11.6526
▁toua	-11.6529
▁baby	-11.6543
▁meejpem	-11.6544
▁joe	-11.6544
▁click	-11.6544
ie	-11.655
▁nqia	-11.6553
▁nphoo	-11.6561
tsij	-11.6567
▁wants	-11.6569
txij	-11.657
▁phaw	-11.6574
ntsuab	-11.6576
▁ntoj	-11.6581
▁listen	-11.6601
▁ro	-11.6608
▁xyomcuab	-11.6609
▁hlav	-11.661
%	-11.661
▁pai	-11.661
man	-11.6622
pojniam	-11.663
▁ntxo	-11.6632
browse	-11.6633
yug	-11.6638
▁kig	-11.6641
la	-11.6642
▁viet	-11.6647
▁pho	-11.6649
maum	-11.6662
▁qabteb	-11.6664
▁txhooj	-11.6676
▁cheb	-11.6677
▁michael	-11.6678
▁mentality	-11.6679
▁nploj	-11.668
▁along	-11.6681
▁justice	-11.6681
▁schers	-11.6681
▁vaub	-11.6689
▁strong	-11.6691
▁nraj	-11.6698
▁suam	-11.6703
▁eh	-11.6704
hiv	-11.6719
ko	-11.672
▁dla	-11.673
▁hleb	-11.6731
▁poo	-11.6739
▁propaganda	-11.6745
▁appleton	-11.6746
▁strategy	-11.6746
▁thabham	-11.6748
amp	-11.6753
rec	-11.6755
uj	-11.6763
▁hot	-11.6766
blog	-11.6767
▁hands	-11.6773
▁nyia	-11.6773
▁meant	-11.6774
nas	-11.678
▁safe	-11.6785
▁innocent	-11.6799
▁passport	-11.68
▁crime	-11.6802
▁dvd	-11.6803
▁yee	-11.6803
▁protest	-11.6807
▁shall	-11.6814
▁gary	-11.6815
▁status	-11.6815
▁npug	-11.6816
▁10%	-11.6816
▁secretary	-11.6816
!!!!!	-11.6818
▁central	-11.6821
puj	-11.6836
nyias	-11.6837
▁doua	-11.6845
▁qaus	-11.6854
ug	-11.6854
se	-11.6855
▁file	-11.6857
▁cost	-11.6869
▁table	-11.6872
▁spirit	-11.6873
▁nraub	-11.6877
▁chuhu	-11.6881
▁lajleeb	-11.6883
▁clarify	-11.6885
▁zuav	-11.6885
▁txeev	-11.6885
▁yiag	-11.6889
▁txu	-11.689
▁mig	-11.6891
▁educated	-11.6895
▁nchaiv	-11.6903
▁aus	-11.6911
▁khas	-11.6912
▁loom	-11.6914
eg	-11.693
▁define	-11.6936
iv	-11.6937
▁screen	-11.6938
▁dont	-11.6939
▁total	-11.6945
▁vias	-11.6953
na	-11.6953
▁oshkosh	-11.6955
▁phajej	-11.6955
▁three	-11.6956
▁hnd	-11.6958
▁bla	-11.6969
▁naisphoo	-11.6971
sharing	-11.6976
▁aiv	-11.7001
dua	-11.7001
hom	-11.7004
goc	-11.7015
▁taubhaus	-11.7021
▁hospital	-11.7025
▁schlers	-11.7025
▁npawv	-11.7025
▁smart	-11.7027
▁txheebze	-11.7027
▁dirty	-11.7029
▁june	-11.7029
▁box	-11.7034
▁ntsav	-11.7038
▁27	-11.7048
▁stated	-11.7051
all	-11.7056
▁compare	-11.7062
iec	-11.7073
▁lc	-11.7078
▁risk	-11.7082
turning	-11.7084
▁lack	-11.7089
▁room	-11.709
ee	-11.7094
▁pivtxwv	-11.7096
▁inside	-11.7096
▁toward	-11.7096
▁oct	-11.7098
▁written	-11.7098
▁90%	-11.7098
▁tojxeem	-11.7101
txwv	-11.7111
▁mub	-11.7114
▁tsheeb	-11.7114
ev	-11.7122
▁lubtebchaws	-11.7126
▁took	-11.713
xws	-11.7131
▁gossip	-11.7155
qaib	-11.7157
▁hmoobnplog	-11.7162
▁nthab	-11.7168
▁paws	-11.7169
▁final	-11.717
▁physical	-11.7171
yeeb	-11.7176
▁ag	-11.7178
▁caam	-11.7189
ta	-11.7192
▁points	-11.7199
▁fit	-11.7212
ntseeg	-11.7219
zab	-11.7233
▁visit	-11.7238
▁girl	-11.7239
▁ntaaj	-11.7241
▁tseej	-11.7241
▁cug	-11.7243
▁khouang	-11.7243
▁txhaub	-11.7245
▁fong	-11.7247
▁dlav	-11.7247
▁kou	-11.7247
▁ntsag	-11.7256
▁kj	-11.7262
▁rules	-11.7265
▁plua	-11.7271
yang	-11.7272
feem	-11.7278
▁beeveev	-11.7279
▁4)	-11.728
▁khang	-11.7287
▁32	-11.7289
▁mouth	-11.7295
▁connection	-11.7296
xob	-11.7298
▁corruption	-11.7299
▁intellectual	-11.7302
▁pany	-11.7309
▁taumdub	-11.731
▁actually	-11.7311
▁mebthaub	-11.7311
▁ministry	-11.7313
▁reading	-11.7315
▁1-	-11.732
▁mias	-11.7327
▁honor	-11.7339
▁naib	-11.7341
▁provide	-11.7361
▁income	-11.7369
▁trip	-11.7372
▁character	-11.7373
▁npauv	-11.7378
▁light	-11.7379
▁rtg	-11.7383
▁directly	-11.7383
▁myself	-11.7385
▁study	-11.7385
▁vajhuam	-11.7387
▁boj	-11.7387
▁ploog	-11.7388
▁haumxeeb	-11.7391
▁events	-11.7408
▁khauv	-11.741
puab	-11.741
txiabneeb	-11.7429
▁treat	-11.743
▁sibkoom	-11.743
phem	-11.7432
▁station	-11.7443
▁np	-11.7449
▁ntxoo	-11.7452
▁music	-11.7456
▁break	-11.7456
▁lhoov	-11.7457
▁faabkis	-11.7457
▁thajyeeb	-11.7459
▁basic	-11.7461
▁abtsi	-11.7464
▁cut	-11.7468
▁kip	-11.7473
▁thiav	-11.7475
-6	-11.7477
▁npluas	-11.7478
▁npauj	-11.7486
▁hib	-11.7491
▁kawb	-11.7495
▁xoua	-11.7498
▁ntaws	-11.7499
▁10,000	-11.7523
▁advance	-11.7527
▁bruce	-11.7531
▁khavtheeb	-11.7531
▁ncajncees	-11.7531
▁lasvoos	-11.7533
▁souphanouvong	-11.7533
▁yeebceeb	-11.7534
▁tsuis	-11.7534
▁phajhauj	-11.7534
▁5-10	-11.7534
▁asthiv	-11.7534
▁ways	-11.7536
ion	-11.754
▁nauj	-11.7543
▁hlubhmoob	-11.7563
photos	-11.7565
▁drive	-11.7576
▁send	-11.758
▁id	-11.7585
▁mar	-11.7591
zaj	-11.7593
▁ia	-11.7594
▁invest	-11.7605
▁activities	-11.7605
▁phwvxev	-11.7605
▁lso	-11.7606
▁zaubntsuab	-11.7608
▁txeej	-11.7608
▁april	-11.7609
▁nrub	-11.7609
▁ntsum	-11.7611
▁nkaws	-11.7612
▁print	-11.7612
khiav	-11.7614
▁phoom	-11.7618
lua	-11.7625
ment	-11.7631
▁khis	-11.764
▁xia	-11.7644
▁-"	-11.7665
▁river	-11.7666
▁capital	-11.7671
ers	-11.7676
▁blia	-11.7677
▁geneva	-11.7682
▁married	-11.7684
▁foreign	-11.7684
▁ncha	-11.7684
▁regardless	-11.7684
▁txujsa	-11.7685
▁yawmyij	-11.7687
▁japan	-11.7687
▁txhai	-11.7687
▁ge	-11.7687
▁23	-11.7688
txhais	-11.7689
iab	-11.7703
▁obtug	-11.7715
▁poobsiab	-11.7724
leeg	-11.7729
▁twin	-11.7736
▁conclusion	-11.7742
▁choose	-11.7744
▁low	-11.7746
▁rumor	-11.7748
sitebuilder	-11.7755
▁mpls	-11.7758
▁tshov	-11.7759
▁almost	-11.7759
aib	-11.776
▁yajyuam	-11.7763
▁wanted	-11.7765
▁yeev	-11.7765
▁heem	-11.777
▁sibcav	-11.7773
8.	-11.7774
▁tsub	-11.7778
▁11.	-11.7786
▁nimno	-11.7786
▁saus	-11.7789
▁xaum	-11.7797
gu	-11.7815
▁front	-11.7821
faj	-11.7821
▁pretty	-11.7832
▁register	-11.7833
▁countries	-11.7834
▁vaag	-11.7835
▁worker	-11.7835
▁coming	-11.7837
▁kuamuag	-11.7837
▁feb	-11.784
▁chaleun	-11.7842
▁thej	-11.785
drive	-11.7859
▁chair	-11.7861
▁bombs	-11.7867
nyaj	-11.787
ry	-11.788
loc	-11.7884
▁none	-11.7885
▁investigate	-11.7886
hlob	-11.7893
▁bon	-11.7894
▁alaska	-11.7895
▁shan	-11.7906
▁mlom	-11.7907
▁clinton	-11.7909
▁certain	-11.7909
▁denver	-11.791
▁republican	-11.791
nt	-11.7911
▁ugly	-11.7912
▁learned	-11.7912
▁nruam	-11.7913
▁nplos	-11.7918
▁pobtw	-11.7919
▁%	-11.792
▁tsej	-11.7925
▁2009	-11.7946
▁eat	-11.7947
▁release	-11.795
▁ball	-11.7958
▁recruit	-11.796
▁price	-11.7976
▁saws	-11.7976
▁tradition	-11.798
▁ceslawv	-11.7985
▁reveal	-11.7986
▁impact	-11.7987
▁fake	-11.7987
▁memtoj	-11.7988
▁humxeeb	-11.7989
▁october	-11.7989
▁thojnam	-11.7991
▁zero	-11.7993
▁skills	-11.7994
!...	-11.7995
▁ger	-11.7999
▁roojteb	-11.8002
npua	-11.8003
-5,	-11.8008
▁christ	-11.8012
▁mooj	-11.8026
▁sibtua	-11.8032
11	-11.8033
▁carry	-11.8035
▁traditional	-11.804
▁criminal	-11.8051
▁candidate	-11.8051
▁engineer	-11.8053
▁rank	-11.8058
▁nywj	-11.8065
▁hmloog	-11.8066
▁dleev	-11.8067
▁pajkaub	-11.8067
▁qualified	-11.8068
▁ntsuabxwm	-11.807
da	-11.8075
▁nr	-11.8095
▁npaus	-11.8099
▁fuck	-11.8108
===============	-11.8112
there	-11.8117
▁ntxas	-11.8125
▁pobtxha	-11.8126
▁truck	-11.813
▁ameska	-11.813
▁wedding	-11.8131
▁representative	-11.8133
▁stone	-11.8139
▁yawmtxiv	-11.814
▁hnyiab	-11.8144
▁xuvtooj	-11.8144
▁nriaj	-11.8144
▁knew	-11.8144
▁totally	-11.8144
▁christmas	-11.8144
▁ahead	-11.8145
▁laav	-11.8147
▁ntxhab	-11.8149
▁lx	-11.815
▁sexual	-11.8151
vang	-11.8152
kpia	-11.8154
▁sibcam	-11.8155
▁txhov	-11.8156
moog	-11.816
qhia	-11.8166
▁sources	-11.8167
▁traitors	-11.8174
▁txivneeb	-11.8174
28	-11.8178
tsim	-11.8183
▁2-	-11.8195
▁boun	-11.8199
xam	-11.8205
▁scl	-11.8206
▁tusneeg	-11.8207
▁definition	-11.8213
usa	-11.8218
▁ntoob	-11.8219
▁celebrate	-11.8224
▁august	-11.8229
ic	-11.823
▁kavxwm	-11.8231
▁phaib	-11.8232
▁girls	-11.8242
tec	-11.8245
▁pheng	-11.8251
▁txaug	-11.8252
▁kw	-11.8283
▁kan	-11.8283
pog	-11.8292
▁field	-11.8297
▁witness	-11.8302
▁cawmseej	-11.8303
▁mentioned	-11.8304
▁energy	-11.8304
▁tubntsuagruam	-11.8304
▁below	-11.8304
▁jump	-11.8305
▁assume	-11.8305
▁longer	-11.8306
▁ziab	-11.8306
▁tsimtxom	-11.8309
▁mtt	-11.8315
▁sibntsib	-11.8316
▁tsuasyog	-11.8324
▁waste	-11.8332
▁officials	-11.8334
▁peej	-11.834
▁known	-11.834
kho	-11.8341
▁koov	-11.8351
▁tawj	-11.8354
▁travel	-11.8356
miao	-11.8377
nr	-11.8378
▁pegsuab	-11.8384
▁profit	-11.8385
▁sooblwj	-11.8386
▁nyablaaj	-11.8386
▁80%	-11.8386
▁phej	-11.8386
▁mivnyuag	-11.8387
▁txeem	-11.8389
▁34	-11.839
sau	-11.8393
▁txhaaj	-11.8395
go	-11.8395
▁ground	-11.8396
▁vn	-11.8403
▁sibceg	-11.8405
▁seng	-11.8406
▁vaajm	-11.841
awm	-11.8413
▁nawv	-11.8414
▁commie	-11.8426
▁kotaw	-11.8431
sub	-11.8432
▁sibtw	-11.844
▁xyaws	-11.8441
91	-11.8444
▁37	-11.8445
▁juab	-11.8445
▁voice	-11.8452
▁2003	-11.8453
▁mormon	-11.8453
npe	-11.8454
▁space	-11.8456
▁thaying	-11.8465
▁passed	-11.8467
▁ntujkag	-11.8467
▁truly	-11.8467
▁current	-11.8468
▁gone	-11.8469
▁sheboygan	-11.8469
▁nyiajtxiag	-11.847
▁bay	-11.847
▁xiav	-11.8474
▁thij	-11.8478
tsawg	-11.848
▁khaj	-11.8482
est	-11.8485
▁haab	-11.8487
▁:)	-11.8498
▁nyos	-11.8506
▁hlaub	-11.851
▁xee	-11.851
▁lentawd	-11.8512
▁cy	-11.8517
90	-11.852
55	-11.8532
▁fool	-11.8534
taws	-11.8536
▁proposal	-11.8538
▁ntlaj	-11.8547
▁chupheng	-11.8547
▁plogliab	-11.8548
▁january	-11.8549
roob	-11.8553
▁cuv	-11.8554
ke	-11.8555
▁nao	-11.8558
▁metub	-11.8559
▁doc	-11.8561
▁yaag	-11.8568
▁xi	-11.8571
▁nick	-11.8578
▁xees	-11.858
pw	-11.8583
▁xat	-11.8588
images	-11.8588
pawg	-11.8592
▁noun	-11.8594
)?	-11.8596
▁lws	-11.8597
▁kej	-11.8603
tseg	-11.8613
▁demand	-11.8616
▁picture	-11.8621
▁tuv	-11.8629
▁communities	-11.8629
▁dogdig	-11.863
▁lijchoj	-11.863
▁advocate	-11.8631
▁bottom	-11.8631
▁integrity	-11.8631
▁itself	-11.8632
▁spy	-11.8632
▁apartment	-11.8632
▁al	-11.8654
teg	-11.8664
▁chimsiab	-11.8666
▁ones	-11.869
new	-11.8694
▁paper	-11.8701
▁5,000	-11.8704
▁stress	-11.8712
▁gave	-11.8714
▁suggest	-11.8714
▁responsibility	-11.8715
▁txaav	-11.8715
▁1977	-11.8716
▁nyuv	-11.8717
▁healthy	-11.8718
mos	-11.8718
▁nkais	-11.8719
▁herr	-11.872
▁signed	-11.872
▁nyaus	-11.872
▁vos	-11.8722
▁works	-11.8724
▁tasli	-11.8731
▁aud	-11.8732
▁thovpab	-11.8746
lt	-11.8746
▁havzoo	-11.8747
▁block	-11.8752
▁ass	-11.8755
cem	-11.8763
▁hey	-11.8782
▁disagree	-11.8794
▁florida	-11.8797
▁rhwbliag	-11.8797
▁beemoua	-11.8799
▁ntsaag	-11.8801
▁lyfong	-11.8801
▁dept	-11.8802
▁kheem	-11.8804
▁quite	-11.8805
▁npeeg	-11.881
▁pleb	-11.8815
▁drs	-11.8819
hau	-11.882
▁hnoob	-11.8831
de	-11.8831
out	-11.8833
▁ntee	-11.8857
▁lev	-11.8864
▁ysu	-11.8867
▁cash	-11.8872
▁model	-11.8872
▁adam	-11.8877
▁red	-11.8879
▁otherwise	-11.8882
▁confuse	-11.8882
▁chiangmai	-11.8883
▁tshaab	-11.8883
▁raise	-11.8883
▁ntxuam	-11.8884
▁911	-11.8885
▁double	-11.8885
▁lord	-11.8888
▁names	-11.8888
▁xom	-11.889
▁development	-11.8891
▁(1)	-11.8891
▁txhaus	-11.8898
▁caim	-11.8952
▁sponsor	-11.8957
▁owner	-11.896
▁1987	-11.8961
▁haha	-11.8962
▁animal	-11.8963
▁kl	-11.8964
▁enforce	-11.8966
▁lomted	-11.8968
▁psychology	-11.8969
▁deny	-11.8969
▁ros	-11.897
▁nouka	-11.897
▁killed	-11.8971
▁kkk	-11.8982
▁nomdub	-11.8982
▁con	-11.8986
▁spelling	-11.8986
taw	-11.9003
▁2014	-11.9005
hiab	-11.901
▁hlauv	-11.9017
tsuav	-11.9022
▁americans	-11.9027
ok	-11.9031
meej	-11.9045
ya	-11.9047
▁fo	-11.9048
▁nyhuv	-11.9055
▁type	-11.9055
▁recognize	-11.9056
▁parking	-11.9056
▁wang	-11.9057
▁campaign	-11.9058
▁illegal	-11.9059
▁ntshua	-11.9061
▁hour	-11.9062
74	-11.9065
▁???	-11.9068
▁star	-11.9071
tseeb	-11.9083
ci	-11.9087
num	-11.9089
saub	-11.9091
▁zau	-11.9101
▁qaabhau	-11.9109
▁related	-11.9121
▁lak	-11.9127
213.	-11.9128
▁bachelor	-11.9129
▁croc	-11.9138
▁chiang	-11.9139
▁xyeejtsawg	-11.9141
▁hloob	-11.9141
▁phluav	-11.9142
▁zamtxim	-11.9143
muam	-11.9143
▁specific	-11.9144
▁involved	-11.9145
▁quincy	-11.9145
▁lady	-11.9148
▁bother	-11.9151
▁film	-11.9157
..............	-11.9157
▁coos	-11.9169
▁ntig	-11.918
▁tejyam	-11.9182
▁xaaj	-11.9187
▁paa	-11.9188
▁cees	-11.9194
▁boards	-11.9201
hahahahaha	-11.9202
▁sound	-11.9218
▁phwj	-11.9226
ti	-11.9226
▁found	-11.9227
▁confirm	-11.9228
▁era	-11.9228
▁referred	-11.9229
▁tuesday	-11.923
▁geu	-11.923
▁educate	-11.923
▁cities	-11.9231
▁ol	-11.9231
▁soccer	-11.9231
▁code	-11.9231
▁tuabsi	-11.9234
▁taas	-11.9234
flick	-11.924
by	-11.9244
▁1978	-11.9248
▁mail	-11.9248
▁haivhmoob	-11.9249
▁mouang	-11.9252
lqn	-11.9266
▁phib	-11.9266
▁fais	-11.9267
liam	-11.9274
▁kingdom	-11.9305
▁1,	-11.9307
▁teacher	-11.931
▁mention	-11.9316
▁valentine	-11.9317
▁longcheng	-11.9317
▁khejme	-11.9319
▁99%	-11.9319
ny	-11.9321
▁likely	-11.9326
▁rep	-11.9331
ceeb	-11.9336
lee	-11.9341
▁politicians	-11.9342
tsav	-11.9346
free	-11.935
▁citizens	-11.9351
taking	-11.9351
▁naam	-11.936
coob	-11.936
▁maas	-11.9365
▁xk	-11.9367
awv	-11.9386
▁freezer	-11.9391
▁document	-11.9392
▁village	-11.9394
▁conflict	-11.9397
▁txho	-11.9406
▁nabkaj	-11.9409
▁okay	-11.9409
▁zawv	-11.9409
▁txuv	-11.9415
▁yawmsaub	-11.9421
even	-11.9427
te	-11.9427
rog	-11.9428
▁niamtais	-11.9428
...."	-11.9432
▁tshaus	-11.9433
▁niamtij	-11.9441
▁---	-11.9449
▁terms	-11.9452
▁blind	-11.9454
▁02	-11.9464
▁maslawv	-11.9466
▁cross	-11.9479
▁attitude	-11.9486
▁faith	-11.9491
▁neua	-11.9491
col	-11.9495
▁families	-11.9497
▁nthav	-11.9497
▁minh	-11.9497
chaw	-11.9498
▁constructive	-11.9499
▁guilty	-11.95
▁hmmm	-11.95
▁orange	-11.95
▁pojnrauj	-11.9502
▁txwg	-11.9502
▁152	-11.9506
▁mhong	-11.9507
▁cij	-11.9509
▁messages	-11.9518
....!	-11.9524
▁nem	-11.9536
nyuag	-11.9539
ntev	-11.9554
▁tawmtsam	-11.9554
cm	-11.9556
▁mistake	-11.956
▁thum	-11.9568
▁nces	-11.9568
tib	-11.9573
▁respond	-11.9586
▁beyond	-11.9588
▁nploos	-11.9589
▁forgive	-11.9592
▁cheat	-11.9592
▁rhiav	-11.9594
▁ethical	-11.9594
▁daug	-11.9594
▁spiritual	-11.9595
▁osxaum	-11.9595
▁sibtxeeb	-11.9596
▁car	-11.9604
nyab	-11.9606
▁ra	-11.9613
pec	-11.9614
▁terrorists	-11.9615
▁mivntsiv	-11.9627
qub	-11.9629
lprd	-11.9631
good	-11.9635
xa	-11.9636
▁uw	-11.9639
▁street	-11.9666
▁donation	-11.9668
▁value	-11.9669
▁target	-11.9673
▁advise	-11.9676
▁plhaw	-11.9676
▁aeon	-11.9678
▁marxfree	-11.9679
▁vaajncuab	-11.9679
▁circle	-11.968
▁zong	-11.968
▁qaws	-11.9681
▁kgb	-11.9681
▁fuas	-11.9682
▁cis	-11.9684
▁alive	-11.9684
hmo	-11.9685
▁bass	-11.9685
▁cej	-11.9686
▁ntxig	-11.9691
▁peoples	-11.9695
▁1%	-11.9696
▁nroov	-11.9698
thoj	-11.9699
▁dlaa	-11.9706
▁$10	-11.9709
▁boy	-11.9712
▁rawg	-11.9712
▁org	-11.9713
▁sus	-11.9714
photo	-11.972
!....	-11.9721
▁klos	-11.9733
▁25,	-11.974
▁zex	-11.9743
▁celebration	-11.9757
▁claims	-11.9757
▁quarter	-11.9758
▁promise	-11.9758
▁advisor	-11.9758
shack	-11.9759
▁kau	-11.9764
▁ethnic	-11.9768
▁donate	-11.977
▁missionary	-11.9772
▁downunder	-11.9772
▁express	-11.9772
▁vuab	-11.9773
▁interested	-11.9773
▁nciab	-11.9776
▁boua	-11.9777
▁(2)	-11.9779
▁hej	-11.978
lib	-11.9788
▁yum	-11.979
content	-11.9804
pa	-11.9808
▁hoo	-11.9811
▁lots	-11.9813
phwvnyawm	-11.9817
▁prefer	-11.9827
lim	-11.9828
▁min	-11.983
▁xwsli	-11.9846
▁verb	-11.9847
▁funding	-11.9855
▁1970	-11.9856
▁quality	-11.9866
▁paris	-11.9868
▁qaumteb	-11.987
▁lugntsuag	-11.9871
▁stories	-11.9871
▁8-9	-11.9872
▁hws	-11.9874
▁naas	-11.9877
▁stick	-11.9879
▁txeeg	-11.988
anti	-11.9888
▁medals	-11.9894
square	-11.9911
00	-11.9915
nraug	-11.9918
▁sue	-11.9929
▁je	-11.9936
▁sem	-11.9939
▁delegation	-11.9945
▁stage	-11.9946
▁partner	-11.9948
▁kid	-11.9948
▁rai	-11.995
▁kiabtoom	-11.9959
▁phalak	-11.996
▁teach	-11.996
▁nplawg	-11.9961
poob	-11.9961
▁legitimate	-11.9962
▁kasxim	-11.9962
▁kasmias	-11.9962
▁confused	-11.9964
▁ri	-11.9964
mr	-11.9967
▁gas	-11.9975
▁active	-11.9977
▁tomtxwv	-11.9981
▁suaj	-11.9988
▁xoos	-11.9992
kam	-11.9993
▁allow	-11.9999
ze	-12.0005
player	-12.0007
▁count	-12.001
heev	-12.0012
▁pebmoob	-12.002
▁japanese	-12.0041
▁150	-12.0042
▁1990	-12.0051
ham	-12.0054
archan	-12.0055
▁npluanuj	-12.0055
▁npias	-12.0055
▁responsible	-12.0055
▁bia	-12.0055
▁proud	-12.0056
▁environment	-12.0056
▁cwjsoquav	-12.0056
▁third	-12.0057
▁ncaimtseemnco	-12.0058
▁kwvyees	-12.0065
▁ntxhuav	-12.0066
▁txaws	-12.0067
▁blue	-12.0068
▁tshaum	-12.0073
▁shit	-12.0074
las	-12.0083
▁ntshaa	-12.0085
nram	-12.0095
how	-12.0103
leejtwg	-12.0104
▁depend	-12.0107
▁touch	-12.0121
30	-12.0129
toj	-12.0129
xaiv	-12.0141
▁student	-12.0143
▁hmonglao	-12.0146
embedded	-12.015
▁half	-12.0151
▁failed	-12.0151
▁success	-12.0151
▁txaijnrob	-12.0151
▁impossible	-12.0152
less	-12.0152
▁thread	-12.0153
▁voog	-12.0153
▁happiness	-12.0154
▁motel	-12.0154
▁simneej	-12.0156
▁period	-12.0157
▁ceevxwm	-12.0158
▁nyajlaj	-12.0158
su	-12.0167
▁kug	-12.0169
▁changed	-12.0169
hi	-12.018
▁tojsiab	-12.0185
article	-12.0187
.....!	-12.0187
tais	-12.0202
▁chou	-12.0211
▁sent	-12.0215
lu	-12.0218
▁xyo	-12.023
jhe	-12.0236
▁says	-12.0238
▁profile	-12.0242
▁organize	-12.0245
▁worth	-12.0245
lees	-12.0247
▁sinwung	-12.0248
▁dejntshiab	-12.0248
▁xeebntxwv	-12.0249
▁homphaj	-12.025
ncauj	-12.025
▁opposite	-12.025
▁elders	-12.0251
▁npais	-12.0255
▁tsovtom	-12.0255
▁copv	-12.0256
▁lhuas	-12.0257
▁qabrooj	-12.026
▁design	-12.026
▁majmam	-12.0261
▁communism	-12.0261
▁nyov	-12.0263
▁posting	-12.0274
lqu	-12.0279
ah	-12.029
of	-12.0308
vajtswv	-12.0309
ies	-12.0312
▁haslug	-12.0312
▁fu	-12.0315
▁nrhov	-12.0316
▁influence	-12.0332
▁deserve	-12.0332
▁tree	-12.0335
▁plho	-12.0346
▁tried	-12.0346
▁vom	-12.0347
▁dabqhua	-12.0347
▁hunting	-12.0348
▁subtuam	-12.035
▁james	-12.0351
▁cajdab	-12.0351
▁nraav	-12.0352
▁ncaujlus	-12.0356
moos	-12.0356
▁warning	-12.036
▁naikhu	-12.0364
▁ntsov	-12.0368
▁destroy	-12.0369
▁txhaab	-12.0371
huab	-12.0377
▁khia	-12.0386
▁lintawd	-12.0389
suab	-12.0393
▁ler	-12.0393
▁incident	-12.0409
▁pure	-12.0414
niaj	-12.0418
▁$10,000	-12.0426
▁executive	-12.0431
▁hoos	-12.0431
▁jhai	-12.0434
▁minute	-12.0435
▁letter	-12.0438
▁xyw	-12.0439
▁nyawj	-12.0445
▁doctawm	-12.0445
▁tshawbfawb	-12.0446
▁membership	-12.0446
▁upon	-12.0448
laws	-12.0451
▁weak	-12.0451
▁xeej	-12.0456
▁plhws	-12.0458
92	-12.0468
▁ntsias	-12.0474
▁nphau	-12.0476
▁sep	-12.0486
noob	-12.0487
▁tek	-12.0492
▁chat	-12.0492
▁gettin	-12.0496
oz	-12.0496
--------------	-12.0497
limhiam	-12.0497
▁region	-12.0511
▁soo	-12.0517
▁kais	-12.0525
▁request	-12.0528
▁qhaus	-12.053
vwm	-12.053
▁rape	-12.053
▁fi	-12.0534
▁killing	-12.0535
▁achieve	-12.0539
▁tejno	-12.0539
▁divorce	-12.0542
▁straight	-12.0545
▁moospheeb	-12.0545
▁chairman	-12.0545
▁deputy	-12.0545
▁minyuam	-12.0545
▁identity	-12.0547
▁arkansas	-12.0547
▁zwj	-12.0547
▁moment	-12.0547
▁jia	-12.0547
▁forever	-12.0548
▁probably	-12.0548
▁qoj	-12.0549
▁nhubkaj	-12.0549
▁tasseng	-12.055
▁large	-12.0552
▁65	-12.0561
▁pais	-12.057
▁agents	-12.0577
▁vi	-12.059
▁qhaib	-12.0593
lab	-12.0594
▁alien	-12.0595
▁tubki	-12.0604
▁ceb	-12.0622
▁web	-12.0629
when	-12.0633
▁1/10	-12.0633
▁nuad	-12.0633
ty	-12.0635
yuam	-12.0638
pe	-12.0644
▁raag	-12.0646
▁administration	-12.0646
▁option	-12.0646
▁captain	-12.0647
▁monitor	-12.0647
▁khabmeem	-12.0647
▁flexible	-12.0648
▁tp	-12.0651
▁txoog	-12.0652
▁understanding	-12.0652
▁txivntxawm	-12.0653
▁shame	-12.0653
▁plob	-12.0654
pem	-12.0655
▁yajceeb	-12.0656
▁soldiers	-12.0657
▁given	-12.0658
▁pias	-12.0661
▁ntawb	-12.0662
▁xz	-12.0665
▁hawb	-12.0666
▁pojnom	-12.067
▁muv	-12.0672
hahahahahahahaha	-12.0675
▁pick	-12.0676
▁vaajhmoob	-12.0685
▁kiss	-12.0688
▁xuav	-12.0691
▁15,	-12.0699
especially	-12.07
▁leo	-12.0714
▁area	-12.0714
ntsuaghmoobruam	-12.0733
▁affect	-12.0733
▁criticism	-12.0736
▁mayor	-12.0739
▁blogteb	-12.0739
▁mine	-12.0742
▁kangaroo	-12.0744
▁ncai	-12.0748
▁txiajntsim	-12.0748
▁inches	-12.0748
▁nrees	-12.0749
▁folks	-12.075
▁permanent	-12.0751
▁cma	-12.0752
▁tostaub	-12.0754
▁remind	-12.0755
tsab	-12.0756
loo	-12.0759
▁nor	-12.0761
▁keev	-12.0761
▁buffalo	-12.0761
▁honey	-12.0762
▁pc	-12.0767
▁agreed	-12.0779
▁sun	-12.0791
ntoo	-12.0791
▁hloo	-12.0802
nkaus	-12.0807
▁ntas	-12.0809
they	-12.0816
▁cat	-12.0818
▁directors	-12.0818
▁$5	-12.082
▁nqag	-12.0822
▁scholarship	-12.0838
▁william	-12.0839
▁kv	-12.084
▁laotian	-12.0844
▁anymore	-12.0851
▁tseemy	-12.0852
▁xaivkaub	-12.0853
nyuamqhuav	-12.0854
▁xaivxwm	-12.0855
21	-12.0855
▁encourage	-12.0862
▁qhos	-12.0862
▁sometimes	-12.0863
▁dang	-12.0864
▁mekong	-12.0865
):	-12.0865
▁39	-12.087
▁dlo	-12.0877
▁dhua	-12.0883
puag	-12.0893
▁bit	-12.0896
pib	-12.0908
tshaj	-12.0911
▁txhi	-12.0911
▁nan	-12.0919
▁suggestion	-12.0941
▁statue	-12.0944
▁nris	-12.0948
nyiam	-12.0951
▁honest	-12.0954
▁homework	-12.0955
▁zejzog	-12.0958
▁nyub	-12.0959
miv	-12.0959
▁indochina	-12.096
▁relatives	-12.0965
▁paid	-12.0966
==	-12.097
▁cent	-12.0971
▁nqee	-12.0975
▁pin	-12.0977
04	-12.0983
▁color	-12.0986
▁cd	-12.0988
oec	-12.0995
▁dad	-12.1019
▁mask	-12.1021
▁yiv	-12.1023
nim	-12.1036
▁damage	-12.1041
▁condition	-12.1045
▁vis	-12.1046
▁chapter	-12.1046
▁mark	-12.105
▁discuss	-12.1058
▁advantage	-12.106
▁beginning	-12.1061
▁philosophy	-12.1062
▁adopt	-12.1062
▁kauslim	-12.1062
▁tawd	-12.1064
▁thursday	-12.1064
▁section	-12.1066
▁moobdlawb	-12.1066
▁proper	-12.1071
▁houei	-12.1071
▁txheevcom	-12.1071
raug	-12.1073
▁1975,	-12.1074
pub	-12.1076
▁minority	-12.1078
noog	-12.1086
▁sisters	-12.1088
8&	-12.109
▁reported	-12.1091
▁ntav	-12.1099
yij	-12.1105
▁insult	-12.1107
forms	-12.1111
▁01	-12.1112
flop	-12.1121
▁dle	-12.1122
▁txawjntse	-12.1123
▁thua	-12.1131
xov	-12.1144
jec	-12.1145
▁soviet	-12.1148
▁finger	-12.1153
▁sea	-12.1155
▁survive	-12.1164
▁huamnab	-12.1167
▁koomtsishaum	-12.1168
▁digmuag	-12.1169
▁assistant	-12.1169
▁deep	-12.1171
▁zum	-12.1174
▁huj	-12.1178
▁zauv	-12.118
▁isn	-12.1182
tooj	-12.1184
▁thus	-12.119
▁tees	-12.119
▁38	-12.1196
▁zoonkauj	-12.1205
phav	-12.1211
▁actions	-12.1214
▁ntsua	-12.122
▁nrooj	-12.1227
men	-12.1233
ts	-12.1237
▁marry	-12.1243
▁nya	-12.1247
▁politik	-12.126
▁delete	-12.1273
et	-12.1273
▁prevent	-12.1275
▁doubt	-12.1275
▁techaws	-12.1275
▁exercise	-12.1275
▁seriously	-12.1275
▁1995	-12.1276
▁camera	-12.1276
▁pobtawb	-12.1277
▁waiting	-12.1278
▁kheb	-12.1278
▁kabmob	-12.1278
▁van	-12.1278
▁saiv	-12.1279
▁txhawv	-12.1279
▁christians	-12.128
▁phaub	-12.1286
▁qhuabke	-12.1287
▁hmooob	-12.1289
▁depends	-12.129
▁ntsawv	-12.1293
▁hlaab	-12.1298
▁intellectuals	-12.1305
yab	-12.1307
▁aug	-12.1312
uk	-12.1313
▁tee	-12.1315
▁xaub	-12.1317
▁plhus	-12.1331
▁nu	-12.1335
from	-12.1336
▁formula	-12.1337
▁yib	-12.1339
▁thee	-12.135
▁facts	-12.135
▁meejx	-12.1365
▁building	-12.1375
▁uaneej	-12.1375
don	-12.1381
▁tzianeng	-12.1383
▁nrhuav	-12.1383
▁peebzeej	-12.1384
▁ntxuaj	-12.1386
▁30-40	-12.1386
▁outside	-12.1387
▁nyua	-12.1387
▁pobkws	-12.139
▁xyob	-12.1391
fr	-12.1392
▁propose	-12.1393
▁timkhawv	-12.1394
▁plev	-12.1394
▁der	-12.1404
▁zeg	-12.1411
pim	-12.1411
▁officers	-12.1413
hm	-12.1417
▁pabpawg	-12.1417
.00	-12.1427
video	-12.1434
▁miss	-12.1436
▁communists	-12.1437
pic	-12.1449
hav	-12.1458
▁lp	-12.1458
see	-12.1462
▁spouse	-12.1477
▁vong	-12.1478
▁population	-12.148
▁caslos	-12.1481
▁rich	-12.1482
▁kablia	-12.1483
▁certificate	-12.1486
teeb	-12.1491
▁map	-12.1492
▁degrees	-12.1492
▁tswjhwm	-12.1493
▁improve	-12.1494
▁available	-12.1494
▁europe	-12.1496
▁sisavang	-12.1498
▁yeah	-12.15
▁sang	-12.1504
▁naim	-12.1504
▁thiag	-12.1504
▁nwm	-12.1507
▁tomqaab	-12.151
▁txivtub	-12.1515
▁3-	-12.1519
aws	-12.154
▁yawgnom	-12.1544
▁seek	-12.1544
ms	-12.1545
▁mao	-12.1546
▁txawjx	-12.1566
________________	-12.1574
▁dho	-12.1579
kaj	-12.158
▁$20	-12.1582
0&	-12.1584
▁declare	-12.1585
phom	-12.1588
▁hr	-12.1589
▁flien	-12.1601
▁preach	-12.1602
▁xiengkhouang	-12.1604
▁ruamqauj	-12.1604
▁virus	-12.1605
▁vaugh	-12.1606
▁fooj	-12.1606
mo	-12.1606
▁nkawj	-12.1606
vu	-12.1608
▁txhawm	-12.1608
▁terrorism	-12.1609
▁safety	-12.1609
▁nkoos	-12.161
▁bride	-12.1614
twm	-12.1615
▁laugtxawj	-12.162
▁phuam	-12.1628
vam	-12.1638
▁door	-12.1641
▁ncas	-12.1643
hoc	-12.1643
▁xay	-12.1648
moobsib	-12.1648
tiny	-12.1651
▁method	-12.1666
freedom	-12.1669
why	-12.167
▁fes	-12.1673
▁art	-12.1677
▁yamli	-12.1681
▁bath	-12.1689
ciaj	-12.1696
▁festival	-12.1703
▁nephew	-12.1705
▁response	-12.1706
▁qham	-12.171
▁1975.	-12.1715
▁worst	-12.1717
▁germany	-12.1718
▁retirement	-12.1718
▁favor	-12.172
▁september	-12.172
▁ntxaag	-12.1721
▁following	-12.1721
▁unity	-12.1722
▁dialect	-12.1724
▁oops	-12.1725
▁nteev	-12.1726
▁raising	-12.1727
▁ciov	-12.1728
▁followers	-12.1728
▁bar	-12.1728
▁pomzoo	-12.1748
▁labor	-12.1753
▁paas	-12.1754
▁pasdej	-12.1755
15	-12.1758
dlaab	-12.176
search	-12.1781
nyablaj	-12.1784
taub	-12.1789
wiki	-12.1794
▁cu	-12.1803
hawj	-12.1806
▁dumb	-12.1807
▁souvanna	-12.1811
▁plooj	-12.1814
▁qualification	-12.1818
▁adjective	-12.1819
▁behavior	-12.1819
xab	-12.1821
▁surrender	-12.1829
▁nreeg	-12.183
▁protection	-12.183
▁property	-12.1831
▁vegas	-12.1831
▁bless	-12.1831
▁maivnas	-12.1832
ls	-12.1832
▁budget	-12.1833
▁perhaps	-12.1833
▁nploog	-12.1834
▁ffc	-12.1834
▁korea	-12.1834
gpia	-12.1834
▁txhaws	-12.1835
▁pawj	-12.1838
▁career	-12.1846
▁phouma	-12.1847
▁1).	-12.1852
▁pojyawm	-12.1865
▁yuab	-12.1866
▁5)	-12.187
▁xyuav	-12.1877
▁ice	-12.1891
aol	-12.1892
web	-12.1897
tsov	-12.1901
123	-12.1902
▁12.	-12.191
?????	-12.1918
▁contribute	-12.1928
▁vaajtsw	-12.1932
▁figure	-12.1933
▁grand	-12.1941
▁translate	-12.1944
▁limham	-12.1946
...!	-12.1947
▁ghia	-12.1949
▁neutral	-12.195
▁charles	-12.195
▁younger	-12.195
▁ntsauv	-12.195
▁popular	-12.1952
▁sawvcev	-12.1952
southeast	-12.1954
▁unknown	-12.1957
▁oblub	-12.1959
▁sauntawv	-12.197
liaj	-12.1971
▁ja	-12.198
▁sit	-12.1991
eng	-12.1996
▁ruav	-12.1997
religion	-12.1998
ation	-12.2
▁tshu	-12.2
rry	-12.2009
cuag	-12.2016
▁apr	-12.2016
▁lwb	-12.2023
▁ntia	-12.2029
▁qaj	-12.2034
tsa	-12.2039
maiv	-12.205
▁trouble	-12.2051
▁appreciate	-12.2059
▁nuclear	-12.2061
▁governing	-12.2062
gov	-12.2063
▁blej	-12.2063
▁zuagpaj	-12.2063
▁sayasith	-12.2064
▁speaking	-12.2064
▁necessary	-12.2067
▁higher	-12.2067
▁usually	-12.2069
▁employees	-12.2069
▁hauvpaus	-12.207
▁txivplig	-12.2077
▁nyuajsiab	-12.2081
▁ntximli	-12.2087
▁20,000	-12.2089
▁tibzoo	-12.2091
▁ameskas	-12.2095
▁qhovrooj	-12.2102
▁0	-12.211
▁yours	-12.2113
▁npuam	-12.2119
king	-12.212
▁image	-12.2133
▁**	-12.2145
▁path	-12.2145
▁gene	-12.2146
luas	-12.2147
lwj	-12.2158
▁sport	-12.217
▁compete	-12.2171
▁qhovntawd	-12.2177
▁violate	-12.2179
▁1974	-12.2179
▁goverment	-12.2179
▁participate	-12.2179
▁percent	-12.2179
▁rhab	-12.218
▁shake	-12.218
▁nia	-12.218
▁feemcoob	-12.2185
▁lpb	-12.2185
▁false	-12.2186
▁lucky	-12.2187
▁thuab	-12.2192
lqa	-12.2195
▁thoos	-12.22
▁koomtes	-12.2203
▁vm	-12.2213
▁haukev	-12.2216
▁cum	-12.2226
▁tsaw	-12.2231
yw	-12.2232
▁21,	-12.2244
ntsoov	-12.2245
story	-12.2258
nab	-12.226
▁pr	-12.2261
▁experiences	-12.2265
▁1985	-12.2267
▁haud	-12.2275
▁dhauli	-12.2277
▁tseebx	-12.2278
ns	-12.2278
▁plhw	-12.228
ceg	-12.2281
▁carolina	-12.2283
▁regret	-12.2284
▁piece	-12.2285
▁belong	-12.2287
▁movement	-12.2287
▁phanya	-12.2287
xyooj	-12.2287
▁vajtse	-12.2296
▁recommend	-12.2296
fab	-12.2297
▁teleport	-12.2297
▁veescam	-12.2298
▁nkas	-12.2298
▁tivthaiv	-12.2298
▁started	-12.23
▁yopg	-12.23
▁quavntsej	-12.2301
▁sisili	-12.2301
▁uabnyuab	-12.2301
▁dictionary	-12.2302
▁criticize	-12.2303
▁ect	-12.2303
▁birthday	-12.2304
▁mivkas	-12.2304
▁txawjxoom	-12.2305
ness	-12.2306
▁drop	-12.2307
▁nuag	-12.2308
▁diplomatic	-12.231
▁txham	-12.2315
world	-12.2318
▁keem	-12.2318
▁hit	-12.2326
ntxawg	-12.2326
▁civil	-12.2332
wi	-12.2332
▁bi	-12.2339
nh	-12.2342
▁khong	-12.2345
▁txaw	-12.2354
▁maij	-12.2361
▁hahahahha	-12.2362
▁kia	-12.237
laib	-12.2372
piav	-12.2373
true	-12.2377
▁31	-12.2383
▁xyem	-12.2385
qhua	-12.2388
▁aid	-12.2391
▁mib	-12.2396
con	-12.2397
▁1973	-12.2401
▁takes	-12.2402
ka	-12.2405
▁qhi	-12.2409
km	-12.2415
show	-12.2417
▁russia	-12.2419
▁extra	-12.242
▁ideology	-12.242
▁pamthawj	-12.2421
▁17,	-12.2422
▁hauvpaug	-12.2422
▁saumtoj	-12.2423
▁qawg	-12.2425
▁mabdawb	-12.2425
▁1/2	-12.2428
▁(3)	-12.2429
▁province	-12.2429
▁ntxws	-12.2432
▁ntsawj	-12.2432
▁options	-12.2436
▁sexy	-12.2436
▁khaiv	-12.2436
▁kue	-12.2445
▁yais	-12.2455
▁regards	-12.2456
▁ascas	-12.2456
▁reach	-12.2471
▁thoughts	-12.2473
▁niamntawv	-12.2476
qaab	-12.2478
▁wis	-12.2479
▁sibluag	-12.248
=0	-12.248
▁2).	-12.2498
▁23,	-12.25
▁lajhais	-12.2501
▁interpretation	-12.2524
▁turkey	-12.2525
▁excuse	-12.2527
url	-12.2528
▁ibtxhia	-12.2532
▁jack	-12.2532
yob	-12.2538
▁2002	-12.2539
▁larry	-12.254
▁txheejtxheem	-12.2541
▁plhaub	-12.2541
▁ndlav	-12.2541
▁alliance	-12.2542
▁nreg	-12.2542
▁tshwjxeeb	-12.2542
▁nyaag	-12.2542
▁luangprabang	-12.2543
▁across	-12.2546
general	-12.2548
▁plas	-12.255
▁nyhos	-12.255
▁tubntsuaghmoob	-12.255
▁tsaiv	-12.2551
lqt	-12.2553
93	-12.257
ph	-12.2571
▁yawghlob	-12.2573
cav	-12.2578
▁huag	-12.2579
▁ntxab	-12.2581
▁:):):)	-12.2591
▁13.	-12.2594
▁tejlaus	-12.2596
▁lprd	-12.2604
▁4,	-12.2608
▁---------------	-12.2614
▁pees	-12.2617
▁14,	-12.2621
time	-12.2633
▁tshi	-12.2645
▁tape	-12.2648
▁fellow	-12.265
▁reference	-12.2651
▁racist	-12.2653
▁billion	-12.2654
▁1,000	-12.2655
▁msu	-12.2656
▁prepare	-12.2661
▁imagine	-12.2661
▁coalition	-12.2663
▁vajluskub	-12.2663
▁dlhuav	-12.2664
▁tsimmuajcia	-12.2664
▁iliki	-12.2664
▁lunch	-12.2664
▁thws	-12.2665
▁phaaj	-12.2665
▁tobe	-12.2666
▁finally	-12.2666
▁nruabnrab	-12.2666
▁privately	-12.2667
▁root	-12.2667
▁financial	-12.2668
▁fill	-12.2668
▁danger	-12.2668
▁pemsuab	-12.267
nawb	-12.2673
▁khes	-12.2675
▁phlom	-12.2678
more	-12.2683
tuam	-12.2685
▁khaab	-12.2688
▁zogli	-12.2698
▁dlab	-12.2698
▁$200	-12.2699
mhoob	-12.2701
▁sin	-12.2702
dy	-12.2703
tawg	-12.2705
tsoob	-12.2705
ting	-12.2706
▁critic	-12.2708
hot	-12.2709
▁04	-12.2719
▁caas	-12.2724
neohom	-12.2739
china	-12.2741
▁nij	-12.2751
▁evidences	-12.2758
▁nru	-12.2771
yeem	-12.2773
▁nujnqi	-12.2775
▁effect	-12.2776
▁argument	-12.2776
▁bastard	-12.278
▁shot	-12.278
▁push	-12.2781
▁assembly	-12.2788
▁smith	-12.2788
▁texas	-12.2789
od	-12.279
▁sombath	-12.279
▁phan	-12.2791
▁riag	-12.2792
▁beautiful	-12.2793
▁officially	-12.2793
▁tomorrow	-12.2793
▁whoever	-12.2794
▁handle	-12.2795
▁closed	-12.2799
▁asking	-12.28
▁poov	-12.2802
▁phanyas	-12.2803
▁vu	-12.2803
▁needed	-12.2805
▁online	-12.2806
▁kablis	-12.2806
state	-12.2808
▁yub	-12.2812
▁eve	-12.2835
▁55	-12.2837
▁sofa	-12.2839
▁abc	-12.2839
▁hee	-12.2841
▁puasyog	-12.2845
▁qu	-12.2846
▁pooj	-12.2853
▁42	-12.2856
▁nyoob	-12.2857
luam	-12.2858
▁pebhmoobruam	-12.2858
human	-12.2859
▁kiagli	-12.2864
▁hehe	-12.2865
back	-12.2871
▁sibyuav	-12.2872
▁14.	-12.2875
▁linov	-12.2882
▁nd	-12.2882
▁ken	-12.2884
▁gov	-12.2885
▁1968	-12.2897
rn	-12.2899
ap	-12.29
gdqo	-12.2904
▁chicken	-12.2905
▁pen	-12.2911
▁opinions	-12.2912
▁realize	-12.2912
▁reflect	-12.2915
▁february	-12.2918
▁often	-12.2919
▁nthwv	-12.2919
▁dnr	-12.2922
▁poos	-12.2922
▁unite	-12.2924
▁pu	-12.2935
▁dawv	-12.2936
▁100%.	-12.2937
txuj	-12.2939
▁rumors	-12.294
▁tsws	-12.2943
▁..............	-12.2946
eeb	-12.2953
▁bab	-12.2966
▁dom	-12.2974
doctor	-12.2982
▁jul	-12.2993
lajntxiag	-12.2995
xejthim	-12.2996
▁dluas	-12.2996
▁ga	-12.3
thai	-12.3005
tshuaj	-12.3007
▁oppose	-12.3014
▁thaumkawg	-12.3023
▁26,	-12.3025
▁ruab	-12.3026
▁violation	-12.3031
▁customer	-12.3031
1.	-12.3032
▁fear	-12.3034
▁union	-12.3036
▁kin	-12.3036
▁hmooblees	-12.3039
▁soul	-12.3039
▁brought	-12.3043
▁federation	-12.3043
▁discredit	-12.3043
▁surgery	-12.3043
▁han	-12.3044
▁sleep	-12.3045
▁tshaam	-12.3045
▁nplag	-12.3046
▁ceevfaaj	-12.3046
▁giving	-12.3046
▁ntaim	-12.3047
▁manager	-12.3049
▁xyaav	-12.3049
pdf	-12.3049
▁mostxwv	-12.3051
▁hnyos	-12.3052
▁vow	-12.3062
hee	-12.3067
▁size	-12.3068
▁rs	-12.3079
▁tnv	-12.3081
▁mia	-12.3082
▁veterans	-12.3092
▁differences	-12.3096
▁benefits	-12.3096
▁thaumntawd	-12.3104
luaj	-12.3104
▁khus	-12.3105
▁thu	-12.3114
▁!!	-12.3123
respect	-12.3126
neohmong	-12.3126
▁dhiav	-12.3128
▁qej	-12.3137
▁haw	-12.3138
▁koomsiab	-12.314
yees	-12.3141
%2	-12.3145
▁virgin	-12.3152
▁surprise	-12.3154
lc	-12.3158
▁mountain	-12.3161
▁scholar	-12.3166
▁store	-12.3166
▁chu	-12.3169
▁fuabtai	-12.3169
▁monkey	-12.317
▁taste	-12.317
▁lobby	-12.3172
▁twmzeej	-12.3174
▁progress	-12.3174
▁parties	-12.3174
▁mesliskas	-12.3175
▁morning	-12.3175
▁xaivnceb	-12.3176
▁zawj	-12.3177
▁intelligence	-12.3177
▁resistance	-12.3177
▁vaajpov	-12.3178
▁pride	-12.3179
▁$$$$	-12.318
▁included	-12.318
▁peaceful	-12.3182
bla	-12.3182
▁videos	-12.3192
▁lamkoom	-12.3199
ch	-12.3199
▁plaubhau	-12.3203
ntxiv	-12.3207
▁$5,000	-12.3223
cob	-12.3233
mm	-12.3238
sam	-12.3241
history	-12.3244
edu	-12.3246
▁npa	-12.3254
vmged	-12.3257
long	-12.3267
vauv	-12.3267
▁txhuav	-12.3269
▁cool	-12.3289
▁remain	-12.3292
▁millionaire	-12.3293
▁trick	-12.3298
▁eye	-12.3301
▁approach	-12.3302
▁dynasty	-12.3306
▁planning	-12.3306
▁ntsablug	-12.3306
▁thaajyeeb	-12.3306
▁rhwv	-12.3306
▁kabxev	-12.3306
▁95%	-12.3308
▁older	-12.3309
▁xabmaim	-12.3311
▁ability	-12.3316
▁seeb	-12.3317
▁khamtai	-12.3317
▁kiam	-12.3318
▁nka	-12.3321
▁billions	-12.3322
ias	-12.3326
▁diab	-12.333
▁qhav	-12.3332
cawv	-12.3337
▁principles	-12.3343
▁swv	-12.3348
▁pray	-12.3349
▁shi	-12.3352
ey	-12.3353
thuam	-12.3363
▁zk	-12.3384
▁max	-12.3385
▁grow	-12.3386
iam	-12.3394
tejzaum	-12.3395
▁effort	-12.3425
▁baht	-12.3425
▁clue	-12.3425
▁hlox	-12.3432
▁collect	-12.3438
▁nyaij	-12.3438
▁ourselves	-12.3439
▁verify	-12.3439
▁rally	-12.3439
▁thajying	-12.344
▁fang	-12.344
▁rhav	-12.344
▁phoumi	-12.344
▁depression	-12.344
▁ignore	-12.344
lql	-12.3441
▁khawvkoob	-12.3443
▁temptation	-12.3448
▁hmub	-12.3449
▁fish	-12.3449
▁txhuatus	-12.3451
▁met	-12.3451
life	-12.3452
mev	-12.3456
▁yuavluag	-12.3457
▁sibhawm	-12.346
▁northern	-12.3462
▁faim	-12.3463
▁80'	-12.3464
lec	-12.3467
▁txivneeg	-12.3483
▁bang	-12.3495
▁square	-12.3506
▁schools	-12.3514
▁mrs	-12.3515
bee	-12.3515
▁zoosab	-12.3522
love	-12.3525
laura	-12.3526
english	-12.3526
docs	-12.3528
▁txawjxav	-12.353
may	-12.3534
▁phum	-12.3535
tawv	-12.3542
▁gun	-12.3542
19	-12.3544
▁ntshi	-12.3545
▁yp	-12.3546
▁bg	-12.3547
▁achan	-12.3547
▁sacrifice	-12.3558
▁nurse	-12.356
▁1982	-12.3562
vaaj	-12.3564
po	-12.3565
▁keo	-12.3565
▁attend	-12.3568
▁quote	-12.3569
▁convert	-12.3572
▁kajliag	-12.3574
▁plastic	-12.3574
▁missed	-12.3574
▁bkk	-12.3575
▁xeevxwm	-12.3575
▁zawg	-12.3576
▁regular	-12.3576
▁fws	-12.3577
▁mon	-12.3578
▁tojroob	-12.3578
▁pliab	-12.358
▁ywjsiab	-12.3582
▁resources	-12.3584
▁vimlicas	-12.3585
▁qabntuj	-12.3585
34	-12.359
▁hna	-12.3591
▁gate	-12.3601
mov	-12.3602
▁months	-12.3604
nyeem	-12.3607
uli	-12.361
vwj	-12.3623
▁nki	-12.3642
di	-12.3647
gen	-12.3647
christian	-12.3649
aum	-12.3657
muc	-12.3658
▁math	-12.3658
▁priest	-12.3661
▁auj	-12.3664
▁yai	-12.3665
lig	-12.3665
▁victim	-12.3671
nug	-12.3673
zam	-12.3678
▁hnag	-12.3683
▁reputation	-12.3695
▁nplob	-12.3696
▁disease	-12.3696
▁paragraph	-12.3696
▁xyu	-12.3696
▁apple	-12.3699
▁ritual	-12.37
▁clip	-12.3701
▁location	-12.3704
▁newspaper	-12.3705
▁ntsaub	-12.3708
12	-12.3709
▁comprehend	-12.371
▁hinheup	-12.371
▁spell	-12.3711
▁phagna	-12.3711
▁supreme	-12.3711
▁txomfaav	-12.3712
▁14-15	-12.3712
▁xyeeb	-12.3713
▁background	-12.3713
▁complete	-12.3713
▁mikas	-12.3713
▁vwg	-12.3714
▁foung	-12.3714
▁virtual	-12.3715
▁nplij	-12.3716
▁pacific	-12.3717
▁universe	-12.3721
▁maib	-12.3723
▁dlaig	-12.3723
▁hastxug	-12.3725
▁vig	-12.3726
▁nhria	-12.3727
▁threat	-12.373
gvp	-12.3735
▁pojkoob	-12.3737
▁harm	-12.375
▁draw	-12.3751
▁indian	-12.3753
▁24/7	-12.3753
▁npaab	-12.3755
sob	-12.3767
▁yoglawv	-12.3769
txheeb	-12.3771
▁ye	-12.378
▁plain	-12.3782
▁avoid	-12.3784
paum	-12.3784
▁chom	-12.3784
▁develop	-12.379
▁...........	-12.3795
47	-12.3798
including	-12.3802
▁knowing	-12.3805
▁democratic	-12.381
▁11,	-12.3816
▁arrest	-12.382
▁$1000	-12.3824
▁npaas	-12.3826
deb	-12.3833
▁rob	-12.3834
mi	-12.3834
▁machine	-12.3836
▁translation	-12.3838
▁exist	-12.3839
▁communication	-12.384
▁appropriate	-12.3845
▁complaint	-12.3848
▁aderholt	-12.3849
▁apology	-12.3849
▁dekfangkhong	-12.3849
▁pevtxwv	-12.385
▁namphong	-12.385
▁taiscaus	-12.385
▁asmelikas	-12.385
▁40-50	-12.385
▁therapy	-12.3851
▁denied	-12.3851
▁npwb	-12.3852
▁internal	-12.3852
▁economy	-12.3852
▁viagra	-12.3852
▁category	-12.3853
▁district	-12.3853
▁ram	-12.3854
tshiab	-12.3855
▁nang	-12.3856
▁zajlaug	-12.3856
▁npawb	-12.3857
▁resign	-12.3858
▁tswvcuab	-12.3859
▁learning	-12.386
▁yajyeeb	-12.3862
▁fine	-12.3865
▁leejtxiv	-12.387
▁ntsaa	-12.3872
ity	-12.3878
▁nqaaj	-12.3881
▁lf	-12.3882
hov	-12.3883
▁nre	-12.3883
▁1991	-12.3886
▁pain	-12.3894
▁lawvle	-12.3894
lav	-12.3901
▁estimate	-12.3905
▁predict	-12.3908
▁duali	-12.3929
plaub	-12.3937
▁ted	-12.3938
education	-12.3942
pobzeb	-12.3944
daim	-12.3947
▁dabteb	-12.3947
teev	-12.3949
wj	-12.3951
▁ngo	-12.3952
some	-12.3961
▁qhovchaw	-12.3963
▁application	-12.3976
▁suspect	-12.3977
▁murder	-12.3982
▁gang	-12.3983
haub	-12.3983
tl	-12.3987
▁suffer	-12.3987
▁priority	-12.399
▁noodlej	-12.399
▁dovcav	-12.3991
▁uablag	-12.3991
▁anthony	-12.3992
▁nqas	-12.3993
▁admit	-12.3993
▁pxx	-12.3994
▁thimxav	-12.3994
▁thanksgiving	-12.3994
▁pizza	-12.3995
▁reunion	-12.3995
▁$$$	-12.3999
▁rice	-12.3999
ij	-12.3999
▁ruj	-12.3999
hhpc	-12.4001
▁mostly	-12.4002
zag	-12.4003
▁ave	-12.4004
▁playing	-12.4004
▁nploojsiab	-12.4006
looj	-12.4008
▁tiom	-12.4009
▁mobx	-12.402
?)	-12.4025
kua	-12.4026
taug	-12.4044
▁jon	-12.4045
▁programs	-12.4052
▁nplhu	-12.4054
▁pi	-12.4057
kli	-12.4059
his	-12.407
khawv	-12.407
gb	-12.4076
▁sick	-12.4077
yav	-12.4078
came	-12.4081
▁kevntseeg	-12.4082
▁txh	-12.4083
day	-12.4084
women	-12.4084
can	-12.4085
political	-12.4085
▁moon	-12.4085
!!!!!!	-12.4086
ytk	-12.4087
▁leev	-12.4095
▁daib	-12.4098
radio	-12.4105
▁expression	-12.4118
▁follower	-12.4121
▁53	-12.4122
xiong	-12.4123
lag	-12.4124
▁lat	-12.4124
thanks	-12.4125
▁ru	-12.4127
ku	-12.4127
ba	-12.4128
)"	-12.4128
▁..........	-12.413
▁xxxxxxxxxxxxxx	-12.4131
▁assistance	-12.4133
▁xijpeem	-12.4133
▁concept	-12.4134
▁realistor	-12.4134
▁comprehension	-12.4134
▁otv	-12.4135
▁kungfu	-12.4135
▁nkos	-12.4136
▁satan	-12.4141
chao	-12.4143
▁peblub	-12.4146
▁ntxaib	-12.4146
▁xaib	-12.4147
▁hlaws	-12.4147
▁mws	-12.4148
txaus	-12.4151
▁nimnov	-12.4153
▁yawj	-12.4157
13	-12.4159
▁yem	-12.4159
▁nraa	-12.4161
▁sc	-12.4161
▁kawgnkaus	-12.4164
▁catch	-12.4167
▁npeeb	-12.4167
▁net	-12.4173
▁worse	-12.4174
▁fruit	-12.4175
▁died	-12.4177
▁muav	-12.4178
line	-12.4179
naj	-12.4187
bm	-12.4187
▁content	-12.4191
khwv	-12.4195
with	-12.4203
▁yao	-12.4204
▁qhovncauj	-12.4206
▁tao	-12.4209
american	-12.4217
eem	-12.4217
▁eau	-12.4223
view	-12.4224
▁std	-12.4226
brandon	-12.423
sex	-12.423
sawvdaws	-12.4231
vaajmoob	-12.4232
▁hello	-12.4233
mloog	-12.4238
ong	-12.4251
▁---------	-12.4258
▁spread	-12.4266
▁suit	-12.4269
▁ntsiav	-12.4271
▁modern	-12.4271
▁division	-12.4272
▁worship	-12.4275
▁thanouxay	-12.4278
xaav	-12.4278
▁thaksin	-12.4279
▁txhoov	-12.4279
▁agency	-12.4279
▁broken	-12.4279
▁ohyo	-12.428
▁ntxw	-12.4281
▁confirmed	-12.4281
▁nqhes	-12.4282
▁loei	-12.4283
▁trash	-12.4283
▁nqaum	-12.4283
▁teeg	-12.4286
▁vub	-12.4286
▁npawm	-12.4287
▁dhi	-12.429
▁kevhlub	-12.4291
▁tibleeg	-12.4294
tswb	-12.4296
lem	-12.4301
▁experienced	-12.4301
koos	-12.4302
▁stars	-12.4303
▁caused	-12.4303
▁scholars	-12.4305
▁details	-12.4315
tswj	-12.4317
▁kevxaav	-12.4323
▁txhuayam	-12.4324
▁zaumno	-12.4326
▁laudh	-12.433
▁tsaaj	-12.4341
▁oy	-12.4342
tsoom	-12.4343
▁mogx	-12.4343
▁ntxaa	-12.4343
ao	-12.4344
!!!!!!!!!!!!!!!!	-12.4346
▁oil	-12.4346
▁5,	-12.4372
khib	-12.4377
▁credits	-12.4395
xxx	-12.4402
let	-12.4404
ever	-12.4408
▁speaker	-12.4411
▁fault	-12.4412
▁holiday	-12.4413
▁zai	-12.4413
=3	-12.4414
qhuav	-12.4418
▁evolution	-12.4424
▁mesnyuam	-12.4425
▁khiv	-12.4426
▁hatred	-12.4427
▁caijnyoog	-12.4428
▁phmd	-12.4428
▁lytek	-12.4429
▁ncag	-12.4429
▁meng	-12.4432
▁qhiv	-12.4433
▁near	-12.4434
▁nyuabsiab	-12.4436
tuav	-12.4445
▁ntshuas	-12.4447
▁1971	-12.4448
npaj	-12.4449
▁representatives	-12.4452
▁nkaujhmoob	-12.4453
▁tasluaj	-12.4454
▁react	-12.4454
▁khee	-12.4458
▁taken	-12.4463
set	-12.4464
khaws	-12.4465
▁yoob	-12.4472
▁plu	-12.4476
▁som	-12.448
▁interests	-12.4481
are	-12.449
▁khij	-12.4498
▁dhaus	-12.4507
▁versa	-12.4507
very	-12.4514
▁mammus	-12.4514
wikipedia	-12.4524
▁noogdej	-12.4531
ntsej	-12.4533
▁minor	-12.4535
▁72	-12.4541
▁ntsau	-12.4544
▁muslim	-12.4547
ga	-12.455
▁44	-12.4552
▁pluam	-12.4556
▁nci	-12.4559
▁assumption	-12.456
▁dem	-12.456
▁cook	-12.4572
▁careful	-12.4573
▁reasoning	-12.4573
▁access	-12.4574
▁faajkum	-12.4574
▁glad	-12.4575
▁telephone	-12.4575
▁npleem	-12.4576
▁chuck	-12.4576
=1&	-12.4576
▁pretend	-12.4576
▁wednesday	-12.4576
▁nkaujhmooblis	-12.4578
▁dlib	-12.4579
▁groom	-12.4581
▁thuav	-12.4584
▁ncawg	-12.4585
▁nkab	-12.4586
▁zees	-12.4588
▁tsaig	-12.4596
old	-12.4596
zs	-12.4598
▁coog	-12.4598
▁kick	-12.461
▁txai	-12.4615
kis	-12.4615
75	-12.462
nce	-12.4626
▁mouas	-12.4634
2000	-12.4637
▁npluag	-12.4637
▁khais	-12.4641
hli	-12.4647
▁ad	-12.4649
cuz	-12.465
▁huua	-12.4654
self	-12.4657
lawb	-12.466
cuab	-12.4666
txhiaj	-12.4666
xub	-12.4672
flip	-12.4678
tshoob	-12.4684
guc	-12.4684
▁clinic	-12.4687
mag	-12.4688
tsum	-12.4689
▁nkuj	-12.4695
blablabla	-12.4699
▁24,	-12.4699
▁beat	-12.4701
ez	-12.4711
▁adult	-12.4716
▁ntom	-12.4716
▁tsamno	-12.4716
▁13,	-12.4717
▁sometime	-12.4718
▁ten	-12.4718
then	-12.472
▁korean	-12.472
▁thajkhu	-12.4722
▁hartwick	-12.4726
▁ordinary	-12.4726
▁sayaboury	-12.4726
▁legacy	-12.4726
▁caivplawv	-12.4726
▁testify	-12.4726
▁popcorn	-12.4726
▁memory	-12.4727
▁counter	-12.4728
▁lpx	-12.4728
▁nruav	-12.4729
▁tegnum	-12.4729
▁nak	-12.4729
▁cavpem	-12.4731
▁wishes	-12.4731
▁wives	-12.4732
▁zone	-12.4732
▁puavpheej	-12.4739
▁nthos	-12.474
▁ntseej	-12.4742
▁tubpos	-12.4743
aka	-12.4743
▁tsavlis	-12.4743
▁values	-12.475
▁xou	-12.4751
▁sounds	-12.4754
nai	-12.4754
▁qhaum	-12.4761
▁affairs	-12.4762
rooj	-12.4763
oi	-12.4764
sch	-12.4765
▁yawb	-12.4765
▁locha	-12.4772
▁txab	-12.4773
▁mix	-12.4776
tw	-12.4792
hloov	-12.4802
▁sibzog	-12.4803
ad	-12.4812
▁origin	-12.4818
zos	-12.4837
rel	-12.4837
vietnam	-12.4841
▁kh	-12.4841
▁round	-12.4844
▁sawd	-12.4853
...(	-12.4858
▁laugh	-12.4859
▁duj	-12.486
▁sen	-12.4863
▁regime	-12.4867
yaam	-12.4867
nm	-12.4868
▁finding	-12.4874
▁island	-12.4877
▁hsp	-12.488
▁struggle	-12.488
ang	-12.4881
▁dovtawm	-12.4881
▁pleeg	-12.4882
▁engineering	-12.4883
▁vuas	-12.4883
▁chery	-12.4883
▁friendship	-12.4884
▁1969	-12.4885
▁phlis	-12.4885
54	-12.4885
▁yangdao	-12.4886
▁ghost	-12.4886
▁burma	-12.4886
▁povfwm	-12.4887
txim	-12.4888
▁tunoob	-12.4888
lqe	-12.4889
▁cau	-12.4891
▁nplais	-12.4891
▁examples	-12.4892
quc	-12.4893
▁helping	-12.4893
▁track	-12.4894
▁diaj	-12.4895
▁pajlug	-12.4896
▁txawjxab	-12.4897
▁lbs	-12.4901
cc	-12.4902
pam	-12.4903
▁neejsaub	-12.4906
▁5%	-12.4907
▁candidates	-12.4907
▁tamsi	-12.4915
▁kai	-12.4917
nuav	-12.4919
▁independent	-12.4934
say	-12.4943
▁goals	-12.4944
tsuag	-12.4946
4&	-12.495
▁maus	-12.4956
right	-12.4965
▁khosiab	-12.4966
▁auto	-12.4967
▁dreams	-12.4969
thaj	-12.4973
tony	-12.4978
tion	-12.4981
jesus	-12.4988
lpdr	-12.4989
eej	-12.4991
▁tsislam	-12.4995
siav	-12.4997
▁tournament	-12.502
▁observation	-12.5021
▁daughter	-12.5022
rua	-12.5034
▁introduce	-12.5034
▁approve	-12.5035
▁phawvnyawm	-12.5035
▁xabdias	-12.5036
▁yessus	-12.5036
▁hamilton	-12.5036
▁xubntiag	-12.5036
▁topics	-12.5037
▁certainly	-12.5037
▁conclude	-12.5037
▁ncaav	-12.5037
▁pyramid	-12.5037
▁survey	-12.5038
▁nhav	-12.5038
▁thaag	-12.504
▁txhawjxeeb	-12.5041
▁thru	-12.5041
▁tshiav	-12.5042
▁txhog	-12.5043
▁rhe	-12.5047
▁kwg	-12.5047
▁zabdag	-12.5049
▁qwv	-12.5051
▁nhiav	-12.5053
▁qubqab	-12.5054
▁khawg	-12.5054
▁dedicate	-12.5054
▁decide	-12.5058
??????	-12.5073
▁religions	-12.5076
▁npli	-12.5079
iuc	-12.5082
▁records	-12.5089
▁ntsho	-12.5097
▁rate	-12.5101
kevcai	-12.5108
lais	-12.5108
▁vinais	-12.5108
▁duaj	-12.5111
mt	-12.5112
▁phi	-12.5127
▁books	-12.5129
▁==	-12.513
▁tsaag	-12.5134
▁20,	-12.5136
▁luther	-12.5137
nyuam	-12.514
think	-12.5147
power	-12.5147
▁ww	-12.5147
▁smiles	-12.5153
▁nkua	-12.5156
▁hahahah	-12.516
▁ntxha	-12.5161
vd	-12.5166
▁.........	-12.5169
▁uniform	-12.5183
▁,,,	-12.5184
▁relative	-12.5184
▁29,	-12.5185
puav	-12.5187
▁beside	-12.5188
▁cwhp	-12.5193
▁ocean	-12.5195
▁phwvnyawj	-12.5195
▁loojmem	-12.5196
▁zomzaws	-12.5196
▁relate	-12.5196
▁formal	-12.5197
▁kitchen	-12.5197
▁sensitive	-12.5197
▁tsovrog	-12.5198
▁spend	-12.5198
▁forgot	-12.5198
▁yijlaug	-12.5199
▁foot	-12.52
▁400	-12.5202
▁hiavtxwv	-12.5203
▁civilized	-12.5203
▁phaav	-12.5203
▁20%	-12.5205
▁tagkhi	-12.5205
▁tshawv	-12.5212
▁qaim	-12.5213
▁ntsoos	-12.5215
▁qabnab	-12.5216
post	-12.5225
▁thob	-12.5231
ncj	-12.5232
▁ibzaug	-12.5235
▁mobsab	-12.5236
pl	-12.5242
▁lostsua	-12.5243
▁tyv	-12.5244
▁lair	-12.525
▁host	-12.5251
▁islam	-12.5255
ncu	-12.5258
▁nphob	-12.5261
22	-12.5261
lino	-12.5263
▁covphoojywg	-12.5266
kws	-12.5269
ted	-12.5269
pum	-12.527
▁slow	-12.5278
kuam	-12.5278
▁commit	-12.5281
caub	-12.5299
▁multi	-12.5299
daws	-12.5301
▁naws	-12.5303
▁600	-12.5304
▁nk	-12.5307
▁ikuv	-12.5314
▁nplo	-12.5314
hmoobruam	-12.5318
▁observe	-12.5339
▁perspective	-12.5341
▁favorite	-12.5341
moua	-12.5347
tls	-12.5347
▁nominate	-12.5353
▁pajpaws	-12.5356
▁sincerely	-12.5356
▁khamtay	-12.5356
▁england	-12.5356
▁tuamlijkoob	-12.5356
▁kidding	-12.5357
94	-12.5357
▁shur	-12.5357
▁claire	-12.5358
▁clearly	-12.5358
lqw	-12.5358
uab	-12.5358
▁dibiab	-12.5358
▁peacock	-12.5359
▁birth	-12.5359
▁harmony	-12.5359
kos	-12.5359
▁ntshavpim	-12.5359
▁plov	-12.536
▁acres	-12.5361
▁8-10	-12.5362
▁discrimination	-12.5362
▁dara	-12.5362
▁freely	-12.5363
▁immigration	-12.5364
▁plias	-12.5365
classified	-12.5366
▁tshawj	-12.5367
▁proven	-12.5368
mfu	-12.5368
▁nraws	-12.537
▁kutaw	-12.537
▁txhau	-12.5371
sij	-12.5371
aa	-12.5373
▁hong	-12.5391
06	-12.5392
▁txivxaiv	-12.5395
meb	-12.5395
zw	-12.5401
lqq	-12.5405
▁hn	-12.541
▁individuals	-12.542
▁txws	-12.542
▁gift	-12.5422
▁norm	-12.5436
▁hlib	-12.544
ck	-12.544
liv	-12.5443
▁txhuax	-12.545
▁qhovtseeb	-12.5451
▁vimtias	-12.5458
43	-12.5459
land	-12.5464
▁1996	-12.5467
madison	-12.5472
chinese	-12.5472
charlie	-12.5472
fresno	-12.5472
fwm	-12.5475
▁sac	-12.5488
▁heevx	-12.5488
nti	-12.5489
▁tshajpl	-12.5491
▁mid	-12.5496
▁twglos	-12.5498
▁drink	-12.5505
▁temple	-12.5507
▁soldier	-12.5508
▁female	-12.5509
▁pwv	-12.551
▁reward	-12.5511
▁guest	-12.5515
=9	-12.5517
phaj	-12.552
▁covkwvtij	-12.552
▁qhuabqhia	-12.5521
▁plogteb	-12.5521
▁bokeo	-12.5521
▁tittle	-12.5521
▁newhom	-12.5522
▁cibnyeej	-12.5522
▁qhabmeem	-12.5523
▁npleg	-12.5524
▁thoov	-12.5524
▁pemsij	-12.5525
▁recognized	-12.5525
▁12,	-12.5526
▁talked	-12.5526
▁rhia	-12.5527
▁ntsaug	-12.5528
▁hamtsi	-12.553
▁nrawv	-12.5531
▁yrs	-12.5532
▁ntxee	-12.5533
tabsim	-12.5533
▁nchaav	-12.5534
▁lubsijhawm	-12.5534
▁customers	-12.554
▁sports	-12.554
▁.............	-12.5541
quas	-12.5542
toc	-12.555
,000.00	-12.5552
klos	-12.5562
▁........	-12.558
▁lum	-12.5586
▁govern	-12.5588
▁123	-12.5592
▁churches	-12.5593
▁whom	-12.5595
▁ntho	-12.5595
agf	-12.5596
▁chimx	-12.5604
thao	-12.5605
xaj	-12.561
▁grave	-12.5619
▁fail	-12.5619
pas	-12.5628
▁sides	-12.5633
▁reporter	-12.5636
▁tubntxhais	-12.5638
kpnp	-12.5638
txivneej	-12.5639
victor	-12.5639
farmer	-12.5639
53	-12.5642
▁48	-12.5644
huam	-12.5651
lqi	-12.5666
ay	-12.5666
▁input	-12.5674
▁direction	-12.5674
▁ar	-12.5676
▁kevin	-12.5678
thab	-12.5685
▁lonewriter	-12.5686
▁vaajlugkub	-12.5687
▁tabmeeg	-12.5687
▁zujzug	-12.5687
▁tuamtshoj	-12.5688
▁prize	-12.5688
▁particular	-12.5689
▁1999	-12.569
take	-12.569
▁zaubmov	-12.569
▁boring	-12.5692
▁personality	-12.5692
▁najkhav	-12.5692
▁promised	-12.5692
▁independence	-12.5692
▁productive	-12.5693
▁tsimtxiaj	-12.5693
▁calling	-12.5698
▁pull	-12.5699
▁sky	-12.5701
▁politically	-12.5706
frm	-12.5708
▁txhas	-12.571
▁nyoj	-12.5712
▁yuavtau	-12.5713
▁tsooj	-12.5717
▁vajtsev	-12.5724
▁ring	-12.5725
ais	-12.5727
tsiaj	-12.5727
▁_	-12.5728
ntr	-12.5731
▁bail	-12.5733
ntxim	-12.5739
▁eev	-12.5744
▁bav	-12.5746
▁views	-12.5747
▁lajntxiag	-12.575
▁yuglos	-12.5755
yg	-12.576
▁ncus	-12.576
qau	-12.579
▁ncee	-12.5802
▁addition	-12.5803
tnv	-12.5811
▁positions	-12.5814
city	-12.5814
asian	-12.5822
▁ntob	-12.5823
▁mho	-12.5828
▁$3	-12.583
▁driver	-12.5841
▁audience	-12.5842
▁treatment	-12.5842
▁guard	-12.5842
▁prejudice	-12.5845
▁channel	-12.5852
▁mok	-12.5853
▁tshuag	-12.5854
▁smalley	-12.5856
photobucket	-12.5856
▁afraid	-12.5856
▁mouanoutoua	-12.5856
▁18-25	-12.5856
▁samphong	-12.5856
▁recently	-12.5856
awb	-12.5857
▁instinct	-12.5857
▁airport	-12.5857
▁schedule	-12.5857
▁dangerous	-12.5857
▁plws	-12.5858
▁floor	-12.5859
▁tamsino	-12.586
▁limited	-12.5861
▁mexico	-12.5861
▁nthawv	-12.5861
▁nplaws	-12.5862
▁trade	-12.5862
▁kung	-12.5862
▁interpret	-12.5863
▁thomas	-12.5864
▁nwgnuav	-12.5866
▁consequences	-12.5866
ki	-12.587
▁hmmmm	-12.5876
▁kay	-12.5882
▁vajlug	-12.5884
▁sat	-12.5887
▁cuabyeej	-12.5902
▁nchos	-12.5912
tsw	-12.5918
hub	-12.592
▁ntevx	-12.5923
hoom	-12.5927
yaim	-12.5932
▁yaud	-12.5935
▁vimkuv	-12.5936
▁lived	-12.5938
tis	-12.5944
▁ntshab	-12.5949
▁tsauj	-12.5951
▁osh	-12.5952
ung	-12.5952
ban	-12.5957
▁contradict	-12.5959
kaus	-12.5962
▁tshajli	-12.5966
▁ml	-12.5968
like	-12.5978
dib	-12.5983
nc	-12.5987
1600.	-12.5988
▁33	-12.5989
▁firm	-12.6003
bs	-12.6004
▁27,	-12.601
▁sentence	-12.6013
▁rav	-12.6014
▁vibnai	-12.6016
▁ntxhia	-12.6017
▁killer	-12.6019
▁kuvlub	-12.6022
▁hlas	-12.6022
▁buffet	-12.6028
▁golf	-12.6028
▁npaav	-12.6029
▁mainstream	-12.6029
▁nowadays	-12.603
▁nkhawb	-12.603
▁txavtxim	-12.603
▁demonstration	-12.603
▁anouvong	-12.603
▁emotional	-12.603
▁mutual	-12.6031
▁apart	-12.6031
▁deeg	-12.6032
▁library	-12.6033
▁paltalk	-12.6034
▁khev	-12.6034
▁txajdlis	-12.6035
uy	-12.6037
tig	-12.6038
▁legally	-12.6038
▁gold	-12.6038
▁appointed	-12.6038
▁fully	-12.6039
▁............	-12.6039
▁faav	-12.6041
▁data	-12.6044
▁pawglug	-12.6046
▁pop	-12.6047
▁zen	-12.6048
▁1988	-12.6054
ily	-12.6055
▁10-20	-12.6055
▁atf	-12.6056
▁pobthawj	-12.6056
yig	-12.6059
▁hrs	-12.6072
tebchaws	-12.6075
▁cwb	-12.6075
▁thias	-12.6082
▁qais	-12.6082
▁brandon	-12.6085
▁practices	-12.61
ntsib	-12.6103
▁ntswb	-12.6107
xaum	-12.6118
▁hahahhaha	-12.6124
▁hahahahah	-12.6138
▁1983	-12.614
▁!!!!	-12.6148
united	-12.6149
personal	-12.615
xiv	-12.6154
▁associate	-12.6155
▁hole	-12.6156
▁looks	-12.6166
ni	-12.6167
nyiag	-12.617
cua	-12.6171
ris	-12.6185
▁ntxhe	-12.6186
▁review	-12.6186
▁$500	-12.6187
▁spring	-12.6189
▁contribution	-12.6189
▁neighbor	-12.619
▁scientist	-12.619
▁bridge	-12.6193
▁txhiam	-12.6193
hawm	-12.6197
▁grant	-12.6199
▁argue	-12.6202
▁chose	-12.6203
▁coojpwm	-12.6203
▁shopping	-12.6204
▁tsuvtum	-12.6204
▁separate	-12.6204
▁smelt	-12.6204
▁muatony	-12.6204
▁thoobtsib	-12.6204
▁intent	-12.6205
▁ndlag	-12.6205
▁xyuamxim	-12.6205
▁kaisone	-12.6205
▁qhatxug	-12.6205
▁beginanew	-12.6206
albums	-12.6206
▁hawaii	-12.6206
▁ibtxhis	-12.6206
▁considered	-12.6206
▁average	-12.6207
▁calendar	-12.6207
▁nrwb	-12.6209
▁trial	-12.6211
▁lhwb	-12.6212
▁ncuv	-12.6213
▁dark	-12.6216
▁txujcai	-12.6216
▁twbywm	-12.6217
▁neegtojsiab	-12.6223
▁nrhw	-12.6226
▁nruabsiab	-12.6228
▁2001	-12.6228
▁iob	-12.6229
▁cojdab	-12.6236
▁qhais	-12.6242
▁tea	-12.6242
▁000	-12.6243
▁dus	-12.6243
▁kad	-12.6245
real	-12.6247
md	-12.6248
▁jd	-12.625
▁accident	-12.6267
▁covdab	-12.6279
!.....	-12.6286
▁compound	-12.6288
▁metal	-12.6289
▁dha	-12.6308
nrhiav	-12.6312
▁1984	-12.6314
▁1997	-12.6317
zaub	-12.6318
▁28,	-12.6329
tijlaug	-12.6335
▁thos	-12.6342
▁thiam	-12.6347
fa	-12.6349
politics	-12.6363
▁nrha	-12.6363
▁exchange	-12.6364
lexi	-12.6365
ea	-12.6367
▁shoot	-12.6368
proposed	-12.6368
▁wild	-12.638
▁rescue	-12.6381
▁satisfy	-12.6383
▁duty	-12.6383
▁received	-12.6384
▁wahoua	-12.6384
▁pronoun	-12.6384
▁laosking	-12.6385
▁refuse	-12.6385
▁sweet	-12.6387
▁nationalism	-12.6387
▁npaim	-12.6387
turned	-12.6388
▁vais	-12.6388
▁yesterday	-12.6388
▁pour	-12.6391
▁mlm	-12.6393
daj	-12.6396
▁road	-12.6396
▁thousands	-12.6396
▁irs	-12.6399
▁besides	-12.6401
▁critical	-12.6408
▁ntseem	-12.6409
▁determine	-12.6409
▁global	-12.6413
▁1994	-12.6413
▁pkm	-12.6415
▁3000	-12.6415
cam	-12.6417
ei	-12.6418
hy	-12.6422
▁txhaav	-12.6426
▁fix	-12.6428
▁nplaub	-12.643
▁plawm	-12.6431
▁npaub	-12.6436
ous	-12.6437
▁99	-12.6445
▁niamtsev	-12.6456
ra	-12.6464
txwm	-12.6472
eh	-12.6474
▁gets	-12.6477
▁nrhau	-12.6481
▁nin	-12.6485
▁4-	-12.6491
txug	-12.6493
▁offend	-12.6495
▁300,000	-12.6502
zoov	-12.6504
▁talks	-12.6504
▁command	-12.6505
tejzag	-12.6518
choj	-12.6518
▁qablos	-12.6519
cev	-12.6525
hahahhaha	-12.6527
its	-12.6536
▁:):)	-12.6537
▁desire	-12.6546
▁activist	-12.6551
▁require	-12.6551
▁flag	-12.6557
files	-12.6559
ntaus	-12.6562
▁finish	-12.6564
▁cuamtshuam	-12.6564
▁cyber	-12.6564
▁mccain	-12.6564
▁eliminate	-12.6565
▁nkhib	-12.6565
▁published	-12.6565
▁ilean	-12.6565
!!!!!!!!	-12.6565
▁laujkaub	-12.6566
▁koomtxoos	-12.6566
▁palestine	-12.6566
▁arlington	-12.6567
▁qhub	-12.6567
▁accused	-12.6567
▁potential	-12.6568
▁txhimkho	-12.6568
▁75%	-12.6568
▁fantasy	-12.6569
▁correction	-12.657
▁vous	-12.657
▁lajkam	-12.6571
▁thorps	-12.6571
▁jis	-12.6571
▁marketing	-12.6571
▁zaim	-12.6572
▁nkuav	-12.6572
▁liscuab	-12.6572
▁nge	-12.6573
▁served	-12.6574
▁fighting	-12.6575
▁qaa	-12.6575
▁kees	-12.6576
▁qhaim	-12.6578
▁chertoua	-12.6579
▁neg	-12.6581
▁ncuas	-12.6582
haha	-12.6584
▁dauv	-12.6585
/07	-12.6587
▁tel	-12.6591
▁farmer	-12.6603
▁yawv	-12.6608
hauj	-12.6612
▁qhaab	-12.6614
▁casab	-12.6617
▁$100,000	-12.6625
▁ntaa	-12.6628
▁tactic	-12.6642
▁$3000	-12.6643
▁fuaj	-12.6646
▁player	-12.6646
▁khuas	-12.6652
▁reform	-12.6657
uaj	-12.666
py	-12.6685
opinion	-12.6686
▁8,	-12.6686
hohoho	-12.6691
▁xem	-12.6695
▁pebhmoob	-12.6695
because	-12.6702
xis	-12.6702
hlwb	-12.6706
▁kang	-12.6707
▁tr	-12.6708
kaum	-12.6711
pb	-12.6712
▁nkaw	-12.6718
rab	-12.672
▁180	-12.6724
▁250	-12.6728
▁conversation	-12.6735
lau	-12.6735
▁educator	-12.6736
▁thousand	-12.6736
fe	-12.6736
▁500,000	-12.6741
▁idiot	-12.6741
▁prince	-12.6742
▁jewish	-12.6748
▁remove	-12.6748
▁wake	-12.6749
▁credibility	-12.6749
▁phwnyawm	-12.6749
▁hitler	-12.6749
caij	-12.6749
▁divide	-12.6749
▁mccoy	-12.6749
▁software	-12.675
▁lastees	-12.675
▁memkuj	-12.675
▁zuam	-12.6751
▁1950	-12.6751
▁analysis	-12.6751
▁enemies	-12.6751
▁condemn	-12.6751
▁1967	-12.6752
▁shoes	-12.6753
▁nrawj	-12.6753
▁adin	-12.6753
▁zky	-12.6754
,,,,	-12.6754
▁weakness	-12.6754
▁naturally	-12.6754
▁xes	-12.6754
▁tras	-12.6755
▁memorial	-12.6756
▁ntshia	-12.6756
▁pathetlao	-12.6756
▁lholi	-12.6758
▁grammar	-12.6758
▁plav	-12.6758
▁changing	-12.6759
▁loan	-12.6761
▁jun	-12.6763
pos	-12.6763
▁xwmkab	-12.6764
▁ytt	-12.6766
▁khomob	-12.6769
▁demonstrate	-12.6775
ntxub	-12.6778
▁nthua	-12.6782
▁lytec	-12.6787
rs	-12.6791
nev	-12.6794
▁155	-12.6803
▁pictures	-12.6806
▁statements	-12.6809
▁beliefs	-12.6811
hn	-12.6821
big	-12.6824
liy	-12.6827
ge	-12.6828
▁ntswm	-12.6831
pes	-12.6835
▁sala	-12.6841
▁nkaujfa	-12.6847
▁meat	-12.685
▁nyho	-12.6855
san	-12.6872
your	-12.6881
them	-12.6882
▁chab	-12.6883
▁ill	-12.6887
▁hahahha	-12.6889
please	-12.6891
▁phon	-12.6893
▁sibhais	-12.6896
▁plaus	-12.6898
luv	-12.6898
plig	-12.6904
▁blaj	-12.6907
ds	-12.6908
▁15.	-12.6911
▁cold	-12.6919
▁produce	-12.6919
▁employee	-12.6924
ntag	-12.6925
▁phrase	-12.6927
▁technical	-12.6934
▁accurate	-12.6935
▁automatic	-12.6935
xej	-12.6936
▁easter	-12.6937
▁invitation	-12.6938
▁kaosiabhlub	-12.6938
▁abraham	-12.6938
▁xuvxwm	-12.6939
▁somewhere	-12.6939
▁zimtxwv	-12.6941
▁humble	-12.6941
▁pehawm	-12.6942
▁judgement	-12.6943
▁saibx	-12.6943
cy	-12.6943
▁acting	-12.6943
▁mistress	-12.6946
▁ntshij	-12.6946
▁publish	-12.6947
▁neejtsaa	-12.6947
▁plhom	-12.6949
▁ntxooj	-12.695
▁telling	-12.695
▁phlws	-12.6952
▁lff	-12.6952
lnk	-12.6953
▁tubnpis	-12.6958
▁nrhiab	-12.696
▁golden	-12.6962
▁haaj	-12.6963
▁paav	-12.6965
▁lamw	-12.6966
▁rhuv	-12.6966
▁nkaujstp	-12.6972
32,	-12.6974
▁thjia	-12.6976
▁ntsu	-12.6977
▁nwb	-12.698
mp	-12.6983
▁daiv	-12.6985
▁bear	-12.6992
▁taugkev	-12.6996
▁dias	-12.6997
:"	-12.6998
▁ncoom	-12.7002
▁educational	-12.7008
▁sort	-12.7013
▁wise	-12.7015
ter	-12.7016
▁happens	-12.7017
▁paoze	-12.7018
caag	-12.702
who	-12.7021
▁magic	-12.7021
lhob	-12.7025
now	-12.7032
les	-12.7034
hahhahaha	-12.7035
5,	-12.7038
▁sing	-12.7058
▁heat	-12.706
▁nrhu	-12.7062
▁exception	-12.7066
▁tiagtiag	-12.707
nees	-12.7075
pheng	-12.7081
viv	-12.7082
▁plaj	-12.7083
fajkhaum	-12.7083
foom	-12.7084
zej	-12.7085
phwv	-12.709
▁yaas	-12.7093
95	-12.7093
▁wikileak	-12.7116
▁structure	-12.7117
▁alphabet	-12.7125
vt	-12.7128
▁exile	-12.7129
▁lynhiavu	-12.7129
▁tubcajces	-12.713
▁ladies	-12.7131
bo	-12.7131
▁prison	-12.7131
▁kongmeng	-12.7131
▁twice	-12.7132
▁yajdaus	-12.7133
▁noobqes	-12.7133
▁pajnplaimcua	-12.7133
▁authorities	-12.7133
▁studies	-12.7133
▁humanright	-12.7134
▁npws	-12.7135
▁tribal	-12.7135
▁pak	-12.7135
▁tujlub	-12.7135
▁scientific	-12.7136
▁kamoos	-12.7136
▁allah	-12.7136
▁earn	-12.7136
▁elementary	-12.7137
▁bin	-12.7137
▁cali	-12.7139
ance	-12.7139
▁lease	-12.7141
▁lajkab	-12.7142
▁tech	-12.7147
▁ncaujlug	-12.7148
...24/7....	-12.7149
▁phawv	-12.7153
▁sum	-12.7155
xim	-12.7157
▁ntsoj	-12.7158
▁ntsawg	-12.7166
txaim	-12.7168
▁match	-12.717
▁pilots	-12.717
▁believed	-12.7172
▁powerful	-12.7174
-30	-12.7178
▁nroglawv	-12.718
khav	-12.718
twv	-12.7181
▁xxx	-12.7195
=6	-12.7198
▁hunt	-12.72
▁ther	-12.7212
pauv	-12.7225
▁tawmsis	-12.7229
▁chaofab	-12.7232
▁projects	-12.7233
▁gu	-12.7234
30,000	-12.7234
=5	-12.7237
ate	-12.7241
▁phuas	-12.7241
▁xoj	-12.7244
▁dejsiab	-12.7251
▁nawm	-12.7275
except	-12.7278
mercenary	-12.7278
which	-12.7279
democracy	-12.7279
such	-12.7286
▁phuab	-12.7288
▁uacaag	-12.7294
▁22,	-12.7297
nb	-12.7298
▁begin	-12.7311
▁gangster	-12.7313
▁agreement	-12.7314
▁battle	-12.7316
▁sale	-12.7316
▁phoubia	-12.7318
▁session	-12.7319
▁hehehehehehehe	-12.7323
▁garage	-12.7326
▁oklahoma	-12.7326
▁liberty	-12.7326
▁sisavangvong	-12.7326
▁nplaam	-12.7326
▁disappointed	-12.7326
▁companies	-12.7327
▁fuabfwm	-12.7327
▁phasnyas	-12.7327
▁previous	-12.7327
▁academy	-12.7327
▁spider	-12.7327
▁homeland	-12.7328
▁nqog	-12.7329
▁jurors	-12.7329
▁najkhoos	-12.7329
▁asmekas	-12.7329
▁hnyuv	-12.733
▁samana	-12.7331
▁lieutenant	-12.7332
▁nkaujmim	-12.7333
▁xyaab	-12.7334
vy	-12.7335
lqk	-12.7338
▁ntaab	-12.7339
▁kavhlau	-12.734
▁haujsim	-12.7344
▁vaim	-12.7345
qa	-12.7351
red	-12.7352
▁npu	-12.7355
▁mnus	-12.7358
ncaj	-12.7363
▁charter	-12.7368
▁lawn	-12.7369
▁stabber	-12.7373
jk	-12.7374
qw	-12.7374
▁phaws	-12.7375
seem	-12.7379
▁oom	-12.7381
▁nobody	-12.7389
▁bat	-12.739
▁nquas	-12.7392
▁mees	-12.7393
▁ualicas	-12.7396
▁heheheh	-12.74
▁award	-12.7403
ray	-12.7403
▁17.	-12.7411
▁primar	-12.7417
npis	-12.7424
npau	-12.7425
way	-12.7427
▁rus	-12.7428
▁zaugli	-12.7443
▁lubtsev	-12.7445
phone	-12.7452
dd	-12.7456
hack	-12.7457
note	-12.7474
lih	-12.7476
our	-12.7477
stabber	-12.7477
health	-12.7478
zooniamtsev	-12.7479
secret	-12.7479
▁replace	-12.7483
ct	-12.7495
▁band	-12.7499
cv	-12.7505
▁bog	-12.7508
phauj	-12.7509
lue	-12.7511
bhmong	-12.7512
▁investment	-12.7512
▁zi	-12.7514
▁context	-12.7515
▁qoovsua	-12.7519
▁taxi	-12.7521
▁taslos	-12.7522
▁agencies	-12.7526
▁chanthalangsy	-12.7526
▁doyle	-12.7526
▁edison	-12.7526
▁koobmoov	-12.7526
▁$20,000	-12.7526
▁laagluam	-12.7526
▁nvision	-12.7527
▁thorsp	-12.7527
▁bylaw	-12.7527
▁qaabzib	-12.7527
▁famous	-12.7527
▁ndlwg	-12.7528
▁permission	-12.7528
▁$10,000.00	-12.7528
▁powerball	-12.7528
▁kept	-12.7528
▁crisis	-12.7528
▁lanxang	-12.7528
▁hungry	-12.7528
▁earned	-12.7529
▁rheev	-12.7529
▁password	-12.7529
▁meaung	-12.7529
▁evaluate	-12.753
▁muaslwj	-12.7531
▁nrawg	-12.7531
▁openly	-12.7531
▁hopefully	-12.7531
▁identif	-12.7532
▁aware	-12.7536
▁twmxeeb	-12.7538
hmoov	-12.7538
▁1998	-12.7539
▁nplas	-12.7543
▁cable	-12.7544
▁haa	-12.7544
▁ntshuab	-12.7545
▁dlawm	-12.7546
sw	-12.7551
▁fingers	-12.7552
▁aids	-12.7555
▁tablaj	-12.7562
uag	-12.7564
▁rid	-12.7565
▁kips	-12.7567
▁saving	-12.7569
aim	-12.7571
▁nrw	-12.7583
▁dhaw	-12.7588
asp	-12.7592
▁31,	-12.7593
▁rug	-12.7597
kim	-12.7603
03	-12.7611
▁16.	-12.7615
▁op	-12.7621
▁$100.00	-12.7622
nk	-12.7628
▁huvsi	-12.7629
ent	-12.7633
police	-12.7638
▁phlw	-12.764
fg	-12.7643
▁il	-12.7644
▁res	-12.7652
nkag	-12.7653
xf	-12.7655
ive	-12.7656
▁areas	-12.7657
oui	-12.7661
txiaj	-12.7662
▁valid	-12.7664
▁za	-12.7672
...!!!	-12.7672
▁liar	-12.7683
first	-12.7683
▁devil	-12.7685
▁gives	-12.7689
phim	-12.7704
▁yoom	-12.7715
yi	-12.7716
▁en	-12.7716
▁weapon	-12.7718
▁chemical	-12.772
▁fighter	-12.7721
▁adverb	-12.7722
▁technique	-12.7722
▁ntshoo	-12.7724
np	-12.7726
ud	-12.7727
▁reserve	-12.7728
amen	-12.7729
▁difficult	-12.7729
▁atlantic	-12.773
▁omaha	-12.773
▁easily	-12.773
▁caabsaab	-12.773
▁plenty	-12.7731
▁asmeliskas	-12.7731
▁kor	-12.7732
▁9:00	-12.7732
▁recognition	-12.7733
▁salary	-12.7733
▁ntivtes	-12.7733
▁felt	-12.7734
▁complex	-12.7734
▁hnuv	-12.7735
▁dictatorship	-12.7735
▁saaj	-12.7735
▁signature	-12.7735
▁explanation	-12.7735
▁htt	-12.7735
sai	-12.7736
▁corner	-12.7736
▁daab	-12.7737
▁nreb	-12.7738
▁taiwan	-12.7739
▁ntshaus	-12.7739
▁vaughn	-12.7739
khawm	-12.774
▁tyy	-12.774
▁raised	-12.7742
▁maker	-12.7742
▁nplawv	-12.7743
▁analyze	-12.7744
▁temporary	-12.7745
▁nomtooj	-12.7746
▁ngos	-12.7752
▁iabsiab	-12.7753
▁nahas	-12.7754
▁dagzog	-12.7759
▁zu	-12.7763
▁advisors	-12.7763
▁qij	-12.7763
▁keng	-12.7764
%26	-12.7768
▁vuj	-12.777
▁crosse	-12.777
▁lubsab	-12.7771
▁wj	-12.7771
▁throw	-12.7775
▁khum	-12.7776
ak	-12.7783
▁kij	-12.7785
fu	-12.7788
nuc	-12.7794
dlaag	-12.7819
▁ncia	-12.7826
▁tuabzoo	-12.7827
khoom	-12.7829
cais	-12.7831
list	-12.7842
lb	-12.7844
▁ntxhas	-12.7845
▁tsee	-12.7845
▁lwmyam	-12.7848
hlo	-12.785
▁mentsi	-12.7856
sh	-12.7858
tiv	-12.7859
hwv	-12.7866
▁19,	-12.7881
-7	-12.7883
78	-12.7892
▁male	-12.7893
▁iq	-12.7914
▁shaman	-12.7915
▁lhua	-12.7922
▁dealer	-12.7923
▁$50	-12.7924
▁hnyo	-12.7924
mu	-12.7925
▁skill	-12.7928
▁hmoobthawj	-12.793
pr	-12.7934
▁sacto	-12.7939
▁elaborate	-12.7939
▁earlier	-12.7939
▁completely	-12.7939
▁(33)	-12.794
▁nthoob	-12.794
▁thwjtim	-12.794
▁curious	-12.794
▁asmeslikas	-12.794
▁pujntxoog	-12.794
▁absolutely	-12.794
▁xtou	-12.794
▁1986	-12.7941
il	-12.7941
▁winter	-12.7941
▁delegates	-12.7941
▁taagnrho	-12.7941
▁txaag	-12.7941
▁yuepheng	-12.7942
▁kongle	-12.7942
▁chivkeeb	-12.7942
▁coffee	-12.7943
▁completed	-12.7943
▁cycle	-12.7943
▁arrested	-12.7943
txom	-12.7944
▁novqaab	-12.7944
▁appreciated	-12.7944
▁universal	-12.7944
▁nriam	-12.7945
▁nasxus	-12.7945
lqc	-12.7947
▁expenses	-12.7948
▁petition	-12.7949
▁publicly	-12.7949
▁ceeg	-12.7949
▁leepao	-12.795
▁caa	-12.7956
pro	-12.796
ancient	-12.7962
▁liabqab	-12.7962
▁drug	-12.7964
where	-12.7966
▁tseebtsim	-12.7967
▁ntsog	-12.7968
▁thw	-12.7969
▁1500	-12.7972
tc	-12.7973
▁hliav	-12.7974
year	-12.7975
dg	-12.7979
taag	-12.798
▁gw	-12.7987
awd	-12.7989
38	-12.8001
only	-12.8003
▁professors	-12.8004
▁plos	-12.8013
hai	-12.8024
▁mex	-12.8033
▁pij	-12.8034
▁tone	-12.8037
too	-12.8042
▁pan	-12.8047
ntaj	-12.8048
▁tasx	-12.8053
▁bc	-12.8054
▁cus	-12.8058
lias	-12.8059
gd	-12.8062
▁mx	-12.8067
▁saix	-12.8067
▁7,	-12.807
ziag	-12.808
klub	-12.8081
eeg	-12.8082
msn	-12.8084
▁haug	-12.8084
people	-12.8086
mab	-12.8088
zo	-12.8088
▁dogs	-12.809
leader	-12.809
txawv	-12.8096
nplooj	-12.8097
io	-12.8104
kubxaj	-12.8104
nothing	-12.8104
sorry	-12.8104
music	-12.8106
black	-12.8106
strongly	-12.8106
gc	-12.8109
link	-12.8112
wo	-12.8117
▁hmt	-12.812
bmh	-12.8123
▁kawgli	-12.8134
▁resolution	-12.8137
▁hamburger	-12.8137
▁competition	-12.8139
ship	-12.814
ys	-12.814
▁product	-12.8143
▁network	-12.8145
▁1961	-12.8149
▁bien	-12.815
▁institute	-12.8151
▁ncaajnceeg	-12.8151
▁70%	-12.8152
▁vivncaus	-12.8152
▁committed	-12.8152
▁blua	-12.8153
▁cyberspace	-12.8153
▁nriag	-12.8153
▁applied	-12.8153
▁martin	-12.8153
▁sooner	-12.8153
▁destiny	-12.8153
▁humanitarian	-12.8154
▁asean	-12.8154
▁empty	-12.8155
▁professionalism	-12.8155
▁bet	-12.8155
▁blah	-12.8156
uav	-12.8156
▁elected	-12.8156
▁roobris	-12.8157
▁pliav	-12.8157
▁dws	-12.8157
▁invite	-12.8158
▁pivxam	-12.8159
▁mentally	-12.8159
▁speed	-12.8159
▁missing	-12.816
▁pawm	-12.8161
▁tawvdawb	-12.8162
▁klg	-12.8162
▁spot	-12.8165
nqi	-12.8165
▁chaav	-12.8167
▁lajfai	-12.8172
▁mistakes	-12.8187
▁quick	-12.8189
▁69	-12.8191
▁rent	-12.8192
▁nga	-12.8193
▁facebook	-12.8197
▁bor	-12.8198
▁cousins	-12.8201
qe	-12.8201
▁nyha	-12.8204
▁maav	-12.821
▁mosx	-12.8213
▁farm	-12.8213
gy	-12.823
▁pages	-12.8233
▁sibtog	-12.8243
▁numbers	-12.8247
yb	-12.8249
monthly	-12.8249
▁phao	-12.825
hlau	-12.8255
laig	-12.8262
nag	-12.8272
▁settle	-12.8277
nqa	-12.8277
▁$300	-12.8281
▁cure	-12.8297
?".	-12.83
****************	-12.8303
bsb	-12.8313
▁thabhaa	-12.8319
woman	-12.8321
noogdlej	-12.8322
example	-12.8322
▁reduce	-12.8322
ier	-12.8322
phiajzeb	-12.8323
▁fax	-12.8324
haib	-12.8326
▁yw	-12.8335
lun	-12.8336
▁213	-12.8336
▁named	-12.8337
sy	-12.8352
▁consequence	-12.8356
▁msp	-12.8356
▁psychologist	-12.8356
▁congratulation	-12.8356
▁taabsi	-12.8358
=2	-12.8358
▁reaction	-12.8358
hr	-12.8359
▁singer	-12.8363
lij	-12.8365
▁commission	-12.8367
user	-12.8368
▁reagan	-12.8369
▁portland	-12.8369
▁sojntsuam	-12.8369
▁fyi	-12.8369
▁kmxiong	-12.8369
▁xuajmoos	-12.8369
▁offense	-12.8369
▁tlk	-12.8369
▁$200.00	-12.8369
▁raaj	-12.837
▁txwjlaug	-12.837
▁summary	-12.837
▁faivntaj	-12.837
▁spam	-12.837
▁khamkeuth	-12.8371
▁cobqha	-12.8371
▁nyavdub	-12.8371
▁phabnab	-12.8371
▁newsgroups	-12.8372
▁tsabmim	-12.8372
▁bread	-12.8372
▁offered	-12.8373
▁npwg	-12.8374
▁thugs	-12.8374
▁reverse	-12.8375
▁ultimate	-12.8376
▁heheheheh	-12.8376
▁greenbay	-12.8377
▁buddhism	-12.8377
▁jury	-12.8378
▁inter	-12.8378
▁queen	-12.8378
▁trace	-12.8379
▁oos	-12.838
▁qoov	-12.8382
▁phees	-12.8383
▁200,000	-12.8384
▁nreej	-12.8384
▁converters	-12.8384
▁damn	-12.8385
▁khiag	-12.8385
▁moobthaibteb	-12.8385
▁lispov	-12.8386
▁moobseem	-12.8387
▁transfer	-12.8389
ar	-12.839
most	-12.8391
▁serving	-12.8391
▁paste	-12.8392
hahhaha	-12.8393
page	-12.8394
▁kabliab	-12.8394
▁daily	-12.8402
▁tsotseg	-12.8404
▁npeem	-12.8408
iav	-12.8409
aiv	-12.841
xu	-12.8412
-------------	-12.8414
tuab	-12.8416
▁mug	-12.8418
▁davhlaus	-12.8418
▁experts	-12.8419
▁senators	-12.8421
ln	-12.8423
▁ibqho	-12.8425
▁speaks	-12.8427
▁johny	-12.843
▁txauj	-12.8434
non	-12.8436
fbi	-12.8436
!!!!!!!!!	-12.8459
txoov	-12.8462
▁choices	-12.8462
▁ntoog	-12.8464
▁ntsos	-12.8469
khaum	-12.8474
▁lhau	-12.8476
▁hw	-12.8477
▁fat	-12.8484
▁meetings	-12.8484
▁nomleej	-12.8484
▁sher	-12.8485
▁kinds	-12.8494
qha	-12.8495
▁gods	-12.8497
asia	-12.8499
▁mike	-12.8501
2005	-12.8502
sing	-12.8512
▁09	-12.8514
▁guide	-12.8514
▁maslis	-12.852
▁lock	-12.8523
▁solid	-12.8524
lr	-12.8524
▁__	-12.8526
luang	-12.8529
pua	-12.8534
▁77	-12.8538
▁78	-12.854
nqaij	-12.8542
spelling	-12.8542
facebook	-12.8543
▁obpeb	-12.8545
veral	-12.8545
same	-12.8549
▁klawm	-12.8554
▁--------------	-12.8556
▁laajfa	-12.856
▁revolution	-12.8566
▁attempt	-12.8582
▁receipt	-12.8583
▁ntsiagto	-12.8584
▁19.	-12.8584
!!!!!!!	-12.8585
▁symbol	-12.8587
▁initial	-12.859
▁issara	-12.8591
▁zemzuag	-12.8591
▁involvement	-12.8591
▁13-14	-12.8591
▁saddam	-12.8592
▁caubmoos	-12.8592
▁hidden	-12.8592
▁zia	-12.8593
▁running	-12.8593
▁2015	-12.8593
▁psychological	-12.8593
▁downline	-12.8593
▁senior	-12.8594
▁allergy	-12.8594
▁clarification	-12.8594
▁liberation	-12.8594
▁suicide	-12.8594
▁ntxhiavnyuj	-12.8594
▁vajntxwv	-12.8594
▁labeled	-12.8594
▁indeed	-12.8595
▁ecole	-12.8595
▁everest	-12.8595
▁veescas	-12.8596
▁pamlem	-12.8596
▁khoueng	-12.8596
▁brushoff	-12.8597
▁najkhoom	-12.8598
▁accepted	-12.8598
▁5$	-12.86
▁cwjmeem	-12.86
▁sibfoob	-12.86
▁misliskas	-12.86
▁ordered	-12.8601
▁flow	-12.8604
▁ncontsoov	-12.8604
▁tuabneej	-12.8604
▁porn	-12.8606
▁gag	-12.8607
dc	-12.8608
▁xubthawj	-12.8608
▁nteb	-12.8608
▁maa	-12.8609
▁ntxees	-12.8609
▁sly	-12.8611
▁ntsus	-12.8611
▁idonotknown	-12.8612
txais	-12.8613
▁naskas	-12.8613
▁npoog	-12.8616
▁fuabcua	-12.8618
▁loose	-12.8621
▁kaoly	-12.8621
▁lasmas	-12.863
hj	-12.8635
tou	-12.8635
tawb	-12.8637
▁tickets	-12.864
ff	-12.8642
▁ch	-12.8647
qu	-12.8647
▁coin	-12.8653
▁thaumkuv	-12.8654
hum	-12.8656
▁ou	-12.8656
za	-12.8657
▁lay	-12.8662
duab	-12.8664
▁uaneeb	-12.8672
08	-12.8678
▁khe	-12.8681
▁democrat	-12.8687
▁tsoog	-12.8695
▁hlai	-12.8707
▁ter	-12.8709
▁vte	-12.8712
ym	-12.8712
▁16,	-12.8712
haw	-12.8714
▁pra	-12.8716
▁ran	-12.8726
▁places	-12.8729
tsheej	-12.873
▁resist	-12.8733
politic	-12.8735
over	-12.874
ker	-12.8742
▁pl	-12.8743
▁bv	-12.8743
▁xajn	-12.8744
girl	-12.8749
lawj	-12.8749
ntsuag	-12.875
ntug	-12.875
▁hajtsi	-12.8752
▁mile	-12.8754
▁parts	-12.8755
▁ncuj	-12.8756
▁kn	-12.8756
vue	-12.8757
▁txojlus	-12.8763
charter	-12.877
▁zn	-12.877
thailand	-12.8771
ntxias	-12.8774
kwvtijhmoob	-12.8777
▁eng	-12.8781
txheej	-12.8783
▁connect	-12.8789
▁bouam	-12.879
nraim	-12.8798
▁stuff	-12.8805
▁discipline	-12.8806
▁helps	-12.881
▁successful	-12.8816
ur	-12.8817
▁egypt	-12.8817
▁superior	-12.8818
▁documentary	-12.8818
▁reliable	-12.8818
▁dawwgy	-12.8818
▁manage	-12.8818
▁mhoobvajusa	-12.8818
▁receive	-12.8819
▁12:00	-12.8819
▁toojkhwb	-12.8819
▁chicago	-12.8819
▁vatthana	-12.8819
▁ntsuabrwg	-12.8819
▁nruabnraab	-12.8819
▁fakis	-12.8819
▁1:	-12.8819
▁wealth	-12.882
heheheh	-12.882
▁described	-12.882
▁mluas	-12.8821
▁nengshia	-12.8821
▁sawvkev	-12.8821
▁intelligent	-12.8821
▁required	-12.8822
▁concerned	-12.8822
▁finance	-12.8822
▁boycott	-12.8822
▁hmmob	-12.8822
▁kabtsib	-12.8822
▁confidential	-12.8822
▁lvtltym	-12.8822
▁dakota	-12.8822
▁equally	-12.8822
▁oxygen	-12.8823
▁yeebcuab	-12.8823
▁fishing	-12.8824
▁mivmiv	-12.8825
▁surprised	-12.8825
▁dhawv	-12.8825
▁minorities	-12.8825
▁kheeg	-12.8828
▁physically	-12.8828
▁leemcai	-12.8829
▁taxes	-12.8833
▁sake	-12.8833
▁yellow	-12.8841
▁$25,000	-12.8847
▁cares	-12.8847
lg	-12.885
▁documents	-12.8853
▁forces	-12.8855
▁sn	-12.8856
▁qhoom	-12.8856
▁nwv	-12.8856
▁tri	-12.8866
▁workers	-12.887
dlawb	-12.8871
menyuam	-12.8872
ism	-12.8875
cker	-12.8881
▁yajsab	-12.8883
▁xubx	-12.8889
▁songs	-12.8894
kg	-12.8901
▁tubhmoob	-12.8908
▁ntawn	-12.8909
▁yajy	-12.891
tk	-12.8911
▁referr	-12.8914
▁heej	-12.8918
huas	-12.8918
nyas	-12.8921
▁thawjx	-12.8921
▁1600	-12.8922
▁wear	-12.8939
▁47	-12.894
name	-12.894
▁diploma	-12.8942
play	-12.8943
▁moved	-12.8947
▁xt	-12.8949
age	-12.8949
xeev	-12.8952
▁unto	-12.8954
npawg	-12.896
chaws	-12.8962
▁phlo	-12.8967
rt	-12.8969
▁thawjthiab	-12.8971
wd	-12.8975
moo	-12.8978
▁roman	-12.898
zb	-12.9002
▁minds	-12.9002
public	-12.9003
national	-12.9003
original	-12.9003
white	-12.9004
▁800	-12.9007
▁sibkho	-12.901
▁cj	-12.9013
▁npl	-12.9016
▁ur	-12.9019
▁submit	-12.9021
▁paubqab	-12.9021
topic	-12.9027
cb	-12.9028
▁ntxhee	-12.9033
▁prediction	-12.9036
▁script	-12.904
▁bas	-12.9044
▁inform	-12.9046
▁lecture	-12.9047
▁torture	-12.9048
▁deliver	-12.9049
iaj	-12.9049
▁german	-12.905
▁effective	-12.905
▁advertise	-12.905
▁stockton	-12.9051
▁fulfill	-12.9052
▁trap	-12.9052
▁pobntooslaus	-12.9052
▁enomy	-12.9052
▁concrete	-12.9052
▁participants	-12.9052
▁flea	-12.9052
▁txwjnkawm	-12.9053
▁xovtoojcua	-12.9053
▁narrow	-12.9053
▁gaum	-12.9053
▁kablaum	-12.9053
▁txiajxab	-12.9053
▁sibhaumxeeb	-12.9054
▁pxm	-12.9054
▁koobtsheej	-12.9054
▁acceptable	-12.9054
▁1981	-12.9055
▁gambling	-12.9055
▁supply	-12.9055
▁nplab	-12.9056
▁tubpajtsab	-12.9056
▁declared	-12.9057
▁violence	-12.9057
▁candy	-12.9057
▁ntxheev	-12.9057
▁9-10	-12.9058
▁tsoobkuj	-12.9058
▁theories	-12.9058
▁tshij	-12.9058
▁mobile	-12.9058
▁tubnkeeg	-12.9058
▁friendly	-12.9059
▁ciajhaiv	-12.9059
▁destruction	-12.9059
▁pawgntseeg	-12.9059
▁txoom	-12.906
▁leading	-12.9061
▁proclaim	-12.9062
▁ntsauj	-12.9064
▁pheejyig	-12.9065
▁yeb	-12.9065
▁hlwv	-12.9066
▁fired	-12.9066
nna	-12.9066
▁nrws	-12.9067
▁hue	-12.9068
▁guards	-12.9069
▁huang	-12.9072
ought	-12.9073
▁sibnrauj	-12.9073
▁lang	-12.9074
▁pang	-12.9074
▁ntsheeg	-12.9075
▁$2,000	-12.9076
▁vaug	-12.9082
▁vet	-12.9087
▁__________	-12.9087
▁calm	-12.909
▁animals	-12.9093
▁tshajkoob	-12.91
▁thaug	-12.9104
▁yor	-12.9105
▁shut	-12.9109
main	-12.911
35	-12.9118
dog	-12.9119
▁hihihi	-12.9119
ement	-12.9122
▁mij	-12.9136
▁hauvlub	-12.9144
hd	-12.9154
npaum	-12.9169
▁forth	-12.9169
▁ibpliag	-12.917
dlej	-12.917
▁ibsij	-12.917
sov	-12.9171
▁enter	-12.9175
tting	-12.9176
▁hlig	-12.9176
▁mall	-12.9181
ot	-12.9185
light	-12.92
tsaam	-12.9205
live	-12.9205
op	-12.9209
▁visions	-12.9213
▁bac	-12.9216
ac	-12.9224
▁arm	-12.923
▁cow	-12.9233
make	-12.9233
▁naus	-12.9237
dhia	-12.9237
idnk	-12.9238
brother	-12.9249
high	-12.9271
▁sell	-12.9274
▁burger	-12.9276
▁skin	-12.9277
▁mivx	-12.9279
▁xyaa	-12.9283
__	-12.9286
▁illness	-12.9288
▁built	-12.9289
▁ntsimtxhe	-12.9289
▁yunnan	-12.9289
▁centurion	-12.9289
▁najvej	-12.9289
▁khauvxim	-12.9289
▁xiengkhuang	-12.9289
▁comfortable	-12.9289
merritt	-12.9289
▁behalf	-12.929
▁npliam	-12.929
▁phonesavanh	-12.929
▁classify	-12.929
▁solar	-12.929
▁criteria	-12.9291
▁6,500	-12.9291
▁ceebtoom	-12.9291
▁angeles	-12.9291
▁payment	-12.9291
▁investigation	-12.9292
▁spoke	-12.9292
▁invited	-12.9292
▁vangvieng	-12.9293
▁nonghet	-12.9293
▁tilaug	-12.9295
▁approved	-12.9295
mem	-12.9296
▁(4)	-12.9297
hehehehehe	-12.9297
▁adultery	-12.9297
▁chimeng	-12.9298
▁fast	-12.9298
▁reno	-12.9299
▁thuaj	-12.9299
▁tisbe	-12.9301
▁looked	-12.9301
▁tshuv	-12.9302
▁mongkey	-12.9305
huv	-12.9306
zeej	-12.931
▁windows	-12.931
▁jr	-12.931
▁educators	-12.931
▁avloj	-12.9311
▁ntxawj	-12.9312
▁rituals	-12.9313
▁====	-12.9313
▁indians	-12.9313
▁hmoobleejtub	-12.9313
▁tsaugzog	-12.9314
▁proved	-12.9316
▁feej	-12.9318
▁qhaa	-12.9322
▁wash	-12.9326
nkaum	-12.9327
▁appoint	-12.9333
▁tae	-12.9339
▁qag	-12.9339
=7	-12.934
▁luasmas	-12.934
▁gossips	-12.934
cal	-12.934
mog	-12.9342
▁relax	-12.9349
▁fus	-12.935
▁owe	-12.9354
plaws	-12.9355
▁kpnp	-12.9358
▁==============	-12.9358
nav	-12.9362
▁qoo	-12.9372
▁games	-12.9375
▁aa	-12.9375
▁txivyawg	-12.938
▁ntsiaj	-12.9381
▁pastors	-12.9381
▁solutions	-12.9383
cn	-12.9386
klawv	-12.9388
▁$2	-12.9394
▁pacha	-12.9399
▁ceskawg	-12.9399
pu	-12.9407
▁causes	-12.9408
▁cojlos	-12.9408
nus	-12.9411
ees	-12.9425
▁101	-12.9425
▁tamsisno	-12.9433
▁ntai	-12.9437
▁isreal	-12.9442
▁$2000	-12.9443
▁05	-12.9447
ntses	-12.9455
kaw	-12.9464
worker	-12.9468
▁leak	-12.9472
▁dan	-12.9472
▁(3	-12.9473
▁hnee	-12.9473
plog	-12.9476
mode	-12.948
zi	-12.9481
suabnoog	-12.9486
nkaujnyiag	-12.9486
social	-12.9486
ied	-12.9487
bible	-12.9489
mc	-12.949
▁-------------	-12.9491
▁ntsee	-12.9492
xy	-12.9496
▁moses	-12.9497
▁hooj	-12.9501
el	-12.9502
rk	-12.9506
aus	-12.9512
▁mess	-12.9512
▁apologize	-12.9514
▁pound	-12.9518
▁recommendation	-12.9519
▁boat	-12.952
▁huabtai	-12.9521
......!	-12.9521
▁1992	-12.9529
lud	-12.9529
▁fly	-12.9531
▁convince	-12.9532
loos	-12.9532
▁yard	-12.9532
▁entire	-12.9533
▁vietiane	-12.9533
▁tousavang	-12.9533
▁chiangrai	-12.9533
▁resettlement	-12.9533
▁hotdog	-12.9533
▁maivkaus	-12.9534
▁manner	-12.9534
▁flirt	-12.9534
▁12-16	-12.9534
▁phooywg	-12.9534
▁founder	-12.9534
▁georgia	-12.9534
local	-12.9534
▁nyoobhoom	-12.9535
▁laonork	-12.9535
▁confidence	-12.9536
▁anywhere	-12.9537
▁iran	-12.9537
▁politburo	-12.9538
▁poison	-12.9538
▁1962	-12.9539
▁yajtk	-12.9539
▁nmr	-12.9539
▁understood	-12.9539
▁equality	-12.9539
▁mysterious	-12.954
▁50,000	-12.9541
▁marx	-12.9541
▁kaig	-12.9542
mental	-12.9543
▁zaig	-12.9543
▁tshim	-12.9543
=4	-12.9543
▁thaiteb	-12.9544
▁syphd	-12.9545
ro	-12.9546
▁nkaujhli	-12.9546
▁dien	-12.9548
▁ruv	-12.9548
▁techniques	-12.9549
▁coup	-12.9551
▁makers	-12.9551
▁kongphan	-12.9552
▁cuagli	-12.9552
▁9,	-12.9552
▁blow	-12.9557
▁nkagsab	-12.9559
▁hmongmen	-12.956
▁nujnqis	-12.956
▁ciajvaj	-12.9562
▁555555	-12.9562
▁ntsaus	-12.9563
▁1966	-12.9564
▁10-15	-12.9564
▁sibtxawv	-12.9565
▁mivtub	-12.9571
▁pobkub	-12.9571
oy	-12.9573
▁tseemx	-12.9573
▁dialects	-12.9574
▁foomkom	-12.9579
▁$$	-12.9583
ks	-12.9583
▁ntshaj	-12.9584
yas	-12.9587
nhub	-12.9589
▁xun	-12.9595
▁khovkho	-12.9596
▁falls	-12.9597
▁haulwm	-12.9599
▁nqha	-12.9599
cg	-12.9602
▁nhro	-12.9604
▁paula	-12.9608
▁xuj	-12.961
▁wed	-12.9611
▁bed	-12.9612
▁hauvsiab	-12.9613
▁hlaw	-12.9614
▁zoglawm	-12.9619
va	-12.9628
oral	-12.963
fc	-12.9634
▁nyamx	-12.9637
▁lubcaij	-12.9638
▁klawv	-12.9641
▁loov	-12.9644
,,,,,	-12.9649
▁hauvtsev	-12.9649
liz	-12.965
ned	-12.9651
ceev	-12.9652
▁volunteers	-12.9654
xyuas	-12.9668
!!,	-12.9673
ft	-12.9679
▁nrom	-12.968
▁plia	-12.9684
yaaj	-12.9688
nyam	-12.9691
▁khim	-12.9697
pv	-12.97
▁links	-12.97
▁81	-12.9703
▁heevkawg	-12.9712
▁muslawm	-12.9714
green	-12.9723
▁score	-12.9725
ally	-12.9728
title	-12.9732
french	-12.9735
yaweh	-12.9736
nkawd	-12.9736
▁strike	-12.9768
▁outcome	-12.977
▁failure	-12.977
▁pocket	-12.9771
▁protestant	-12.9772
▁monster	-12.9773
▁backward	-12.9777
per	-12.9777
tauj	-12.9779
▁khou	-12.9779
any	-12.978
▁horse	-12.978
▁cancel	-12.9782
▁extend	-12.9782
▁50/50	-12.9783
▁liaison	-12.9783
▁atleast	-12.9783
▁yaajtshajkoob	-12.9783
▁treasure	-12.9783
▁enforcement	-12.9783
▁succeed	-12.9783
▁danai	-12.9783
▁fivyeem	-12.9784
▁zhenged	-12.9784
▁40%	-12.9784
▁survival	-12.9785
▁whpc	-12.9785
▁kthao	-12.9785
▁khaaj	-12.9785
▁txhwj	-12.9786
▁khaublig	-12.9786
lqr	-12.9786
▁hanoi	-12.9786
▁caught	-12.9787
▁blaum	-12.9788
▁cimxeeb	-12.9789
▁ntxug	-12.979
▁typical	-12.979
▁southern	-12.9791
▁dinner	-12.9791
▁dwb	-12.9791
▁ended	-12.9791
▁unique	-12.9792
▁ray	-12.9792
▁nruaj	-12.9793
▁cry	-12.9794
▁txhiajlis	-12.9794
▁classes	-12.9795
▁burn	-12.9797
▁tactics	-12.9801
▁garden	-12.9802
▁quavdev	-12.9803
▁kabliam	-12.9803
▁zajnkauj	-12.9803
▁ntxhiav	-12.9805
▁toov	-12.9806
▁nkaujmuam	-12.9807
▁tshauj	-12.9807
▁efforts	-12.9808
▁fam	-12.9809
▁ntshuav	-12.981
xaab	-12.981
▁ntxiav	-12.9811
▁txub	-12.9811
▁ntwb	-12.9817
hahahahahaha	-12.9828
▁leegtwg	-12.9831
▁sibpaub	-12.9837
▁boon	-12.9839
▁xaavx	-12.9853
mon	-12.9859
rb	-12.9863
fv	-12.9863
▁76	-12.9865
▁acts	-12.9872
phoojywg	-12.9879
▁haws	-12.9885
ncuab	-12.9887
qus	-12.989
ful	-12.9891
▁photo	-12.99
▁rhau	-12.99
▁quam	-12.99
wp	-12.9911
dig	-12.9914
▁hinh	-12.9914
▁hall	-12.9919
▁6)	-12.9922
paab	-12.9931
363	-12.9934
get	-12.9935
ef	-12.9939
▁het	-12.9941
▁nowhere	-12.9947
▁huay	-12.9958
tt	-12.9968
wife	-12.997
deev	-12.997
kong	-12.9974
ek	-12.9974
▁tobhau	-12.9976
▁hauvqhua	-12.9983
ide	-12.9985
▁changes	-12.9985
tsuj	-12.9986
▁plans	-12.9986
oc	-12.9989
▁sh	-12.9992
those	-12.9992
well	-12.9997
sia	-13
ps	-13.0011
▁timub	-13.0014
▁kawgkiag	-13.0015
80	-13.0016
▁pomkev	-13.0019
▁melika	-13.0027
sua	-13.0028
▁border	-13.0029
stupid	-13.0032
▁brand	-13.0032
▁slave	-13.0034
▁verse	-13.0036
▁resolve	-13.0036
ntshav	-13.0037
▁concordia	-13.0039
▁sihanouk	-13.0039
▁backyard	-13.0039
▁ameslika	-13.0039
▁ceremony	-13.004
▁maabdlawb	-13.004
▁nrhaab	-13.004
phou	-13.004
▁kavtheej	-13.0041
▁cajpas	-13.0041
▁brooklyn	-13.0041
▁khasnyas	-13.0041
▁proverb	-13.0041
▁offensive	-13.0041
▁neither	-13.0041
▁asmiskas	-13.0042
▁mankind	-13.0042
▁oneself	-13.0042
aspx	-13.0042
▁$1.00	-13.0042
▁currently	-13.0043
▁lonely	-13.0044
▁ragtxuj	-13.0044
▁decided	-13.0044
▁teevhawm	-13.0044
▁reasonable	-13.0044
▁tshoobkos	-13.0045
▁creator	-13.0045
▁nevada	-13.0045
▁corrupted	-13.0045
▁switzerland	-13.0046
▁emergency	-13.0047
▁differently	-13.0048
▁57	-13.0048
▁maintain	-13.0048
▁trained	-13.0048
▁qawv	-13.0049
pp	-13.0051
▁strategies	-13.0051
▁wheel	-13.0051
▁thaws	-13.0051
▁tsausntuj	-13.0052
▁tavsu	-13.0052
▁ntshiv	-13.0052
▁extreme	-13.0052
▁dna	-13.0052
▁kiaj	-13.0054
▁till	-13.0054
never	-13.0055
02	-13.0056
lauv	-13.0056
▁nrhaw	-13.0056
▁plej	-13.0057
▁huabcua	-13.0059
▁players	-13.006
▁$4	-13.006
▁qaumntuj	-13.0061
tsiv	-13.0063
▁emails	-13.0064
▁bone	-13.0067
▁brown	-13.0073
▁ndlaj	-13.0078
qeej	-13.0079
▁kawj	-13.0091
▁anger	-13.0092
▁xeebleej	-13.0093
▁kok	-13.0105
▁shared	-13.0112
▁deng	-13.0115
▁ruamuag	-13.0115
▁resource	-13.0116
▁????	-13.0119
eu	-13.0121
▁nqib	-13.0132
▁pot	-13.0134
▁persons	-13.0135
ist	-13.0139
▁900	-13.014
iag	-13.0142
▁multipl	-13.0143
▁hyena	-13.0145
nia	-13.0146
hwm	-13.0149
ntsis	-13.0149
▁kli	-13.0153
-47	-13.0155
npab	-13.0156
▁como	-13.0167
▁clubs	-13.0172
ial	-13.0181
msg	-13.0187
plab	-13.0191
▁phlaw	-13.0194
15,000	-13.0196
▁herb	-13.0209
after	-13.0215
▁ceo	-13.0215
yib	-13.0216
=_	-13.0219
txaj	-13.0221
▁matters	-13.0221
▁youth	-13.0238
▁tn	-13.024
▁vaus	-13.0246
read	-13.025
legal	-13.0254
idonotknow	-13.0255
uncle	-13.0255
research	-13.0256
nan	-13.0261
lor	-13.0263
laub	-13.0263
wow	-13.0263
620	-13.0267
▁lines	-13.0269
362	-13.0272
phaum	-13.0278
nyoog	-13.0285
▁hauvkev	-13.0287
xw	-13.0287
900	-13.0288
▁consonant	-13.0289
▁amelika	-13.0289
▁function	-13.029
▁window	-13.0292
▁magazine	-13.0292
36	-13.0293
▁cambodian	-13.0297
▁recent	-13.0302
▁quiet	-13.0302
01085/	-13.0302
▁activity	-13.0302
▁joking	-13.0302
biggest	-13.0302
▁2,000	-13.0302
▁bigger	-13.0302
▁bunch	-13.0302
▁nploojtsawb	-13.0303
▁pennies	-13.0303
▁1959	-13.0303
▁crocodile	-13.0303
▁yahshua	-13.0303
▁plaig	-13.0304
▁phouthen	-13.0304
▁200-300	-13.0304
▁engine	-13.0304
▁moobtwmzeej	-13.0304
▁christopher	-13.0304
▁slavery	-13.0304
▁navthwm	-13.0305
▁junk	-13.0305
▁ngum	-13.0306
▁kooshaum	-13.0306
▁ristsho	-13.0306
▁jhav	-13.0306
▁revealed	-13.0306
▁iraqi	-13.0306
▁joov	-13.0307
▁ntiagtug	-13.0307
▁opposition	-13.0309
▁introduced	-13.0309
▁pojyaig	-13.0309
▁bloglab	-13.0311
▁nrhaiv	-13.0311
▁phee	-13.0311
pj	-13.0311
▁chem	-13.0312
▁sadam	-13.0312
▁txaam	-13.0313
▁nploojsab	-13.0315
▁qug	-13.0316
▁baccalaureate	-13.0316
▁believes	-13.0316
▁piaj	-13.0318
▁sks	-13.0318
▁lun	-13.0318
▁nkib	-13.0319
▁boum	-13.0319
ical	-13.0321
▁products	-13.0321
▁raven	-13.0321
66	-13.0322
▁lajxeeb	-13.0323
▁scientists	-13.0325
▁forced	-13.0326
▁npooj	-13.0327
▁touly	-13.0328
▁engage	-13.0329
▁hlaug	-13.0329
▁twvyeej	-13.0329
▁khaim	-13.0332
▁fay	-13.0332
▁yeebyam	-13.0333
▁rain	-13.0334
dav	-13.0337
▁verbal	-13.0339
▁hmmmmm	-13.0339
▁xyos	-13.0341
hla	-13.0341
▁plauv	-13.0343
taj	-13.0343
▁teachers	-13.0352
▁phw	-13.0354
▁nyus	-13.0356
▁costs	-13.0357
▁2:	-13.0359
▁seeing	-13.036
▁rak	-13.0367
▁mercenary	-13.0367
▁npluj	-13.0369
▁npom	-13.0375
hh	-13.0376
qaum	-13.0381
riam	-13.0387
▁qob	-13.039
▁becomes	-13.0391
ling	-13.0391
▁stands	-13.0394
▁feed	-13.0395
pag	-13.0396
▁foo	-13.0399
▁div	-13.04
▁(1	-13.0401
laaj	-13.0409
▁somsava	-13.041
family	-13.0414
▁tud	-13.0414
▁mum	-13.0415
▁txauv	-13.0417
▁pia	-13.0418
end	-13.0425
▁3-5	-13.0433
hw	-13.0436
▁xy	-13.0438
▁khaug	-13.0439
▁leejniam	-13.0439
lit	-13.0443
▁planet	-13.0443
fi	-13.0453
▁hak	-13.0455
phooj	-13.0469
▁phoojywgzoo	-13.0475
khu	-13.0479
phab	-13.048
▁jane	-13.0488
txia	-13.0497
dablaug	-13.0498
▁generalize	-13.05
▁nraw	-13.0501
▁yad	-13.0505
president	-13.0509
▁cw	-13.051
know	-13.0513
▁tejkev	-13.0521
keep	-13.0524
global	-13.0525
court	-13.0525
▁1964	-13.0528
▁mak	-13.0528
▁roll	-13.0541
▁vajloog	-13.0552
▁secrete	-13.0554
zaus	-13.0556
▁european	-13.0558
▁emotion	-13.0559
▁fairground	-13.0559
▁xavkom	-13.056
▁winner	-13.0561
▁factor	-13.0562
▁hundred	-13.0562
▁pee	-13.0562
▁$1,000	-13.0562
▁institution	-13.0563
----	-13.0563
▁teaching	-13.0567
▁kwjtij	-13.0572
▁afford	-13.0572
▁comparison	-13.0573
▁excellent	-13.0573
▁huvtuabsi	-13.0573
▁persue	-13.0573
▁abroad	-13.0573
▁sunny	-13.0573
▁toutong	-13.0573
▁walmart	-13.0573
▁phetsarath	-13.0573
▁hiem	-13.0573
▁carefully	-13.0574
▁republic	-13.0574
▁bausuav	-13.0574
▁priminister	-13.0575
▁yaajceeb	-13.0575
▁minimum	-13.0575
▁ntswvsiab	-13.0575
▁12-13	-13.0575
▁cheap	-13.0576
▁sok	-13.0576
▁fundraising	-13.0576
▁gathering	-13.0576
▁violent	-13.0576
▁commitment	-13.0577
▁decades	-13.0578
▁logical	-13.0579
▁destructive	-13.058
▁actors	-13.058
▁tsawj	-13.0581
▁txhem	-13.0581
▁rhees	-13.0581
▁hearing	-13.0581
▁fiction	-13.0582
▁khmer	-13.0582
▁nplam	-13.0583
▁ntxeeb	-13.0584
▁dare	-13.0585
▁estate	-13.0585
▁vum	-13.0586
▁raped	-13.0586
▁neeeg	-13.0589
▁nyabxeeb	-13.0589
▁khue	-13.059
▁txhiv	-13.0591
▁ntxwgnyoog	-13.0593
▁npuateb	-13.0594
▁pemtxwv	-13.0595
▁worked	-13.06
▁thaublaus	-13.0601
▁yin	-13.0601
▁violations	-13.0602
tax	-13.0609
hahahha	-13.0611
▁chib	-13.0613
▁levels	-13.0615
▁chor	-13.0615
▁dress	-13.0617
01	-13.062
▁nca	-13.0623
▁characters	-13.0628
▁consult	-13.064
▁seat	-13.0642
▁mature	-13.0644
▁reg	-13.0646
▁wouldn	-13.0646
tx	-13.0649
▁nyhoo	-13.0667
▁ncuaj	-13.0668
▁generations	-13.0679
fy	-13.0682
sad	-13.0687
▁luagntxhi	-13.0687
khawb	-13.07
37	-13.0701
▁hearts	-13.0701
▁judges	-13.0707
▁hmoobdub	-13.0709
liag	-13.0709
▁sibtshum	-13.0721
-3	-13.0726
▁ntshw	-13.0727
▁txhualeej	-13.0738
▁$25	-13.074
▁fan	-13.074
▁lujx	-13.0762
▁phaus	-13.0772
ntsws	-13.0773
▁suas	-13.0775
▁-----	-13.0776
▁noogqej	-13.0778
▁naphi	-13.0779
▁adapt	-13.0783
dong	-13.079
▁plo	-13.0791
future	-13.0794
pt	-13.0794
▁toos	-13.08
tamsim	-13.0804
ntaub	-13.0807
caj	-13.0807
change	-13.0812
artial	-13.0816
ine	-13.0816
▁6000	-13.0823
jy	-13.083
2-3	-13.083
every	-13.0832
▁100,000	-13.0834
▁praise	-13.0835
▁700	-13.0836
▁opponent	-13.0836
▁tejlus	-13.0836
▁shift	-13.0837
keeb	-13.0842
▁researcher	-13.0844
▁61	-13.0846
▁broke	-13.0849
thoob	-13.0849
▁1945	-13.085
jvdgu	-13.085
▁iowa	-13.085
▁shiiyi	-13.085
▁1993	-13.0851
▁underage	-13.0851
▁profession	-13.0851
▁greatest	-13.0851
▁wholesale	-13.0851
▁interior	-13.0851
▁50-60	-13.0851
▁$5000	-13.0851
▁barking	-13.0852
▁graduation	-13.0852
▁10:00	-13.0852
▁touyer	-13.0852
▁humanity	-13.0852
▁1989	-13.0853
▁hmongruag	-13.0853
▁vajtxiab	-13.0853
▁intended	-13.0853
▁nplhaib	-13.0854
▁riov	-13.0854
▁ntxaum	-13.0854
▁anybody	-13.0854
▁namyau	-13.0855
▁reconciliation	-13.0855
▁ntxawv	-13.0855
▁housing	-13.0857
▁tshwv	-13.0859
▁sorties	-13.0859
▁fiab	-13.0859
▁nkawb	-13.086
44	-13.0862
▁hnoos	-13.0863
▁loud	-13.0863
▁formed	-13.0864
▁unlike	-13.0864
▁zauj	-13.0866
▁nomphaj	-13.0868
dluag	-13.0868
▁restrain	-13.0869
▁played	-13.087
▁ntxeevsiab	-13.0874
▁tip	-13.0874
lma	-13.0878
taum	-13.0878
▁lojhlob	-13.0886
▁fib	-13.0886
▁joint	-13.0887
▁ntshu	-13.0888
▁naiskhu	-13.0909
▁cop	-13.0911
▁doos	-13.0912
▁rise	-13.0913
▁loas	-13.0914
05	-13.0916
ghais	-13.0923
▁tuajlawm	-13.0924
lii	-13.0927
▁standards	-13.0928
hahahah	-13.0935
khuam	-13.0935
▁feelings	-13.0935
▁oui	-13.0946
▁em	-13.0949
xib	-13.095
ization	-13.0954
▁nplogdawb	-13.0955
▁mloo	-13.0956
▁tubhluas	-13.0957
▁ceevx	-13.0963
pham	-13.0964
▁sibxws	-13.0965
▁hlubx	-13.0965
▁paint	-13.0977
▁professionals	-13.0984
ii	-13.1003
▁51	-13.1005
▁lwmtug	-13.1012
▁haim	-13.1012
▁statistic	-13.1013
ec	-13.1013
sign	-13.1028
eme	-13.1037
▁gosh	-13.104
tai	-13.1043
▁nqho	-13.1049
▁khet	-13.105
▁heal	-13.1051
▁hmoobvaj	-13.1053
tel	-13.1054
▁tseen	-13.1054
ygo	-13.1071
traitor	-13.1074
million	-13.1075
fair	-13.1076
order	-13.108
minority	-13.1088
care	-13.1089
pejxeem	-13.1089
maybe	-13.1089
▁relation	-13.1089
xoom	-13.1097
▁bvv	-13.1098
▁core	-13.1099
▁ntxua	-13.1102
txeeb	-13.1102
▁haven	-13.1111
▁topm	-13.1111
txhiab	-13.1117
▁five	-13.112
▁speculation	-13.1121
▁servant	-13.1122
caum	-13.1122
▁patient	-13.1123
wa	-13.1125
▁robert	-13.1125
▁heevlawm	-13.1129
taab	-13.1134
▁measure	-13.1135
▁reject	-13.1135
geocities	-13.1136
▁hujsaam	-13.1136
▁nlpog	-13.1136
▁obvious	-13.1136
▁greedy	-13.1136
▁usual	-13.1136
▁livxwm	-13.1136
quot	-13.1137
▁txoovkavtiab	-13.1137
▁conduct	-13.1137
▁repent	-13.1137
▁tuabyaamnkaus	-13.1137
▁resort	-13.1138
▁classmate	-13.1138
▁creation	-13.1138
▁accuse	-13.1138
▁grandpa	-13.1138
▁chivthawj	-13.1139
▁62	-13.1139
paus	-13.1139
▁behave	-13.1139
▁capitol	-13.1139
▁hmongmekas	-13.1141
▁commercial	-13.1141
▁sawvntxov	-13.1141
▁domestic	-13.1141
▁micheal	-13.1141
▁kings	-13.1141
▁banning	-13.1141
ized	-13.1141
▁juagnos	-13.1142
▁stamp	-13.1142
▁limpiam	-13.1143
▁irc	-13.1143
▁chov	-13.1144
▁6:00	-13.1144
portal	-13.1144
▁nplhis	-13.1145
▁credible	-13.1145
▁khites	-13.1145
▁posmuas	-13.1147
▁holy	-13.1148
▁relations	-13.1149
▁nyablajliab	-13.115
▁poster	-13.1151
▁piab	-13.1152
▁nyau	-13.1152
▁herself	-13.1152
▁download	-13.1153
▁nkee	-13.1154
▁respected	-13.1155
339.	-13.1156
▁thaas	-13.1157
▁60%	-13.1157
ary	-13.1158
▁scher	-13.1159
▁tseemswb	-13.116
▁txhaij	-13.1161
▁pujyawm	-13.1164
loob	-13.1168
▁plhe	-13.1169
▁yawmtxwv	-13.117
▁hat	-13.1172
▁cal	-13.1172
▁xwg	-13.1172
▁thinks	-13.1173
gq	-13.1173
▁subgroup	-13.1175
▁cents	-13.1178
▁thuas	-13.1178
pg	-13.1179
gm	-13.1181
▁lwjsiab	-13.1183
paubkuv	-13.1193
media	-13.1197
▁rfa	-13.1199
▁wing	-13.12
thooj	-13.1203
phau	-13.1203
▁pleg	-13.1203
▁rose	-13.1203
qhuas	-13.1205
▁ncw	-13.1208
▁faa	-13.1216
txiag	-13.1217
▁sws	-13.1219
▁sibsau	-13.1242
▁hmm	-13.1247
faab	-13.1249
hehe	-13.1251
▁tuias	-13.1251
▁hlu	-13.1258
npas	-13.1259
aab	-13.126
▁governments	-13.1261
▁lubcev	-13.1263
▁jobs	-13.1264
tiaj	-13.1267
klawm	-13.1267
▁frank	-13.1268
log	-13.1269
nroog	-13.1273
▁hmu	-13.1278
▁cup	-13.1279
31	-13.1285
pej	-13.1286
loskuv	-13.1287
ane	-13.1289
▁btw	-13.129
09	-13.1291
standard	-13.1291
▁bm	-13.1295
nl	-13.1297
▁ves	-13.1298
▁tusiav	-13.1299
lie	-13.1309
▁huana	-13.1316
▁masters	-13.1318
45	-13.1321
▁moom	-13.1325
tswvyim	-13.1328
▁six	-13.133
nrauj	-13.1331
tsaug	-13.134
hwj	-13.134
▁twh	-13.134
▁thian	-13.1343
hahhahah	-13.1344
zus	-13.1355
have	-13.1356
ouc	-13.1358
▁valley	-13.136
▁amkha	-13.1363
▁gia	-13.1364
xauv	-13.1366
yej	-13.1372
▁nrogkuv	-13.1375
41	-13.1376
▁===	-13.1381
▁2005.	-13.1382
▁bird	-13.1383
majority	-13.1383
royal	-13.1383
military	-13.1383
fuabtais	-13.1383
tshuab	-13.1386
tshua	-13.1392
side	-13.1395
dlev	-13.1395
kw	-13.1396
▁critique	-13.1401
▁tran	-13.141
cyb	-13.141
cag	-13.1413
▁yoos	-13.1414
▁nationalist	-13.1415
▁alternative	-13.1415
▁seminar	-13.142
▁graduate	-13.142
▁historian	-13.1421
▁stock	-13.1421
▁nyiv	-13.1423
▁bark	-13.1423
▁corrupt	-13.1425
▁khmu	-13.1426
▁escape	-13.1427
▁nchaa	-13.1429
▁abandon	-13.1429
▁communicate	-13.1429
▁roo	-13.1429
▁utah	-13.143
▁accountability	-13.143
▁versus	-13.143
▁carpet	-13.1431
▁baseball	-13.1431
▁pativat	-13.1431
dhcs	-13.1431
▁privacy	-13.1431
▁duluth	-13.1431
▁ntxwjnyoog	-13.1431
▁twjkum	-13.1431
▁xamxabnam	-13.1431
ncg	-13.1431
▁describe	-13.1432
▁accountable	-13.1432
▁curse	-13.1432
▁khekme	-13.1432
▁dignity	-13.1432
▁pujnyaaj	-13.1432
▁maabqus	-13.1433
▁jhaw	-13.1433
▁nomkhwb	-13.1433
▁tmc	-13.1434
▁champion	-13.1434
▁timxyeej	-13.1434
▁weight	-13.1435
▁everyday	-13.1435
▁nyaib	-13.1436
ian	-13.1436
▁halloween	-13.1437
▁helicopter	-13.1437
▁registered	-13.1438
▁xabtham	-13.1438
▁dlhos	-13.1438
▁ycha	-13.1438
▁cobmoos	-13.1438
▁hummm	-13.1438
▁organized	-13.1439
▁tubtxib	-13.1439
▁hearsay	-13.144
▁collective	-13.144
▁somphone	-13.1441
mis	-13.1442
▁paajyeeb	-13.1443
▁hunters	-13.1443
uoc	-13.1446
▁plane	-13.1446
▁qaav	-13.1446
▁nruabsab	-13.1447
▁nplu	-13.1447
▁sistxuas	-13.1447
▁ceeblaj	-13.1448
▁dlob	-13.1448
▁dreaming	-13.145
▁scare	-13.1452
▁senate	-13.1454
▁inch	-13.1456
▁cuabkav	-13.1459
ruc	-13.146
▁ntsaab	-13.1462
nig	-13.1462
▁fag	-13.1465
▁ibtxha	-13.1466
▁zoua	-13.1473
▁txujlug	-13.1476
▁nosavanh	-13.1476
xawm	-13.1476
▁tamtseeb	-13.1477
▁xwbhwb	-13.148
▁commies	-13.1481
war	-13.1482
▁ntugkev	-13.1482
▁xejt	-13.1487
▁ntxog	-13.1489
▁covnyom	-13.149
▁hun	-13.1491
associated	-13.1492
xe	-13.1493
▁tay	-13.1494
▁npajsiab	-13.1498
▁task	-13.15
ou	-13.1501
▁nhab	-13.1504
▁timmeskas	-13.1505
▁hahahahhaha	-13.1505
▁bond	-13.1507
kao	-13.1509
▁qb	-13.1509
▁tibtug	-13.1513
▁spen	-13.1525
▁hlw	-13.1527
dh	-13.153
▁49	-13.1531
▁cojnoj	-13.1536
▁tosli	-13.1542
▁yawgkoob	-13.1542
▁nnk	-13.1544
▁chan	-13.1552
▁ntias	-13.1563
▁answers	-13.1579
special	-13.1584
▁$800	-13.1588
rm	-13.159
..!	-13.159
dem	-13.1599
ja	-13.1602
▁rovlawm	-13.1604
zug	-13.1604
▁mainas	-13.1625
▁ht	-13.1628
▁zee	-13.1628
eev	-13.163
ywj	-13.1632
ut	-13.1633
txig	-13.1634
open	-13.1635
hour	-13.1642
▁zoonraug	-13.1643
▁elder	-13.1648
luc	-13.1653
▁gum	-13.1656
yis	-13.1657
99	-13.1657
txhawb	-13.1657
holding	-13.1657
ish	-13.1672
vajncuab	-13.1674
tiamsi	-13.1674
comcast	-13.1679
▁59	-13.1679
cultural	-13.168
ncig	-13.1681
▁audio	-13.1681
kuvli	-13.1684
info	-13.1685
similar	-13.1686
cwjmem	-13.1686
-16	-13.1688
▁tool	-13.169
mes	-13.171
▁rovmus	-13.1716
▁daniel	-13.1719
▁error	-13.1719
▁christain	-13.172
▁mexican	-13.172
▁cult	-13.172
▁hahah	-13.1725
▁invention	-13.1729
▁86	-13.1729
▁jay	-13.173
▁nyij	-13.1731
▁trail	-13.1732
▁cooperate	-13.1732
▁greek	-13.1733
▁francisco	-13.1733
▁crappy	-13.1733
▁silent	-13.1733
▁ropv	-13.1733
▁policies	-13.1733
▁5:00	-13.1734
▁registration	-13.1734
▁sacrify	-13.1734
dao	-13.1734
▁admitted	-13.1734
▁yeeej	-13.1734
▁citizenship	-13.1734
▁15-20	-13.1734
▁huajvam	-13.1734
▁dismiss	-13.1735
▁nyawb	-13.1735
▁tseeem	-13.1735
▁highway	-13.1735
▁kabntsab	-13.1735
▁3:00	-13.1735
▁hmnoob	-13.1735
▁koosphas	-13.1735
▁angola	-13.1735
▁transparency	-13.1735
▁dawbpaug	-13.1736
▁believing	-13.1736
▁tolerate	-13.1736
▁txhwv	-13.1736
▁majtras	-13.1736
▁suggested	-13.1736
▁doens	-13.1737
▁prosperity	-13.1737
▁bodies	-13.1737
▁attached	-13.1737
▁ignorance	-13.1738
▁icu	-13.1738
▁daddy	-13.1738
▁paajlug	-13.1739
▁elite	-13.1739
▁pajntaub	-13.1739
▁tcmd	-13.1739
▁searching	-13.1739
▁nrhai	-13.174
▁doctorate	-13.174
▁dolas	-13.1741
▁modify	-13.1741
▁udon	-13.1741
▁tubqaug	-13.1742
▁8,000	-13.1742
▁lately	-13.1742
▁dump	-13.1743
pha	-13.1743
▁pamtuag	-13.1744
sbc	-13.1745
▁expected	-13.1746
▁pabcuam	-13.1746
▁----	-13.1747
▁rhuab	-13.1748
▁although	-13.1748
▁dejtshiab	-13.1749
▁cohr	-13.1749
dp	-13.175
▁paud	-13.1751
▁provided	-13.1751
▁****	-13.1754
▁activists	-13.1756
▁idiots	-13.1758
▁taabsis	-13.1759
▁sibdig	-13.1759
level	-13.176
hua	-13.1763
▁phoj	-13.1763
▁covjeeg	-13.1763
▁nomdlub	-13.1764
▁pack	-13.1765
leem	-13.1767
▁txhaistes	-13.1767
▁txawjvam	-13.1768
▁theung	-13.177
▁hluasnraug	-13.177
ri	-13.1771
▁khiam	-13.1779
yau	-13.1782
▁lover	-13.1782
▁reps	-13.1784
lom	-13.1789
▁hnubqub	-13.179
hob	-13.1793
iens	-13.1796
cuav	-13.1797
▁yiam	-13.1798
▁secure	-13.1799
sp	-13.18
-10	-13.18
gr	-13.1806
pc	-13.1809
▁213,	-13.1812
▁tubse	-13.1812
▁bliaj	-13.1815
▁dl	-13.1816
▁taim	-13.1817
▁dlais	-13.1819
▁xon	-13.1821
▁txoh	-13.1821
▁fees	-13.1827
▁2002,	-13.1828
vn	-13.1833
nqe	-13.1835
▁nkoo	-13.1844
ize	-13.1845
▁bam	-13.1847
702	-13.1849
ntxoov	-13.185
▁khem	-13.1855
date	-13.1855
nawd	-13.186
▁hint	-13.1863
▁zoozoo	-13.1868
kaub	-13.187
▁teu	-13.1871
ww	-13.1873
rl	-13.1874
▁ees	-13.1877
▁tough	-13.188
▁turns	-13.1885
tic	-13.1891
lej	-13.19
wh	-13.1903
money	-13.1913
▁fl	-13.1914
▁thamlus	-13.1928
txeeg	-13.1934
100	-13.1935
▁kentt	-13.1941
▁goj	-13.1941
xi	-13.1944
▁egg	-13.1948
kum	-13.1954
khi	-13.1963
qho	-13.1967
▁loved	-13.1967
▁pope	-13.1968
!..	-13.1973
=8	-13.1973
▁yan	-13.1977
iblub	-13.1986
▁shows	-13.199
▁125	-13.199
▁kwjha	-13.199
business	-13.1998
maim	-13.1998
internet	-13.1999
sunrise	-13.1999
beer	-13.2002
ntxawm	-13.2003
dabneeg	-13.2004
quaj	-13.2005
xiam	-13.2005
-18	-13.2006
▁qhovquav	-13.2008
dyd	-13.2009
zig	-13.2013
▁ncokoj	-13.2018
dlub	-13.2018
bel	-13.2018
▁bai	-13.2019
master	-13.203
▁strength	-13.203
▁ignorant	-13.2031
thaus	-13.2033
▁westerner	-13.2033
▁hunter	-13.2035
▁shop	-13.2035
▁miracle	-13.2035
▁expense	-13.2036
▁suffering	-13.2036
ol	-13.2037
▁walleye	-13.2038
▁threaten	-13.2044
▁canberra	-13.2046
▁opportunities	-13.2046
▁desperate	-13.2046
▁partnership	-13.2046
▁undercover	-13.2046
▁dlpy	-13.2046
▁warren	-13.2046
▁exact	-13.2046
▁basement	-13.2046
▁cancelled	-13.2047
▁threatened	-13.2047
▁loyalty	-13.2047
▁definitely	-13.2047
▁tshaajplawg	-13.2047
▁corona	-13.2047
▁phuajxab	-13.2047
▁expired	-13.2047
▁teejtug	-13.2047
▁hehehehhe	-13.2048
▁kennedy	-13.2048
▁voting	-13.2048
▁adjust	-13.2048
kiab	-13.2048
▁vawb	-13.2048
▁nyaim	-13.2048
▁discussed	-13.2048
▁xubpwg	-13.2048
▁100-200	-13.2048
▁gender	-13.2049
▁anyhow	-13.2049
▁txhojpob	-13.2049
▁negotiate	-13.2049
▁pursue	-13.205
▁guyana	-13.205
▁fajkaum	-13.205
▁everywhere	-13.205
▁ntlag	-13.205
▁sawvdaw	-13.205
▁1,500	-13.205
kheev	-13.2051
▁treaty	-13.2051
▁nploojntsuab	-13.2051
▁cruise	-13.2051
▁significant	-13.2051
▁kaavlam	-13.2052
▁risky	-13.2052
▁yeng	-13.2052
▁10-12	-13.2053
▁rwb	-13.2053
ue	-13.2053
▁chosen	-13.2053
▁dominate	-13.2053
▁prepared	-13.2053
▁laugx	-13.2054
▁abyab	-13.2054
▁kerry	-13.2055
▁inner	-13.2055
▁dlaabqhuas	-13.2056
▁clients	-13.2056
▁saav	-13.2056
▁fortune	-13.2056
▁nciav	-13.2057
▁thoojsab	-13.2057
▁kaajsab	-13.2058
▁surely	-13.2058
▁vaajlug	-13.2061
hand	-13.2063
▁phaas	-13.2063
▁persecute	-13.2064
▁ntsaaj	-13.2066
▁standing	-13.2067
▁ntsaav	-13.2068
▁barbaric	-13.2069
maly	-13.207
▁range	-13.2071
▁raim	-13.2071
▁txop	-13.2071
,000	-13.2073
▁txawjcuab	-13.2073
▁seemed	-13.2073
▁weapons	-13.2074
▁mivkuj	-13.2076
▁season	-13.2077
yu	-13.2081
thong	-13.2085
ihr	-13.2087
▁daub	-13.2087
▁aliens	-13.2089
▁mou	-13.2089
▁pla	-13.2092
▁draft	-13.2096
▁letters	-13.2098
▁ntxib	-13.2104
lqv	-13.2106
▁crimes	-13.2109
▁butt	-13.2116
▁saved	-13.2126
gv	-13.2129
moj	-13.2132
▁lajthab	-13.2137
txuas	-13.2146
▁oop	-13.2148
gl	-13.2153
gh	-13.2157
▁hnubno	-13.2157
ex	-13.2158
▁clans	-13.2159
kasmoos	-13.2162
▁funds	-13.2163
ip	-13.2169
rv	-13.2174
".....	-13.2176
▁leejnam	-13.2177
▁ntawdlos	-13.2182
▁85	-13.2183
usg	-13.2189
▁pol	-13.2191
▁pomtas	-13.2191
▁xan	-13.2191
khaus	-13.2194
nua	-13.2194
last	-13.2198
▁sej	-13.2205
▁nchu	-13.2229
ir	-13.2234
▁22.	-13.2236
ncej	-13.2237
▁qhoo	-13.224
rely	-13.224
lin	-13.2242
-4	-13.2245
bw	-13.2247
lov	-13.2247
▁npho	-13.2247
▁hahahahahah	-13.2255
▁npus	-13.2257
▁colonels	-13.2267
wu	-13.2269
▁useful	-13.227
xyoob	-13.2277
▁hnu	-13.2277
▁67	-13.2286
bad	-13.2294
qabntxhiab	-13.2294
)))	-13.2294
▁menyuamhmoob	-13.2296
▁mauv	-13.2296
rious	-13.2296
▁txivlaus	-13.2297
▁touge	-13.2298
▁nplaaj	-13.2311
option	-13.2317
church	-13.232
type	-13.2321
meaning	-13.2321
north	-13.2322
teebmeem	-13.2322
nq	-13.2324
▁kevcais	-13.2325
wr	-13.233
scl	-13.2331
chai	-13.2331
▁scene	-13.2332
educated	-13.2336
▁ref	-13.2342
chia	-13.2347
ow	-13.2348
▁technic	-13.235
▁oversea	-13.2355
▁orgasm	-13.2355
▁producer	-13.2356
▁smell	-13.236
▁hotels	-13.2361
host	-13.2362
▁temper	-13.2366
▁immediate	-13.2368
▁jealous	-13.2368
▁vitamin	-13.2368
▁savannakhet	-13.2368
▁thonglith	-13.2368
▁mojthej	-13.2368
▁piamsij	-13.2369
▁liberate	-13.2369
▁khhx	-13.2369
▁valuable	-13.2369
▁taksin	-13.2369
▁khakawj	-13.2369
▁midwest	-13.2369
▁plaag	-13.2369
▁tuabywv	-13.2369
▁13-16	-13.237
▁twjlij	-13.237
▁entitled	-13.237
▁khejdub	-13.237
▁fiav	-13.237
▁ntxhub	-13.237
▁honestly	-13.237
▁quapuj	-13.237
▁comfort	-13.2371
▁genocide	-13.2371
▁nthse	-13.2371
▁romantic	-13.2371
▁montana	-13.2371
▁rocket	-13.2371
▁graduated	-13.2371
▁historical	-13.2372
▁branch	-13.2372
▁webcam	-13.2372
▁txhoob	-13.2372
▁loyal	-13.2373
▁plaim	-13.2373
▁refused	-13.2374
▁jai	-13.2374
▁oregon	-13.2374
▁clovis	-13.2374
▁spokesperson	-13.2374
▁offended	-13.2374
▁capability	-13.2374
▁ncajnraim	-13.2374
▁confident	-13.2375
▁numtuam	-13.2375
▁kaitong	-13.2375
▁caijtsuj	-13.2376
▁$500.00	-13.2376
▁wondering	-13.2376
▁pajxab	-13.2377
▁amnesty	-13.2377
▁selfish	-13.2377
▁joined	-13.2378
▁answered	-13.2378
▁vuv	-13.2379
▁samthiaj	-13.2379
peter	-13.2379
▁ywjsab	-13.238
▁npx	-13.238
▁federate	-13.238
▁laujtsab	-13.2381
▁angle	-13.2381
▁preaching	-13.2381
▁lower	-13.2381
▁blaig	-13.2382
look	-13.2382
▁camping	-13.2384
house	-13.2384
▁native	-13.2384
fwb	-13.2385
▁kanmuang	-13.2386
▁pawb	-13.2386
ihrw	-13.2387
▁thovtxim	-13.2388
▁lwmzaus	-13.2388
▁vangpao	-13.2388
▁cerd	-13.2389
▁nqeeg	-13.2389
▁tools	-13.239
▁tabkaum	-13.239
▁idon	-13.2392
▁tshavntuj	-13.2392
▁hou	-13.2394
▁sk	-13.2394
▁listed	-13.2397
▁nyablajteb	-13.2398
▁hehehhehe	-13.24
▁hwvtsam	-13.2401
▁che	-13.2402
▁txawjlem	-13.2403
▁nid	-13.2404
muang	-13.2404
▁perform	-13.2407
▁victory	-13.2409
▁souk	-13.241
▁phoufa	-13.2411
▁hasting	-13.2411
▁wu	-13.2412
▁arts	-13.2414
▁speculate	-13.2415
/2010	-13.2416
dl	-13.2416
gn	-13.2416
▁nyee	-13.2417
▁miab	-13.2417
▁cows	-13.2418
▁hij	-13.242
▁dejdag	-13.2426
▁tsh	-13.2427
▁ualuam	-13.2429
▁khoum	-13.243
sig	-13.243
▁obleeg	-13.2436
▁ntxhaw	-13.2438
▁mock	-13.2441
▁dawd	-13.2443
▁xto	-13.2445
▁qhaug	-13.2446
yag	-13.2446
▁bz	-13.2446
▁cho	-13.2451
tsawv	-13.2454
txh	-13.2456
▁lan	-13.2458
▁khooj	-13.2463
tawj	-13.2463
▁sr	-13.2463
tshav	-13.2465
▁fem	-13.2465
ated	-13.2467
div	-13.2471
lic	-13.2476
hib	-13.2478
▁pabtha	-13.248
-***	-13.2488
town	-13.2493
nyem	-13.2494
nta	-13.2495
="	-13.2498
kauv	-13.2498
▁vip	-13.2499
plan	-13.25
taus	-13.2508
lm	-13.251
▁1200	-13.2516
▁kevkawm	-13.2518
▁dualawm	-13.252
▁notre	-13.253
▁npaw	-13.2531
saab	-13.2532
tsib	-13.2537
▁tubtxawj	-13.2549
▁58	-13.255
ul	-13.2551
▁siabzoo	-13.2553
chaofa	-13.2557
cd	-13.2558
▁qhabna	-13.2565
▁nri	-13.2566
▁feels	-13.2576
teem	-13.258
seuk	-13.258
▁npos	-13.2582
▁shape	-13.2586
zeeg	-13.2588
▁ywb	-13.2588
▁african	-13.2597
plawv	-13.2611
▁jet	-13.2611
▁heu	-13.2617
▁taslawm	-13.2619
under	-13.2626
hehehehehehehehe	-13.2627
▁phe	-13.2628
head	-13.2628
kov	-13.263
1600	-13.2631
af	-13.2631
will	-13.2635
dha	-13.2638
member	-13.264
government	-13.2641
▁tie	-13.2642
rain	-13.2643
hiaj	-13.2646
ncaws	-13.265
▁sons	-13.2652
▁pool	-13.2653
private	-13.2654
vientiane	-13.2654
txhuv	-13.2655
joke	-13.2656
pictures	-13.2659
▁yaib	-13.266
blue	-13.2664
neo	-13.2668
ntiaj	-13.2676
▁recipe	-13.2683
▁sou	-13.2684
qi	-13.2685
▁tan	-13.2687
▁parent	-13.2687
▁prosecutor	-13.2687
▁allegation	-13.2688
▁principal	-13.2688
▁yexu	-13.2689
▁niece	-13.2689
▁mw	-13.269
▁material	-13.2692
▁fabrication	-13.2693
▁genetic	-13.2694
▁nthaw	-13.2695
▁fell	-13.2698
▁caucus	-13.27
▁tshajplaw	-13.27
▁implement	-13.27
▁intend	-13.2701
▁deport	-13.2701
▁hinhheup	-13.2702
▁nebraska	-13.2702
▁dejadust	-13.2702
▁prior	-13.2702
▁thamkabbo	-13.2702
▁duties	-13.2702
▁yavtomntej	-13.2702
▁kheng	-13.2702
▁vaajntxwv	-13.2702
▁probation	-13.2702
▁pleasure	-13.2702
▁cyndi	-13.2702
▁najkaib	-13.2703
▁nqajtawv	-13.2703
▁savior	-13.2703
▁pojnaim	-13.2703
▁therapist	-13.2703
▁meaningless	-13.2703
▁aimpim	-13.2704
▁baptist	-13.2704
▁museum	-13.2704
▁nkaujxawspaum	-13.2704
▁dabntub	-13.2704
joseph	-13.2705
▁tired	-13.2705
▁guav	-13.2705
▁assessment	-13.2706
▁creative	-13.2706
▁usenet	-13.2706
▁ynd	-13.2707
▁troops	-13.2707
▁kaij	-13.2707
▁nyaam	-13.2707
▁tubtxawg	-13.2708
▁siblhub	-13.2708
▁diamond	-13.2708
▁allowed	-13.2708
▁vaajmoog	-13.2708
shoua	-13.2709
▁milk	-13.2709
▁plim	-13.2709
▁immigrants	-13.2709
▁tsujsuadluag	-13.271
▁discriminate	-13.271
▁supporters	-13.271
▁nraugseem	-13.2711
▁mivnyuam	-13.2712
▁yuan	-13.2713
▁zuas	-13.2714
▁quv	-13.2715
▁yamntxwv	-13.2716
▁lacrosse	-13.2717
▁huplig	-13.2719
▁xabphas	-13.2719
▁ntxuas	-13.2719
▁xyaus	-13.272
▁producers	-13.272
uam	-13.272
▁pounds	-13.272
▁mdd	-13.2721
▁savanh	-13.2721
▁polite	-13.2724
▁fighters	-13.2725
▁reports	-13.2727
▁koomteg	-13.2731
▁thoojsiab	-13.2731
▁feemntau	-13.2734
▁yimtxwv	-13.2734
▁laas	-13.2736
▁txawjtuam	-13.2737
▁xxxxxxxxxxxx	-13.2738
▁khun	-13.2741
▁sp	-13.2743
▁kiaglawm	-13.2743
ital	-13.2744
ju	-13.2753
▁partners	-13.2753
lw	-13.2754
▁liglawm	-13.2756
zyb	-13.2756
soua	-13.2758
ped	-13.2761
qwv	-13.2762
▁vajnom	-13.2769
▁tshaws	-13.2776
▁ntxhwb	-13.2777
▁nqaag	-13.2778
ihdy	-13.2779
▁nun	-13.2782
▁mor	-13.2783
▁nio	-13.2788
yo	-13.2789
▁lion	-13.2791
lawvlub	-13.2796
▁txausx	-13.2797
lbs	-13.2802
77	-13.2802
hooj	-13.2803
▁broad	-13.2803
70	-13.2806
▁tawkev	-13.2806
▁camps	-13.2807
▁zob	-13.2808
sin	-13.2809
▁qhoob	-13.281
laam	-13.2814
uc	-13.2819
▁nawg	-13.2823
▁timtswv	-13.2832
▁xyog	-13.2834
▁tagzog	-13.2836
▁qwj	-13.2837
happy	-13.2842
▁bills	-13.2842
▁nqo	-13.2843
▁articles	-13.2846
former	-13.2847
email	-13.2848
▁din	-13.2851
qg	-13.2862
▁txivtsev	-13.2864
kig	-13.287
cf	-13.2872
▁ntxhiv	-13.2874
qh	-13.2876
ru	-13.2876
vog	-13.2879
▁lojx	-13.288
▁xwbntag	-13.2883
txias	-13.2883
peace	-13.2889
▁hnya	-13.2892
▁yer	-13.2894
noc	-13.2896
▁hlov	-13.2903
jl	-13.2908
▁loving	-13.2909
yr	-13.2912
▁$600	-13.2914
kwm	-13.2916
word	-13.2918
swv	-13.2924
▁niamlaus	-13.2924
▁tshia	-13.2926
▁nplho	-13.2928
▁thesis	-13.2935
▁bb	-13.2941
ntshaw	-13.2943
cent	-13.2944
▁practic	-13.2949
▁ain	-13.2952
▁elect	-13.2953
▁21.	-13.2956
tsaus	-13.2959
xais	-13.296
▁tnb	-13.2961
mitted	-13.2964
▁suabhmoob	-13.2971
▁(30	-13.2973
▁char	-13.2974
lh	-13.2976
two	-13.2982
report	-13.2982
▁tsispaub	-13.2988
17	-13.2996
▁heheh	-13.2996
07	-13.2997
▁que	-13.2997
txooj	-13.2998
believe	-13.2999
buffalo	-13.2999
however	-13.2999
international	-13.3
ities	-13.3002
ible	-13.3002
these	-13.3003
phas	-13.3004
cause	-13.3006
0800	-13.3006
▁dawbl	-13.3008
▁tssi	-13.3011
capt	-13.3012
ver	-13.3014
▁paubhaus	-13.3018
ged	-13.3023
face	-13.3024
▁flight	-13.3033
....(	-13.3033
▁signal	-13.3033
▁koomntsw	-13.3037
▁booth	-13.3037
▁accusation	-13.3039
▁suck	-13.3043
wn	-13.3043
▁sheep	-13.3043
puv	-13.3044
▁establish	-13.3044
▁hoskuv	-13.3044
▁punish	-13.3045
▁distinguish	-13.3046
▁beepimvaaj	-13.3046
▁guiana	-13.3046
▁asmeslivkas	-13.3046
▁loojkoov	-13.3046
▁krom	-13.3046
▁jehovah	-13.3047
▁yunan	-13.3047
▁counselor	-13.3047
▁giv	-13.3047
▁flash	-13.3047
▁ntujceebtsheej	-13.3047
▁tshuabqeej	-13.3047
▁disappeared	-13.3047
▁11:00	-13.3047
▁zzh	-13.3047
▁nyoojhoom	-13.3048
▁amount	-13.3048
▁downtown	-13.3048
▁fundamental	-13.3048
▁upper	-13.3048
▁fwjtxwv	-13.3048
▁mixed	-13.3048
▁murdered	-13.3049
▁discover	-13.3049
▁highest	-13.3049
▁resigned	-13.3049
▁koumisith	-13.3049
▁juice	-13.3049
▁tijuana	-13.3049
▁tswvxyas	-13.3049
▁qavkaws	-13.3049
▁agriculture	-13.3049
▁jony	-13.3049
▁xavtias	-13.305
▁user	-13.305
▁organizers	-13.305
▁rheeb	-13.305
earthlink	-13.3051
▁obligation	-13.3051
▁capable	-13.3051
▁cloud	-13.3051
▁soui	-13.3051
▁qhanab	-13.3052
▁civilization	-13.3052
▁lacking	-13.3053
▁treated	-13.3053
▁pajtshiab	-13.3054
▁democrate	-13.3055
▁kablig	-13.3055
▁thxua	-13.3056
▁blessing	-13.3056
▁entertainment	-13.3058
▁despite	-13.3058
peem	-13.306
▁coc	-13.3061
▁tuableeg	-13.3061
▁ego	-13.3062
▁aside	-13.3062
▁30%	-13.3063
▁invent	-13.3066
▁yards	-13.3067
▁hauvntej	-13.3067
▁nqawm	-13.3069
▁tshawg	-13.3071
▁fest	-13.3072
▁tshw	-13.3072
gpib	-13.3072
▁vammej	-13.3073
▁loves	-13.3075
▁15-16	-13.3077
▁ntujtawg	-13.3077
kawv	-13.3079
▁puabtais	-13.3079
ky	-13.308
▁archives	-13.3086
▁ntxho	-13.3088
kham	-13.3089
▁behaviors	-13.3089
saum	-13.309
▁nrua	-13.309
▁businesses	-13.3092
▁conditions	-13.3096
▁meejtswv	-13.3098
dos	-13.3101
▁yawmluj	-13.3103
▁xabpha	-13.3103
▁kwb	-13.3104
▁oi	-13.3104
▁vaum	-13.3105
▁pliv	-13.3108
▁px	-13.3115
case	-13.3116
▁tsiskam	-13.3117
▁disappear	-13.3121
regional	-13.3121
▁thub	-13.3122
▁rely	-13.3123
▁xad	-13.313
▁ncoj	-13.3132
vi	-13.3147
▁solomon	-13.3147
▁combine	-13.3147
▁siabnyiam	-13.3147
▁represents	-13.3147
▁tswx	-13.3148
▁hkm	-13.3151
▁hmongme	-13.3153
nyav	-13.3159
▁naaj	-13.3162
▁siabntev	-13.3162
▁plom	-13.3166
ring	-13.3167
▁steps	-13.317
▁lajsiab	-13.3174
tha	-13.3175
byb	-13.3176
▁twist	-13.3179
▁sabtwg	-13.3179
▁muajntsis	-13.3181
▁herlao	-13.3196
bye	-13.3199
▁nlog	-13.3202
▁thak	-13.3203
yd	-13.3218
300	-13.322
▁1-3	-13.3224
▁xias	-13.3225
▁thang	-13.3231
-070	-13.3236
▁seco	-13.3241
gx	-13.3242
▁dawbx	-13.3244
tsaib	-13.3246
)....	-13.3251
▁nork	-13.3259
▁74	-13.3266
ble	-13.3269
cim	-13.3273
pi	-13.3274
▁acha	-13.3289
▁thaw	-13.3297
▁ear	-13.3301
▁covkevcai	-13.3302
▁beevee	-13.3303
xij	-13.3307
▁voo	-13.3309
▁siabloj	-13.331
▁xyiv	-13.3312
zaug	-13.3312
▁tak	-13.3313
▁fau	-13.3317
ncaug	-13.332
key	-13.3324
▁stream	-13.3329
lix	-13.333
▁tsawgx	-13.3334
forum	-13.3344
ntxoog	-13.3351
operation	-13.3355
active	-13.3356
hmao	-13.3356
▁suj	-13.3357
yem	-13.3358
▁forums	-13.3363
▁hc	-13.3363
phd	-13.3366
▁nkausli	-13.3369
▁dlaw	-13.3369
")	-13.3371
▁xaslas	-13.3373
chair	-13.3374
kh	-13.3375
▁2500	-13.3378
hrs	-13.338
▁tomx	-13.3381
▁ntawj	-13.3381
je	-13.3383
use	-13.3384
ant	-13.3384
▁ntxiaj	-13.3386
▁diaper	-13.3387
▁dialogue	-13.339
▁occasion	-13.339
▁tsaas	-13.3391
76	-13.3393
▁liber	-13.3396
▁archive	-13.3396
caas	-13.3397
▁suppose	-13.3401
▁hmoong	-13.3401
▁sayasit	-13.3403
▁experiment	-13.3403
nuj	-13.3403
▁grocer	-13.3404
▁kasmeaung	-13.3404
▁motorcycle	-13.3404
▁vaubkib	-13.3404
▁ctj	-13.3404
▁potter	-13.3404
▁kuammemiab	-13.3404
▁nropg	-13.3404
▁brave	-13.3404
▁phonsavanh	-13.3404
▁profanity	-13.3405
▁translator	-13.3405
▁perception	-13.3405
▁$50.00	-13.3405
▁battalion	-13.3405
▁tuammom	-13.3405
▁taabfaab	-13.3405
▁description	-13.3405
▁lkm	-13.3405
▁agthiv	-13.3405
▁finished	-13.3405
▁nruabqaum	-13.3405
▁txijnkawm	-13.3406
▁peacefully	-13.3406
hahahhahaha	-13.3406
▁chimlajxeeb	-13.3406
▁prominent	-13.3406
▁revenge	-13.3406
▁maryland	-13.3406
▁richard	-13.3406
▁messenger	-13.3406
▁guaj	-13.3406
▁tsdis	-13.3407
▁kelly	-13.3407
▁somehow	-13.3407
▁requested	-13.3407
▁nujnqes	-13.3407
▁phuan	-13.3407
▁phubthawj	-13.3408
▁ntxaij	-13.3408
▁chaxwm	-13.3408
▁diplome	-13.3408
▁triangle	-13.3408
▁expertise	-13.3408
▁karma	-13.3408
▁wameng	-13.3408
▁trend	-13.3408
▁presentation	-13.3408
▁grill	-13.3408
▁nthiav	-13.3409
▁npawj	-13.3409
▁gaug	-13.3409
▁rwm	-13.3409
▁mercenaries	-13.341
▁dedication	-13.341
▁revolutionary	-13.341
▁childish	-13.341
▁paajnruag	-13.341
▁hzen	-13.341
▁moobloojceeb	-13.341
▁dpt	-13.341
▁phaij	-13.3411
▁toy	-13.3411
▁funders	-13.3411
▁boyfriend	-13.3411
▁naiphone	-13.3411
▁commissioner	-13.3411
▁secondly	-13.3411
sev	-13.3411
▁wao	-13.3412
start	-13.3412
▁ciamteb	-13.3412
▁rhode	-13.3412
▁6,000	-13.3413
▁veg	-13.3414
▁nkuag	-13.3414
▁kwmxeeb	-13.3414
▁niamntiav	-13.3415
▁cuabtsav	-13.3416
▁racial	-13.3417
▁crap	-13.3417
▁happening	-13.3418
▁allegations	-13.3418
▁materials	-13.3418
▁ntxaiv	-13.3419
▁spoken	-13.342
▁sahapha	-13.3421
▁tubntsuaghmong	-13.3421
▁khon	-13.3422
▁nyuabx	-13.3423
▁povkhawv	-13.3423
▁amazing	-13.3424
▁qhovcub	-13.3424
▁houang	-13.3424
▁zaud	-13.3426
▁consonants	-13.3427
▁cf	-13.3427
neng	-13.3428
▁minded	-13.3429
▁requires	-13.3431
▁hmongness	-13.3433
▁nasty	-13.3433
▁suavtawg	-13.3433
▁qin	-13.3433
▁cc	-13.3438
▁sibthooj	-13.3439
▁lubntees	-13.3442
▁txawjteev	-13.3442
20,000	-13.3442
▁nerve	-13.3446
thi	-13.3447
wk	-13.3451
pluag	-13.3451
uq	-13.3454
▁togtwg	-13.3458
▁txhuayaam	-13.3458
▁yuslub	-13.3466
kaysone	-13.3468
spot	-13.3469
▁wwii	-13.3469
cs	-13.3471
fought	-13.3475
niv	-13.3484
▁nongkhais	-13.3486
east	-13.3487
wink	-13.3487
▁tec	-13.3487
▁dhaulawm	-13.3488
▁pobtsuas	-13.349
▁concerns	-13.3494
dam	-13.3495
▁ibhom	-13.3502
58	-13.3506
him	-13.3506
▁advices	-13.3508
61	-13.3508
ntshais	-13.3515
kuvlub	-13.3517
tbn	-13.3522
▁nyon	-13.3529
▁mars	-13.3533
xo	-13.3534
69	-13.3543
▁tsodag	-13.3549
bf	-13.355
▁choo	-13.3551
▁nojqab	-13.3552
▁edit	-13.3554
▁organ	-13.3554
xhob	-13.3554
▁siabphem	-13.3557
khov	-13.3558
▁taszog	-13.3567
cobfab	-13.3574
▁23.	-13.3576
dwf	-13.3583
/2011	-13.3584
▁talent	-13.3593
▁mhoo	-13.3594
▁dh	-13.3598
▁noel	-13.3605
nuv	-13.3605
press	-13.3607
365	-13.3618
97	-13.362
▁sta	-13.3622
▁qh	-13.3634
tsheb	-13.3642
other	-13.3644
lcb	-13.365
▁nqab	-13.3653
▁$40	-13.3653
▁legs	-13.3656
▁txuav	-13.366
▁bid	-13.3661
23	-13.3664
▁2007.	-13.3673
▁covntawv	-13.3676
vc	-13.3677
▁nplee	-13.3679
▁tsoomhmoob	-13.3679
73	-13.3692
pajhuam	-13.3692
pgo	-13.3694
zeem	-13.3702
▁ceej	-13.3705
experience	-13.3706
▁dust	-13.3706
ntxwj	-13.3711
▁flu	-13.3712
hmongvillage	-13.3713
lia	-13.3713
hmmmmm	-13.3716
▁hah	-13.3717
aug	-13.3718
mk	-13.3718
▁rare	-13.3719
du	-13.3722
vision	-13.3723
twincities	-13.3724
▁koomtsis	-13.3725
chi	-13.3726
golden	-13.3726
fabkis	-13.3727
huabtais	-13.3727
▁sir	-13.3729
cnn	-13.373
rawv	-13.3733
ywg	-13.3735
▁71	-13.3736
dress	-13.3738
▁sins	-13.374
_______________	-13.3742
son	-13.3742
▁$3,000	-13.3742
being	-13.3744
▁hehehhe	-13.3744
▁1954	-13.3752
▁disaster	-13.3758
▁tongue	-13.3758
▁permit	-13.3758
thaiv	-13.3759
▁expectation	-13.3759
▁psychiatrist	-13.376
▁investigator	-13.376
▁headquarter	-13.3764
▁usage	-13.3765
▁quit	-13.3765
xawj	-13.3768
▁applie	-13.3771
▁russian	-13.3772
▁maml	-13.3772
▁eekiv	-13.3774
▁excercise	-13.3774
rocketmail	-13.3774
▁lansing	-13.3774
▁nyujquslaug	-13.3774
▁counseling	-13.3774
▁dying	-13.3774
▁jva	-13.3774
▁taigkis	-13.3774
▁laophuan	-13.3775
▁nreeb	-13.3775
▁convention	-13.3775
▁kuatxob	-13.3775
▁sandiego	-13.3775
▁destination	-13.3775
▁distance	-13.3775
▁eventually	-13.3775
▁(1975)	-13.3775
▁easier	-13.3775
▁existence	-13.3775
▁football	-13.3775
▁hussein	-13.3775
▁txoovtuam	-13.3775
▁prevention	-13.3775
▁xoomxaim	-13.3775
▁consideration	-13.3775
▁threatening	-13.3775
▁aaskiv	-13.3776
▁singapore	-13.3776
▁began	-13.3776
▁accomplished	-13.3776
▁nhyav	-13.3776
▁possess	-13.3777
▁throat	-13.3777
▁kunming	-13.3777
▁tsunami	-13.3777
▁pkyn	-13.3777
▁sawvntsug	-13.3777
▁specifically	-13.3777
▁pabvav	-13.3777
▁opportunist	-13.3777
▁sawvdwas	-13.3777
▁putting	-13.3778
▁mnuaj	-13.3778
▁alcohol	-13.3778
▁hickory	-13.3778
▁flood	-13.3779
▁aibnoob	-13.3779
▁mount	-13.3779
▁daaj	-13.3779
articles	-13.3779
▁interviewed	-13.378
▁bullshit	-13.378
▁beauty	-13.378
▁heavy	-13.378
▁ac	-13.3781
▁buying	-13.3783
▁lubnpe	-13.3783
▁samneua	-13.3783
▁tsimnuj	-13.3783
▁lesbian	-13.3784
▁rush	-13.3784
▁tseemnyob	-13.3785
▁hihihihihihihi	-13.3785
▁nyuabsab	-13.3785
khw	-13.3786
▁realistic	-13.3786
▁450	-13.3786
uacas	-13.3786
▁tense	-13.3787
▁metro	-13.3787
▁released	-13.3788
▁ears	-13.3788
rh	-13.3789
▁walking	-13.379
▁walleyes	-13.3791
▁tshws	-13.3791
▁moung	-13.3791
▁hahahhahaha	-13.3791
▁zwb	-13.3793
▁solved	-13.3794
outre	-13.3794
▁coglus	-13.3794
▁christains	-13.3795
▁jej	-13.3796
▁tawmtsaam	-13.3797
▁hawmntawd	-13.3797
▁vajxab	-13.3801
▁nose	-13.3802
▁chin	-13.3803
▁paig	-13.3804
▁lovers	-13.3805
▁chaol	-13.3806
▁assuming	-13.3806
mhong	-13.381
▁cws	-13.3811
▁nplhus	-13.3812
▁mivntxhais	-13.3815
▁nrus	-13.3819
▁pointed	-13.3824
▁dhuas	-13.3827
kauj	-13.3828
▁pointing	-13.3829
▁covxibfwb	-13.3829
▁betray	-13.383
▁txhee	-13.3831
ngu	-13.3832
▁dlebx	-13.3835
▁nyu	-13.3836
▁lostuas	-13.3838
▁alot	-13.3838
▁engineers	-13.384
der	-13.3841
▁chimsab	-13.3841
▁indicate	-13.3843
▁ghais	-13.3844
kpian	-13.3844
iq	-13.3844
▁1/	-13.3848
▁soom	-13.3852
=-	-13.3853
▁couples	-13.3856
▁moobntsuab	-13.3857
hp	-13.3857
run	-13.3858
▁wide	-13.3861
refered	-13.3863
▁hauvtoj	-13.3863
▁7)	-13.3865
▁tyus	-13.3868
▁tang	-13.3872
daum	-13.3873
rc	-13.3874
▁minorit	-13.3879
▁heheheheheh	-13.3882
▁salt	-13.3885
▁chercho	-13.3889
▁$30	-13.3894
▁hlias	-13.3898
tong	-13.3898
uew	-13.3902
uz	-13.3905
▁listub	-13.3907
ehmong	-13.3912
▁ideal	-13.3913
▁274	-13.3914
▁noah	-13.392
pre	-13.3925
vas	-13.3926
84	-13.3928
▁tsevkawm	-13.393
▁nyavnyua	-13.3941
nu	-13.3942
▁ntx	-13.3944
yias	-13.3946
▁"1	-13.3953
laud	-13.3953
yaig	-13.3957
48	-13.3969
khuj	-13.3971
bc	-13.3972
▁par	-13.3973
▁tin	-13.3974
qiv	-13.3975
▁bag	-13.3978
nee	-13.3978
shr	-13.3979
55,	-13.3984
▁alwm	-13.3985
pz	-13.3987
armed	-13.3987
▁nqiv	-13.3988
▁teams	-13.399
▁ibsab	-13.399
qq	-13.3998
cog	-13.4017
▁bub	-13.402
▁tshoo	-13.4024
▁thou	-13.403
▁quajx	-13.4032
▁nyi	-13.4033
▁thor	-13.4038
5%	-13.4039
xxxx	-13.4046
▁nphlu	-13.4047
term	-13.4056
▁tshees	-13.4057
▁nq	-13.4063
=20	-13.407
▁vo	-13.4071
▁vimlawv	-13.4079
dais	-13.4081
▁hlubhmong	-13.4082
▁411,	-13.4083
▁bu	-13.4084
▁zoonyob	-13.4088
ntsiv	-13.4094
tsuv	-13.4095
evidence	-13.4097
week	-13.4098
nrho	-13.4099
praya	-13.4099
▁qhuag	-13.4102
▁phle	-13.4108
online	-13.4108
water	-13.4109
down	-13.4111
according	-13.4111
heaven	-13.4111
check	-13.4111
mojthem	-13.4111
funny	-13.4111
faith	-13.4112
phabej	-13.4112
give	-13.4114
bi	-13.4118
cawm	-13.412
xyuam	-13.412
peg	-13.412
nrov	-13.4124
dang	-13.4125
txis	-13.4129
leaders	-13.4131
▁zoodua	-13.4136
▁libya	-13.4142
▁attract	-13.4142
358	-13.4145
▁production	-13.4145
▁ethic	-13.4145
▁wall	-13.4145
▁legend	-13.4146
▁umbrella	-13.4146
▁tourist	-13.4149
▁toilet	-13.4151
▁airplane	-13.4151
▁imagination	-13.4152
mother	-13.4153
▁collection	-13.4153
▁wam	-13.4156
▁accomplish	-13.4158
▁ew	-13.4158
.16035457	-13.4158
▁minesota	-13.4159
▁qujqees	-13.4159
▁osama	-13.4159
▁battery	-13.4159
▁puamchawj	-13.4159
▁$50,000	-13.4159
(763)	-13.4159
▁nqagkab	-13.4159
▁kwtij	-13.4159
▁dauslas	-13.4159
▁tchang	-13.4159
▁yangsta	-13.4159
▁motion	-13.4159
▁zebcub	-13.4159
▁insist	-13.4159
▁bliatou	-13.416
▁koohaum	-13.416
▁bamboo	-13.416
▁toyota	-13.416
▁globe	-13.416
▁nthxais	-13.416
▁consistent	-13.416
▁babies	-13.416
▁txaajmuag	-13.416
▁weather	-13.416
▁laajlim	-13.416
▁sapa	-13.416
▁kausmom	-13.416
▁phuvnyawm	-13.416
▁steve	-13.416
▁tshwjkab	-13.4161
▁presidential	-13.4161
▁madamet	-13.4161
▁paimquav	-13.4161
▁courage	-13.4161
▁possibility	-13.4161
▁illinois	-13.4161
▁electrical	-13.4161
▁ysl	-13.4162
▁sexually	-13.4162
▁prayer	-13.4162
▁----------	-13.4162
▁dadej	-13.4162
▁nujyob	-13.4163
▁entertain	-13.4163
▁manipulate	-13.4164
▁satisfied	-13.4164
▁syang	-13.4164
▁originally	-13.4164
▁txujlom	-13.4164
▁hmonglish	-13.4164
▁mercy	-13.4165
▁txawjvag	-13.4165
▁cooperation	-13.4165
▁lojleeb	-13.4165
▁beijing	-13.4165
▁tobewitty	-13.4165
▁witnesses	-13.4165
▁coleman	-13.4165
▁hmongonline	-13.4166
▁fas	-13.4166
▁noobnyoog	-13.4167
▁broadcast	-13.4168
▁phauntawv	-13.4168
▁vise	-13.4169
▁nelson	-13.4169
▁kabke	-13.417
▁passion	-13.4171
▁tswyim	-13.4171
▁simuang	-13.4172
ory	-13.4172
▁boxing	-13.4172
▁attacking	-13.4172
▁violated	-13.4173
▁guessing	-13.4174
▁46	-13.4175
▁tend	-13.4175
▁aunt	-13.4175
▁jays	-13.4176
1/	-13.4176
▁notice	-13.4177
off	-13.4177
▁=========	-13.4177
▁sample	-13.418
▁yajtshaj	-13.4181
hlawv	-13.4181
▁bbc	-13.4182
▁hundreds	-13.4183
????????????????	-13.4184
▁vets	-13.4184
kl	-13.4185
kk	-13.4185
▁plhawv	-13.4185
▁tshoov	-13.4186
▁poglaus	-13.4186
tknow	-13.4187
▁wikileaks	-13.4187
▁naikhou	-13.4188
▁maug	-13.4188
nw	-13.4188
hg	-13.4189
▁chas	-13.4191
▁niav	-13.4197
▁qaabteb	-13.42
▁sisntsib	-13.4201
▁tricks	-13.4204
bd	-13.4206
▁laotians	-13.4211
zov	-13.4211
oli	-13.4215
▁gut	-13.4216
▁nojmov	-13.4218
zl	-13.422
yk	-13.422
▁sid	-13.4222
▁blocks	-13.4223
▁qiab	-13.4224
▁41	-13.4225
▁cajces	-13.4236
congress	-13.4239
qy	-13.4243
awg	-13.4251
haam	-13.4252
▁npaumtwg	-13.4252
▁tsheg	-13.4258
oog	-13.4264
▁kx	-13.4264
1)	-13.4275
kuag	-13.428
▁warn	-13.4295
▁continues	-13.4299
qo	-13.4302
▁____	-13.4304
▁24.	-13.4307
hahhahahaha	-13.4307
▁nyiajpov	-13.431
doc	-13.4313
sav	-13.4318
▁lessons	-13.4318
▁nojhaus	-13.4323
▁xcov	-13.4338
▁tsumkiag	-13.4338
▁ruamx	-13.4338
xh	-13.4342
hb	-13.4344
tob	-13.4347
ui	-13.4349
▁covmenyuam	-13.4357
▁thajchaw	-13.4363
rr	-13.437
▁wo	-13.4372
thib	-13.4372
▁gmail	-13.4379
▁ligl	-13.4382
zc	-13.4385
▁pujmoob	-13.4391
▁nqais	-13.4395
▁exp	-13.4399
▁cave	-13.4399
ntseg	-13.4399
▁ioc	-13.4407
nyog	-13.4407
▁baumli	-13.4408
form	-13.4408
▁niajnhu	-13.441
caug	-13.4413
▁nqaib	-13.4417
fs	-13.4422
kaim	-13.4426
▁ruaqhov	-13.4434
ref	-13.4438
▁56	-13.4438
=&	-13.4442
▁jew	-13.4442
-----	-13.4445
tojsiab	-13.4452
▁qui	-13.4459
-17	-13.4464
xay	-13.4471
▁160	-13.4473
yom	-13.4482
▁mammuab	-13.4485
urir	-13.4491
point	-13.4493
colonel	-13.4493
ace	-13.4494
book	-13.4494
movie	-13.4497
tshajplaws	-13.4501
today	-13.4501
▁siam	-13.4504
song	-13.4505
yingb	-13.4509
judge	-13.4511
honey	-13.4511
pliaj	-13.4512
ntxeev	-13.4513
nplogliab	-13.4514
phak	-13.4515
▁hill	-13.4522
▁crack	-13.4526
nyoos	-13.4527
khab	-13.4527
zone	-13.4529
▁ton	-13.4531
vh	-13.4531
nkawm	-13.4533
▁nrio	-13.4541
!!!"	-13.4541
▁credential	-13.4542
▁foodstamp	-13.4543
▁dozen	-13.4545
▁amendment	-13.4545
▁1965	-13.4546
▁tunnel	-13.4548
▁ambition	-13.4548
▁acre	-13.4548
▁scope	-13.4549
hiav	-13.4552
▁bong	-13.4554
sawm	-13.4556
▁(((	-13.4558
▁moobvaaj	-13.4558
▁traffic	-13.4558
3610;	-13.4559
photostream	-13.4559
▁guitar	-13.4559
▁pouvez	-13.4559
▁scenario	-13.4559
▁volontaire	-13.4559
▁langxang	-13.4559
▁yoglentawd	-13.4559
▁discount	-13.4559
▁lengsavat	-13.4559
▁management	-13.4559
▁clothes	-13.4559
▁whitebass	-13.4559
▁meaningful	-13.4559
▁mooblajleeb	-13.4559
▁hujsim	-13.4559
▁1946	-13.456
▁approval	-13.456
▁safty	-13.456
▁confusion	-13.456
▁kuameiab	-13.456
▁deeper	-13.456
▁pobntoolaus	-13.456
▁mungkey	-13.456
▁$20,000.00	-13.456
▁stopped	-13.456
▁supplies	-13.456
▁smarter	-13.456
▁tsachijdawb	-13.456
▁pusliv	-13.456
▁1:00	-13.456
▁peejxeem	-13.4561
▁$20.00	-13.4561
▁30-50	-13.4561
▁strange	-13.4561
▁linguistic	-13.4561
▁txomfav	-13.4561
▁sincere	-13.4561
▁button	-13.4561
▁underwear	-13.4562
▁morganton	-13.4562
▁biology	-13.4562
▁2:00	-13.4562
▁cobkheem	-13.4562
▁anytime	-13.4562
▁51%	-13.4562
▁suffered	-13.4562
▁yofg	-13.4562
▁pronounce	-13.4563
▁vaajmev	-13.4563
▁foreplay	-13.4563
▁bouager	-13.4564
▁krub	-13.4564
▁cheating	-13.4564
▁held	-13.4564
▁obviously	-13.4564
▁presented	-13.4565
▁:-)	-13.4565
▁donkey	-13.4565
▁lfi	-13.4565
▁weird	-13.4565
▁guizhou	-13.4565
▁observed	-13.4566
▁ntlav	-13.4567
▁muah	-13.4567
▁memiab	-13.4567
▁heut	-13.4568
▁xauvmas	-13.4568
▁chijdawb	-13.4568
▁bite	-13.4568
▁hollywood	-13.4569
▁contributed	-13.4569
▁xuviaj	-13.457
▁appears	-13.457
▁enjoyed	-13.4571
▁divided	-13.4572
▁adopted	-13.4573
▁------	-13.4573
▁juag	-13.4573
▁vajkhaum	-13.4574
▁tight	-13.4574
▁ntsuv	-13.4574
▁accusations	-13.4575
▁cheers	-13.4575
▁allies	-13.4575
▁kwvnpawg	-13.4577
▁assumed	-13.4578
rg	-13.458
achanh	-13.4581
▁limtiam	-13.4581
▁nyhavsiab	-13.4582
▁qibsiab	-13.4583
▁pole	-13.4584
▁numtswv	-13.4586
▁licence	-13.4587
▁suavtuam	-13.4588
▁25%	-13.459
▁wood	-13.4591
▁vajtsab	-13.4591
▁dragon	-13.4593
▁jus	-13.4593
▁tyk	-13.4594
gay	-13.4594
▁usaid	-13.4595
▁actual	-13.4595
kpg	-13.4599
▁keeping	-13.46
▁priests	-13.4604
▁tejlub	-13.4605
▁pieces	-13.4606
▁ncoqab	-13.4606
▁supported	-13.4607
▁kaib	-13.4607
▁kuc	-13.4609
▁generate	-13.4609
▁ser	-13.461
▁ntshavsiab	-13.4611
▁responses	-13.4612
▁tpm	-13.4612
tp	-13.4612
lly	-13.4612
▁dawbliab	-13.4613
west	-13.4616
▁tsaim	-13.4618
▁hush	-13.462
▁501	-13.4631
▁indonesia	-13.4634
nto	-13.4637
▁plhi	-13.4637
▁pobtws	-13.4637
▁hlaav	-13.4638
xas	-13.4639
▁lying	-13.464
uec	-13.4643
▁saumntuj	-13.4643
▁ntxoos	-13.4646
vong	-13.4646
▁ntshee	-13.4648
▁includes	-13.465
▁dabneeb	-13.4652
▁xyau	-13.4653
▁solo	-13.4663
▁drpao	-13.4663
▁prey	-13.4667
ht	-13.4668
loslawm	-13.4669
▁serves	-13.467
▁tsheem	-13.4671
▁guns	-13.4671
▁99.99	-13.4676
kuas	-13.4678
▁phoojyw	-13.4684
▁spray	-13.4687
▁restaurants	-13.4687
!!!!!!!!!!	-13.4692
dabtsi	-13.4694
▁dies	-13.4709
▁deer	-13.4716
antizab	-13.472
▁sak	-13.4721
▁2003,	-13.4726
bu	-13.473
▁missions	-13.4734
▁lhe	-13.4735
▁soft	-13.4741
tsho	-13.4743
nv	-13.4757
▁prof	-13.4761
▁ngai	-13.4764
kus	-13.4774
ntxais	-13.4775
▁bucks	-13.4782
▁faces	-13.4782
tsiab	-13.4785
dlua	-13.4785
▁navy	-13.4789
qis	-13.479
ping	-13.4794
nais	-13.4799
▁rat	-13.48
ucj	-13.4803
ix	-13.481
57	-13.4811
yaub	-13.4813
▁wonderful	-13.4814
▁lubsuab	-13.4815
▁txojlug	-13.4817
ntes	-13.4817
ile	-13.482
▁ntha	-13.4821
▁mlee	-13.4823
▁sees	-13.4824
dim	-13.4833
fk	-13.4837
tum	-13.4841
▁load	-13.4843
xuv	-13.4846
▁scripture	-13.4847
translated	-13.4848
▁ship	-13.4849
full	-13.4851
hc	-13.4863
vec	-13.4864
▁constitutional	-13.4865
bn	-13.4868
rp	-13.487
8-9	-13.4877
▁rue	-13.4879
here	-13.489
nz	-13.489
▁========	-13.4892
▁aubyau	-13.4894
▁dlabtsi	-13.4899
auj	-13.4903
▁feng	-13.4903
▁mentxhais	-13.4903
▁hihihihihi	-13.4904
style	-13.4909
gp	-13.4909
college	-13.491
force	-13.4913
wrong	-13.4913
hk	-13.4916
yexus	-13.4917
practice	-13.4927
-40	-13.4927
qaij	-13.4927
▁ntejlawm	-13.4927
txhim	-13.4928
worship	-13.4928
catholic	-13.4928
tamtseeb	-13.4928
food	-13.4928
kaoly	-13.4928
july	-13.4929
▁pres	-13.4929
young	-13.4932
▁bak	-13.4933
party	-13.4933
help	-13.4935
▁nste	-13.4939
ign	-13.4941
▁zip	-13.4941
hihihi	-13.4943
▁cajtw	-13.4945
▁suri	-13.495
qua	-13.4957
▁testament	-13.4957
▁corporation	-13.4961
▁defendant	-13.4961
▁compatriot	-13.4961
▁object	-13.4961
????????	-13.4961
hem	-13.4962
▁neu	-13.4962
▁preacher	-13.4962
nraab	-13.4964
▁doctrine	-13.4964
▁client	-13.4965
▁bull	-13.497
▁hnyoo	-13.4971
ning	-13.4972
▁writer	-13.4972
ehors	-13.4973
luib	-13.4974
displayimage	-13.4975
▁dancing	-13.4975
▁melbourne	-13.4975
▁resume	-13.4975
▁sociaty	-13.4975
▁hillary	-13.4975
▁orlean	-13.4975
▁jujplig	-13.4975
▁disney	-13.4975
▁compassion	-13.4975
▁frustration	-13.4975
▁xaykao	-13.4975
▁puzzle	-13.4975
▁khamchong	-13.4975
▁tubcaghmoob	-13.4975
▁argentina	-13.4975
▁disorder	-13.4975
▁motive	-13.4975
▁xasloos	-13.4975
▁kauslausnees	-13.4975
▁phavkheb	-13.4976
▁$100,000.00	-13.4976
rlogo	-13.4976
▁dauvtawm	-13.4976
▁aimway	-13.4976
▁khaubzig	-13.4976
▁loobtswb	-13.4976
▁concentrate	-13.4976
▁garbage	-13.4976
▁meneejxaustas	-13.4976
▁ttmh	-13.4976
▁elevation	-13.4976
▁bottle	-13.4976
▁nntp	-13.4976
andpub	-13.4976
▁disability	-13.4976
▁txoojkuam	-13.4976
▁meslikas	-13.4977
▁nyajtxag	-13.4977
▁caavpem	-13.4977
▁1000%	-13.4977
▁granted	-13.4977
▁yep	-13.4977
▁pakao	-13.4978
ger	-13.4978
▁nonsense	-13.4978
▁xeevkhuam	-13.4978
▁eeskiv	-13.4978
▁sugar	-13.4978
▁puastsuaj	-13.4979
▁businessman	-13.4979
▁pity	-13.4979
▁horny	-13.4979
▁nkaujfaa	-13.4979
▁correctly	-13.498
▁tshaabxu	-13.498
▁basis	-13.498
▁artist	-13.498
▁prisoners	-13.498
▁possibly	-13.498
▁distant	-13.498
▁accordingly	-13.4981
▁muong	-13.4981
▁complicated	-13.4981
▁7:00	-13.4981
▁reserved	-13.4981
▁congressman	-13.4982
▁shamanism	-13.4982
▁kislas	-13.4983
lay	-13.4983
▁twmtswb	-13.4983
▁visiting	-13.4983
▁morality	-13.4983
▁hmuag	-13.4983
▁gpa	-13.4984
▁jars	-13.4984
▁hluavtaws	-13.4984
▁zoovzuag	-13.4984
▁ngeun	-13.4984
▁samxeeb	-13.4984
▁denomination	-13.4984
▁specially	-13.4985
▁foreigners	-13.4985
▁attacked	-13.4986
▁fajlem	-13.4986
▁txoojtub	-13.4986
▁seeking	-13.4987
▁pejthuam	-13.4987
▁worthy	-13.4987
▁passing	-13.4988
▁tawgrog	-13.4989
▁crown	-13.499
▁maumdev	-13.4991
▁ntsiob	-13.4991
=0&	-13.4992
▁honesty	-13.4993
▁ntsuaj	-13.4993
▁mosmos	-13.4994
▁blank	-13.4994
▁kbif	-13.4995
▁qubqaab	-13.4995
pus	-13.4996
▁3,000	-13.4997
▁qhaws	-13.4998
▁rws	-13.4998
behmoob	-13.4998
▁paying	-13.4998
▁dawbliaj	-13.4999
▁kluv	-13.5
▁chuan	-13.5001
▁thaa	-13.5003
▁tubcaj	-13.5003
▁khuaib	-13.5004
▁kasmoo	-13.5005
▁lwmleej	-13.5006
▁zoole	-13.5008
▁languages	-13.5009
▁leejtub	-13.501
▁guests	-13.5011
▁bao	-13.5012
▁pluab	-13.5012
▁sibtxuas	-13.5013
▁cabinet	-13.5013
▁muscle	-13.5018
▁deed	-13.5018
lca	-13.5019
tube	-13.5023
▁tiger	-13.5024
▁belongs	-13.5024
▁ending	-13.503
▁110	-13.503
▁counts	-13.5036
▁ntxhis	-13.5039
stone	-13.504
▁zaa	-13.5041
ooj	-13.5041
▁2006.	-13.5046
71	-13.5048
gst	-13.5053
72	-13.5058
▁meskasteb	-13.5061
83	-13.5064
▁balls	-13.5065
xwv	-13.5067
png	-13.5069
hawv	-13.5072
▁nah	-13.5073
▁poem	-13.5074
lice	-13.5079
▁npluaj	-13.5096
▁australian	-13.5097
fd	-13.51
▁iblo	-13.5103
▁koomtshaa	-13.5109
▁eu	-13.5114
...1	-13.5116
▁results	-13.5121
hang	-13.5122
win	-13.5123
▁sole	-13.5125
br	-13.5125
▁bow	-13.5125
▁95	-13.5126
▁uatxhaum	-13.5128
das	-13.5132
▁format	-13.5135
▁nhiaj	-13.5135
▁dlaus	-13.5147
ntsia	-13.5147
ological	-13.5148
rag	-13.5153
dqo	-13.5157
caam	-13.5162
bp	-13.5165
than	-13.5165
txhaum	-13.5165
kan	-13.517
maam	-13.5171
▁youtub	-13.5174
▁pal	-13.518
lwg	-13.5181
▁1800	-13.5184
dis	-13.5186
ploj	-13.519
▁$8	-13.5192
▁situations	-13.5192
eve	-13.5193
van	-13.5199
nj	-13.5202
khaub	-13.5211
▁hmoon	-13.5212
hihihihihihihihi	-13.5218
body	-13.5225
zq	-13.5226
▁ride	-13.5231
▁cham	-13.5231
tre	-13.5233
wq	-13.5243
nawm	-13.5249
▁funerals	-13.5254
▁lols	-13.5257
▁scan	-13.5258
part	-13.5261
▁plea	-13.5262
zu	-13.5267
▁ber	-13.527
tod	-13.527
sky	-13.527
26	-13.5276
▁lixwm	-13.5284
87	-13.5285
nation	-13.529
oun	-13.5293
lmi	-13.53
▁npla	-13.53
▁bait	-13.53
licas	-13.5313
▁systems	-13.5316
▁thaun	-13.5319
lev	-13.5321
▁chis	-13.5322
uw	-13.5323
/9	-13.5327
han	-13.5332
▁cialawv	-13.5332
zps	-13.5335
america	-13.5345
nyuaj	-13.5345
computer	-13.5345
▁ve	-13.5346
ethnic	-13.5346
bird	-13.5346
swm	-13.5354
rhuav	-13.5355
aise	-13.5355
ncua	-13.5357
zaag	-13.5361
▁bno	-13.5361
target	-13.5362
field	-13.5362
central	-13.5363
leadership	-13.5363
txhij	-13.5363
next	-13.5363
share	-13.5363
middle	-13.5363
tshev	-13.5364
zuaj	-13.5364
▁likes	-13.5364
teen	-13.5365
sibtham	-13.5366
mung	-13.5368
▁cultures	-13.537
yaiv	-13.5372
major	-13.5373
▁xubke	-13.5373
tws	-13.5379
nceb	-13.5381
khees	-13.5382
qhuab	-13.5385
lostsuas	-13.5388
gbm	-13.5391
▁wan	-13.5394
▁bio	-13.5394
noun	-13.5395
zais	-13.5397
▁increase	-13.5397
▁shock	-13.5398
▁separatist	-13.5399
-94	-13.5404
▁millionair	-13.5408
▁annual	-13.5409
txhaj	-13.541
▁lengsavad	-13.541
▁rnog	-13.541
▁exciting	-13.541
▁longtien	-13.541
▁kazoua	-13.541
▁phraya	-13.541
▁phetchabun	-13.541
▁yathotou	-13.541
▁dispute	-13.541
▁kevinlee	-13.541
▁toufue	-13.541
▁ownership	-13.541
▁$5.00	-13.541
▁$5,000.00	-13.541
▁motor	-13.5411
▁glue	-13.5411
▁txwvtxoob	-13.5411
▁cheese	-13.5411
▁commandments	-13.5411
▁performance	-13.5411
▁boundary	-13.5411
▁assassination	-13.5411
▁aussie	-13.5411
▁congressmen	-13.5411
▁jackson	-13.5411
▁secondary	-13.5411
▁stronger	-13.5412
▁shadow	-13.5412
▁saigon	-13.5412
▁guilt	-13.5412
▁ncejpuab	-13.5412
▁feemcuam	-13.5412
vote	-13.5414
▁shong	-13.5414
den	-13.5414
▁sisouk	-13.5414
▁arab	-13.5414
▁xibteg	-13.5414
▁yawmtxajdlis	-13.5414
▁yangsao	-13.5415
▁cjm	-13.5415
▁qawj	-13.5415
▁mirror	-13.5415
▁taubtawj	-13.5415
▁qawm	-13.5415
▁copies	-13.5416
▁unka	-13.5416
▁rhib	-13.5416
▁lhawv	-13.5416
▁crystal	-13.5416
▁ntxus	-13.5416
▁ghev	-13.5417
▁dlawj	-13.5417
▁colleagues	-13.5417
▁returned	-13.5417
▁limitation	-13.5418
▁phra	-13.5418
▁jes	-13.5418
▁fillet	-13.5418
▁nrij	-13.5419
▁developed	-13.5419
▁mongolia	-13.5419
▁vwb	-13.542
▁legitimacy	-13.542
▁ntshiag	-13.542
▁winning	-13.542
▁npautawg	-13.542
▁ualecaag	-13.5421
▁calculate	-13.5421
▁tsimtsawv	-13.5421
▁encounter	-13.5421
nli	-13.5421
▁vajvovvajpamusa	-13.5422
▁yeejtsiskoob	-13.5422
▁literally	-13.5422
▁buk	-13.5422
▁elements	-13.5423
▁dawbhuv	-13.5423
▁divorced	-13.5423
▁dovtaws	-13.5423
▁poobplig	-13.5424
64	-13.5424
ple	-13.5424
▁four	-13.5424
hey	-13.5424
▁1978.	-13.5425
▁zajtshoob	-13.5425
▁eating	-13.5426
▁muastxwv	-13.5428
▁invisible	-13.5428
▁stocks	-13.5431
▁abused	-13.5431
▁truam	-13.5433
▁magnum	-13.5434
▁pussy	-13.5435
▁arena	-13.5435
▁tubsaab	-13.5436
▁hoping	-13.5436
▁niamno	-13.5437
▁:(	-13.5439
▁fed	-13.5439
▁laswm	-13.5442
▁continued	-13.5443
saw	-13.5443
▁farmers	-13.5443
▁mary	-13.5444
▁associates	-13.5444
▁2-4	-13.5445
chue	-13.5446
▁zws	-13.5446
▁boot	-13.5448
▁taught	-13.5449
▁nkuas	-13.545
kj	-13.5451
▁testaw	-13.5454
oos	-13.5454
▁clips	-13.5455
▁teen	-13.5456
▁kilo	-13.5465
▁roots	-13.5469
▁jkom	-13.547
▁ulia	-13.5475
toog	-13.5478
▁plays	-13.548
cwa	-13.5481
keej	-13.5482
kib	-13.5488
▁cap	-13.5491
▁leung	-13.5493
▁phana	-13.5496
▁fits	-13.5496
dents	-13.5496
▁xue	-13.5498
ntu	-13.5499
▁thumb	-13.5504
lk	-13.5505
▁qubx	-13.5506
xv	-13.5506
poog	-13.5506
▁hurts	-13.5508
roj	-13.5509
▁shed	-13.5515
-12	-13.5515
ton	-13.5515
▁isan	-13.5515
aid	-13.5516
dj	-13.5519
mav	-13.5519
▁96	-13.552
was	-13.5525
▁nkaujxwb	-13.5527
▁immune	-13.5527
▁lubtswvyim	-13.5532
▁purposes	-13.5532
nojtsiab	-13.5534
▁coov	-13.5537
dov	-13.5539
▁att	-13.5541
▁64	-13.5543
tsaab	-13.5544
▁teebmee	-13.5544
▁79	-13.5545
tention	-13.5555
txiav	-13.5556
▁7-	-13.5557
▁txivlawv	-13.5557
▁ntl	-13.556
▁leads	-13.5565
ara	-13.5566
▁ncuag	-13.5568
vz	-13.5568
yeeg	-13.5574
▁niamhluas	-13.5577
▁hmoobntsuab	-13.5586
▁plate	-13.5594
▁phubia	-13.56
▁?????	-13.5609
▁folk	-13.5615
▁nrhee	-13.5624
▁realm	-13.5625
hoob	-13.5626
▁cong	-13.5627
nyuas	-13.5628
ruamtuatsov	-13.563
ntsi	-13.5632
▁hnubtwg	-13.564
▁beu	-13.564
gf	-13.5642
rub	-13.5644
▁abthi	-13.5646
cdov	-13.565
▁dj	-13.5652
▁ot	-13.5654
▁1.5	-13.5659
nes	-13.566
ture	-13.5664
ik	-13.5667
many	-13.5671
▁190	-13.5681
▁totau	-13.5691
▁tra	-13.5691
eth	-13.5695
nkaagsab	-13.5699
members	-13.5701
364	-13.5701
zsb	-13.5707
khej	-13.571
past	-13.5716
low	-13.5719
pav	-13.572
▁nthsa	-13.5724
▁gao	-13.5728
fb	-13.5731
▁tour	-13.5731
▁93	-13.5733
▁sapha	-13.5736
kwj	-13.5741
top	-13.5743
que	-13.5744
▁presidents	-13.5749
pauj	-13.575
phij	-13.5753
ntej	-13.5755
lf	-13.5756
thus	-13.5759
txhom	-13.5769
49	-13.5779
▁nye	-13.578
▁ntxheeb	-13.5781
▁vee	-13.5788
proof	-13.5792
miskas	-13.5796
gdg	-13.5796
▁fran	-13.5797
puam	-13.5801
father	-13.5802
month	-13.5803
terrorist	-13.5803
lity	-13.5804
▁82	-13.581
debate	-13.5811
▁gh	-13.5812
▁tavtoj	-13.5813
caubfab	-13.5814
▁grandma	-13.5814
chiyou	-13.5816
university	-13.5817
loog	-13.5817
serving	-13.5817
unknown	-13.5817
whatever	-13.5818
without	-13.5818
txivneejyawg	-13.5818
nyaab	-13.5827
▁laosk	-13.583
▁pheb	-13.5832
▁appear	-13.5835
tusiab	-13.5836
▁5555	-13.5837
deja	-13.5838
▁harrass	-13.5839
▁til	-13.584
txam	-13.5842
96	-13.5843
xum	-13.5846
either	-13.5851
▁negotiation	-13.5852
▁dice	-13.5852
▁syllable	-13.5855
▁lotto	-13.5857
▁foods	-13.5858
▁regulation	-13.5858
hv	-13.586
▁tuition	-13.5861
▁phonsavan	-13.5862
▁necessar	-13.5863
▁sanya	-13.5864
▁evolve	-13.5864
▁abusive	-13.5865
▁administrator	-13.5865
▁desecration	-13.5865
▁missouri	-13.5865
▁sayasone	-13.5865
▁missionaries	-13.5865
▁thirst	-13.5865
▁sananikone	-13.5865
▁metrodome	-13.5865
▁bouasone	-13.5865
▁keyboard	-13.5865
▁comviab	-13.5865
▁taugrigntev	-13.5865
kuab	-13.5865
▁centuries	-13.5865
▁siphandone	-13.5865
▁justify	-13.5865
▁vichay	-13.5865
▁custom	-13.5865
▁treasurer	-13.5865
▁ncojoov	-13.5865
▁1971-72	-13.5866
▁8:00	-13.5866
▁unify	-13.5866
▁dlovtawm	-13.5866
▁defeat	-13.5866
▁scientifically	-13.5866
▁studio	-13.5866
▁vongsavang	-13.5866
▁sayavong	-13.5866
▁anthem	-13.5866
▁menyuammus	-13.5867
▁inclusive	-13.5867
▁borrow	-13.5867
▁harsh	-13.5867
▁hwy	-13.5867
▁pobcaus	-13.5867
adieu	-13.5867
▁usdos	-13.5868
▁healing	-13.5868
▁acknowledge	-13.5868
▁conservative	-13.5868
▁sympathy	-13.5868
▁rapist	-13.5868
▁consultant	-13.5868
▁capitalism	-13.5868
▁promotion	-13.5868
▁latter	-13.5868
▁photong	-13.5868
▁mouasao	-13.5869
▁hubby	-13.5869
▁chuchu	-13.5869
▁esan	-13.5869
▁designed	-13.5869
▁npig	-13.5869
▁lawjxeeb	-13.587
▁rtug	-13.587
▁slowly	-13.587
▁sovereignty	-13.587
▁hobby	-13.587
▁nyopb	-13.5871
▁added	-13.5871
▁npi	-13.5871
▁7000	-13.5871
▁normally	-13.5872
▁lottery	-13.5872
▁kansas	-13.5872
▁nkeej	-13.5873
▁edge	-13.5873
▁freeman	-13.5873
▁zomlis	-13.5874
▁toupao	-13.5874
▁mevkas	-13.5874
▁mandarin	-13.5875
▁knock	-13.5877
▁slang	-13.5877
-130	-13.5878
▁individually	-13.5878
▁bullets	-13.5878
▁meemtxom	-13.5878
▁morris	-13.5879
▁watching	-13.5879
▁falling	-13.5879
▁realized	-13.5879
▁kubtwm	-13.5882
▁informed	-13.5882
▁naskos	-13.5882
▁nplias	-13.5882
▁nploojnts	-13.5883
▁menyaum	-13.5884
▁timothy	-13.5884
▁bright	-13.5884
▁racism	-13.5885
▁mooscab	-13.5885
▁fabkisteb	-13.5885
▁pujkoob	-13.5885
▁neejyag	-13.5885
▁nkuab	-13.5886
▁opening	-13.5886
▁sibfaib	-13.5887
▁dating	-13.5888
▁npuv	-13.5888
▁wolf	-13.5888
▁pockets	-13.589
▁faum	-13.5891
▁lops	-13.5891
▁$250	-13.5892
tr	-13.5892
▁ghmoob	-13.5894
▁deduct	-13.5894
▁5-	-13.5897
▁phawg	-13.5897
▁charged	-13.5898
▁begins	-13.5898
▁sung	-13.5899
▁sibcog	-13.5899
▁jev	-13.5899
▁claiming	-13.5901
▁ntujtshiab	-13.5902
▁tibet	-13.5902
▁neighbors	-13.5902
▁dauj	-13.5903
▁lubntiajteb	-13.5904
▁6,26	-13.5904
vos	-13.5907
▁havdej	-13.5907
▁testing	-13.5907
▁sibtxhawb	-13.5908
▁speakers	-13.5909
▁360	-13.5909
▁forest	-13.591
dee	-13.5911
▁boil	-13.5911
▁overthrow	-13.5911
▁325	-13.5912
▁lugtxaj	-13.5912
▁threats	-13.5914
▁remark	-13.592
▁txiam	-13.5923
▁dlaug	-13.5924
▁rim	-13.5924
▁rib	-13.5926
▁hahhahah	-13.593
chou	-13.5931
▁gho	-13.5935
▁boys	-13.5937
▁cuba	-13.5937
uneducated	-13.5938
▁6-8	-13.5938
sc	-13.5939
mim	-13.5942
radom	-13.5944
▁blablabla	-13.5946
▁tublwj	-13.5946
thas	-13.5948
misc	-13.5952
▁555	-13.5954
▁beg	-13.5957
▁fresh	-13.5961
▁qusx	-13.5963
▁spirits	-13.5963
▁nkausx	-13.5967
800	-13.597
▁races	-13.5971
fq	-13.5972
aag	-13.5978
▁sablaug	-13.5979
2004	-13.5988
▁opeb	-13.5988
▁kuataw	-13.5993
cum	-13.5995
yy	-13.6001
▁nst	-13.601
▁umm	-13.6023
mf	-13.6023
▁rhwb	-13.6027
▁sabtes	-13.6031
ih	-13.6032
pias	-13.6037
▁nplhi	-13.6037
try	-13.6042
wl	-13.6046
khub	-13.6049
▁losxij	-13.605
!!..	-13.6051
▁txhus	-13.6053
46	-13.6055
▁dick	-13.606
▁txaisyuav	-13.6065
poor	-13.607
▁mien	-13.6071
▁phai	-13.6075
kem	-13.6075
▁sishlub	-13.6076
!!!!!!!!!!!!	-13.6078
▁saii	-13.6078
▁tall	-13.608
▁lubsij	-13.6087
lz	-13.6091
98	-13.6092
night	-13.6095
seng	-13.61
mask	-13.6106
fucking	-13.6107
▁coast	-13.6108
▁mini	-13.6109
▁pumzoo	-13.6119
iob	-13.6126
▁ibhli	-13.6127
291	-13.6128
..(	-13.6133
▁abtsis	-13.6134
hmmmm	-13.614
▁73	-13.6147
dm	-13.6152
▁lubbe	-13.6153
ahn	-13.6157
work	-13.6158
▁calls	-13.616
kheej	-13.6162
▁bib	-13.6169
▁qabno	-13.6171
▁pebhmoobr	-13.6171
muj	-13.6172
/30	-13.6173
▁xos	-13.6174
▁bitch	-13.6176
▁dp	-13.6176
yooj	-13.618
khuv	-13.6183
▁ntooj	-13.6185
14-16	-13.6192
▁urge	-13.6192
▁joy	-13.6198
0000	-13.6202
greater	-13.6205
bl	-13.6206
tsob	-13.6206
▁bullet	-13.6207
▁blam	-13.6211
▁suavdlaw	-13.6212
naus	-13.6224
▁vaas	-13.6232
▁nkhau	-13.6241
▁75,	-13.6248
sion	-13.6252
taam	-13.6255
▁cemx	-13.6257
▁2011.	-13.6257
▁100$	-13.6267
profile	-13.6268
▁55555	-13.6273
yoojyim	-13.6276
source	-13.6278
lawyer	-13.6279
▁luvb	-13.6279
belief	-13.628
both	-13.628
single	-13.6282
nyag	-13.6285
tradition	-13.6285
▁ntshuag	-13.6287
▁xaavzoo	-13.6287
houei	-13.629
clean	-13.6291
grade	-13.6292
yellow	-13.6292
writing	-13.6293
positive	-13.6294
website	-13.6294
ntxuav	-13.6294
thornsp	-13.6294
quaspuj	-13.6294
kwvtxhiaj	-13.6294
chance	-13.6295
retired	-13.6295
tibneeg	-13.6296
sexy	-13.6297
sexual	-13.6298
▁gig	-13.6299
phub	-13.6299
▁khan	-13.6301
male	-13.6302
cl	-13.6302
▁tejntawd	-13.6303
intellectuals	-13.6305
▁qhovtsua	-13.6306
ntsev	-13.6308
stop	-13.631
path	-13.6317
▁fri	-13.6322
??????????	-13.6322
▁thx	-13.6326
▁hebrew	-13.6326
▁infection	-13.6327
▁objective	-13.6327
lmj	-13.6327
▁element	-13.6328
ywm	-13.6329
▁develope	-13.633
▁stranger	-13.633
▁zioo	-13.6335
▁dirt	-13.6335
▁breath	-13.6337
▁decease	-13.6338
▁disappoint	-13.6338
▁vientian	-13.6339
▁hlao	-13.6339
▁complicate	-13.6339
▁grass	-13.6339
▁outsider	-13.634
▁12-14	-13.6341
wqbwbswg	-13.6341
▁algebra	-13.6341
▁capacity	-13.6341
▁jordan	-13.6341
▁yialiher	-13.6341
▁picnic	-13.6341
▁defensive	-13.6341
▁italy	-13.6341
▁syracuse	-13.6341
▁bzness	-13.6341
▁mysteriousking	-13.6341
▁naokao	-13.6341
▁$1,200	-13.6341
▁dropped	-13.6341
apps	-13.6341
▁tubbis	-13.6341
▁rental	-13.6341
▁lijxwm	-13.6341
▁planned	-13.6341
▁70-80	-13.6341
▁immediately	-13.6342
▁somebody	-13.6342
▁thoojtxhij	-13.6342
▁extremely	-13.6342
▁documentation	-13.6342
▁cemetery	-13.6342
▁knife	-13.6342
▁zealand	-13.6342
▁cobphum	-13.6342
▁xamana	-13.6342
▁hire	-13.6342
▁nakhang	-13.6342
▁60,000	-13.6342
▁saablaaj	-13.6342
youtu	-13.6343
▁cherry	-13.6343
▁$10.00	-13.6343
▁antony	-13.6343
▁imply	-13.6343
▁kxf	-13.6343
▁djk	-13.6344
▁deeply	-13.6344
▁qaibqus	-13.6344
▁thernsp	-13.6344
▁phwvnyam	-13.6344
▁tshaajlij	-13.6344
▁laptop	-13.6344
▁polygamy	-13.6344
▁trivia	-13.6344
▁conscience	-13.6344
▁jeep	-13.6345
▁improvement	-13.6345
▁havnyom	-13.6345
▁lacross	-13.6345
▁virginia	-13.6345
▁khuasab	-13.6345
▁wty	-13.6345
▁brutal	-13.6345
▁minyuag	-13.6345
▁farts	-13.6346
▁yof	-13.6346
▁naikoo	-13.6346
▁seminary	-13.6346
▁growth	-13.6346
▁silence	-13.6347
▁fantasize	-13.6347
▁frame	-13.6347
▁kheuang	-13.6347
▁htiab	-13.6347
▁kheevlam	-13.6348
▁supposed	-13.6348
▁grown	-13.6348
fo	-13.6348
▁removed	-13.6348
▁lutheran	-13.6348
▁noogdlev	-13.6348
▁penh	-13.6349
▁conquer	-13.6349
▁99.9%	-13.6349
▁lfss	-13.6349
▁vaab	-13.6349
▁existed	-13.635
▁listening	-13.635
▁$1,000.00	-13.635
▁journalists	-13.6351
▁becoming	-13.6351
▁1930	-13.6351
▁gesture	-13.6351
▁mintsis	-13.6352
▁kaslas	-13.6352
▁tebleb	-13.6352
▁scheduled	-13.6353
▁stupidity	-13.6353
▁latest	-13.6354
▁opium	-13.6354
▁fliend	-13.6355
▁povhwm	-13.6355
▁lajfab	-13.6355
zis	-13.6355
▁ancestors	-13.6355
▁vuam	-13.6356
79	-13.6357
▁believers	-13.6358
▁neck	-13.6358
▁54	-13.6359
▁ntshoob	-13.6359
▁phuj	-13.6359
▁advanced	-13.636
▁roov	-13.636
▁unit	-13.636
▁kuamemab	-13.6361
▁fashion	-13.6361
▁historians	-13.6361
▁xeevlaus	-13.6362
▁beating	-13.6362
▁fox	-13.6363
▁opponents	-13.6365
kv	-13.6366
▁esxias	-13.6367
sioc	-13.6368
▁hauvpeg	-13.6369
▁quavyeeb	-13.637
▁sabxis	-13.6371
▁phemx	-13.6375
▁kinda	-13.6376
▁kwstshuaj	-13.6376
▁koomtshaj	-13.6376
▁=============	-13.6377
▁abyaj	-13.6377
▁huge	-13.638
▁promoted	-13.638
zg	-13.638
▁directions	-13.6381
▁jiab	-13.6383
▁alphabets	-13.6384
▁determination	-13.6385
▁nyiajlooj	-13.6385
▁txivqeej	-13.6385
▁ntsooj	-13.6386
▁nqu	-13.6386
▁haibx	-13.6386
tlx	-13.6386
▁ntxob	-13.6386
lik	-13.6386
▁nyes	-13.6388
▁sautoj	-13.6388
ywls	-13.6389
jt	-13.639
▁hawjlwm	-13.6392
▁mountains	-13.6392
▁txawjtsoob	-13.6393
▁kuvniam	-13.6394
▁zz	-13.6396
air	-13.6398
xus	-13.6398
▁qualifications	-13.64
▁tshwb	-13.64
▁weekends	-13.6402
▁figures	-13.6403
▁critics	-13.6403
▁qhis	-13.6404
▁suggestions	-13.6405
[...]
