[UNK]	0
<s>	0
</s>	0
[CLS]	0
[SEP]	0
[MASK]	0
.	-3.32461
,	-3.60305
▁yog	-3.96941
▁li	-4.12505
▁ua	-4.20608
▁los	-4.29469
▁kuv	-4.32577
▁koj	-4.35564
▁no	-4.35593
▁tsis	-4.36963
▁yuav	-4.39979
▁tau	-4.4163
▁cov	-4.44338
▁lawm	-4.516
▁thiab	-4.55092
▁muaj	-4.62245
▁hais	-4.63775
▁rau	-4.67978
▁ces	-4.71047
▁xwb	-4.71615
▁tus	-4.71942
▁hmoob	-4.71988
▁mus	-4.7611
▁ib	-4.76429
▁peb	-4.81539
▁lub	-4.83273
▁mas	-4.84702
▁nws	-5.03219
▁tias	-5.03392
▁zoo	-5.06528
▁yeej	-5.10604
▁lawv	-5.15188
▁tsi	-5.19914
▁kev	-5.20507
▁nyob	-5.21724
▁qhov	-5.28233
▁neeg	-5.3316
▁kom	-5.34309
▁tuaj	-5.40943
▁tej	-5.43018
▁paub	-5.46991
▁tug	-5.48814
▁es	-5.52141
▁tseem	-5.52289
▁ntawd	-5.57177
▁xav	-5.57687
▁twb	-5.57868
▁muab	-5.58735
?	-5.62631
▁	-5.62889
▁thiaj	-5.63332
...	-5.63851
▁txog	-5.67247
▁nej	-5.6771
▁thaum	-5.71495
▁twg	-5.71676
▁yus	-5.77327
▁cas	-5.80124
▁lus	-5.80149
▁siab	-5.83188
▁uas	-5.85466
▁pab	-5.86865
▁luag	-5.86975
▁teb	-5.88095
▁le	-5.88171
▁sib	-5.89854
▁vim	-5.96895
▁hauv	-6.00742
▁coj	-6.02606
▁tas	-6.03433
▁saib	-6.05813
▁ntawm	-6.07109
▁txiv	-6.07616
▁pom	-6.10898
▁kawg	-6.12047
▁nawb	-6.1229
▁puas	-6.12418
▁me	-6.14036
▁tiag	-6.15274
▁tag	-6.15613
▁nrog	-6.17858
▁yam	-6.19441
▁yawg	-6.19762
▁ntau	-6.22664
-	-6.24369
▁noj	-6.25249
▁ho	-6.25922
▁leej	-6.26379
▁niam	-6.27448
▁tub	-6.27697
▁sis	-6.27967
▁kiag	-6.30038
▁txoj	-6.32275
▁tom	-6.32346
▁lwm	-6.32906
▁"	-6.33208
▁the	-6.33486
▁hab	-6.34273
2	-6.35187
▁has	-6.36066
▁(	-6.36361
▁txhob	-6.36864
▁qab	-6.37291
▁rov	-6.39618
▁ntawv	-6.41433
▁to	-6.41728
▁hnub	-6.42424
▁os	-6.44661
▁nplog	-6.45803
▁txawm	-6.46255
▁tim	-6.48655
▁tsev	-6.48769
▁kuj	-6.49343
▁siv	-6.51778
▁neej	-6.53431
▁tawm	-6.53713
▁cia	-6.54762
)	-6.55967
▁lug	-6.56513
▁ob	-6.56914
"	-6.57029
▁dab	-6.57052
▁tham	-6.57812
▁tuag	-6.58327
▁mam	-6.58853
▁nyiaj	-6.6068
▁moob	-6.61084
/	-6.6202
▁tso	-6.6213
▁rua	-6.6758
▁kawm	-6.67879
▁txawj	-6.68084
....	-6.68369
▁heev	-6.69021
▁tua	-6.69857
▁sab	-6.70716
▁tab	-6.70762
▁tsum	-6.71808
▁qhia	-6.72607
▁sawv	-6.74093
▁mob	-6.76586
▁moog	-6.76867
s	-6.80229
▁ntseeg	-6.80621
▁cai	-6.81314
▁ntag	-6.81416
▁lam	-6.825
▁ntuj	-6.83607
▁and	-6.8446
▁tsuas	-6.84626
▁nuav	-6.8595
▁tswv	-6.86522
▁raug	-6.86549
▁xyoo	-6.87125
▁tseeb	-6.8727
▁kwv	-6.88915
▁tshaj	-6.89213
▁suav	-6.90373
▁thov	-6.92604
▁niag	-6.92643
▁txhua	-6.93662
▁raws	-6.94037
▁loj	-6.94367
▁coob	-6.94935
▁sau	-6.9571
▁muag	-6.95766
▁hos	-6.9581
▁hu	-6.9614
▁dua	-6.96659
▁zaum	-6.98
▁laus	-6.98785
▁kws	-6.99956
▁nwg	-7.00031
▁tsam	-7.00281
▁poj	-7.00447
!	-7.00861
▁of	-7.00896
▁daws	-7.01797
▁sim	-7.01977
▁tes	-7.02783
▁tabsis	-7.02788
:	-7.03092
▁pheej	-7.03664
▁zog	-7.03695
▁you	-7.05816
▁tib	-7.07109
▁tsim	-7.07125
▁hlub	-7.0733
▁yug	-7.07557
▁ntxiv	-7.07989
▁i	-7.09014
▁ne	-7.09439
▁npe	-7.09624
▁yawm	-7.1075
▁nkauj	-7.10937
▁hluas	-7.10959
▁chaw	-7.11435
▁tij	-7.1177
▁hnov	-7.13378
▁nom	-7.14322
▁vaj	-7.14453
▁haiv	-7.14556
▁dhau	-7.14648
▁a	-7.16838
▁is	-7.18152
▁puab	-7.18242
▁phem	-7.18606
▁hmong	-7.18999
▁chaws	-7.19049
▁pov	-7.19125
▁ntej	-7.19495
▁npaum	-7.19608
▁dag	-7.2052
▁kho	-7.20534
▁koom	-7.21279
▁ntshai	-7.23776
▁dr	-7.24793
▁thaib	-7.25905
▁ub	-7.25926
▁xeem	-7.27244
▁yim	-7.28214
'	-7.28453
▁txaus	-7.28707
▁tu	-7.28924
▁tos	-7.29873
▁ntse	-7.30134
▁tseg	-7.30239
▁daim	-7.32353
▁ntev	-7.32563
▁seb	-7.32705
▁yaj	-7.32924
▁ov	-7.33022
▁pob	-7.337
▁thawj	-7.34095
▁nyiam	-7.34751
▁dej	-7.35521
▁in	-7.36136
▁dawb	-7.36271
▁lis	-7.37038
▁kam	-7.38899
▁leeg	-7.39403
▁ruam	-7.39681
▁2	-7.40079
▁ntsib	-7.40538
▁mej	-7.41123
▁vp	-7.42086
▁nyuam	-7.42876
▁tiam	-7.44608
▁nkaus	-7.44821
▁nug	-7.45244
▁maj	-7.4538
▁pub	-7.46123
;	-7.46262
.....	-7.46402
▁meej	-7.47114
▁ntxhais	-7.47133
▁xaav	-7.47428
▁khiav	-7.4746
▁luaj	-7.47731
▁poob	-7.48175
▁nco	-7.4839
--	-7.48788
▁qub	-7.49306
▁-	-7.4981
▁ntshe	-7.50311
▁na	-7.50936
▁tsaug	-7.51019
▁nyias	-7.51952
▁naj	-7.52138
▁pem	-7.52173
▁lo	-7.53017
......	-7.5442
▁nrhiav	-7.55962
b	-7.56403
▁hlob	-7.56499
▁kav	-7.56902
▁nkawv	-7.57483
▁txim	-7.58286
▁haus	-7.58528
▁laug	-7.58833
▁txhaj	-7.59016
▁pojniam	-7.60187
▁wb	-7.60855
▁txug	-7.61813
▁hom	-7.62002
▁kheej	-7.62108
▁teeb	-7.6234
▁caij	-7.62777
▁tog	-7.62806
▁tsawg	-7.62815
▁meem	-7.63887
▁caag	-7.64215
▁for	-7.64485
m	-7.64635
▁tabsi	-7.64754
▁as	-7.64995
▁mloog	-7.65755
▁it	-7.66128
▁liab	-7.66738
▁cem	-7.67313
▁neb	-7.67405
▁3	-7.68407
▁haum	-7.68715
▁that	-7.68851
▁tebchaws	-7.6912
▁ze	-7.69514
▁nas	-7.71416
▁born	-7.72518
▁nyuag	-7.72535
▁niaj	-7.73156
▁si	-7.73214
▁xwm	-7.73562
▁xa	-7.73957
▁laiv	-7.7398
▁them	-7.73998
▁zaug	-7.74109
▁rooj	-7.74316
▁hauj	-7.75068
▁tsa	-7.75145
▁chim	-7.75856
▁ncaj	-7.77403
▁kwvtij	-7.77417
▁ko	-7.78614
▁xyuas	-7.78643
▁meskas	-7.79368
▁nam	-7.79592
▁pib	-7.79629
▁nram	-7.79704
▁ceeb	-7.80192
▁quav	-7.80197
▁hov	-7.80574
▁rog	-7.80839
▁6	-7.81118
▁txuj	-7.81175
▁phoojywg	-7.81998
▁taub	-7.82116
▁sawvdaws	-7.82226
▁huv	-7.82454
website	-7.82684
▁kub	-7.8285
▁puav	-7.82885
▁piav	-7.8289
▁cev	-7.83994
▁yuam	-7.84321
v	-7.84865
▁taag	-7.85747
▁txawv	-7.86015
▁sij	-7.86295
▁hau	-7.8639
▁txhais	-7.86445
▁tshuaj	-7.86839
net	-7.87046
▁txais	-7.87468
▁zaj	-7.87503
▁kab	-7.8756
▁saum	-7.87648
▁nyaj	-7.87823
▁kuas	-7.88383
▁feem	-7.88478
▁ywg	-7.88649
▁av	-7.88807
▁tshuav	-7.88854
www	-7.88935
▁nua	-7.89709
▁qho	-7.89794
://	-7.90174
▁menyuam	-7.90206
▁ntsis	-7.90541
▁lauj	-7.90662
.......	-7.90687
▁phooj	-7.90804
▁he	-7.91193
▁xeeb	-7.91222
▁tuav	-7.91266
▁deb	-7.91455
▁tam	-7.91665
▁taw	-7.9188
▁mos	-7.91955
▁mog	-7.92363
▁nyog	-7.9314
▁tshiab	-7.93169
▁ytk	-7.93254
▁zos	-7.93374
▁1	-7.94015
▁mag	-7.94506
j	-7.94562
g	-7.94693
▁hawm	-7.9495
▁laj	-7.95814
▁not	-7.96005
▁taug	-7.96436
▁ke	-7.97064
▁http	-7.97071
▁pum	-7.97123
▁koob	-7.97228
▁hloov	-7.98379
▁neeb	-7.98678
▁tseemyeej	-7.98998
▁txom	-7.99036
▁blog	-7.99392
▁aw	-7.99672
▁dabtsi	-7.99814
▁taus	-8.00247
▁pw	-8.00381
t	-8.00882
▁haujlwm	-8.01004
▁yeeb	-8.01198
▁co	-8.01831
▁are	-8.01885
▁hav	-8.02308
▁be	-8.02354
▁mov	-8.02802
▁or	-8.03653
▁nim	-8.0372
▁cais	-8.06038
▁yav	-8.06112
▁vajtswv	-8.06769
▁luas	-8.07512
▁nyeem	-8.0778
▁cav	-8.08162
=	-8.08201
▁haj	-8.08301
▁cuab	-8.08592
▁leejtwg	-8.0941
▁puag	-8.09684
▁xaiv	-8.09946
▁xov	-8.1154
▁teev	-8.11979
▁tuab	-8.12332
▁so	-8.12401
▁sub	-8.12559
▁ma	-8.12574
▁thaub	-8.12609
▁tsoom	-8.12738
▁this	-8.12869
▁tais	-8.12871
▁your	-8.14027
▁on	-8.14086
▁paj	-8.14336
▁yau	-8.14571
▁yang	-8.14722
▁txwm	-8.15129
▁nov	-8.15199
▁ntiaj	-8.16141
▁nkag	-8.16628
▁pao	-8.16781
▁sch	-8.16931
▁plaub	-8.16975
▁miv	-8.17402
▁txwv	-8.17464
▁num	-8.17882
▁laura	-8.1795
▁dev	-8.18009
▁suab	-8.18202
▁lau	-8.18587
▁ms	-8.18673
▁ntsej	-8.18846
▁qhuas	-8.19041
▁gvp	-8.19147
▁xyov	-8.1936
▁nrho	-8.19428
▁yaam	-8.19504
▁have	-8.19694
▁lov	-8.20398
▁phom	-8.20541
▁tawg	-8.21407
▁muas	-8.21571
▁lees	-8.22235
▁pawg	-8.22324
▁liam	-8.22405
▁noog	-8.22605
▁post	-8.22779
▁ncauj	-8.22997
▁tiv	-8.23895
▁nqa	-8.2406
▁nyuj	-8.24272
▁ned	-8.24432
li	-8.24597
▁phwvnyawm	-8.2461
▁tsua	-8.24765
▁xub	-8.25239
▁nqi	-8.25714
▁cuag	-8.25747
▁las	-8.2614
▁txiav	-8.26214
▁txhaum	-8.2668
▁tsab	-8.2699
▁noob	-8.27185
▁txij	-8.27607
▁zoov	-8.27609
▁30	-8.27641
▁npaj	-8.27751
▁ha	-8.27771
▁nav	-8.28104
▁ca	-8.2825
▁b	-8.28255
▁xam	-8.28357
▁lossis	-8.28804
▁we	-8.2929
▁hlwb	-8.29968
▁paab	-8.31103
▁faj	-8.31818
).	-8.31962
d	-8.32505
▁vam	-8.32601
8	-8.32668
▁thaj	-8.32748
▁qhuav	-8.32856
▁hlo	-8.32872
▁txheeb	-8.33061
▁by	-8.33307
▁toj	-8.33543
▁tsav	-8.33551
▁quas	-8.33604
▁do	-8.33718
▁us	-8.34273
▁ce	-8.34361
▁4	-8.34381
▁dlaab	-8.35053
▁nrug	-8.35268
▁puj	-8.3549
▁roob	-8.35632
▁all	-8.35648
▁nkawd	-8.35769
▁hmo	-8.36248
▁zag	-8.36493
▁tig	-8.36628
▁tooj	-8.36979
▁what	-8.3756
▁txhawb	-8.37811
▁vwm	-8.37933
▁10	-8.38093
▁but	-8.38527
▁tawv	-8.39248
▁thaiv	-8.39381
▁ntug	-8.40231
▁nyab	-8.40775
▁saub	-8.41066
▁mhoob	-8.41071
▁ntsoov	-8.4113
▁phiaj	-8.4178
▁ciaj	-8.4216
▁ntaus	-8.4223
▁ntshaw	-8.42245
▁ceg	-8.42341
▁ntaub	-8.42621
▁with	-8.43306
▁yeem	-8.43679
▁hli	-8.43899
▁will	-8.43983
▁nyem	-8.44215
▁caum	-8.4462
▁txhia	-8.44734
▁lao	-8.45053
▁tuam	-8.45094
▁ceev	-8.4536
▁my	-8.4625
▁fab	-8.46551
▁dub	-8.46617
▁xws	-8.46663
▁nub	-8.47224
▁hwv	-8.47709
▁piv	-8.47806
▁pej	-8.47851
▁khoom	-8.47999
▁qaab	-8.48061
4	-8.48096
▁cuam	-8.48449
▁nraug	-8.48688
▁aws	-8.49006
▁xyooj	-8.49202
kuv	-8.49432
▁plig	-8.49623
x	-8.49862
▁kas	-8.4992
▁tijlaug	-8.49955
▁ham	-8.5015
▁thoj	-8.50235
▁luam	-8.50299
▁ntsuab	-8.50533
▁zhen	-8.50608
▁tshwm	-8.50752
▁plaws	-8.50958
▁1.	-8.51196
▁tsij	-8.51416
▁pog	-8.51522
▁laud	-8.52552
▁vang	-8.53016
▁sijhawm	-8.5317
▁pauv	-8.53206
▁nrov	-8.53589
▁txeeb	-8.53601
▁dav	-8.53858
▁nab	-8.54107
▁tiav	-8.5424
▁qha	-8.54392
▁zaub	-8.54654
▁2.	-8.54973
▁tsov	-8.55519
▁moos	-8.56024
▁ntoo	-8.56628
▁5	-8.56699
▁teebmeem	-8.56918
▁tswvyim	-8.57064
▁u	-8.57097
▁tswj	-8.57504
▁rab	-8.579
▁kis	-8.58279
▁npau	-8.58529
▁yooj	-8.5904
▁&	-8.59248
▁nce	-8.59408
▁txaj	-8.59793
▁teg	-8.59864
▁yis	-8.60225
▁thuam	-8.60435
▁muam	-8.60683
▁khav	-8.61039
▁pes	-8.61045
▁luj	-8.61198
▁tw	-8.62055
▁tsuav	-8.62193
▁hl	-8.62238
▁can	-8.6239
▁nyablaj	-8.62556
▁one	-8.63093
▁kua	-8.63509
▁peev	-8.63649
▁qw	-8.63665
▁quaj	-8.63879
▁ntsia	-8.64026
▁nad	-8.64027
▁tshoob	-8.64066
▁nyuaj	-8.64293
▁ntes	-8.64312
▁qaib	-8.64461
▁txheej	-8.64583
▁=	-8.65119
▁kuam	-8.65281
▁v	-8.65392
▁zeb	-8.65487
▁thoob	-8.65734
▁church	-8.65795
▁nqaij	-8.65807
▁zab	-8.66368
▁if	-8.66558
n	-8.66755
▁>	-8.67192
▁people	-8.67663
▁from	-8.67698
k	-8.67853
▁nyoog	-8.68865
▁pos	-8.68914
▁cua	-8.6892
▁tsheej	-8.70024
........	-8.70056
."	-8.70163
e	-8.70348
▁zam	-8.70483
▁they	-8.70545
▁khwv	-8.70553
▁sai	-8.70966
▁tsuj	-8.71941
1	-8.73136
▁nev	-8.73766
▁dhia	-8.73891
com	-8.73921
▁col	-8.74162
▁ncaws	-8.74583
▁good	-8.74699
▁ab	-8.74828
▁un	-8.7497
▁npua	-8.74988
▁at	-8.75655
▁sia	-8.75791
▁ris	-8.76108
▁ntxim	-8.76239
▁zaus	-8.76318
▁thaus	-8.76682
▁maum	-8.77338
▁mn	-8.77401
▁ploj	-8.7747
▁khaws	-8.77479
▁yom	-8.77942
▁duab	-8.78072
▁tsheb	-8.78596
▁ya	-8.78597
▁america	-8.78907
▁lwj	-8.78924
▁cias	-8.78992
▁ncig	-8.79517
▁huab	-8.79809
▁swb	-8.7993
▁kaw	-8.80135
▁18	-8.80608
▁qhua	-8.80626
▁moobsib	-8.8111
▁hahaha	-8.81234
▁tis	-8.81587
▁npawg	-8.81993
yog	-8.82072
▁ci	-8.82534
▁thaam	-8.82754
3	-8.8327
▁neohmong	-8.83299
▁ntxub	-8.83437
▁thab	-8.83496
▁3.	-8.83501
▁nyuas	-8.83527
▁ntxawm	-8.83563
▁hlau	-8.83653
▁who	-8.83667
watch	-8.83931
▁choj	-8.84184
▁xab	-8.84303
▁kaj	-8.84572
▁dlua	-8.84574
▁haivneeg	-8.8492
▁noogdlej	-8.8547
▁laos	-8.8561
▁lawd	-8.85719
▁looj	-8.85776
koj	-8.85785
los	-8.85875
▁mekas	-8.86084
▁khib	-8.86173
▁tsiaj	-8.86556
▁ntxias	-8.86816
▁xeev	-8.86969
▁taws	-8.87317
a	-8.87329
▁twm	-8.8793
▁time	-8.88126
▁ncees	-8.88187
▁kos	-8.8823
▁zus	-8.88294
▁cob	-8.89107
▁just	-8.8928
▁etc	-8.89853
▁nqe	-8.90055
▁nruab	-8.90236
▁txiaj	-8.90336
),	-8.90349
▁nkaum	-8.90564
▁xyaum	-8.90671
▁xij	-8.91088
▁txhawj	-8.91151
▁nai	-8.91496
▁hawj	-8.92171
▁vaaj	-8.92197
▁faib	-8.92603
▁there	-8.92807
▁dim	-8.93237
0	-8.93271
".	-8.9337
▁tshua	-8.93422
▁usa	-8.93655
▁zuj	-8.93664
▁paul	-8.93703
▁loo	-8.93865
▁zov	-8.94111
▁maam	-8.94152
▁nrauj	-8.94455
▁nqis	-8.94472
▁ntshav	-8.9456
▁xob	-8.94723
▁cawm	-8.94729
▁licas	-8.9494
▁fajkhaum	-8.95075
▁tav	-8.95138
▁puv	-8.95228
▁nyiag	-8.95384
▁x	-8.95687
▁kag	-8.96469
▁ntses	-8.96847
▁txivneej	-8.96926
▁plab	-8.97219
▁m	-8.97652
9	-8.97863
ing	-8.97988
▁more	-8.98334
▁cawv	-8.98506
moob	-8.98577
▁nyam	-8.98853
▁caj	-8.99058
▁siav	-8.99144
▁about	-8.99316
▁aub	-8.99436
▁xuas	-8.99572
▁hlis	-8.99588
▁cog	-8.99731
&	-8.99822
5	-8.99975
▁fresno	-8.99997
▁***	-9.00289
ua	-9.00352
(	-9.00473
▁xyoos	-9.00793
▁charlie	-9.00863
_	-9.0096
▁ti	-9.01129
bh	-9.012
▁xiong	-9.0128
6	-9.01444
▁am	-9.01473
▁his	-9.01528
▁sav	-9.01594
▁100	-9.01975
▁lod	-9.02249
▁khov	-9.02326
behmong	-9.02432
▁txha	-9.02668
▁qee	-9.02879
▁was	-9.03004
▁kaus	-9.03315
▁tiamsis	-9.03548
▁nuj	-9.03729
▁paus	-9.04054
▁thanks	-9.04067
▁twj	-9.04138
▁ntseg	-9.04196
▁qhib	-9.04205
▁lee	-9.04266
▁tsw	-9.04344
▁qaum	-9.04733
▁cab	-9.04799
▁nroog	-9.05214
▁lpdr	-9.05946
▁nplooj	-9.06143
▁tsuag	-9.06267
▁fwv	-9.06956
▁our	-9.07593
▁tshum	-9.07623
▁haib	-9.07872
hmoob	-9.07881
▁e	-9.08054
▁vwj	-9.08063
▁tsawv	-9.08182
▁t	-9.08239
▁ncuab	-9.08661
lub	-9.08846
▁'	-9.08888
▁dig	-9.0897
▁meb	-9.09157
▁lom	-9.09253
▁tshawb	-9.09274
▁foom	-9.09721
▁txuas	-9.09883
▁new	-9.09977
▁know	-9.10198
▁vaajmoob	-9.10447
▁/	-9.10482
▁hwm	-9.10786
▁nrab	-9.11767
▁doctor	-9.11831
▁phaj	-9.1189
o	-9.11909
▁lav	-9.1195
▁tshav	-9.12467
▁don	-9.12607
▁pejxeem	-9.12677
▁py	-9.12687
▁twv	-9.12695
▁nti	-9.12771
▁cuav	-9.12893
▁iab	-9.12904
▁human	-9.13199
▁yob	-9.13307
▁pas	-9.13377
▁yaim	-9.13788
▁dd	-9.14284
▁pim	-9.14303
▁dao	-9.14396
▁right	-9.14537
▁dyd	-9.14546
▁ntsiab	-9.14781
▁lu	-9.15083
▁only	-9.15091
▁st	-9.15386
▁ywm	-9.15472
▁caug	-9.15927
▁like	-9.15974
▁lag	-9.16045
▁foob	-9.16135
▁sob	-9.16209
▁ntu	-9.16252
▁yees	-9.1641
▁soj	-9.16574
▁nqq	-9.16615
▁p	-9.1681
▁phau	-9.16821
▁keeb	-9.17007
▁hastas	-9.17386
▁case	-9.17546
▁yij	-9.1762
▁2-3	-9.18146
▁xejthim	-9.18249
▁xf	-9.18522
▁tsiv	-9.18658
▁hnav	-9.18733
▁hmoov	-9.18956
▁tuabneeg	-9.19342
▁caw	-9.19625
!!!	-9.19693
▁rhuav	-9.19891
▁zej	-9.20133
▁laid	-9.20389
▁tshaaj	-9.20622
▁pe	-9.20633
▁og	-9.20668
▁phoo	-9.20747
▁txiag	-9.20816
▁cheem	-9.21517
▁laam	-9.21569
▁lig	-9.21841
▁haistias	-9.21867
▁kwm	-9.22196
▁roj	-9.22245
▁s	-9.22263
▁xiam	-9.22397
▁tawb	-9.22669
▁qeej	-9.22697
▁dlawb	-9.23026
▁moua	-9.23115
▁yaweh	-9.23389
▁very	-9.23562
i	-9.23866
▁rho	-9.23971
▁nais	-9.24062
▁ntsuag	-9.24517
▁bee	-9.24518
▁qau	-9.25158
▁qe	-9.25306
▁make	-9.25441
peb	-9.25506
▁cam	-9.25592
▁phwv	-9.25646
▁sam	-9.25688
▁lim	-9.25792
▁neohom	-9.25891
▁khu	-9.25993
▁other	-9.25998
▁ncu	-9.26188
▁thib	-9.26668
▁yaus	-9.26813
▁up	-9.27058
▁their	-9.27143
▁quaspuj	-9.27312
▁lauv	-9.27338
▁sov	-9.27425
▁dlawg	-9.27431
▁saab	-9.27808
▁tamsim	-9.28028
▁tsho	-9.28137
▁22	-9.28179
▁ntaag	-9.28692
lawm	-9.28749
▁pa	-9.28786
▁rub	-9.28838
▁12	-9.28892
▁tsaus	-9.28953
▁--	-9.29394
▁zais	-9.29446
▁qaug	-9.29769
▁kasmoos	-9.30008
▁lab	-9.30025
▁her	-9.30084
▁ntxov	-9.30373
▁tony	-9.30484
▁khaub	-9.30532
c	-9.30551
y	-9.30901
▁any	-9.30921
▁how	-9.30926
▁temsis	-9.31083
▁pam	-9.31534
▁see	-9.31638
▁tsoob	-9.31772
▁tia	-9.31825
▁riam	-9.32211
▁family	-9.32527
▁vajncuab	-9.3265
▁tsaam	-9.33013
▁lostsuas	-9.3322
▁huas	-9.33427
▁need	-9.33782
▁nuv	-9.33813
lawv	-9.3387
▁k	-9.34087
▁4.	-9.341
▁email	-9.34171
▁phab	-9.34664
▁fabkis	-9.34749
▁tsob	-9.34845
▁vmged	-9.35148
▁txias	-9.35446
ib	-9.35515
▁8	-9.35532
▁huabtais	-9.35723
▁hla	-9.35738
▁way	-9.35931
▁vaajtswv	-9.36175
▁laib	-9.36329
▁daj	-9.36408
▁phim	-9.3651
▁hlua	-9.36579
ed	-9.36669
▁nos	-9.36726
▁go	-9.36767
▁deev	-9.37026
▁luv	-9.37095
▁general	-9.37267
▁pua	-9.37295
▁plawv	-9.37567
▁tid	-9.3759
▁tshab	-9.378
▁out	-9.37814
▁xaus	-9.37884
▁pluag	-9.3801
▁ntxawg	-9.383
▁o	-9.38355
▁too	-9.38372
▁dlaag	-9.38402
▁9	-9.38461
▁life	-9.38492
***	-9.38701
▁txhim	-9.38888
▁tswb	-9.39015
▁thooj	-9.39015
▁why	-9.39161
▁think	-9.39213
▁khawv	-9.39241
▁dlhau	-9.39292
▁yig	-9.39708
▁txia	-9.39734
▁c	-9.40213
▁tsoo	-9.40438
▁text	-9.40507
▁ntiav	-9.40514
▁txav	-9.40913
▁txob	-9.40946
▁state	-9.41328
▁nkaujnyiag	-9.4144
▁xib	-9.41518
▁txhiaj	-9.41567
▁xim	-9.4165
▁cwj	-9.41788
▁tou	-9.41878
▁z	-9.42106
▁ntsuam	-9.42123
▁n	-9.42144
▁zeem	-9.42166
▁txhiab	-9.42178
▁nrhav	-9.42223
▁tob	-9.42463
▁kubxaj	-9.4293
▁thao	-9.42963
▁d	-9.43045
▁mab	-9.43186
▁zug	-9.43347
h	-9.43364
▁ly	-9.43546
▁ntiajteb	-9.44332
cov	-9.44454
▁ntxeev	-9.44842
▁ziag	-9.4496
▁nraim	-9.44975
▁quoted	-9.45034
▁god	-9.4508
▁some	-9.45155
lao	-9.45249
▁qhab	-9.45272
▁would	-9.45302
▁mev	-9.45465
▁fwm	-9.45602
▁huam	-9.45815
▁support	-9.45848
▁caubfab	-9.46031
▁california	-9.46052
▁nrau	-9.46078
tsis	-9.46284
▁teem	-9.46412
▁lol	-9.46451
▁nres	-9.46476
▁paum	-9.466
▁victor	-9.46709
▁said	-9.46814
▁take	-9.46824
▁when	-9.47084
▁xaj	-9.47151
▁tibneeg	-9.47374
▁tejzaum	-9.47383
▁tod	-9.47401
▁rights	-9.47519
▁od	-9.47814
▁chao	-9.48417
▁nag	-9.48623
▁long	-9.48969
▁nees	-9.49001
▁txhom	-9.49419
▁du	-9.49618
▁txo	-9.49798
▁amen	-9.49849
▁lawb	-9.50224
▁then	-9.50336
▁ywj	-9.50446
▁nyuab	-9.5045
▁hmoo	-9.50469
▁wrote	-9.50529
▁khawb	-9.50718
▁nyag	-9.50838
▁miskas	-9.50914
kom	-9.51293
▁dlej	-9.51425
▁nto	-9.51721
▁ev	-9.51737
u	-9.51779
▁hle	-9.51801
feature	-9.51828
▁kov	-9.51847
▁koos	-9.51945
▁qhuab	-9.52001
▁pliag	-9.52327
▁mad	-9.52696
▁caiv	-9.52957
▁show	-9.53092
7	-9.53187
▁les	-9.532
▁lino	-9.53743
▁ntsuj	-9.53846
▁tibsi	-9.53853
▁kaum	-9.53873
▁vauv	-9.53929
▁nkawm	-9.53966
▁phaum	-9.53992
▁h	-9.54107
l	-9.54174
▁nraum	-9.54673
▁peg	-9.54818
▁qhev	-9.54929
▁posted	-9.54949
▁ntus	-9.54993
▁law	-9.55018
▁mt	-9.55289
▁hlawv	-9.55334
▁ntsiag	-9.55394
▁20	-9.55411
▁here	-9.5546
▁fawm	-9.55634
▁ntiag	-9.55634
▁kaub	-9.55643
▁man	-9.5567
▁ntsim	-9.55683
▁president	-9.55748
▁tshuam	-9.55752
▁many	-9.55805
▁qib	-9.55883
▁freedom	-9.55972
▁cim	-9.5602
▁dog	-9.56263
▁ntees	-9.56601
▁may	-9.56607
▁phav	-9.56823
----------------	-9.56945
no	-9.57366
▁hniav	-9.57645
▁cha	-9.57742
hmong	-9.57923
▁dlaim	-9.58289
▁ntsws	-9.58346
▁7	-9.58409
▁nthuav	-9.58526
▁ruaj	-9.58541
▁own	-9.58586
▁cwjmem	-9.58612
▁yingb	-9.59358
▁mamli	-9.59417
▁back	-9.59512
▁say	-9.5955
▁american	-9.59914
▁mom	-9.60384
▁tshem	-9.60613
▁khi	-9.60635
▁havzoov	-9.60676
▁tiaj	-9.61316
yahoo	-9.61482
▁seem	-9.61673
▁nkagsiab	-9.61785
▁mai	-9.61944
▁taab	-9.62007
▁kevcai	-9.62077
▁zaaj	-9.62349
▁ntxwv	-9.62528
▁dai	-9.62559
▁zem	-9.62639
▁nplogliab	-9.63065
▁thai	-9.63385
▁theem	-9.63408
▁an	-9.63485
▁school	-9.63593
related	-9.637
▁work	-9.64046
▁mis	-9.6407
▁nawj	-9.64509
▁maiv	-9.6473
▁court	-9.65011
▁tsib	-9.65062
▁zooli	-9.65173
▁liaj	-9.65557
▁tsom	-9.65608
▁even	-9.65624
▁world	-9.65664
▁totaub	-9.65728
▁than	-9.65822
▁pav	-9.65885
▁dony	-9.65913
▁tshaib	-9.66428
es	-9.66546
▁tauj	-9.66554
▁xej	-9.66685
▁yaig	-9.66694
▁awd	-9.66778
▁tshuab	-9.66897
▁year	-9.67186
▁now	-9.67477
▁yaaj	-9.67484
▁pauj	-9.67495
▁him	-9.67524
▁hlais	-9.67855
▁vue	-9.68123
▁maag	-9.68125
▁issue	-9.68166
▁get	-9.68443
▁thaibteb	-9.68497
▁peevxwm	-9.68745
▁nkuaj	-9.68747
▁pwm	-9.69037
▁beer	-9.69181
▁rawv	-9.69227
▁tebchaw	-9.69566
▁qhabnab	-9.69649
▁because	-9.69654
▁those	-9.69654
▁hm	-9.69664
▁tsau	-9.69702
▁xum	-9.69708
▁uake	-9.69802
▁vibnais	-9.69818
▁diam	-9.69854
▁nyav	-9.7026
▁ciali	-9.7058
▁week	-9.70908
tus	-9.71124
▁should	-9.71298
▁hnab	-9.7131
▁nus	-9.71325
.........	-9.71365
▁ciam	-9.71417
▁point	-9.71441
▁thim	-9.71506
▁ceem	-9.71591
▁tswm	-9.7169
▁yauv	-9.72
▁communist	-9.72163
▁moo	-9.72404
ly	-9.72487
>	-9.72562
▁txhij	-9.72807
▁thauj	-9.72883
▁keej	-9.73102
▁thau	-9.73304
▁suabnoog	-9.73752
▁yexus	-9.74228
▁want	-9.74565
siab	-9.74685
▁movie	-9.74691
▁qis	-9.74851
▁5.	-9.74887
▁party	-9.74901
▁lolz	-9.74993
▁agree	-9.75111
▁tse	-9.75314
▁let	-9.75538
▁dlev	-9.75676
▁nyhav	-9.75853
▁politic	-9.75855
th	-9.76059
▁please	-9.76223
▁kaam	-9.76835
▁ntsuas	-9.77048
▁cag	-9.77536
▁uncle	-9.77645
▁leader	-9.77853
▁qauv	-9.77921
▁ntog	-9.78056
▁government	-9.78189
▁$	-9.78217
▁history	-9.78237
▁nyoo	-9.78625
▁cobfab	-9.7872
▁xauj	-9.78836
▁care	-9.78966
▁txua	-9.7909
as	-9.79381
▁ok	-9.79777
▁person	-9.79967
▁bawg	-9.8002
▁hum	-9.80046
txiv	-9.80134
▁rawm	-9.80267
▁npis	-9.80323
▁nkim	-9.80326
▁sibtham	-9.80474
▁zoj	-9.80514
▁su	-9.80557
▁nplua	-9.80615
▁caub	-9.80661
▁ntxoog	-9.80742
▁tusiab	-9.80783
▁hwj	-9.80839
▁duas	-9.81005
▁gen	-9.81072
▁minnesota	-9.81127
▁nyas	-9.8129
▁xyuam	-9.81574
▁50	-9.81696
▁share	-9.81761
▁hma	-9.81774
▁love	-9.81932
▁political	-9.82291
!!	-9.82638
▁txheem	-9.82685
▁se	-9.83113
▁same	-9.8331
▁qus	-9.83414
▁fa	-9.83519
▁she	-9.83809
▁high	-9.84119
▁chav	-9.84338
▁business	-9.84361
▁pm	-9.84385
▁yesxus	-9.84576
213	-9.84772
▁never	-9.84818
▁tagnrho	-9.84857
▁1975	-9.85214
▁moj	-9.85265
▁l	-9.85316
▁hus	-9.85443
▁ntxhov	-9.8563
▁ntsug	-9.85638
▁xyoob	-9.85726
▁ncaim	-9.85849
▁ntxuav	-9.85858
▁tsaj	-9.85932
▁nyom	-9.85979
▁culture	-9.86278
▁day	-9.86327
▁khw	-9.86556
vim	-9.86661
▁community	-9.86716
▁yuavtsum	-9.86758
▁ntua	-9.86805
▁thaij	-9.87197
▁tswvntuj	-9.87294
▁ntiv	-9.87346
▁message	-9.87673
▁news	-9.87745
▁losyog	-9.87831
yuav	-9.88002
▁cub	-9.8802
▁true	-9.88049
▁religion	-9.8836
▁nplogteb	-9.88636
▁aib	-9.88884
▁men	-9.88988
▁puam	-9.8899
▁lha	-9.89033
▁personal	-9.8914
▁tshev	-9.89494
▁kuamemiab	-9.89569
▁mr	-9.89621
▁these	-9.89712
▁still	-9.90008
▁hiam	-9.90352
▁tshwj	-9.90467
▁chij	-9.90499
▁yoog	-9.90713
▁de	-9.90946
▁y	-9.91026
▁amelikas	-9.91027
▁july	-9.91027
▁npas	-9.91195
▁yaav	-9.91272
au	-9.91412
▁tshoj	-9.91481
▁group	-9.91545
▁come	-9.91762
▁vientiane	-9.92052
▁raus	-9.92195
nws	-9.92206
▁kaav	-9.92369
▁well	-9.92565
▁nes	-9.9271
▁computer	-9.92716
▁thiajli	-9.92799
▁mong	-9.92888
▁ntxoov	-9.93098
muaj	-9.93292
▁nuas	-9.93592
qhov	-9.93649
▁chaofa	-9.93717
▁ncua	-9.93794
▁years	-9.94424
▁level	-9.94469
▁over	-9.94794
▁xyom	-9.94942
▁theeb	-9.95017
▁wrong	-9.95075
▁nothing	-9.95077
▁internet	-9.95185
▁yoojyim	-9.95299
▁police	-9.95762
mus	-9.95763
▁npog	-9.95784
▁xaam	-9.95795
▁khob	-9.95911
▁power	-9.95969
cal	-9.96189
▁anti	-9.9636
▁public	-9.96453
▁qos	-9.96571
▁paaj	-9.96651
▁txooj	-9.96731
kev	-9.9682
▁hehehe	-9.96862
▁csy	-9.9706
▁thing	-9.97315
▁bible	-9.97325
▁kuab	-9.97418
▁ntim	-9.97444
f	-9.97477
▁hahahaha	-9.97483
▁nruj	-9.97506
▁phauj	-9.97554
▁oh	-9.97592
w	-9.97769
▁kk	-9.97809
▁play	-9.9802
oo	-9.98041
▁every	-9.98166
▁first	-9.98295
▁soob	-9.98653
▁were	-9.98662
▁tsiab	-9.99294
▁npab	-9.99652
▁such	-9.99675
▁mi	-9.99682
▁example	-9.99879
▁question	-9.9997
▁did	-9.99987
▁ncaaj	-10.0013
▁mav	-10.0024
▁name	-10.0032
▁had	-10.0038
▁video	-10.0039
▁vammeej	-10.0062
▁xoom	-10.0066
▁tabtom	-10.0079
▁khawm	-10.0103
▁nqes	-10.0116
▁weekend	-10.0136
zoo	-10.0143
▁caav	-10.0151
▁ntxhi	-10.0154
▁4-5	-10.0166
▁brother	-10.0187
▁plam	-10.0187
▁j	-10.0209
▁15	-10.0227
▁qua	-10.023
▁mo	-10.0238
▁yias	-10.0255
???	-10.0256
▁koomhaum	-10.0264
▁kauv	-10.0265
▁story	-10.0277
▁must	-10.0306
▁nriav	-10.0313
▁fuab	-10.0319
▁free	-10.0371
▁khwb	-10.0371
▁khuam	-10.038
▁lem	-10.0381
▁reason	-10.0401
---	-10.0401
▁ntaj	-10.0412
▁khaus	-10.0419
▁caws	-10.044
▁xaa	-10.0443
▁phone	-10.046
▁information	-10.048
▁yes	-10.0481
▁phabej	-10.0494
▁pobzeb	-10.051
▁txi	-10.0516
▁chob	-10.052
▁again	-10.0537
▁ntswg	-10.0541
▁laub	-10.0542
▁lt	-10.0559
▁zom	-10.056
▁3-4	-10.0576
▁report	-10.0587
▁believe	-10.0609
▁org	-10.0611
▁nkeeg	-10.0622
▁sad	-10.0651
▁zuag	-10.0664
▁toom	-10.067
▁qheb	-10.0678
▁lij	-10.0691
▁npav	-10.0691
▁dov	-10.0693
▁xis	-10.0729
▁nruas	-10.0732
▁tsaws	-10.0732
▁hotel	-10.0744
▁old	-10.0746
▁hahahahaha	-10.0761
▁respect	-10.0766
▁tsawb	-10.0771
▁ntsiv	-10.0781
ob	-10.0782
▁english	-10.0786
▁best	-10.0812
▁xavzoo	-10.0825
the	-10.0834
▁mivnyuas	-10.0837
▁peace	-10.0837
▁kim	-10.0846
▁saud	-10.0847
▁khab	-10.0858
▁hod	-10.0896
tsi	-10.0897
▁after	-10.0905
▁radio	-10.0905
▁yajtshajkoob	-10.0918
▁ntsw	-10.0939
▁education	-10.0942
▁king	-10.0943
▁been	-10.0951
ab	-10.0953
▁npam	-10.0959
▁duav	-10.096
▁tseev	-10.0972
▁lomzem	-10.0972
▁mes	-10.0985
▁degree	-10.0986
▁hoob	-10.1006
▁qoob	-10.1025
▁much	-10.1026
▁hua	-10.1044
▁christian	-10.1044
▁aim	-10.105
▁member	-10.1072
▁nqaj	-10.109
▁raw	-10.1093
▁kwvtijhmoob	-10.1095
▁qws	-10.1109
am	-10.1148
▁topic	-10.116
▁kaws	-10.117
▁zujzus	-10.1178
▁ssi	-10.1182
▁tseemceeb	-10.1184
▁opinion	-10.1196
▁qaub	-10.1199
▁dleb	-10.1233
▁hneev	-10.1234
▁via	-10.1243
▁txau	-10.1244
▁nquag	-10.1251
▁qav	-10.1265
▁nhub	-10.1291
▁help	-10.1304
▁faus	-10.1319
▁ntsi	-10.1325
▁where	-10.1332
▁kheev	-10.1346
▁suavdlawg	-10.1347
▁txhajle	-10.1349
▁most	-10.1352
▁txawb	-10.1376
▁nra	-10.1388
▁tsuaj	-10.1406
▁medi	-10.141
▁khuv	-10.1414
▁meo	-10.1418
▁tshajplaws	-10.1419
▁vaam	-10.1432
▁code	-10.1466
▁real	-10.1476
▁stupid	-10.1476
▁feeb	-10.1477
▁kauj	-10.1494
▁tws	-10.1518
▁r	-10.1544
▁better	-10.1575
▁kuaj	-10.159
▁problem	-10.1603
▁cheeb	-10.1606
▁tum	-10.1609
▁khub	-10.1619
▁cwjpwm	-10.1619
▁peem	-10.162
▁qaij	-10.1621
▁tev	-10.1621
▁keep	-10.1632
▁dhuav	-10.1634
▁txomnyem	-10.1648
▁paug	-10.1649
▁last	-10.1655
▁under	-10.1696
▁nro	-10.1702
▁ncej	-10.1735
▁vuag	-10.1735
▁hnyav	-10.1736
▁vog	-10.1738
p	-10.1738
▁ntshais	-10.1752
▁40	-10.1755
▁plawg	-10.1766
▁zaws	-10.178
▁mean	-10.1788
os	-10.1812
▁mentsis	-10.1812
▁nrig	-10.1825
▁jesus	-10.1827
▁hiv	-10.1837
▁thank	-10.1854
▁tsaa	-10.1855
▁nqaim	-10.187
▁kum	-10.188
▁hem	-10.1881
▁debate	-10.1883
▁thailand	-10.1885
▁cauj	-10.1942
▁ntuas	-10.1949
▁wi	-10.2005
▁tsuv	-10.2021
▁national	-10.2021
▁ntsig	-10.2023
▁yas	-10.2061
▁xwv	-10.2061
▁dablaug	-10.2069
▁fwj	-10.2075
▁server	-10.2079
▁social	-10.2081
▁sawm	-10.2098
▁aav	-10.2099
thaum	-10.2102
▁sa	-10.2105
▁11	-10.2108
▁thawjcoj	-10.2128
▁pro	-10.2168
▁laws	-10.2186
▁zoosiab	-10.2196
ces	-10.2226
▁tsaav	-10.2242
▁live	-10.2267
▁xauv	-10.2268
▁txib	-10.227
▁bad	-10.2278
▁nyoos	-10.2285
▁ntsuav	-10.2296
▁nceb	-10.2309
lgate	-10.2315
▁xuv	-10.2322
▁loojceeb	-10.2326
▁ntsa	-10.2353
▁txoov	-10.2355
▁zaag	-10.2389
▁into	-10.2405
▁log	-10.241
▁yos	-10.241
▁haub	-10.2435
▁ntsev	-10.2442
▁laaj	-10.2446
▁ras	-10.245
▁paubtab	-10.2459
▁txojkev	-10.2459
▁rhiab	-10.2465
▁tamsis	-10.2466
▁could	-10.2467
▁taj	-10.2486
▁npoj	-10.2503
▁war	-10.2504
▁oob	-10.2527
▁being	-10.2529
▁toog	-10.2536
▁dabneeg	-10.2543
▁uantej	-10.2552
▁dlub	-10.2565
▁ph	-10.2572
▁avang	-10.2581
▁daig	-10.2586
▁zwm	-10.261
▁college	-10.2613
▁zis	-10.2613
▁research	-10.2627
▁hlab	-10.2658
▁before	-10.2659
▁two	-10.266
▁caus	-10.268
▁uv	-10.2684
▁university	-10.2724
▁does	-10.2726
▁plan	-10.2739
niam	-10.2753
▁claim	-10.2758
▁others	-10.2758
▁sua	-10.2767
▁down	-10.2789
▁chiv	-10.279
▁sure	-10.2806
▁vees	-10.2822
▁vietnam	-10.2822
r	-10.2834
▁system	-10.2843
▁forum	-10.2862
▁txag	-10.2874
▁company	-10.2887
▁ki	-10.2888
▁money	-10.289
▁australia	-10.2916
▁ntxwg	-10.2937
▁dos	-10.2948
▁hai	-10.2971
▁nawd	-10.2973
▁hmos	-10.2992
▁txuam	-10.2995
▁which	-10.3004
▁qees	-10.302
▁muang	-10.3025
▁kuamem	-10.3036
▁yoo	-10.3037
▁niv	-10.305
▁tsem	-10.306
▁zib	-10.3061
▁vote	-10.3078
is	-10.3098
▁always	-10.3103
▁next	-10.3104
▁tsevneeg	-10.3116
hais	-10.3116
▁ntws	-10.3124
▁credit	-10.3125
▁tshe	-10.3131
▁city	-10.3158
▁nraus	-10.3201
▁loob	-10.3205
▁ncuav	-10.3226
▁another	-10.3239
▁organization	-10.3244
▁thas	-10.3246
▁give	-10.3276
▁qias	-10.3279
▁look	-10.3296
▁21	-10.331
▁mind	-10.3322
▁hehehehe	-10.3322
▁nplej	-10.3323
▁la	-10.3326
▁da	-10.3366
▁dejnum	-10.3395
▁smile	-10.34
▁loos	-10.3443
▁plag	-10.3482
▁use	-10.3498
▁nta	-10.3509
▁nkaug	-10.3518
▁ntuag	-10.3524
16	-10.3534
▁faaj	-10.3535
▁ualuaj	-10.3535
▁khej	-10.3535
▁office	-10.3557
▁secret	-10.3559
gt	-10.3563
▁ntxa	-10.3585
▁tiab	-10.3588
▁zeej	-10.3594
▁chia	-10.3638
▁thornsp	-10.3644
▁words	-10.3649
▁khau	-10.3673
▁xibfwb	-10.3676
av	-10.3694
▁tshooj	-10.3695
▁txhawm	-10.3712
▁nqig	-10.3742
▁ej	-10.3759
▁yaum	-10.3762
▁change	-10.3774
nyob	-10.3785
▁txuag	-10.3788
▁friend	-10.3788
▁against	-10.3801
▁qoos	-10.3802
▁hope	-10.3812
▁yag	-10.3822
▁txov	-10.3832
▁smiles	-10.3833
▁qeb	-10.3838
▁npaws	-10.3839
▁nkaag	-10.3852
mas	-10.3855
▁qes	-10.3879
▁ccs	-10.393
▁tx	-10.3965
▁nkees	-10.3966
▁retire	-10.3984
▁without	-10.3985
▁cig	-10.3985
▁6.	-10.3986
▁nkoj	-10.3988
▁kib	-10.3994
▁got	-10.4016
tej	-10.4051
▁theej	-10.4069
▁things	-10.4077
▁evidence	-10.4083
▁different	-10.4093
▁xyum	-10.4096
▁pha	-10.4099
▁position	-10.4101
▁ntov	-10.4106
▁experience	-10.4118
▁txaij	-10.4131
▁tsoomfwv	-10.4132
▁country	-10.4132
▁daum	-10.4173
▁60	-10.4186
▁txwj	-10.4186
▁part	-10.4186
▁txawg	-10.4189
▁dlha	-10.4213
▁nrawm	-10.4226
▁txhab	-10.4232
▁each	-10.4245
▁7.	-10.4245
▁fbi	-10.4246
▁hk	-10.4276
▁homphiaj	-10.4283
st	-10.429
▁tho	-10.4296
▁nplaig	-10.4301
yawg	-10.4308
netl	-10.4311
▁yov	-10.4323
▁vision	-10.4328
▁hno	-10.433
▁taubhau	-10.4332
▁tha	-10.4354
thiab	-10.4379
▁txig	-10.4385
▁phd	-10.4423
▁aka	-10.4428
▁xu	-10.4433
▁understand	-10.4434
▁international	-10.4436
▁laij	-10.4436
▁dollars	-10.444
ov	-10.4445
▁seev	-10.4464
▁khaum	-10.4464
▁xyeej	-10.4475
▁lawyer	-10.4481
▁yawgloj	-10.4503
▁members	-10.4509
!!!!	-10.4531
▁khoo	-10.4548
▁fact	-10.4562
▁director	-10.4564
▁qas	-10.4565
▁yuag	-10.4573
▁board	-10.4586
▁xyaw	-10.4586
▁lias	-10.4588
▁nraag	-10.4611
▁democracy	-10.4613
▁doctors	-10.464
▁link	-10.4641
▁leg	-10.4643
▁side	-10.4648
▁ntab	-10.4668
▁nruag	-10.467
▁kiab	-10.4675
▁phou	-10.4685
▁matter	-10.4695
▁thorn	-10.4696
▁title	-10.4697
▁hmab	-10.47
▁1-2	-10.4713
▁neo	-10.4713
▁idonotknow	-10.4729
▁re	-10.4734
▁nis	-10.4744
▁mouatony	-10.4748
▁united	-10.4753
cha	-10.4758
▁vimhlub	-10.478
▁vij	-10.4784
in	-10.4792
▁dib	-10.4796
??	-10.4805
▁also	-10.4807
▁congress	-10.4808
▁rwg	-10.4809
▁mauj	-10.4809
▁talk	-10.4816
▁hahahahahaha	-10.4821
▁nchuav	-10.4828
▁cib	-10.483
▁tshee	-10.4865
▁website	-10.488
▁yawgnomdub	-10.4909
▁vas	-10.4911
tau	-10.4912
▁colonel	-10.4917
▁kiv	-10.4936
▁ntxiab	-10.4946
▁jim	-10.4967
▁future	-10.4971
▁list	-10.4977
▁ntshaws	-10.4989
▁wisconsin	-10.499
▁npaug	-10.4995
▁department	-10.4996
▁txiab	-10.5
▁txhum	-10.5013
▁leaders	-10.5031
▁qualify	-10.505
▁qiv	-10.5075
▁rhawv	-10.5078
▁kujxaj	-10.5093
▁million	-10.5104
bemhong	-10.5112
re	-10.5114
▁khomob	-10.5115
18	-10.5129
▁asia	-10.5143
▁really	-10.5154
▁especially	-10.516
▁kwj	-10.517
▁try	-10.5174
▁tseemfwv	-10.5175
▁pluj	-10.5176
▁check	-10.519
▁poog	-10.5197
▁lw	-10.52
▁hehehehehe	-10.5201
▁ciav	-10.5206
▁tsuam	-10.5224
▁miao	-10.5224
▁yeebncuab	-10.5237
▁women	-10.5241
▁yd	-10.525
▁kaab	-10.5255
▁ntsha	-10.5265
▁ta	-10.5277
neeg	-10.5279
▁sais	-10.5281
▁nroj	-10.5287
yus	-10.5289
lwm	-10.529
▁using	-10.531
▁kem	-10.5313
▁san	-10.5315
▁tell	-10.5319
▁learn	-10.5321
us	-10.5321
▁kod	-10.5323
luag	-10.5346
q	-10.5347
gmail	-10.5364
▁dlaabtsi	-10.5394
▁tsog	-10.5394
▁13	-10.5398
▁g	-10.5398
▁happy	-10.5406
▁qeeb	-10.541
▁nraud	-10.5412
▁made	-10.5414
▁oz	-10.5428
▁piam	-10.5448
▁big	-10.5454
▁qauj	-10.5484
▁txujci	-10.5505
▁q	-10.551
▁yws	-10.551
▁yourself	-10.5511
▁wife	-10.5514
▁going	-10.5516
▁ais	-10.5525
▁oib	-10.5536
▁tubrog	-10.5537
▁word	-10.5543
▁baum	-10.5553
▁china	-10.556
================	-10.5563
meem	-10.5571
▁health	-10.5578
▁place	-10.5582
▁nkhaus	-10.5598
▁txhis	-10.56
http	-10.5602
▁home	-10.5605
▁order	-10.5606
▁mejkoob	-10.5622
pm	-10.5632
▁hluav	-10.5655
▁call	-10.5661
▁www	-10.5671
▁sense	-10.5674
▁hide	-10.5688
▁tov	-10.5691
▁funeral	-10.5693
vaj	-10.5695
▁niamtxiv	-10.572
▁khaav	-10.5726
▁khees	-10.5731
▁khws	-10.5732
▁vag	-10.5734
▁maina	-10.5738
▁yab	-10.5741
▁yh	-10.5755
▁feel	-10.578
▁200	-10.5788
▁ntais	-10.5796
▁nqeeb	-10.5796
er	-10.5802
▁minister	-10.5804
▁f	-10.5804
▁nroos	-10.5827
▁npuab	-10.583
▁npuas	-10.5838
▁pus	-10.5848
▁pdy	-10.586
▁thwj	-10.586
▁nqeg	-10.5884
▁google	-10.5884
▁ntawg	-10.5886
▁paib	-10.5888
▁non	-10.5897
▁rebecca	-10.5905
▁nqus	-10.5906
▁self	-10.591
▁mua	-10.5923
▁dawm	-10.5924
▁few	-10.5927
▁its	-10.5929
▁sex	-10.593
▁lor	-10.5935
▁qhas	-10.5938
▁uacas	-10.5943
▁25	-10.5955
▁xuab	-10.5963
▁saj	-10.5979
▁soua	-10.5994
▁ntxhiab	-10.5996
*	-10.6016
▁taam	-10.6052
▁tsujsua	-10.6062
▁24	-10.6068
▁xus	-10.6073
sab	-10.6073
▁control	-10.6094
▁sunrise	-10.6109
kiag	-10.6126
able	-10.6132
▁mem	-10.6148
▁fiv	-10.6167
▁poom	-10.6179
▁nomtswv	-10.618
▁au	-10.6182
▁keebkwm	-10.6199
▁txhoj	-10.6201
▁sablaj	-10.6203
▁including	-10.6204
▁kavliam	-10.6223
▁ntsai	-10.6234
▁ty	-10.6239
hotmail	-10.6239
▁nyaum	-10.6244
▁laig	-10.6249
▁millions	-10.626
▁po	-10.6271
▁both	-10.6291
mail	-10.6293
▁nchai	-10.6293
▁mc	-10.6322
▁tuas	-10.6326
▁shoua	-10.6339
▁ntsab	-10.6347
▁pev	-10.6347
▁read	-10.6348
▁haav	-10.6356
▁phiajzeb	-10.6387
▁nteg	-10.6388
▁npo	-10.6392
▁zuaj	-10.6408
▁keb	-10.6416
▁npuav	-10.6438
▁dream	-10.6441
▁awb	-10.6462
noj	-10.6478
▁proof	-10.649
▁w	-10.6511
▁nplaum	-10.6526
lis	-10.6533
▁kob	-10.6534
▁ai	-10.6539
▁ii	-10.6541
tub	-10.6542
▁kong	-10.6547
▁nyeg	-10.655
▁ntub	-10.6552
▁ses	-10.6595
▁ask	-10.6603
▁done	-10.6609
me	-10.6612
▁security	-10.6621
▁seej	-10.6638
leej	-10.6648
▁twjywm	-10.6693
▁phas	-10.6703
▁kind	-10.6705
▁defend	-10.6731
▁yong	-10.6743
▁pay	-10.675
▁tsu	-10.6776
▁hard	-10.6777
▁tseeg	-10.6792
▁ntuav	-10.6802
▁hwjchim	-10.6814
▁hours	-10.6819
▁tubntsuag	-10.6826
▁txos	-10.6833
▁however	-10.6839
▁npaaj	-10.6839
▁program	-10.6846
▁neejtsa	-10.6854
▁around	-10.6863
▁major	-10.6864
▁lob	-10.6868
▁truth	-10.6868
▁phov	-10.6872
▁team	-10.6901
▁yua	-10.6903
▁kajsiab	-10.6941
▁prove	-10.6947
▁uasi	-10.6952
▁weeks	-10.6952
▁between	-10.6962
▁fwb	-10.6965
▁issues	-10.6972
▁16	-10.6983
▁yuamkev	-10.6995
▁stop	-10.7024
▁14	-10.7035
dab	-10.7039
▁paim	-10.704
▁ban	-10.7049
▁35	-10.7057
▁find	-10.706
nej	-10.7061
▁everyone	-10.7062
teb	-10.7069
▁chance	-10.7075
▁tv	-10.7087
▁kajntug	-10.7087
▁neohome	-10.7092
▁plhu	-10.7103
▁opportunity	-10.7112
▁ntxuag	-10.7113
▁end	-10.7117
▁great	-10.7138
▁put	-10.7156
▁2005	-10.7166
▁yuas	-10.7177
▁unko	-10.7183
cannot	-10.7188
▁fwjchim	-10.7188
▁county	-10.7192
▁nias	-10.7192
▁ntoos	-10.7198
▁ntsaws	-10.7221
▁npaud	-10.7232
▁nthe	-10.7234
yaj	-10.7236
▁nplajteb	-10.7238
▁nplawm	-10.7239
▁hniaj	-10.7243
▁dlaav	-10.7263
▁80	-10.7267
▁tsig	-10.7268
▁1)	-10.7271
▁form	-10.728
▁dais	-10.7283
▁idea	-10.7285
▁txhav	-10.7288
paub	-10.7292
▁tsawm	-10.7295
▁txhuv	-10.7295
▁dc	-10.7303
▁nqos	-10.7305
▁ny	-10.7306
▁qa	-10.7306
▁ntxais	-10.7318
▁bank	-10.732
▁tiamsi	-10.7322
▁kiav	-10.7341
▁ywjpheej	-10.7341
▁anyone	-10.7367
▁sacramento	-10.7368
▁politics	-10.7369
▁zeeg	-10.7375
▁dluab	-10.7379
▁luang	-10.7388
▁pathet	-10.7392
▁something	-10.7393
▁pabcuam	-10.7394
▁ntxhw	-10.7394
▁fim	-10.7394
▁dhlau	-10.7395
▁om	-10.7417
lus	-10.7418
▁lyteck	-10.742
▁phua	-10.7435
▁txoos	-10.7447
▁project	-10.7458
▁meeting	-10.7458
▁someone	-10.7471
▁pluas	-10.7475
▁km	-10.7481
▁yah	-10.7486
▁fawb	-10.7498
▁hoom	-10.7503
▁act	-10.7511
213,	-10.7519
▁nte	-10.7522
▁peter	-10.7525
▁8.	-10.7531
▁ciab	-10.7533
▁2)	-10.7542
▁meejmom	-10.7549
▁sorry	-10.7552
▁language	-10.7552
▁top	-10.7554
▁uatsaug	-10.7561
▁science	-10.7563
▁cuaj	-10.7584
▁meaning	-10.7592
▁mojthem	-10.7603
ub	-10.7614
▁leem	-10.7623
▁yuj	-10.7625
▁tsaab	-10.7625
▁2006	-10.7627
▁pag	-10.7643
▁90	-10.7648
▁xovtooj	-10.7655
▁moov	-10.7667
▁ped	-10.7671
▁bush	-10.7684
▁yeeg	-10.7711
▁yoov	-10.7715
▁special	-10.7719
▁term	-10.7724
▁club	-10.7727
▁ntaug	-10.7733
▁pleev	-10.7734
▁thaaj	-10.7736
▁laim	-10.7737
▁xaim	-10.7743
▁txa	-10.7757
▁dulug	-10.7762
yeej	-10.7785
▁anything	-10.7788
▁else	-10.7788
▁obama	-10.7789
▁zeemmuag	-10.7789
▁mim	-10.78
▁master	-10.7816
▁sivyis	-10.7818
▁tomqab	-10.7825
20	-10.7835
▁fair	-10.784
▁youtube	-10.7843
▁ntxag	-10.7849
▁uali	-10.7865
id	-10.7865
▁ntaiv	-10.787
▁lfc	-10.7871
▁liag	-10.7879
▁kao	-10.7879
▁doing	-10.7884
▁pkh	-10.7898
▁past	-10.791
▁lycee	-10.7924
▁qog	-10.7925
mong	-10.793
▁diav	-10.7955
suav	-10.7958
muab	-10.7968
▁turn	-10.798
▁mobsiab	-10.7984
▁wow	-10.7984
▁line	-10.7989
▁khaib	-10.8011
▁75	-10.802
▁khoos	-10.8041
▁situation	-10.8048
▁speech	-10.806
▁legal	-10.8061
▁volunteer	-10.8063
▁rawsli	-10.8082
tseem	-10.8086
▁judge	-10.8103
▁tshuas	-10.8117
▁txhuas	-10.8119
▁little	-10.8119
▁tai	-10.8142
▁unhcr	-10.8145
▁kaaj	-10.8145
▁tshaav	-10.8146
▁vib	-10.8147
▁land	-10.8162
▁ruas	-10.8164
▁nuvntses	-10.8173
▁teng	-10.8174
▁mais	-10.8175
▁xaws	-10.82
▁answer	-10.8215
▁chua	-10.8218
▁ghov	-10.8228
▁*	-10.8247
▁john	-10.8251
▁enjoy	-10.826
▁off	-10.8264
▁plog	-10.8268
pom	-10.8269
▁tsavneeg	-10.8288
▁moobleeg	-10.829
▁young	-10.8293
▁second	-10.83
▁phuv	-10.83
▁bangkok	-10.8313
▁sunday	-10.8314
▁fuabtais	-10.8319
▁kawv	-10.8333
▁thaud	-10.8377
le	-10.8381
▁copy	-10.8381
▁follow	-10.8381
▁plis	-10.8401
▁ncaug	-10.8405
ntxhais	-10.8406
▁white	-10.8407
kawg	-10.8408
▁sy	-10.8414
▁tsag	-10.8416
▁least	-10.8428
▁nroo	-10.8429
▁ntxhias	-10.8431
▁nc	-10.8452
▁vdo	-10.8457
▁naw	-10.8459
ll	-10.846
▁nyo	-10.8463
on	-10.8468
▁tabsim	-10.8484
dr	-10.8487
▁xuaj	-10.8488
▁maub	-10.849
▁1000	-10.849
▁txam	-10.8494
"...	-10.8494
▁pestsawg	-10.8514
▁until	-10.8514
▁samthong	-10.8514
▁tejzag	-10.8526
▁ihss	-10.8544
▁yuad	-10.8545
▁hnia	-10.855
▁far	-10.8551
▁xaab	-10.8557
▁professional	-10.856
▁join	-10.8567
▁age	-10.8572
▁bomb	-10.8573
▁lajlim	-10.8573
nplog	-10.8582
▁stroke	-10.8587
▁khuj	-10.8594
▁lais	-10.8594
▁moghlub	-10.8603
▁kham	-10.8608
▁zes	-10.8619
▁fight	-10.8644
▁raj	-10.8645
▁ntwg	-10.8662
or	-10.868
▁zaam	-10.869
▁heart	-10.8695
▁madison	-10.8695
▁vinai	-10.8698
▁asmeskas	-10.8721
▁huaj	-10.874
▁chwv	-10.8748
▁nrad	-10.8755
sib	-10.8756
▁haas	-10.876
▁qi	-10.8765
▁per	-10.8765
▁hwb	-10.8778
▁zim	-10.881
yam	-10.8816
▁action	-10.8826
lug	-10.8827
▁already	-10.8837
▁vaammeej	-10.8837
▁5-6	-10.884
▁amelicas	-10.8853
▁lake	-10.8856
▁luck	-10.8867
▁saturday	-10.8869
▁kes	-10.8884
▁lua	-10.8886
▁taig	-10.889
▁rhaub	-10.8898
▁pajtsab	-10.8898
▁yet	-10.8898
▁ntsub	-10.8899
▁500	-10.891
▁npuaj	-10.8915
▁nploglab	-10.8932
▁mee	-10.8936
▁kuag	-10.8937
laus	-10.8937
▁tshwmsim	-10.8959
▁zawm	-10.8959
▁nthi	-10.8962
ntuj	-10.8976
ruam	-10.8976
▁society	-10.899
▁npuag	-10.8992
tom	-10.9
▁number	-10.9007
▁ntsujplig	-10.9019
▁leadership	-10.9021
▁night	-10.9038
▁body	-10.9051
▁vob	-10.9054
▁tsoos	-10.9077
▁laag	-10.9078
▁ntso	-10.908
▁committee	-10.9098
▁kaug	-10.9112
▁tsees	-10.9115
▁face	-10.9126
▁hluag	-10.9127
▁bill	-10.9128
▁nqhis	-10.9142
▁job	-10.9161
▁above	-10.9172
▁ntshaav	-10.9174
▁ntsoog	-10.9175
▁pebcaug	-10.9178
▁sao	-10.9188
▁council	-10.919
▁thought	-10.9193
▁north	-10.9203
▁pluaj	-10.9205
▁rpa	-10.9205
▁center	-10.9222
▁colorado	-10.9234
▁hmantsuab	-10.9235
▁npaumli	-10.9239
▁ntxhai	-10.9243
▁haam	-10.9244
▁qhovtwg	-10.9248
▁tsimnyog	-10.9266
▁nyeej	-10.9268
▁military	-10.9268
▁yaub	-10.9297
▁rig	-10.9298
▁lolus	-10.9305
▁sign	-10.9319
▁open	-10.9328
▁nrim	-10.9329
▁quasyawg	-10.9333
▁qhau	-10.9346
▁pham	-10.9348
▁ed	-10.9358
▁zij	-10.9362
▁tax	-10.9362
▁saw	-10.9364
▁povtseg	-10.9393
▁times	-10.9393
▁oj	-10.9395
▁17	-10.9396
▁povthawj	-10.9396
▁perfect	-10.9422
▁ntxiag	-10.9426
▁maybe	-10.9454
▁friday	-10.9456
▁tshais	-10.9466
▁mu	-10.9467
▁hlaus	-10.9468
▁away	-10.947
▁choice	-10.9473
▁nkaj	-10.9488
▁xyab	-10.9491
z	-10.9496
▁east	-10.9523
▁daus	-10.9523
▁txus	-10.9525
▁lwv	-10.9526
▁sibhlub	-10.9538
▁52	-10.9547
▁private	-10.9553
▁2012	-10.9559
▁askiv	-10.9583
▁living	-10.9583
▁vt	-10.9588
▁mission	-10.9603
▁nkau	-10.9606
▁te	-10.9611
▁npliaj	-10.9613
▁thawb	-10.9616
to	-10.9617
▁whole	-10.9618
▁ruag	-10.9618
▁used	-10.9631
▁lot	-10.9635
hide	-10.9641
▁enough	-10.9643
▁bias	-10.9649
▁vov	-10.9651
▁rag	-10.9657
▁dabtsis	-10.9669
▁yaws	-10.9674
▁taij	-10.9685
▁goal	-10.9691
▁nyooj	-10.9693
▁accept	-10.9712
▁ntxi	-10.9729
▁feet	-10.9735
▁xiv	-10.9742
▁unless	-10.9747
▁tibyam	-10.9752
▁happen	-10.9759
▁lej	-10.9761
▁commander	-10.9764
▁ncau	-10.9766
▁khuaj	-10.978
▁subject	-10.9797
en	-10.9803
▁ready	-10.9812
▁dluag	-10.9817
▁yogli	-10.9821
▁came	-10.9825
▁toob	-10.9836
▁nplaj	-10.9843
▁cuj	-10.9846
▁ever	-10.9847
xav	-10.9852
51	-10.9858
▁khao	-10.9861
▁practice	-10.9862
▁benefit	-10.9864
▁phu	-10.9868
▁maim	-10.9871
▁ntr	-10.9871
xeem	-10.9871
▁chong	-10.9876
▁ntxaws	-10.9877
be	-10.9888
▁park	-10.989
▁yawglaus	-10.9899
▁cause	-10.9901
▁66	-10.9915
▁qhias	-10.9919
▁noi	-10.9929
▁difference	-10.993
▁txaaj	-10.9943
▁tshauv	-10.9947
▁through	-10.9954
▁yaw	-10.9965
▁vau	-10.9974
um	-10.9976
▁earth	-10.9977
▁thawm	-10.9977
▁summer	-10.9978
▁zig	-10.9979
▁xua	-10.9984
▁ak	-10.9997
▁qhovmuag	-11.0006
▁address	-11.0008
▁fgvp	-11.0009
▁chue	-11.001
▁technology	-11.0011
▁friends	-11.0034
▁nkaujstpaul	-11.0043
▁txujkev	-11.0054
▁former	-11.0058
▁hand	-11.0068
▁together	-11.0077
▁huav	-11.008
▁txhos	-11.0083
▁9.	-11.0086
▁quab	-11.0092
▁refugee	-11.0099
▁woman	-11.0101
▁george	-11.0112
▁phev	-11.0112
▁yuaj	-11.0117
▁movies	-11.0124
▁khabnab	-11.0145
▁fai	-11.0147
▁neng	-11.0152
▁viv	-11.0154
▁late	-11.0154
tabsi	-11.0157
▁lesson	-11.0167
▁catholic	-11.0168
▁tomntej	-11.018
▁sauv	-11.0189
▁phlu	-11.0206
▁dam	-11.0208
▁nhov	-11.0214
▁kaim	-11.0218
▁hajya	-11.0221
▁individual	-11.0235
▁santa	-11.0246
kawm	-11.0246
▁funny	-11.0249
▁minutes	-11.0253
▁yia	-11.0256
▁hihrw	-11.0283
▁nyaab	-11.0285
▁tsham	-11.0286
▁run	-11.0288
▁father	-11.0306
▁hin	-11.0307
▁black	-11.0307
▁instead	-11.0317
▁thwm	-11.0318
▁today	-11.0322
her	-11.0334
▁naav	-11.0365
▁pk	-11.0371
▁lyfoung	-11.0387
▁once	-11.0389
▁2000	-11.0406
▁hi	-11.0417
▁khaw	-11.0423
▁yoj	-11.0427
▁chinese	-11.0429
▁camp	-11.0429
▁services	-11.0433
▁txhuam	-11.044
▁lead	-11.0441
▁ago	-11.0459
▁cases	-11.0464
pab	-11.047
▁solution	-11.048
▁ku	-11.0488
▁ceevfaj	-11.0492
▁yaiv	-11.0495
▁lwg	-11.0502
▁generation	-11.0515
▁official	-11.0516
▁listhoj	-11.052
▁utc	-11.0527
▁thamkrabok	-11.0527
▁dkj	-11.0528
▁cheng	-11.0528
▁plees	-11.0529
▁phub	-11.0545
ag	-11.055
▁2010	-11.0551
om	-11.0566
▁rais	-11.0578
▁tshai	-11.0581
siv	-11.0584
▁kaas	-11.0585
▁xeebceem	-11.0598
▁txw	-11.0598
▁policy	-11.06
▁yo	-11.06
twg	-11.0601
sis	-11.0602
▁28	-11.0604
▁cuas	-11.0615
▁means	-11.0631
▁kavtsi	-11.0634
▁interesting	-11.0635
▁tagkis	-11.0639
▁days	-11.0641
▁ka	-11.0646
▁attack	-11.0656
▁lawj	-11.0659
▁cos	-11.0665
▁plaab	-11.067
▁ntxaug	-11.067
▁medical	-11.0675
▁dejdawb	-11.0675
▁xya	-11.0699
▁later	-11.0706
▁txis	-11.0709
▁bring	-11.0713
▁rovqab	-11.0718
▁txaum	-11.0719
▁capt	-11.074
▁khoob	-11.0741
▁lhub	-11.0742
▁tshajlij	-11.0743
▁npausuav	-11.0744
▁nod	-11.0744
▁di	-11.0747
aj	-11.0764
▁vajmoob	-11.077
▁remember	-11.0778
▁canada	-11.0779
▁teej	-11.078
▁qhaub	-11.0805
▁states	-11.081
▁nice	-11.0814
▁hmoobvajusa	-11.0816
▁ntxwj	-11.0818
twb	-11.0848
▁hiav	-11.0855
▁retired	-11.0859
▁101	-11.0862
▁pastor	-11.0871
▁son	-11.0873
▁interest	-11.0873
▁milwaukee	-11.0888
▁xwj	-11.0888
▁everything	-11.0888
▁since	-11.0888
▁dlaaj	-11.0891
▁posts	-11.0892
$	-11.0907
▁sev	-11.0917
▁20-30	-11.092
▁yawd	-11.0927
▁pis	-11.0942
▁comment	-11.0949
txog	-11.0958
▁iblub	-11.0962
▁blogliab	-11.0964
▁fund	-11.0967
ia	-11.0968
▁tiao	-11.097
▁south	-11.0997
▁tiamsid	-11.1002
▁dlau	-11.1003
▁rock	-11.1021
▁death	-11.1024
tuaj	-11.1027
▁yesus	-11.1037
▁ntshiab	-11.1037
▁phais	-11.1038
▁thiv	-11.104
▁saying	-11.104
eb	-11.1059
▁bro	-11.106
▁israel	-11.1072
▁txawjvamyias	-11.1072
▁heard	-11.1076
profit	-11.1092
kwv	-11.111
▁create	-11.1111
▁france	-11.1111
▁melikas	-11.1113
▁vacation	-11.1134
▁iv	-11.1135
▁tsos	-11.1154
▁thaab	-11.1154
▁koo	-11.117
poj	-11.1178
▁quj	-11.1187
▁dlig	-11.1187
▁paag	-11.1189
▁carp	-11.1208
▁2007	-11.1219
▁pojntxoog	-11.1225
▁nplaim	-11.1231
▁pwg	-11.1236
▁xau	-11.1247
▁vs	-11.1249
▁ts	-11.1258
dag	-11.1259
▁neev	-11.1264
▁child	-11.1267
▁th	-11.127
????	-11.1275
▁nqua	-11.1287
▁traitor	-11.1291
dej	-11.1294
▁txhu	-11.1299
▁snow	-11.1301
▁2013	-11.1303
▁lecaag	-11.1303
ve	-11.1304
▁2004	-11.1305
▁mental	-11.1306
▁xais	-11.1309
▁set	-11.1316
▁id	-11.1317
▁kwvluag	-11.1318
▁date	-11.1323
▁continue	-11.1323
▁deja	-11.1325
▁citizen	-11.1326
▁apply	-11.1338
▁wausau	-11.1338
▁while	-11.1338
▁voos	-11.1339
▁either	-11.1339
▁clan	-11.1341
lo	-11.1342
▁ntswj	-11.1351
▁event	-11.1365
▁normal	-11.1372
▁pheeb	-11.1376
▁ntxeem	-11.1378
▁nqaa	-11.1382
52	-11.1384
▁et	-11.1388
▁nt	-11.1392
▁gm	-11.1428
▁70	-11.1432
tes	-11.144
▁2008	-11.144
▁limit	-11.1441
▁rule	-11.1442
vp	-11.1449
▁ntsejmuag	-11.1457
▁phoos	-11.146
og	-11.1467
▁ibtxwm	-11.1468
▁record	-11.1478
▁dead	-11.1479
▁game	-11.1479
▁noobneej	-11.1494
▁reality	-11.1494
▁1980	-11.1499
▁wat	-11.1505
▁veteran	-11.1515
▁hub	-11.1525
▁maab	-11.1531
▁century	-11.1532
▁possible	-11.1532
▁dlaws	-11.1533
▁tshis	-11.1536
▁xiab	-11.1537
▁view	-11.1539
aw	-11.1554
▁knowledge	-11.1558
▁ntaw	-11.156
▁cale	-11.1566
▁nceeg	-11.1573
▁positive	-11.1573
▁called	-11.1575
▁prabang	-11.1611
▁ntsaw	-11.1612
▁moslwj	-11.1612
▁move	-11.1625
▁xev	-11.1653
▁yaa	-11.1655
▁puavleej	-11.1656
▁meme	-11.1657
▁wish	-11.1663
▁phij	-11.1666
▁charge	-11.1675
hnub	-11.168
txawm	-11.1684
▁vajlugkub	-11.169
▁lulug	-11.1691
al	-11.1694
▁xo	-11.1698
▁challenge	-11.171
▁thi	-11.1715
▁chawj	-11.1723
▁children	-11.1729
▁step	-11.1746
▁ana	-11.1747
wb	-11.1762
tug	-11.1765
▁green	-11.1767
▁saibseb	-11.1775
txawj	-11.1781
▁xyua	-11.1785
xyoo	-11.1792
▁agenda	-11.1796
▁raab	-11.181
one	-11.181
▁dongdok	-11.181
▁lpd	-11.181
▁nyug	-11.1814
▁fun	-11.1824
▁watch	-11.1825
▁rovlos	-11.1846
▁monday	-11.1851
▁suv	-11.1855
▁nraab	-11.1856
▁vab	-11.1866
ng	-11.1874
▁thaumtwg	-11.1888
▁michigan	-11.189
▁qhwv	-11.1891
thread	-11.1892
▁mung	-11.1893
▁ibtug	-11.1899
▁head	-11.1903
▁bis	-11.1904
▁kaag	-11.191
▁heaven	-11.1919
▁short	-11.1934
▁original	-11.1934
▁hawv	-11.1939
▁naab	-11.1939
▁3)	-11.194
▁daw	-11.195
▁walk	-11.1959
▁chai	-11.196
coj	-11.1968
▁pluav	-11.1974
▁stay	-11.2
loj	-11.2003
▁yt	-11.2005
▁thev	-11.2013
▁amekas	-11.2013
▁jail	-11.2015
▁suavdaws	-11.2015
▁nqai	-11.2015
▁khuav	-11.2021
▁groups	-11.203
ntau	-11.2032
▁kill	-11.204
▁agent	-11.2043
▁nh	-11.2049
▁might	-11.2052
▁taav	-11.2055
▁welfare	-11.2055
▁talking	-11.2056
zhen	-11.2058
▁plus	-11.206
▁pig	-11.207
---------------	-11.2074
▁txum	-11.2076
▁stand	-11.2083
▁negative	-11.2096
▁army	-11.2097
▁nrag	-11.2107
▁tseb	-11.2109
▁das	-11.2118
▁nation	-11.2126
▁ntuv	-11.2136
▁insurance	-11.2137
▁touby	-11.2138
▁wayne	-11.2138
▁qia	-11.215
ai	-11.2156
▁tem	-11.2158
▁iav	-11.2173
▁xamphaj	-11.2179
▁mejthaub	-11.2182
tias	-11.2217
▁peeb	-11.2218
▁dheev	-11.2222
▁xeng	-11.2222
▁nkig	-11.2222
▁tsuab	-11.2222
▁yej	-11.2227
▁com	-11.2242
▁nras	-11.2247
▁plau	-11.2248
▁house	-11.225
▁page	-11.2259
▁guarantee	-11.226
▁box	-11.2263
▁roog	-11.2264
yawm	-11.2268
ntawv	-11.2273
▁guys	-11.2273
▁within	-11.2289
▁ntis	-11.2301
it	-11.2303
▁theory	-11.2309
▁pubthawj	-11.2311
tswv	-11.2312
▁nkaub	-11.2312
▁xuam	-11.2314
▁chi	-11.2318
▁caab	-11.2318
uas	-11.2325
▁rev	-11.2331
thawj	-11.2333
▁statement	-11.2334
▁become	-11.2335
ne	-11.235
▁phiam	-11.2352
▁nwslub	-11.2369
▁fav	-11.237
▁anyway	-11.2375
▁behind	-11.2389
▁tubcajceszoo	-11.239
▁conference	-11.2419
29	-11.242
▁medal	-11.2421
▁kaujruam	-11.2432
▁nasthis	-11.2434
dawb	-11.2435
▁dlag	-11.2436
▁zoox	-11.2442
saib	-11.2454
▁txheev	-11.2475
▁nyaav	-11.2475
▁jungle	-11.2476
▁thuj	-11.2478
▁hias	-11.2478
▁ntseeb	-11.2486
▁yuv	-11.2489
..?	-11.2492
▁force	-11.2496
▁yu	-11.2501
▁service	-11.2505
▁questions	-11.2519
▁meliskas	-11.2519
lam	-11.252
▁nyuav	-11.2524
▁dawj	-11.2524
▁book	-11.2535
kub	-11.2536
▁jpg	-11.2547
▁promote	-11.2552
▁vajpov	-11.2569
▁bus	-11.2573
▁cher	-11.2586
▁regard	-11.2592
group	-11.2593
▁ncho	-11.2595
▁grade	-11.2599
soc	-11.2602
▁npuj	-11.2608
▁ncaus	-11.2622
▁tuj	-11.2644
wv	-11.2645
▁noogqejqawg	-11.2649
▁nplig	-11.265
▁7-8	-11.265
▁tsoobniam	-11.265
▁naag	-11.265
▁khua	-11.2655
▁dabqhuas	-11.2657
▁ip	-11.2658
▁simple	-11.2687
rau	-11.2688
▁vaajmung	-11.2692
▁dlov	-11.2694
▁cultural	-11.2696
▁flip	-11.2704
during	-11.272
▁nong	-11.2734
▁nyaablaaj	-11.2736
▁nqug	-11.2737
▁blong	-11.2738
▁tz	-11.2743
▁yod	-11.2745
▁hahahahahahaha	-11.2756
▁nib	-11.2765
▁thinking	-11.277
▁rest	-11.2774
mej	-11.2774
▁ntshis	-11.2786
im	-11.2793
▁test	-11.2802
liab	-11.2811
▁die	-11.2813
▁marriage	-11.2814
▁feeling	-11.2816
▁deal	-11.2827
▁ciasiab	-11.2849
▁puaj	-11.2852
▁washington	-11.287
▁npojyaig	-11.287
▁ncav	-11.2871
▁middle	-11.2873
tim	-11.2874
▁thuas	-11.2875
▁tshob	-11.2879
▁hib	-11.2885
▁seconds	-11.2891
▁soon	-11.2901
▁jeeg	-11.2916
txhob	-11.2916
▁xwbfwb	-11.2925
▁nig	-11.2925
▁hh	-11.2926
thov	-11.2932
▁qeeg	-11.2953
▁chang	-11.2955
▁hmoobdawb	-11.2963
▁voj	-11.2966
▁zooniamtsev	-11.2969
▁08	-11.2972
▁ntsaj	-11.2976
▁result	-11.2992
▁chief	-11.2994
nub	-11.2995
▁pawv	-11.2996
nyiaj	-11.3009
▁start	-11.3015
▁ni	-11.3015
▁fee	-11.3016
kuj	-11.3016
▁yawmsib	-11.3019
▁offer	-11.3021
▁dis	-11.3026
mob	-11.3027
▁cancer	-11.3033
▁19	-11.3038
▁guy	-11.3038
▁laajxeeb	-11.3053
▁dee	-11.3055
▁faiv	-11.3057
▁npliag	-11.3058
▁ex	-11.3063
oj	-11.3072
wm	-11.3074
▁luab	-11.3075
hlub	-11.3082
▁rhu	-11.3093
▁guess	-11.3094
▁asian	-11.3094
▁taamsim	-11.3096
▁dlim	-11.3096
▁pajyeeb	-11.3098
▁personally	-11.3099
▁ntiab	-11.3104
▁qhaj	-11.3127
▁decision	-11.3129
▁therefore	-11.3142
▁khuvxim	-11.3142
▁crazy	-11.3144
▁ntsaum	-11.3145
▁clear	-11.3152
▁tshau	-11.3153
xwb	-11.316
▁namtxiv	-11.3161
▁npluav	-11.3161
▁repeat	-11.3165
▁lawg	-11.3166
▁phob	-11.3169
▁txhaa	-11.3172
40	-11.3174
▁tsaib	-11.3175
▁php	-11.319
▁luav	-11.3201
▁dor	-11.3202
▁dong	-11.3206
▁professor	-11.3222
▁tsus	-11.323
▁federal	-11.3237
▁article	-11.3238
an	-11.3242
tseemyeej	-11.3245
▁bye	-11.3269
▁xoo	-11.3272
▁plaw	-11.3275
▁brothers	-11.3281
▁26	-11.3281
▁npib	-11.3282
▁5000	-11.3296
▁version	-11.3317
and	-11.332
▁complain	-11.3323
▁nros	-11.3325
▁xas	-11.3326
▁sd	-11.3328
sim	-11.3333
▁meeg	-11.3348
▁chee	-11.3354
▁ntos	-11.3357
▁naiphoo	-11.3362
▁principle	-11.3362
▁120	-11.3373
▁diego	-11.3374
▁ba	-11.3376
▁told	-11.3376
▁nteeg	-11.3377
▁1976	-11.3385
▁fue	-11.3397
▁nrauv	-11.3403
▁restaurant	-11.3409
▁tajlaj	-11.3422
▁zehn	-11.3422
▁mavtais	-11.3423
▁victims	-11.3428
▁caaj	-11.3428
▁suam	-11.344
ma	-11.3444
▁03	-11.3447
▁ah	-11.3448
▁thornspear	-11.3453
▁sibpab	-11.3459
▁zo	-11.3469
▁fuam	-11.3471
▁royal	-11.3472
muas	-11.3482
▁ntxhua	-11.3493
▁knows	-11.3494
xeeb	-11.3495
tag	-11.3502
▁tong	-11.3504
▁faab	-11.3505
law	-11.3509
▁common	-11.3512
▁contact	-11.3513
▁36	-11.3513
▁hehehehehehe	-11.3514
▁serious	-11.3516
▁bojyaig	-11.3516
▁nyhiab	-11.3516
▁easy	-11.3517
▁zias	-11.3521
▁thais	-11.3528
nom	-11.3541
▁khiab	-11.3549
▁qhe	-11.3552
▁officer	-11.3553
▁hmov	-11.3558
▁ambassador	-11.3565
▁qoog	-11.3566
▁chais	-11.358
▁hlaa	-11.3581
▁license	-11.3582
▁theev	-11.3583
▁refugees	-11.3584
▁tsaub	-11.3606
▁west	-11.361
▁balance	-11.3611
▁xang	-11.3621
▁29	-11.3635
▁advice	-11.3648
▁represent	-11.3649
tuag	-11.365
▁qev	-11.3653
you	-11.3657
▁forward	-11.3661
▁koomhum	-11.3662
▁constitution	-11.3662
▁dia	-11.3669
▁pass	-11.3689
▁ntsais	-11.3689
▁dance	-11.3692
▁main	-11.3696
▁belief	-11.37
▁important	-11.3709
▁doesn	-11.3711
▁nkias	-11.3711
▁according	-11.3713
▁goes	-11.3714
▁xoob	-11.3718
▁pheejxeeb	-11.3719
▁limhiam	-11.3728
▁blood	-11.3746
rov	-11.3749
▁md	-11.3757
▁pheev	-11.376
▁heup	-11.3761
▁pliaj	-11.3764
▁hmob	-11.3764
▁eyes	-11.3764
▁baj	-11.3768
▁ibyam	-11.3769
▁nrav	-11.3774
▁visa	-11.3787
▁koog	-11.3788
▁focus	-11.3789
▁lue	-11.38
▁food	-11.3812
qab	-11.3818
▁npoo	-11.3826
▁txiabneeb	-11.3833
▁ntsees	-11.3851
▁nancy	-11.3857
▁buddha	-11.3858
▁claimed	-11.3859
▁ncoo	-11.3881
▁xh	-11.3882
hauv	-11.3883
▁kha	-11.3896
▁welcome	-11.3904
▁dear	-11.3906
▁embassy	-11.3906
▁muastony	-11.3906
▁cobtsib	-11.3907
▁making	-11.3908
▁defense	-11.3908
▁based	-11.3911
▁dhos	-11.3914
▁thorns	-11.3928
▁hliv	-11.3943
▁source	-11.3946
▁standard	-11.3948
ntawd	-11.3952
▁teck	-11.3955
▁qeg	-11.3956
▁krabok	-11.3956
▁fire	-11.3958
▁nchav	-11.3958
at	-11.3964
▁qhauv	-11.3966
ntse	-11.397
▁bla	-11.3979
▁dob	-11.3988
▁tsha	-11.3992
▁qwb	-11.3999
▁class	-11.4015
▁yi	-11.402
▁khuab	-11.4021
▁hear	-11.4023
▁xieng	-11.4028
▁xyav	-11.4033
▁course	-11.4042
▁losmas	-11.4047
▁blame	-11.4056
▁natural	-11.4058
▁nyawm	-11.4058
▁tshiaj	-11.4058
▁reply	-11.4058
▁nplim	-11.4059
▁cassette	-11.406
ce	-11.407
▁ntaux	-11.4077
▁nyiav	-11.4087
▁purpose	-11.4094
▁card	-11.4097
pov	-11.4102
▁surithay	-11.4106
▁tzexa	-11.4107
▁dok	-11.4112
▁nw	-11.4138
▁serve	-11.4142
▁ncaw	-11.4153
▁cover	-11.4159
▁prime	-11.4159
▁early	-11.4162
▁nwj	-11.4162
▁nations	-11.4173
▁leng	-11.419
▁speak	-11.4194
▁qai	-11.4199
▁1960	-11.4201
▁merced	-11.4206
▁ntxuv	-11.421
▁meka	-11.4211
▁pajcai	-11.4216
▁hawb	-11.4217
news	-11.4229
▁kus	-11.4231
▁sawb	-11.4238
▁oo	-11.4242
▁casino	-11.4259
▁txhib	-11.4263
▁tamsimno	-11.4266
):	-11.4278
nd	-11.4282
▁dollar	-11.4299
)...	-11.4307
▁phaya	-11.4313
▁lijchoj	-11.4313
tsev	-11.4314
▁except	-11.4315
ig	-11.4316
▁rovqaab	-11.4318
▁fall	-11.4318
▁pod	-11.4322
▁vav	-11.4329
▁lubsiab	-11.4332
▁swm	-11.4356
▁beach	-11.4363
▁asmesliskas	-11.4364
▁rwj	-11.4365
▁whatever	-11.4365
▁trying	-11.4365
▁cooj	-11.4367
▁nuam	-11.4386
▁45	-11.4396
▁senator	-11.4404
▁thom	-11.4406
img	-11.4415
▁minneapolis	-11.4416
▁plhis	-11.4417
▁lisfoom	-11.4417
▁poor	-11.442
▁song	-11.4421
▁kids	-11.4422
▁students	-11.4422
10	-11.4428
;&	-11.4429
▁pre	-11.444
▁pau	-11.4448
kab	-11.4452
▁street	-11.4453
▁role	-11.4456
thaib	-11.4467
▁simply	-11.4467
▁thawv	-11.4469
▁xeb	-11.4469
▁full	-11.447
▁ntsoo	-11.4471
▁sivyig	-11.4473
▁300	-11.4476
▁phlus	-11.4487
kas	-11.4506
▁election	-11.4509
▁explain	-11.452
▁nqov	-11.452
▁yaug	-11.4521
▁nrhab	-11.4522
▁gain	-11.4522
▁tugkheej	-11.4524
▁xai	-11.4527
▁qabhau	-11.454
▁market	-11.4558
puas	-11.4562
▁va	-11.4568
▁ceebtsheej	-11.4574
▁xovxwm	-11.4575
▁pug	-11.4577
▁phiab	-11.458
nam	-11.4583
32	-11.4594
▁khai	-11.4604
▁site	-11.4609
▁evil	-11.4616
▁soc	-11.4618
▁consider	-11.4623
▁cujpwm	-11.4626
▁himself	-11.4626
▁nraugnruag	-11.4627
▁kaasmoos	-11.4629
▁6-7	-11.4629
▁leeb	-11.4636
▁muskawm	-11.4644
▁quag	-11.4648
▁covlus	-11.4662
▁sommer	-11.4665
▁civ	-11.4666
▁politician	-11.4668
▁10.	-11.467
▁maaj	-11.4671
tiag	-11.4674
▁though	-11.4676
▁sw	-11.4679
▁sgu	-11.4681
▁phiv	-11.4682
▁rhais	-11.4683
▁hmoobsib	-11.4683
▁hnubkaj	-11.4686
▁loog	-11.4692
▁sys	-11.4697
wg	-11.4701
▁dau	-11.4712
▁qhob	-11.4713
▁press	-11.4713
uv	-11.472
▁foundation	-11.4721
▁went	-11.4735
▁pepsi	-11.4736
▁zuv	-11.4736
▁buy	-11.4736
▁flop	-11.4753
▁khoov	-11.4754
▁pws	-11.4761
▁equal	-11.4773
▁moral	-11.4776
▁save	-11.4778
▁ibleeg	-11.4787
▁bravo	-11.4787
▁indigenous	-11.4789
▁wonder	-11.479
▁air	-11.4792
▁niab	-11.4795
▁seems	-11.4796
▁lubneej	-11.4813
koob	-11.4814
▁interview	-11.4815
▁txojsia	-11.4826
▁23	-11.4828
haus	-11.4829
laug	-11.4831
▁operation	-11.4834
pheej	-11.4837
▁brig	-11.4843
▁phaab	-11.4843
▁similar	-11.4843
▁tsuis	-11.4844
▁thong	-11.4855
▁npoos	-11.4858
he	-11.4862
▁info	-11.4869
tham	-11.4875
▁muj	-11.4875
▁99	-11.4876
▁lagluam	-11.4897
▁clean	-11.4899
▁hmuv	-11.4899
▁december	-11.4899
▁qhawv	-11.49
▁tuskheej	-11.4906
▁super	-11.4922
▁txojcai	-11.4924
▁mother	-11.4935
koom	-11.4939
▁husband	-11.494
nov	-11.4946
▁thia	-11.4949
▁solve	-11.495
▁koomtsihaum	-11.4951
▁nature	-11.4953
paj	-11.4959
▁sivzog	-11.4966
▁zas	-11.4967
▁economic	-11.4968
▁khom	-11.4984
▁concern	-11.4992
▁expert	-11.4994
▁joke	-11.4999
▁tiagx	-11.5001
zog	-11.5007
▁created	-11.5012
▁laum	-11.5013
▁yauj	-11.5015
▁xw	-11.5017
▁2011	-11.5018
▁coobx	-11.5024
▁note	-11.5031
▁york	-11.5038
▁inc	-11.5046
▁having	-11.5047
▁wisdom	-11.5048
▁won	-11.5053
▁phabmab	-11.5063
▁happened	-11.5063
▁hdd	-11.5064
▁nquab	-11.5071
▁auv	-11.5078
_0	-11.5081
▁jan	-11.51
▁contract	-11.5105
▁tubsab	-11.5107
▁leave	-11.5107
lq	-11.511
rd	-11.511
tas	-11.5111
▁txiavtxim	-11.5118
▁dlejnum	-11.5119
▁rather	-11.5119
▁ying	-11.5122
▁refer	-11.5122
▁houa	-11.5122
▁lives	-11.5128
▁meet	-11.514
neej	-11.5147
▁lawyers	-11.5156
▁1979	-11.5157
▁label	-11.5159
tshum	-11.5164
▁governor	-11.5164
▁ro	-11.5166
▁reasons	-11.5173
▁worry	-11.5174
▁tswjfwm	-11.5175
▁detroit	-11.5175
▁fij	-11.5177
nkauj	-11.5179
▁paiv	-11.5181
▁dluav	-11.5182
▁tswg	-11.5182
file	-11.5199
muag	-11.5209
▁kooj	-11.5213
▁koua	-11.5221
▁haislus	-11.5222
▁naikong	-11.5226
▁tagx	-11.5227
ej	-11.5228
▁pejkum	-11.523
▁txajmuag	-11.5232
▁xyeem	-11.5232
▁pressure	-11.5233
▁left	-11.5239
npe	-11.5239
▁trust	-11.5239
▁phuaj	-11.5241
▁win	-11.5249
▁11.	-11.5249
jpg	-11.525
em	-11.5253
▁unpo	-11.5255
up	-11.5256
▁sharing	-11.5261
▁relationship	-11.527
▁base	-11.5271
ntawm	-11.5274
▁affair	-11.5277
▁style	-11.5279
not	-11.528
xx	-11.5281
▁correct	-11.5283
▁involve	-11.5291
▁niajhnub	-11.5294
/0	-11.5297
ther	-11.5304
▁among	-11.5304
▁process	-11.5307
▁willing	-11.5313
▁bs	-11.5336
▁411	-11.5343
▁meska	-11.5343
▁enemy	-11.5345
▁ncaig	-11.5347
▁lai	-11.5348
▁qabzib	-11.535
▁nyiab	-11.535
▁dlog	-11.5353
▁hlos	-11.5356
▁aus	-11.5358
zeb	-11.5362
"?	-11.5367
▁nee	-11.5393
▁xyas	-11.5393
▁qhiav	-11.5394
▁nrhia	-11.5395
▁forget	-11.5402
▁needs	-11.5403
▁asked	-11.5404
▁miles	-11.5406
▁txhub	-11.541
▁cum	-11.5432
▁india	-11.5439
▁due	-11.5443
▁attorney	-11.5446
▁tsiag	-11.5447
▁expect	-11.546
▁saykao	-11.546
▁ntxheb	-11.5462
▁tshos	-11.5467
▁doog	-11.5468
▁noom	-11.5475
▁ntxhoo	-11.5483
▁kee	-11.5502
▁iraq	-11.551
▁toulia	-11.5512
▁xwmtxheej	-11.552
▁npawb	-11.552
mn	-11.5535
▁sas	-11.5536
▁ntxhib	-11.5546
▁abuse	-11.5551
tij	-11.5552
▁detail	-11.5566
▁hlav	-11.5566
thiaj	-11.5566
meo	-11.5567
▁$1	-11.5568
▁liajdawb	-11.5577
▁gab	-11.5584
▁comes	-11.5586
haum	-11.559
posting	-11.5597
▁ideas	-11.5606
▁vajhmoob	-11.5613
▁paam	-11.5614
dev	-11.5615
cj	-11.5618
▁water	-11.5627
she	-11.5631
▁key	-11.5632
▁koobmeej	-11.5637
▁vice	-11.5638
▁train	-11.5638
▁logic	-11.5638
▁march	-11.5638
▁small	-11.5642
▁thij	-11.5645
▁xawb	-11.5646
▁kuav	-11.566
▁sibhaum	-11.5663
▁bo	-11.5675
▁haavzoov	-11.5694
▁vieng	-11.5696
▁vws	-11.5698
▁ncab	-11.5699
▁haha	-11.5705
▁suavteb	-11.5719
▁return	-11.5737
ws	-11.5739
▁problems	-11.5748
▁phwvyawm	-11.5755
▁iabliam	-11.5755
▁present	-11.5756
▁november	-11.5757
▁david	-11.576
▁french	-11.5763
▁qig	-11.5764
"....	-11.5773
▁1-	-11.579
▁27	-11.5798
▁saint	-11.5803
▁town	-11.5808
▁africa	-11.581
▁lwmtus	-11.5811
▁works	-11.5811
▁staff	-11.5813
▁foos	-11.5816
▁ntswv	-11.5817
▁zaab	-11.5818
▁nkawg	-11.5818
▁vietnamese	-11.5819
▁(2)	-11.5821
▁pias	-11.5821
▁majority	-11.5821
tu	-11.5827
▁cal	-11.5828
▁iha	-11.586
▁account	-11.586
▁davhlau	-11.5862
▁ticket	-11.5862
quav	-11.5867
▁hnug	-11.5875
▁qov	-11.5876
▁busy	-11.5879
nrog	-11.5881
▁cell	-11.5883
▁ged	-11.5884
▁(1)	-11.5889
▁kawmntawv	-11.5897
▁update	-11.592
▁medicine	-11.5922
▁dec	-11.5928
cas	-11.5928
▁xibhwb	-11.5935
▁wait	-11.5935
▁parents	-11.5938
communist	-11.5944
▁search	-11.5951
ko	-11.5959
▁tsub	-11.5965
un	-11.597
▁nongkhai	-11.5983
▁authority	-11.5995
▁attention	-11.5997
▁pheem	-11.5998
▁justice	-11.5998
▁txoob	-11.6003
▁ntsaig	-11.6006
▁txwb	-11.6008
▁hate	-11.6011
▁vais	-11.6017
▁nphoo	-11.6037
▁ceslawv	-11.6039
▁1,	-11.604
▁close	-11.6043
▁cousin	-11.6045
if	-11.6051
▁sister	-11.6054
▁generals	-11.6054
▁exactly	-11.6057
▁tivthaiv	-11.6057
▁hluasnkauj	-11.6068
▁34	-11.6077
▁32	-11.6077
▁phia	-11.6085
▁hero	-11.6087
▁ntoj	-11.6092
▁huh	-11.6103
▁intention	-11.6106
▁txhias	-11.6117
▁sawdaws	-11.6118
▁txeev	-11.6119
▁jerry	-11.6119
▁plhuav	-11.6119
▁pobntseg	-11.6119
▁puavpheej	-11.6122
▁vej	-11.6122
▁looking	-11.6125
lauj	-11.6135
!!!!!	-11.6138
drg	-11.6138
maj	-11.6139
▁nyobzoo	-11.6147
▁niamyau	-11.6149
▁nts	-11.6151
haiv	-11.6152
▁writing	-11.6168
▁khas	-11.6171
▁less	-11.6171
▁ntxhuv	-11.618
▁naiphom	-11.6183
▁western	-11.6183
▁ntaubntawv	-11.6184
▁whe	-11.6186
▁roos	-11.6186
▁tsug	-11.6192
▁movtshua	-11.6195
▁comments	-11.6203
▁thuv	-11.6206
uj	-11.6207
▁nrob	-11.6207
▁hmoog	-11.6218
tso	-11.6222
-28	-11.6234
▁month	-11.6235
neeb	-11.6245
▁drive	-11.6247
▁working	-11.6252
=1	-11.6253
▁tshaw	-11.6264
xws	-11.6266
▁1972	-11.6267
▁phak	-11.6277
▁aiv	-11.628
▁youa	-11.629
▁association	-11.6293
▁couple	-11.6294
god	-11.6302
▁deg	-11.6304
▁brgds	-11.6306
▁yy	-11.6308
▁npiab	-11.6308
▁cheej	-11.6312
▁didn	-11.6313
▁single	-11.6318
▁pai	-11.6329
▁khauj	-11.633
▁tsoov	-11.634
iv	-11.6356
▁income	-11.6357
▁direct	-11.6358
▁terrorist	-11.6362
▁thav	-11.6364
▁ps	-11.6368
▁build	-11.6369
▁saam	-11.6371
▁media	-11.6375
edit	-11.6384
▁hang	-11.6386
▁seen	-11.639
▁nqia	-11.64
▁ag	-11.6413
▁nhia	-11.6431
▁dlai	-11.6432
▁stabbing	-11.6433
▁zwj	-11.6434
▁cheb	-11.6434
▁nploj	-11.6435
▁maamle	-11.6436
▁haujsam	-11.6436
ho	-11.6439
▁lisnom	-11.6442
▁nquam	-11.6442
hnov	-11.6446
▁ntxo	-11.6459
▁hold	-11.6463
▁dvd	-11.6486
▁room	-11.6493
▁protect	-11.6497
▁tuesday	-11.6498
▁baby	-11.6498
▁jews	-11.65
▁cug	-11.6501
▁laab	-11.6502
▁kwvtxhiaj	-11.6505
▁ceskuv	-11.6507
we	-11.6519
hluas	-11.6538
▁des	-11.6542
▁passport	-11.6549
▁hurt	-11.6554
▁tshom	-11.6554
▁further	-11.6562
▁nqhuab	-11.6562
▁asthiv	-11.6564
▁npub	-11.6565
▁txheebze	-11.6565
▁ntxia	-11.6565
▁author	-11.6597
▁local	-11.6599
tsam	-11.6601
hu	-11.6605
▁write	-11.6613
▁race	-11.6615
▁leejhmoob	-11.6622
▁cambodia	-11.6627
▁themselves	-11.6627
▁boss	-11.6627
▁nyaaj	-11.6628
▁pdr	-11.6634
▁pho	-11.6647
▁toua	-11.6649
ca	-11.6652
▁lhi	-11.6653
▁phong	-11.6655
▁xoua	-11.6657
▁thej	-11.6662
▁nyia	-11.6666
tua	-11.6672
▁scam	-11.6676
▁discussion	-11.6679
▁gay	-11.6685
▁wa	-11.6686
▁phus	-11.6689
▁txhooj	-11.6692
▁npawv	-11.6693
▁mpls	-11.6693
**	-11.6694
▁religious	-11.6695
▁ywv	-11.6696
▁dawg	-11.6701
thaub	-11.6709
dub	-11.6719
txoj	-11.672
▁loom	-11.672
▁phaw	-11.6727
▁organizations	-11.6741
▁include	-11.6743
▁brain	-11.6744
▁add	-11.6747
▁tibsis	-11.6752
▁dhla	-11.6755
▁yee	-11.6756
▁compromise	-11.676
▁lawbdab	-11.6762
▁5-10	-11.6763
cia	-11.6781
ew	-11.6784
▁kig	-11.6784
▁thauv	-11.6791
▁ntw	-11.6808
▁eh	-11.6811
▁protest	-11.6815
▁beemouachaofa	-11.6818
▁koobhmoov	-11.6825
▁alone	-11.6825
▁hospital	-11.6825
▁christianity	-11.6827
▁usp	-11.6836
▁poo	-11.6856
ntsuab	-11.6869
▁tank	-11.6872
▁viet	-11.6873
▁training	-11.6877
▁tasli	-11.6879
tawm	-11.6883
▁appleton	-11.6891
▁tuabyaam	-11.6892
▁click	-11.6894
▁joe	-11.6894
▁meejpem	-11.6894
▁penny	-11.6898
hl	-11.69
▁hell	-11.6902
▁ple	-11.6903
▁vaub	-11.6905
ta	-11.6909
▁khis	-11.692
▁dlu	-11.6927
▁qabteb	-11.6939
▁dont	-11.694
▁pilot	-11.6947
▁disability	-11.6958
▁michael	-11.696
▁latin	-11.696
▁yiag	-11.6961
▁along	-11.6962
tsuas	-11.6963
▁nraj	-11.6979
▁wants	-11.698
co	-11.6982
▁keev	-11.7014
▁nraub	-11.7017
-6	-11.7018
▁hot	-11.7018
▁xyomcuab	-11.7026
▁secretary	-11.7028
txhua	-11.7029
▁file	-11.7056
▁plua	-11.7057
browse	-11.706
▁mig	-11.7063
▁trau	-11.7064
txwv	-11.7066
▁strong	-11.7086
▁xwsli	-11.7089
▁listen	-11.7092
▁txeej	-11.7093
▁lasvoos	-11.7095
24	-11.7095
▁mentality	-11.7096
▁schers	-11.7098
▁nchaiv	-11.7107
▁hands	-11.712
amp	-11.7129
▁xaum	-11.7144
▁screen	-11.7147
▁2014	-11.7149
▁hleb	-11.715
▁saws	-11.7152
▁propaganda	-11.7162
▁lcsa	-11.7162
▁nriaj	-11.7162
▁gary	-11.7163
▁strategy	-11.7163
▁thabham	-11.7164
▁oct	-11.7165
▁central	-11.7167
▁dla	-11.7169
▁doua	-11.7177
▁tsheeb	-11.7182
▁meant	-11.719
pob	-11.7193
chaw	-11.7207
▁safe	-11.7207
▁innocent	-11.7217
▁crime	-11.7219
▁txu	-11.7224
▁shall	-11.7231
▁nyhuv	-11.7232
▁clarify	-11.7232
▁status	-11.7232
▁zuav	-11.7232
▁inside	-11.7233
▁npug	-11.7233
▁physical	-11.7235
▁cost	-11.7244
▁$100	-11.7248
▁hee	-11.7256
▁qaus	-11.7258
▁4)	-11.7269
▁define	-11.7284
xwm	-11.7286
▁table	-11.7289
▁model	-11.729
▁spirit	-11.7291
▁total	-11.7292
▁chuhu	-11.7298
▁lajleeb	-11.73
▁oshkosh	-11.7302
▁phajej	-11.7302
▁np	-11.7304
▁paws	-11.7304
▁tojxeem	-11.7307
nyuj	-11.7308
sharing	-11.7332
do	-11.7359
▁kj	-11.736
▁visit	-11.7366
▁smart	-11.7372
▁three	-11.7373
▁june	-11.7375
▁hnd	-11.7375
▁ntsav	-11.7379
▁educated	-11.738
▁naisphoo	-11.7385
▁vias	-11.7395
▁stated	-11.7396
▁compare	-11.741
▁naib	-11.744
▁taubhaus	-11.744
▁ncajncees	-11.7441
▁sooblwj	-11.7442
▁schlers	-11.7442
▁pivtxwv	-11.7442
▁nthab	-11.7443
▁reading	-11.7445
▁dirty	-11.7445
▁mub	-11.7449
ion	-11.7457
aub	-11.746
▁rules	-11.7466
▁took	-11.747
▁65	-11.7482
▁risk	-11.7497
se	-11.7509
▁toward	-11.7514
▁written	-11.7514
▁final	-11.7515
▁nkaws	-11.7517
▁hmoobnplog	-11.7519
▁caam	-11.7534
▁events	-11.7537
▁lubtebchaws	-11.7539
▁points	-11.7539
▁khauv	-11.7544
▁beeveev	-11.7546
▁honor	-11.7551
▁lack	-11.7551
▁kou	-11.7554
ee	-11.7565
▁connection	-11.757
▁music	-11.757
▁station	-11.7571
▁gossip	-11.7572
▁regardless	-11.7584
▁ntaaj	-11.7585
▁khouang	-11.7587
▁zero	-11.7588
▁txhaub	-11.759
▁phoom	-11.7592
yeeb	-11.7595
▁heem	-11.7598
▁npauj	-11.7606
hos	-11.761
ny	-11.7612
turning	-11.7627
yim	-11.763
▁cut	-11.7632
laj	-11.7632
▁thiav	-11.7639
▁vaccine	-11.7641
▁mouth	-11.7641
▁low	-11.7641
▁alaska	-11.7642
▁character	-11.7644
▁pany	-11.7653
▁break	-11.7655
▁taumdub	-11.7655
▁girl	-11.7655
▁foreign	-11.7657
tsij	-11.7657
▁basic	-11.7658
▁tseej	-11.7659
html	-11.7661
▁dlav	-11.7662
▁ia	-11.7666
?)	-11.7668
▁fong	-11.7668
▁ntsag	-11.7673
▁npauv	-11.768
puj	-11.7693
▁khang	-11.7705
▁truck	-11.7715
▁trip	-11.7718
▁intellectual	-11.7719
▁hnyiab	-11.7727
▁directly	-11.7728
▁actually	-11.7728
▁mebthaub	-11.7728
▁ministry	-11.7729
▁ploog	-11.7731
▁fit	-11.7732
▁osxaum	-11.7734
▁zauv	-11.7734
▁doc	-11.774
▁mias	-11.7743
▁npeeg	-11.7743
▁npluas	-11.7746
▁obtug	-11.7756
▁treat	-11.7774
txiabneeb	-11.778
has	-11.7781
8.	-11.7783
▁provide	-11.7784
▁maslawv	-11.7787
▁corruption	-11.779
▁light	-11.7795
▁abtsi	-11.7799
▁rtg	-11.7801
▁ntxoo	-11.7801
50	-11.7801
▁study	-11.7801
▁myself	-11.7802
▁thursday	-11.7802
▁vajhuam	-11.7804
▁ntsum	-11.7805
▁yeev	-11.7807
▁haumxeeb	-11.7808
▁nauj	-11.7812
▁pheng	-11.7828
qaib	-11.7832
▁ncha	-11.7842
▁sibkoom	-11.7852
la	-11.7856
▁ge	-11.7856
▁hlubhmoob	-11.7857
▁txhai	-11.7858
nas	-11.7858
ev	-11.7859
suc	-11.7862
▁kw	-11.7862
▁10,000	-11.7866
▁advance	-11.7872
▁lhoov	-11.7874
▁faabkis	-11.7874
▁almost	-11.7875
▁thajyeeb	-11.7876
▁hnoos	-11.7878
▁xi	-11.7885
▁lc	-11.7888
-5,	-11.7901
▁kip	-11.7902
▁kawb	-11.7907
▁lev	-11.7911
ie	-11.792
si	-11.7924
▁xia	-11.7932
ke	-11.7932
▁ways	-11.7946
▁send	-11.7948
▁activities	-11.7948
▁bruce	-11.7948
▁memtoj	-11.7949
▁khavtheeb	-11.7949
▁souphanouvong	-11.795
▁yeebceeb	-11.7951
▁phajhauj	-11.7951
▁yajyuam	-11.7952
man	-11.7955
▁print	-11.7957
▁mar	-11.7959
▁nimno	-11.7974
▁ntaws	-11.7987
▁hlaub	-11.799
maum	-11.7996
▁bau	-11.8001
▁river	-11.8009
▁invest	-11.8022
▁twin	-11.8022
▁phwvxev	-11.8023
▁chiangmai	-11.8023
▁lso	-11.8023
▁pajkaub	-11.8024
▁zaubntsuab	-11.8025
▁april	-11.8025
▁parking	-11.8026
▁nrub	-11.8026
▁cuv	-11.8028
▁feb	-11.8029
▁txhov	-11.8032
▁37	-11.8038
my	-11.8038
nt	-11.8041
▁txaug	-11.8051
▁release	-11.8055
>...	-11.8072
▁conclusion	-11.8084
▁front	-11.8087
▁rumor	-11.8089
▁web	-11.8097
▁geneva	-11.8099
▁txujsa	-11.81
▁married	-11.8101
▁japan	-11.8102
▁boj	-11.8103
▁yawmyij	-11.8103
▁txeem	-11.8103
▁blia	-11.8104
▁capital	-11.8105
na	-11.8106
▁nr	-11.8119
▁al	-11.8122
▁vaag	-11.8135
▁poobsiab	-11.8142
▁americans	-11.8144
▁2009	-11.8148
usa	-11.8151
ug	-11.8153
▁choose	-11.8162
sitebuilder	-11.8173
▁certain	-11.8173
▁nywj	-11.8174
▁register	-11.8174
▁fuck	-11.8174
▁saus	-11.8175
▁kasxim	-11.8176
▁ziab	-11.8177
▁carry	-11.8178
▁pobtw	-11.8181
▁nplos	-11.8181
▁wanted	-11.8182
▁none	-11.8184
▁sibcav	-11.8186
▁tsej	-11.819
awm	-11.8199
▁commie	-11.8202
▁-"	-11.8207
luj	-11.8223
▁recruit	-11.8224
▁hey	-11.8226
▁tawj	-11.8228
▁ntxas	-11.8229
▁02	-11.8238
▁tsuasyog	-11.8241
▁apartment	-11.8242
▁shan	-11.8247
▁pretty	-11.825
▁families	-11.825
▁denver	-11.825
▁countries	-11.8251
▁october	-11.8252
▁nruam	-11.8254
▁kuamuag	-11.8254
▁coming	-11.8255
▁phaib	-11.8256
▁chaleun	-11.826
▁sources	-11.827
▁chair	-11.8276
▁vn	-11.8281
▁tshov	-11.8282
▁fais	-11.8284
▁bombs	-11.8284
▁ball	-11.8287
▁tusneeg	-11.8288
iab	-11.8293
▁1987	-11.8294
▁investigate	-11.8298
▁xyaws	-11.8303
khiav	-11.8307
▁klos	-11.8308
▁bon	-11.8312
▁price	-11.8316
▁rank	-11.8319
▁mlom	-11.8324
▁clinton	-11.8327
▁hmloog	-11.8327
▁republican	-11.8328
▁assume	-11.8328
▁ugly	-11.8329
▁ntsuabxwm	-11.833
▁learned	-11.833
▁ntxhab	-11.8332
▁healthy	-11.8333
▁hour	-11.8333
nwg	-11.8349
▁eat	-11.8365
▁sibtua	-11.8366
▁boun	-11.8372
▁01	-11.8376
)?	-11.8386
▁criminal	-11.8391
▁engineer	-11.8393
▁representative	-11.8394
teg	-11.8397
▁tradition	-11.8397
▁stone	-11.84
▁reveal	-11.8403
▁impact	-11.8404
▁fake	-11.8405
▁humxeeb	-11.8406
▁qualified	-11.8406
▁worker	-11.8407
▁thojnam	-11.8407
da	-11.841
▁skills	-11.8411
▁ntxig	-11.8414
▁sibntsib	-11.8417
▁roojteb	-11.8418
▁ger	-11.8421
niag	-11.8422
▁ntig	-11.8438
▁oos	-11.8439
▁mooj	-11.8441
ment	-11.8441
▁peej	-11.8445
photos	-11.8449
▁traditional	-11.8453
!...	-11.8465
▁candidate	-11.847
▁blooj	-11.8474
▁vis	-11.8479
▁christmas	-11.8483
▁1977	-11.8483
00	-11.8483
▁mentioned	-11.8483
▁totally	-11.8483
▁dleev	-11.8484
▁medicaid	-11.8485
▁nyuv	-11.8486
▁iep	-11.8486
▁txhaws	-11.8486
▁xiav	-11.8487
▁tsimtxom	-11.8487
▁cij	-11.8489
ioc	-11.8498
▁aud	-11.8498
hahahahahahahaha	-11.8506
▁nawv	-11.8508
▁txivneeb	-11.8512
▁travel	-11.8531
▁pobtxha	-11.8544
▁yawmtxiv	-11.8547
▁ameska	-11.8548
▁wedding	-11.8549
▁option	-11.855
▁xuvtooj	-11.8561
▁knew	-11.8562
▁energy	-11.8562
▁below	-11.8562
▁advocate	-11.8562
▁ahead	-11.8563
▁jump	-11.8563
▁phej	-11.8564
▁ntoob	-11.8564
▁laav	-11.8564
▁bay	-11.8565
▁sexual	-11.8567
▁kavxwm	-11.8568
▁sibcam	-11.857
▁lx	-11.857
213.	-11.8571
hau	-11.8572
born	-11.8574
▁vos	-11.8577
▁waste	-11.8587
▁traitors	-11.8589
▁vaajm	-11.8596
===============	-11.8597
▁kotaw	-11.8613
▁yogkuv	-11.8626
▁xee	-11.8626
▁paper	-11.8629
▁definition	-11.863
tab	-11.8631
▁field	-11.8634
▁npaus	-11.8639
▁celebrate	-11.8641
▁dogdig	-11.8641
▁red	-11.8642
▁nploos	-11.8642
▁gone	-11.8644
▁khaj	-11.8647
▁christ	-11.8655
▁pleb	-11.8656
▁nick	-11.8656
▁girls	-11.8657
▁hnoob	-11.8669
▁xees	-11.8672
▁known	-11.8675
▁scl	-11.8685
▁koov	-11.869
ers	-11.8691
▁ntas	-11.8701
▁kan	-11.8702
▁space	-11.8711
▁hmmm	-11.8717
▁witness	-11.872
▁cawmseej	-11.872
▁tubntsuagruam	-11.8721
▁ntujkag	-11.8722
▁longer	-11.8723
▁current	-11.8723
▁nyiajtxiag	-11.8725
▁august	-11.8726
▁mtt	-11.8735
▁sibceg	-11.8741
▁officials	-11.875
▁tuv	-11.8756
meskas	-11.8759
▁nyos	-11.876
ntshe	-11.8763
xam	-11.8779
▁lho	-11.8782
▁911	-11.8784
▁ground	-11.8789
kwvtij	-11.88
▁8-9	-11.8801
▁pegsuab	-11.8802
▁truly	-11.8803
▁nyablaaj	-11.8803
▁passed	-11.8803
▁kais	-11.8804
▁mivnyuag	-11.8804
▁development	-11.8812
▁txhaaj	-11.8813
▁txhaus	-11.8814
▁5,000	-11.882
▁2003	-11.8824
ic	-11.8828
las	-11.8829
▁block	-11.8831
▁seng	-11.8832
▁mormon	-11.8871
▁voice	-11.8871
ntseeg	-11.8882
▁florida	-11.8883
▁thaying	-11.8883
▁sheboygan	-11.8883
▁integrity	-11.8884
▁sibtw	-11.8886
▁yaag	-11.8898
est	-11.8899
▁cy	-11.8903
▁haab	-11.8907
▁nia	-11.8923
▁lws	-11.8928
▁lentawd	-11.8931
taws	-11.8932
▁zau	-11.8932
raws	-11.8941
▁(3)	-11.8949
▁freezer	-11.8951
▁demand	-11.8951
▁fool	-11.8952
▁proposal	-11.8955
▁metub	-11.8959
▁stress	-11.8963
▁communities	-11.8964
▁ntlaj	-11.8964
▁chupheng	-11.8964
▁nouka	-11.8965
▁plogliab	-11.8965
▁january	-11.8966
▁zawv	-11.8967
▁nao	-11.8972
▁ass	-11.8972
▁xom	-11.8973
▁kej	-11.8977
▁noun	-11.8979
taw	-11.8984
▁cash	-11.8996
▁section	-11.9006
for	-11.9012
▁xat	-11.9014
▁related	-11.9019
▁claims	-11.903
▁picture	-11.9038
▁150	-11.9045
▁ros	-11.9047
▁suggest	-11.9048
▁gave	-11.9048
▁bottom	-11.9048
▁responsibility	-11.9049
▁itself	-11.9049
▁spy	-11.905
▁nkais	-11.9052
pog	-11.9052
▁lady	-11.9053
▁signed	-11.9053
▁nyaus	-11.9054
hom	-11.906
▁ones	-11.9061
▁con	-11.9064
▁hlauv	-11.9064
▁havzoo	-11.9065
▁chimsiab	-11.9084
▁1990	-11.909
▁adam	-11.9097
▁kin	-11.91
▁2-	-11.9112
▁1978	-11.912
▁ysu	-11.9127
▁otherwise	-11.913
lt	-11.913
▁ntxuam	-11.9132
▁txaav	-11.9132
tog	-11.9133
▁orange	-11.9133
▁herr	-11.9136
▁kheem	-11.9137
ry	-11.9153
▁drs	-11.9154
▁thovpab	-11.9155
▁coos	-11.9156
index	-11.917
cai	-11.9171
▁kl	-11.9178
pawg	-11.9182
blog	-11.9194
▁bua	-11.9195
▁13.	-11.9195
▁star	-11.9198
▁animal	-11.921
▁disagree	-11.9212
▁quite	-11.9213
▁confuse	-11.9214
▁rhwbliag	-11.9215
▁beemoua	-11.9216
▁deny	-11.9216
▁lyfong	-11.9218
▁ntsaag	-11.9218
▁lord	-11.9219
▁dept	-11.9219
▁txuv	-11.9221
▁txho	-11.9222
▁spelling	-11.9229
npua	-11.9245
free	-11.925
▁caslos	-11.9256
hab	-11.9264
▁raise	-11.927
▁xk	-11.9273
▁type	-11.9299
▁tshaab	-11.93
▁zamtxim	-11.93
▁specific	-11.9302
▁double	-11.9302
▁quincy	-11.9303
zaum	-11.9305
▁ntxhuav	-11.9308
yug	-11.9309
pw	-11.9315
out	-11.9329
dua	-11.9337
tiam	-11.9345
▁names	-11.9348
roob	-11.9352
meej	-11.9355
▁ri	-11.9369
▁sponsor	-11.9374
▁sound	-11.9375
▁owner	-11.9378
kho	-11.9378
zab	-11.938
getting	-11.9381
▁enforce	-11.9384
▁okay	-11.9385
▁lomted	-11.9386
▁psychology	-11.9386
25	-11.9387
▁killed	-11.9388
▁kkk	-11.9394
▁nomdub	-11.9397
▁ntee	-11.9399
▁tejyam	-11.9416
▁---	-11.9423
28	-11.9424
▁phib	-11.9447
▁quarter	-11.9458
▁ntshua	-11.9462
▁letter	-11.9463
▁hloob	-11.9468
▁chiang	-11.9469
▁95	-11.9471
▁recognize	-11.9472
▁nplawg	-11.9472
▁campaign	-11.9474
▁illegal	-11.9474
▁copv	-11.9475
▁wang	-11.9475
laos	-11.9476
▁kabmob	-11.9477
▁medicare	-11.9478
▁blue	-11.948
▁active	-11.9484
▁tshaus	-11.9496
▁cees	-11.9501
▁lots	-11.9502
▁maas	-11.9515
▁caim	-11.952
▁12.	-11.9521
▁qaabhau	-11.9524
▁kuvli	-11.9525
▁haivhmoob	-11.9526
▁fo	-11.953
▁bachelor	-11.9546
nkawv	-11.9548
90	-11.955
▁croc	-11.9556
▁phwj	-11.9556
▁found	-11.9557
▁xyeejtsawg	-11.9558
▁era	-11.9559
▁phluav	-11.9559
▁soccer	-11.9559
▁cities	-11.9559
▁involved	-11.9562
▁geu	-11.9562
liam	-11.9565
▁hws	-11.9566
▁ol	-11.9576
mos	-11.9582
yang	-11.9602
num	-11.9606
▁boy	-11.9607
▁boards	-11.9615
▁paa	-11.9626
▁document	-11.9632
▁bother	-11.9633
▁amelivka	-11.9633
▁tuabsi	-11.9643
▁mention	-11.9645
▁confirm	-11.9645
▁valentine	-11.9646
▁educate	-11.9647
▁taking	-11.9647
▁referred	-11.9647
▁qoj	-11.9648
▁rep	-11.9649
▁spiritual	-11.9651
▁mouang	-11.9653
▁mhong	-11.9653
▁target	-11.9654
▁ciov	-11.9656
▁txaws	-11.9656
▁yawmsaub	-11.9658
saub	-11.9665
▁politicians	-11.9668
▁citizens	-11.9677
tos	-11.9695
new	-11.9696
▁neua	-11.9699
leeg	-11.9699
▁oblub	-11.972
▁kingdom	-11.9721
▁rai	-11.9724
▁teacher	-11.9726
▁longcheng	-11.9734
▁quality	-11.9735
▁khejme	-11.9736
▁pojnrauj	-11.9738
▁cheat	-11.9739
▁online	-11.9739
▁maskuv	-11.9742
▁likely	-11.9744
▁txeeg	-11.9746
ci	-11.9749
▁niamtais	-11.9754
vaers	-11.9755
▁tejno	-11.9761
▁blind	-11.9763
▁rawg	-11.9766
▁sem	-11.9772
▁152	-11.9778
▁naam	-11.9778
▁0	-11.9782
rog	-11.9782
▁lak	-11.979
▁design	-11.9796
!....	-11.9809
▁disease	-11.981
▁film	-11.981
▁japanese	-11.9811
▁village	-11.9811
hlob	-11.9812
yes	-11.9815
▁conflict	-11.9815
▁faith	-11.9817
▁missionary	-11.9824
▁circle	-11.9825
▁qaws	-11.9825
▁nabkaj	-11.9826
▁fuas	-11.9826
▁guilty	-11.9826
▁txwg	-11.9828
▁rhiav	-11.9829
▁npais	-11.9829
▁txivntxawm	-11.9829
▁42	-11.9832
▁31	-11.984
▁nem	-11.9849
ceeb	-11.9852
▁xoos	-11.9853
▁niamtij	-11.9853
▁terms	-11.9867
▁$10	-11.9884
mam	-11.9888
▁vi	-11.9892
▁thum	-11.9895
▁promise	-11.9901
▁attitude	-11.9903
▁minute	-11.9904
▁cross	-11.9906
miao	-11.9908
▁hej	-11.9911
▁respond	-11.9913
▁assistance	-11.9913
▁marxfree	-11.9913
▁nyov	-11.9914
▁wednesday	-11.9914
▁minh	-11.9915
▁cej	-11.9915
▁constructive	-11.9916
▁forgive	-11.9916
▁nciab	-11.9918
▁bass	-11.9919
▁daug	-11.9921
▁messages	-11.9929
muam	-11.9929
▁tawmtsam	-11.9934
▁civil	-11.9938
▁sue	-11.9957
phem	-11.9963
▁ra	-11.9974
▁nces	-11.9975
▁kau	-11.9979
▁mistake	-11.9981
▁verb	-11.9986
▁donation	-11.9994
▁value	-11.9995
▁24,	-11.9999
▁kiss	-12.0004
▁superior	-12.0005
▁inches	-12.0005
▁beyond	-12.0005
▁kgb	-12.0006
▁hoo	-12.0008
▁alive	-12.0008
▁hlwv	-12.001
▁ethical	-12.001
▁sibtxeeb	-12.0013
awv	-12.0019
▁terrorists	-12.0029
▁suaj	-12.0031
ze	-12.005
▁mivntsiv	-12.0051
▁xaaj	-12.0054
lprd	-12.0057
social	-12.0058
moog	-12.0058
pojniam	-12.006
▁14.	-12.0075
▁car	-12.008
▁request	-12.0082
....!	-12.0082
▁advisor	-12.0084
▁profit	-12.0085
▁hehe	-12.0086
▁xyo	-12.0087
▁peoples	-12.0092
▁advise	-12.0093
▁complaint	-12.0094
▁donate	-12.0095
ies	-12.0095
▁aeon	-12.0096
▁downunder	-12.0096
▁express	-12.0097
▁vaajncuab	-12.0097
▁administration	-12.0097
▁nthav	-12.0097
▁zong	-12.0097
▁interested	-12.0098
▁sus	-12.0099
▁ceevxwm	-12.0102
▁cis	-12.0106
▁nroov	-12.011
▁gas	-12.0111
▁min	-12.0113
▁yum	-12.0114
tsav	-12.0115
▁uw	-12.0116
▁phuam	-12.0116
▁dlaa	-12.0126
▁van	-12.013
▁allow	-12.0133
▁vuab	-12.0136
▁tubki	-12.0145
▁zex	-12.0162
moos	-12.0174
▁celebration	-12.0175
▁1970	-12.0179
▁boua	-12.0188
▁cwjsoquav	-12.0189
▁third	-12.0191
▁25,	-12.0191
▁virus	-12.0193
▁tsovtom	-12.0194
▁taas	-12.0195
▁kwvyees	-12.0199
▁honey	-12.0199
▁33	-12.0203
▁shit	-12.0215
▁count	-12.0219
▁zogli	-12.0221
vang	-12.0233
▁kv	-12.026
▁depend	-12.0267
▁prefer	-12.0268
▁partner	-12.0271
▁funding	-12.0272
kav	-12.028
▁environment	-12.0283
▁protection	-12.0284
▁paris	-12.0285
▁confused	-12.0286
▁stories	-12.0286
▁qaumteb	-12.0287
▁lugntsuag	-12.0287
▁majmam	-12.0288
▁nyajlaj	-12.0288
▁39	-12.0289
nr	-12.029
▁period	-12.0291
▁naas	-12.0292
▁stick	-12.0294
▁ntawb	-12.0297
▁nphau	-12.0305
ti	-12.0306
▁medals	-12.031
▁nor	-12.0319
piv	-12.0322
▁fi	-12.0331
▁je	-12.0332
▁pebmoob	-12.0334
square	-12.0338
player	-12.0338
▁region	-12.0343
anti	-12.0346
▁hahahhaha	-12.0353
tseeb	-12.0354
▁pure	-12.0356
lim	-12.0359
▁pomzoo	-12.036
▁delegation	-12.0363
▁kid	-12.0364
▁stage	-12.0365
▁building	-12.0368
▁hmonglao	-12.0369
▁ethnic	-12.0373
▁half	-12.0375
embedded	-12.0376
▁kiabtoom	-12.0377
▁yeah	-12.0377
▁phalak	-12.0377
▁monitor	-12.0377
▁npias	-12.0377
▁tshwjxeeb	-12.0378
▁legitimate	-12.0379
▁ncaimtseemnco	-12.0379
▁kasmias	-12.0379
▁james	-12.038
▁vom	-12.0384
▁plhws	-12.0388
▁peblub	-12.0388
suab	-12.0395
▁tomtxwv	-12.0401
▁kuvlub	-12.0406
▁plev	-12.0414
te	-12.0417
laws	-12.0417
▁im	-12.0427
ntoo	-12.043
limhiam	-12.0433
▁ntsua	-12.0434
▁advantage	-12.0471
▁aid	-12.0472
▁failed	-12.0472
▁npluanuj	-12.0472
▁responsible	-12.0472
archan	-12.0472
▁hunting	-12.0473
▁teach	-12.0473
▁proud	-12.0473
▁opposite	-12.0474
▁subtuam	-12.0474
▁voog	-12.0475
▁motel	-12.0475
▁covneeg	-12.0476
________________	-12.0479
▁changed	-12.0488
▁nrhov	-12.0489
▁tshaum	-12.0489
▁pais	-12.0503
▁qhaib	-12.0505
pem	-12.0509
less	-12.0514
nkaus	-12.0518
▁chou	-12.0524
this	-12.0531
qub	-12.0538
▁ntshaa	-12.0542
▁thread	-12.055
▁yopg	-12.0555
▁student	-12.0559
▁sent	-12.0563
▁sinwung	-12.0568
▁txaijnrob	-12.0569
▁xeebntxwv	-12.0569
▁impossible	-12.0569
▁simneej	-12.0569
▁happiness	-12.057
▁pobkws	-12.0574
▁yamli	-12.0577
▁plob	-12.0578
▁naikhu	-12.0586
▁tojsiab	-12.0593
▁ntav	-12.0595
kam	-12.06
▁nu	-12.06
▁fu	-12.0603
▁xaub	-12.0606
▁tee	-12.0608
tsua	-12.0618
▁15,	-12.0622
▁haslug	-12.0625
▁nan	-12.063
▁deserve	-12.0652
▁tree	-12.0654
▁pc	-12.0655
▁profile	-12.0657
▁says	-12.066
▁organize	-12.0662
▁worth	-12.0663
▁straight	-12.0665
▁hoos	-12.0665
▁dejntshiab	-12.0665
▁tried	-12.0665
▁dabqhua	-12.0666
▁probably	-12.0667
▁homphaj	-12.0667
▁elders	-12.0668
?????	-12.0671
▁lhuas	-12.0673
▁posting	-12.0675
▁buffalo	-12.0675
▁qabrooj	-12.0676
▁warning	-12.0677
▁kug	-12.0677
▁communism	-12.0678
▁thus	-12.068
▁ntsov	-12.0681
▁plho	-12.0682
sau	-12.0692
▁khia	-12.07
content	-12.0724
▁lintawd	-12.0726
▁touch	-12.0729
▁$5	-12.0743
▁plhaw	-12.0747
▁rape	-12.0749
▁influence	-12.075
▁4,	-12.0752
▁xyw	-12.0758
.....!	-12.0758
▁ntximli	-12.0761
▁nyawj	-12.0763
▁destroy	-12.0763
▁membership	-12.0764
▁doctawm	-12.0764
▁prevent	-12.0764
▁zejzog	-12.0765
▁cajdab	-12.0768
▁nraav	-12.0769
▁soldiers	-12.0772
▁ncaujlus	-12.0773
tam	-12.0775
91	-12.0779
▁04	-12.0781
zaj	-12.0781
▁ntsias	-12.0785
▁txhaab	-12.0788
▁tp	-12.079
▁dhua	-12.0805
toj	-12.0808
▁haisli	-12.0809
▁tek	-12.0809
▁incident	-12.0823
nco	-12.0824
▁lp	-12.0831
▁ceb	-12.0846
▁tawd	-12.0847
▁executive	-12.0849
▁scholarship	-12.085
▁soo	-12.0851
▁ler	-12.0851
▁dhauli	-12.0852
▁qham	-12.0853
▁achieve	-12.0856
▁stabber	-12.0862
▁success	-12.0862
▁minyuam	-12.0863
▁flexible	-12.0863
▁tshawbfawb	-12.0863
▁arkansas	-12.0864
▁weak	-12.0864
▁permanent	-12.0864
▁shame	-12.0865
▁upon	-12.0865
▁nhubkaj	-12.0865
▁txoog	-12.0868
▁large	-12.0869
▁sometimes	-12.0871
▁xeej	-12.0873
ty	-12.0877
▁$10,000	-12.0885
▁pick	-12.0894
▁cat	-12.0897
▁ice	-12.0902
tsawg	-12.0908
gawv	-12.091
▁sep	-12.0911
nyuag	-12.0927
▁38	-12.0928
▁qhaus	-12.0938
▁pin	-12.0949
▁leo	-12.0951
▁killing	-12.0952
lees	-12.0952
▁divorce	-12.096
▁moospheeb	-12.0962
▁tswjhwm	-12.0962
▁ruamqauj	-12.0963
▁identity	-12.0964
▁ntxuaj	-12.0964
▁moment	-12.0965
▁forever	-12.0965
▁tasseng	-12.0966
lab	-12.0971
▁paid	-12.0971
▁dang	-12.0972
▁given	-12.0974
▁chat	-12.0978
▁bia	-12.0979
▁haw	-12.0981
--------------	-12.0981
▁pojnom	-12.0982
▁$20	-12.0984
▁muv	-12.0986
13	-12.0986
30	-12.0989
tais	-12.0991
▁agents	-12.0993
▁alien	-12.1003
▁xuav	-12.1006
▁nuad	-12.1027
pa	-12.1034
▁1973	-12.1035
▁1/10	-12.1045
▁nqee	-12.1052
▁raag	-12.1063
▁deputy	-12.1064
▁captain	-12.1064
▁khabmeem	-12.1065
▁safety	-12.1065
▁nkawj	-12.1066
▁folks	-12.1066
▁txhawv	-12.1068
▁lpb	-12.1069
▁understanding	-12.1069
▁yajceeb	-12.1071
▁xz	-12.1076
tsab	-12.1077
▁vaajhmoob	-12.1092
eg	-12.1092
▁aug	-12.1095
▁sun	-12.1105
▁nrooj	-12.1117
ncua	-12.1119
▁area	-12.1123
▁directors	-12.1129
▁color	-12.113
▁mask	-12.1135
▁sea	-12.1136
14	-12.1141
cem	-12.1144
▁blogteb	-12.115
▁affect	-12.1151
▁criticism	-12.1154
▁mayor	-12.1155
▁mine	-12.1158
▁kangaroo	-12.1164
▁txiajntsim	-12.1166
▁chairman	-12.1166
▁nrees	-12.1166
▁xuabmoos	-12.1167
nram	-12.1168
▁cma	-12.1169
▁oops	-12.117
▁tostaub	-12.1172
▁yuavluag	-12.1174
▁remind	-12.1174
▁ncai	-12.1182
▁tseemy	-12.1192
▁agreed	-12.1193
▁bar	-12.1201
▁insult	-12.1205
▁plhus	-12.1218
▁55	-12.1218
▁yoglawv	-12.122
▁2015	-12.1224
▁txhi	-12.1226
flop	-12.1232
▁nqag	-12.1249
▁hna	-12.1251
▁william	-12.1257
▁laotian	-12.1261
all	-12.1265
xaiv	-12.1267
▁homework	-12.1268
▁anymore	-12.1268
col	-12.1269
▁assistant	-12.127
▁kauslim	-12.127
▁xaivkaub	-12.127
lqy	-12.127
▁xaivxwm	-12.1272
hav	-12.1272
▁sawvcev	-12.1274
pe	-12.1274
oz	-12.1275
▁zum	-12.1277
▁isn	-12.1277
▁suite	-12.1278
▁hmooob	-12.1279
▁mekong	-12.128
▁encourage	-12.128
▁zoonkauj	-12.1284
ncauj	-12.1286
kli	-12.1288
▁yuab	-12.1296
tooj	-12.1297
nraug	-12.1306
▁bit	-12.1313
▁cent	-12.1321
aib	-12.1322
▁hloo	-12.1341
▁dad	-12.1355
▁suggestion	-12.1359
▁statue	-12.1361
▁mark	-12.1363
▁hauvpaus	-12.1366
▁honest	-12.1371
▁adopt	-12.1373
▁koomtsishaum	-12.1374
▁30-40	-12.1376
▁nyua	-12.1376
▁nyub	-12.1376
▁indochina	-12.1376
▁1975,	-12.1383
mm	-12.1384
▁phaub	-12.1385
▁qhos	-12.1392
ya	-12.1402
▁nris	-12.1419
oob	-12.1424
ation	-12.1427
article	-12.1427
▁nya	-12.1432
▁dlo	-12.1436
▁yiv	-12.1438
▁1995	-12.1439
lu	-12.1442
▁damage	-12.146
8&	-12.1461
▁chapter	-12.1464
▁finger	-12.1465
▁:):):)	-12.1465
▁saiv	-12.1468
▁discuss	-12.1475
▁techaws	-12.1478
▁beginning	-12.1478
▁plhaub	-12.1478
▁tees	-12.1479
nyuamqhuav	-12.1479
▁philosophy	-12.1479
▁camera	-12.1479
▁exercise	-12.148
▁waiting	-12.1481
▁5)	-12.1481
▁kheb	-12.1481
▁txheevcom	-12.1481
nyab	-12.1483
▁minority	-12.1486
▁houei	-12.1486
▁relatives	-12.1487
▁proper	-12.1491
▁sisters	-12.1504
▁1975.	-12.1506
▁xyuav	-12.1506
▁reported	-12.1507
26	-12.1515
▁actions	-12.1523
so	-12.1532
▁txawjntse	-12.1539
▁thua	-12.1539
▁condition	-12.1542
especially	-12.1546
▁tibzoo	-12.1551
▁fes	-12.1552
forms	-12.1553
▁ruav	-12.1563
▁soviet	-12.1567
▁cu	-12.157
▁politik	-12.157
hiab	-12.1578
▁christians	-12.1581
▁survive	-12.1582
▁delete	-12.1582
▁huamnab	-12.1585
▁marry	-12.1585
▁digmuag	-12.1586
▁deep	-12.1587
▁saumtoj	-12.1588
▁nkoos	-12.159
▁moobdlawb	-12.159
▁huj	-12.1594
▁wis	-12.1594
▁depends	-12.1599
▁intellectuals	-12.1611
▁dle	-12.1622
ntev	-12.1627
heev	-12.1632
▁formula	-12.1652
▁thee	-12.1667
▁certificate	-12.1686
▁doubt	-12.1692
▁seriously	-12.1693
▁perhaps	-12.1693
▁outside	-12.1694
▁pobtawb	-12.1694
▁usually	-12.1695
▁dho	-12.1702
▁thiag	-12.1702
▁art	-12.1705
▁ntsawv	-12.1706
▁nwm	-12.1707
▁hlaab	-12.1715
▁bi	-12.1715
pim	-12.1715
▁officers	-12.172
▁door	-12.1721
phav	-12.1722
▁pasdej	-12.1722
su	-12.173
▁ncas	-12.1732
tshaj	-12.1733
huab	-12.1733
▁yawgnom	-12.1735
nyablaj	-12.174
▁qhuabke	-12.1741
▁gene	-12.1745
▁**	-12.1747
▁cd	-12.1755
▁thaumkuv	-12.1757
▁facts	-12.1765
▁uaneej	-12.1771
▁meejx	-12.1776
vwm	-12.1781
▁ect	-12.1781
▁der	-12.1786
▁propose	-12.1786
▁kablia	-12.179
▁degrees	-12.1793
▁txivtub	-12.1799
▁tzianeng	-12.18
▁nrhuav	-12.18
▁improve	-12.1801
▁agency	-12.1801
▁property	-12.1801
▁fooj	-12.1801
▁peebzeej	-12.1802
▁europe	-12.1802
▁budget	-12.1802
ha	-12.1805
▁xyob	-12.1808
▁timkhawv	-12.1812
▁puasyog	-12.1812
▁tomqaab	-12.1817
▁txham	-12.182
▁zeg	-12.182
▁pabpawg	-12.1838
km	-12.1839
▁communists	-12.1844
ntshai	-12.1852
▁ikuv	-12.1855
▁vong	-12.1893
▁declare	-12.1893
▁spouse	-12.1895
▁population	-12.1898
▁behavior	-12.19
▁plooj	-12.1901
▁division	-12.1902
0&	-12.1903
▁map	-12.191
▁smith	-12.191
▁vaugh	-12.1911
▁available	-12.1911
▁sisavang	-12.1915
▁sang	-12.1915
▁bride	-12.1918
▁hahahah	-12.1919
▁miss	-12.192
▁naim	-12.192
piav	-12.1921
noog	-12.1926
▁career	-12.1927
tsim	-12.1928
▁mammus	-12.193
▁thaumkawg	-12.1934
▁3-	-12.1942
▁sofa	-12.1951
▁seek	-12.1958
▁hr	-12.1958
ok	-12.1959
poob	-12.196
▁txawjx	-12.1962
▁vimkuv	-12.1969
txhais	-12.197
lui	-12.1978
noob	-12.1983
▁favor	-12.1985
▁txhuav	-12.1993
▁bath	-12.2005
xov	-12.201
▁flien	-12.2018
▁grand	-12.2019
▁preach	-12.2019
▁vajtse	-12.202
▁xiengkhouang	-12.2021
▁germany	-12.2022
▁retirement	-12.2023
▁september	-12.2025
▁fws	-12.2025
▁ntsauv	-12.2025
800)	-12.2025
▁seeb	-12.2026
▁following	-12.2026
▁terrorism	-12.2026
▁sc	-12.2028
▁:)	-12.2029
▁laugtxawj	-12.2035
eem	-12.2042
▁20,000	-12.2049
rry	-12.2052
47	-12.2068
de	-12.2077
▁yib	-12.2088
123	-12.2101
managed	-12.2105
▁dumb	-12.2106
▁hahahahha	-12.2115
twm	-12.2115
▁festival	-12.2121
▁rich	-12.2122
▁figure	-12.2122
▁nephew	-12.2123
▁response	-12.2123
▁mao	-12.2126
11	-12.2127
▁14,	-12.2132
▁extra	-12.2133
▁uabnyuab	-12.2134
▁worst	-12.2134
▁korea	-12.2136
▁ntxaag	-12.2138
▁ffc	-12.2138
▁popular	-12.2139
▁unity	-12.2139
by	-12.214
▁employees	-12.2141
▁nteev	-12.2141
▁raising	-12.2143
▁followers	-12.2145
ls	-12.2145
▁ntsawj	-12.2146
▁pojyawm	-12.2158
▁yais	-12.2165
▁paas	-12.217
liaj	-12.2188
general	-12.2195
▁155	-12.2196
▁xay	-12.2198
ts	-12.2202
▁sit	-12.2208
▁mail	-12.2209
▁qaj	-12.2212
▁21,	-12.2213
taub	-12.2217
hi	-12.222
puab	-12.2221
▁souvanna	-12.2224
▁000	-12.2231
==	-12.2235
▁qualification	-12.2236
▁adjective	-12.2237
▁surrender	-12.2247
▁blablabla	-12.2247
▁nreeg	-12.2247
▁vegas	-12.2247
▁bless	-12.2249
▁sayasith	-12.2249
▁zuagpaj	-12.2249
▁maivnas	-12.2249
▁speaking	-12.225
▁district	-12.225
▁nploog	-12.225
▁younger	-12.2251
▁ghia	-12.2251
klos	-12.2254
▁pawj	-12.2254
▁qhovntawd	-12.2256
▁tsaw	-12.2257
▁image	-12.2258
lwj	-12.2258
▁dialect	-12.2259
▁phouma	-12.2263
▁nyuajsiab	-12.2268
phom	-12.2271
▁sauntawv	-12.2275
▁____	-12.2276
mo	-12.2295
ap	-12.2299
▁qhi	-12.233
ah	-12.2331
wiki	-12.2341
▁contribute	-12.2346
pub	-12.2349
▁vaajtsw	-12.2352
▁neutral	-12.2358
▁appreciate	-12.236
▁translate	-12.2361
▁tsamno	-12.2362
▁nuclear	-12.2362
▁participate	-12.2362
▁limham	-12.2364
▁higher	-12.2367
▁qawg	-12.2368
▁lucky	-12.2368
▁mostxwv	-12.2369
▁unknown	-12.2372
▁huag	-12.2373
southeast	-12.2374
▁thuab	-12.2374
▁ntia	-12.2376
▁txivplig	-12.2377
▁drop	-12.2377
eeb	-12.2377
▁tiom	-12.2378
kaj	-12.2381
▁tshu	-12.2383
▁heheheh	-12.2384
▁thoos	-12.2389
55	-12.2389
▁44	-12.2394
▁qhovrooj	-12.2399
ness	-12.2401
nyiam	-12.2402
▁1985	-12.2405
▁kiagli	-12.2405
▁square	-12.2409
▁niamntawv	-12.2419
▁hit	-12.2419
xab	-12.2433
freedom	-12.244
dhau	-12.2446
ham	-12.2448
▁lwb	-12.2451
qhia	-12.2455
ceg	-12.2457
▁sin	-12.2458
▁apr	-12.2463
tseg	-12.2466
▁1,000	-12.2467
▁trouble	-12.2468
▁sport	-12.247
▁trick	-12.2471
▁governing	-12.2479
▁percent	-12.2479
▁kabxev	-12.2479
▁feemcoob	-12.2482
▁charles	-12.2483
▁necessary	-12.2483
▁khaiv	-12.2491
▁vub	-12.2494
▁pr	-12.2496
▁yub	-12.2497
▁options	-12.2498
▁koomtes	-12.2501
▁2002	-12.2503
▁ameskas	-12.2508
▁sibluag	-12.2517
▁yai	-12.2525
hli	-12.2534
▁npuam	-12.2541
▁kia	-12.2546
aol	-12.2554
▁nd	-12.2555
15	-12.2555
▁compete	-12.2556
▁hamtsi	-12.2557
▁pooj	-12.2569
▁path	-12.257
▁nuag	-12.2574
see	-12.2578
▁regret	-12.2583
▁piece	-12.2584
men	-12.2585
aum	-12.2587
▁nkas	-12.2587
...!	-12.259
▁violate	-12.2595
▁1974	-12.2596
▁goverment	-12.2596
▁ceebtoom	-12.2597
▁rhab	-12.2597
▁shake	-12.2597
▁started	-12.2598
▁npleg	-12.2598
▁zaubmov	-12.2599
▁sisili	-12.2599
▁birthday	-12.2601
▁txawjxoom	-12.2602
▁false	-12.2602
▁yours	-12.2603
▁plas	-12.2607
▁ntxws	-12.2608
▁auj	-12.2622
▁vm	-12.2623
▁npeeb	-12.2627
luaj	-12.263
▁haukev	-12.2635
▁npluag	-12.2642
▁kue	-12.2649
eng	-12.266
yw	-12.2663
▁experiences	-12.2678
▁gov	-12.2679
▁haud	-12.268
▁tseebx	-12.268
nyias	-12.2681
chim	-12.2688
▁xyem	-12.2692
▁hnag	-12.2694
▁tel	-12.2694
▁plhw	-12.2699
▁carolina	-12.2701
▁excuse	-12.2702
▁belong	-12.2705
▁movement	-12.2705
▁phanya	-12.2705
mr	-12.2708
▁recommend	-12.2714
▁23,	-12.2714
▁teleport	-12.2715
▁russia	-12.2715
▁veescam	-12.2715
▁alliance	-12.2716
▁npwb	-12.2716
▁dictionary	-12.2716
▁dnr	-12.2717
▁quavntsej	-12.2718
▁criticize	-12.2719
▁mabdawb	-12.272
▁mivkas	-12.2721
▁diplomatic	-12.2726
▁ascas	-12.2729
tshuaj	-12.2732
▁tyog	-12.2734
▁keem	-12.2736
cm	-12.2744
▁txaw	-12.2746
loo	-12.2755
xa	-12.2764
▁maij	-12.2777
21	-12.2777
religion	-12.2783
miv	-12.2786
vu	-12.2789
▁tshi	-12.2796
puag	-12.2796
photo	-12.2802
▁takes	-12.2808
▁mib	-12.2809
▁txh	-12.2817
▁ave	-12.2829
cdc	-12.2832
thoj	-12.2832
▁prepare	-12.2833
▁sojntsuam	-12.2835
▁nreg	-12.2836
▁finally	-12.2836
▁ideology	-12.2837
▁ntshauv	-12.2837
▁luangprabang	-12.2838
▁pamthawj	-12.2838
▁nruabnrab	-12.2838
▁hauvpaug	-12.284
▁across	-12.2841
▁province	-12.2842
▁plhom	-12.2842
▁closed	-12.2842
pib	-12.2843
▁nyhos	-12.2844
▁cojmus	-12.2845
▁poov	-12.2846
▁sexy	-12.285
▁khong	-12.2851
▁ye	-12.2854
▁reach	-12.2857
groups	-12.2861
▁$200	-12.2862
▁yawghlob	-12.2863
▁17,	-12.287
▁regards	-12.2871
ntxawg	-12.2875
▁thoughts	-12.2887
▁thaumntawd	-12.2894
hm	-12.2898
▁pen	-12.2913
▁labor	-12.293
▁debli	-12.2934
▁virgin	-12.2935
▁pi	-12.294
▁turkey	-12.2943
▁interpretation	-12.2944
▁nka	-12.2946
▁tubntsuaghmoob	-12.2946
▁bastard	-12.2948
▁billion	-12.2948
▁ibtxhia	-12.295
▁1/2	-12.295
▁imagine	-12.2955
▁pu	-12.2956
▁coalition	-12.2957
▁larry	-12.2958
▁lunch	-12.2958
▁texas	-12.2958
▁txheejtxheem	-12.2958
▁ndlav	-12.2958
▁nyaag	-12.2959
▁tomorrow	-12.296
▁riag	-12.296
▁pizza	-12.2961
▁whoever	-12.2961
▁poos	-12.2963
▁khes	-12.2967
▁tsaiv	-12.297
▁---------------	-12.2973
ph	-12.2973
▁northern	-12.2977
luam	-12.2992
cias	-12.2994
▁ntxab	-12.2999
time	-12.3006
▁lprd	-12.3009
▁push	-12.3009
▁hahahha	-12.301
74	-12.3011
▁tejlaus	-12.3015
▁caas	-12.3019
gen	-12.3023
go	-12.3024
qaab	-12.3028
▁pees	-12.3028
▁lajhais	-12.3029
▁sibyuav	-12.3031
koos	-12.3033
human	-12.3035
▁ken	-12.3042
oh	-12.3045
▁msu	-12.3056
▁tape	-12.3066
▁tobe	-12.3066
▁qu	-12.3068
▁fellow	-12.3068
▁reference	-12.3068
▁jack	-12.3069
vajtswv	-12.3069
▁effect	-12.307
▁racist	-12.3071
▁chicken	-12.3071
▁shot	-12.3072
▁eye	-12.3075
▁mrs	-12.3077
▁vajluskub	-12.3081
▁sombath	-12.3081
▁surgery	-12.3081
▁thws	-12.3081
▁dlhuav	-12.3081
▁tsimmuajcia	-12.3081
▁iliki	-12.3082
▁financial	-12.3082
▁14-15	-12.3082
▁phaaj	-12.3083
▁fill	-12.3083
▁zawj	-12.3084
▁privately	-12.3084
▁ada	-12.3084
▁officially	-12.3085
▁danger	-12.3085
▁pemsuab	-12.3088
▁handle	-12.3088
▁tsislam	-12.3091
▁phlom	-12.3096
▁dawv	-12.3097
▁amelivkas	-12.3099
▁khaab	-12.3108
▁nk	-12.3113
▁bang	-12.3117
▁critic	-12.3128
▁benefits	-12.3129
▁phan	-12.3131
yuam	-12.3134
▁eve	-12.3138
▁yuglos	-12.3142
▁pebhmoobruam	-12.3146
▁nyoob	-12.3149
▁dlab	-12.3153
▁72	-12.3168
▁evidences	-12.317
true	-12.317
▁nru	-12.3176
=0	-12.3177
qhua	-12.3187
▁cool	-12.3188
▁2016	-12.3189
▁mia	-12.319
▁xaib	-12.3192
▁nujnqi	-12.3194
▁argument	-12.3194
▁adult	-12.3197
▁xyu	-12.3198
▁union	-12.3198
▁assembly	-12.3206
▁therapy	-12.3207
▁often	-12.3208
▁beautiful	-12.321
▁manager	-12.321
▁ntaim	-12.321
▁root	-12.3211
▁pliab	-12.3212
▁asking	-12.3217
▁phanyas	-12.3219
▁needed	-12.3222
fab	-12.3223
ias	-12.3224
▁size	-12.3228
▁kablis	-12.3228
▁abc	-12.3241
sawv	-12.3241
▁nij	-12.3241
tsoob	-12.3242
▁oy	-12.3245
ns	-12.3257
ntsoov	-12.3264
▁linov	-12.3264
▁ruab	-12.3268
dlaab	-12.3274
▁npa	-12.3276
show	-12.3279
neohom	-12.3292
▁duali	-12.3293
ciaj	-12.3301
▁1968	-12.3302
▁26,	-12.3305
▁surprise	-12.3315
▁mountain	-12.3321
▁apple	-12.3321
▁customer	-12.3321
▁nurse	-12.3322
▁opinions	-12.3323
▁ntsaub	-12.3329
▁realize	-12.333
94	-12.3331
▁federation	-12.3333
▁reflect	-12.3333
▁planning	-12.3333
▁verify	-12.3333
▁rs	-12.3334
▁ceevfaaj	-12.3334
▁giving	-12.3334
▁february	-12.3335
▁nthwv	-12.3336
▁najkhav	-12.3336
▁videos	-12.3341
▁unite	-12.3341
▁ability	-12.3342
▁ywjsiab	-12.3342
▁nkab	-12.3343
▁tsws	-12.3344
medi	-12.3344
▁rumors	-12.3356
▁dhiav	-12.3367
▁faim	-12.3374
▁veterans	-12.3378
sa	-12.3382
▁dluas	-12.3385
hmo	-12.3389
1)	-12.34
teeb	-12.3403
▁grow	-12.3406
▁qej	-12.3421
lajntxiag	-12.3422
▁jul	-12.3426
▁oppose	-12.3438
▁qabntuj	-12.344
▁vow	-12.3443
▁hmooblees	-12.3448
▁violation	-12.3449
▁method	-12.3449
▁gang	-12.3452
▁soul	-12.3453
▁monkey	-12.3455
ij	-12.3455
▁fuabtai	-12.3455
▁gate	-12.3456
▁400	-12.346
▁brought	-12.3461
▁discredit	-12.3461
▁nyaij	-12.3461
▁progress	-12.3461
▁parties	-12.3462
▁plastic	-12.3462
▁xaivnceb	-12.3462
▁nplag	-12.3463
▁tshaam	-12.3463
▁xyaav	-12.3466
▁older	-12.3466
▁hnyos	-12.3469
▁tswvcuab	-12.3469
▁fish	-12.3485
▁diab	-12.3485
▁pojkoob	-12.3485
laib	-12.3488
▁tnv	-12.3491
tawg	-12.3496
▁plaubhau	-12.35
▁khus	-12.3504
yees	-12.3508
12	-12.351
▁differences	-12.351
▁chom	-12.3523
▁std	-12.3536
▁swv	-12.3536
▁53	-12.3543
political	-12.3551
search	-12.3552
phwvnyawm	-12.3552
teev	-12.3554
▁han	-12.3563
▁koomsiab	-12.3563
puav	-12.357
tib	-12.3572
▁clue	-12.3579
▁millionaire	-12.358
▁fear	-12.3582
▁estimate	-12.3582
▁location	-12.3582
!!!!!!	-12.3583
▁scholar	-12.3583
▁store	-12.3583
king	-12.3584
▁chu	-12.3585
▁taste	-12.3586
▁appropriate	-12.3587
▁lobby	-12.359
▁ignore	-12.3591
▁thajying	-12.3591
▁twmzeej	-12.3591
▁sleep	-12.3592
▁morning	-12.3592
▁mesliskas	-12.3592
▁bkk	-12.3593
▁npleem	-12.3593
▁intelligence	-12.3594
▁resistance	-12.3594
▁khawvkoob	-12.3594
▁vaajpov	-12.3594
▁600	-12.3595
▁ntshi	-12.3595
▁pride	-12.3595
▁nplij	-12.3595
▁$$$$	-12.3596
▁vwg	-12.3598
▁lbs	-12.3606
▁hmmmm	-12.3609
▁qij	-12.361
▁aids	-12.3612
▁lamkoom	-12.3617
hot	-12.363
▁indian	-12.3635
thaj	-12.3644
▁qhav	-12.3668
▁dom	-12.367
what	-12.3671
▁clinic	-12.368
mec	-12.3683
92	-12.3683
▁51	-12.3685
good	-12.3689
▁ru	-12.3695
▁thu	-12.3697
nab	-12.3697
▁1982	-12.3707
▁baht	-12.3709
▁application	-12.3709
▁effort	-12.3709
▁remain	-12.371
▁communication	-12.3713
▁mon	-12.3716
▁approach	-12.3719
▁taiscaus	-12.3723
▁dynasty	-12.3723
▁ntsablug	-12.3723
▁thaajyeeb	-12.3723
▁rhwv	-12.3723
▁40-50	-12.3723
▁ohyo	-12.3723
tuam	-12.3724
▁loei	-12.3727
▁xabmaim	-12.3727
▁txivneeg	-12.3728
▁peaceful	-12.373
▁temptation	-12.373
▁hmub	-12.3731
▁txhuatus	-12.3731
yeem	-12.3731
▁pray	-12.3732
▁lhob	-12.3733
▁khamtai	-12.3735
▁kiam	-12.3735
▁vig	-12.3737
▁txai	-12.3737
▁billions	-12.3738
▁nki	-12.3741
▁zaumno	-12.3743
kis	-12.3758
▁principles	-12.3758
uli	-12.3763
▁$5,000	-12.3768
▁24/7....	-12.377
▁math	-12.3772
▁txawjxav	-12.3774
▁avoid	-12.378
▁neg	-12.3798
▁zk	-12.3801
american	-12.3805
org	-12.3807
wi	-12.3814
▁keo	-12.3819
iam	-12.3819
cawv	-12.3826
▁gun	-12.3828
▁clip	-12.3842
▁hlox	-12.3844
▁nre	-12.3846
mpp	-12.3847
▁attend	-12.3852
▁collect	-12.3855
▁fang	-12.3856
▁ourselves	-12.3856
▁rally	-12.3856
▁missed	-12.3856
▁txhoov	-12.3856
▁phoumi	-12.3857
▁rhav	-12.3857
▁depression	-12.3858
▁xyeeb	-12.3858
▁nkos	-12.3858
▁8-10	-12.386
▁oui	-12.386
▁included	-12.3863
▁universe	-12.3865
▁hastxug	-12.3867
▁met	-12.3868
▁sibhawm	-12.3878
▁80'	-12.3892
▁kh	-12.3893
▁shi	-12.3902
txuj	-12.3904
xyooj	-12.3913
▁ntsiav	-12.3915
▁schools	-12.3923
▁achan	-12.3943
▁nplob	-12.3951
respect	-12.3952
vmged	-12.3952
▁zoosab	-12.3953
▁phum	-12.3955
▁hahahahah	-12.3958
▁$1000	-12.3974
▁sacrifice	-12.3976
▁yp	-12.398
▁quote	-12.3985
▁convert	-12.3989
▁kajliag	-12.3991
▁survey	-12.3992
▁complete	-12.3992
▁viagra	-12.3993
▁regular	-12.3993
▁xeevxwm	-12.3994
▁internal	-12.3994
▁zawg	-12.3994
▁virtual	-12.3995
▁tojroob	-12.3995
▁rob	-12.3996
▁eg	-12.3996
▁ruj	-12.3999
▁draw	-12.3999
▁vimlicas	-12.4001
▁resources	-12.4002
▁coog	-12.4012
▁nhria	-12.4012
ez	-12.4016
▁months	-12.402
of	-12.4022
state	-12.4024
mov	-12.4029
▁yoob	-12.4035
nh	-12.4045
yij	-12.4052
▁programs	-12.4062
tsa	-12.4065
▁priest	-12.4068
▁victim	-12.4069
ki	-12.407
▁develop	-12.4077
wj	-12.408
▁knowing	-12.4082
from	-12.409
▁nkua	-12.4091
daim	-12.4094
long	-12.4101
▁maib	-12.411
▁ram	-12.411
▁reputation	-12.4113
▁leejtxiv	-12.4115
▁paragraph	-12.4115
▁machine	-12.4115
▁translation	-12.4116
▁ntom	-12.4117
▁ritual	-12.4118
▁newspaper	-12.4121
,,,,	-12.4125
▁comprehend	-12.4127
▁priority	-12.4127
▁spell	-12.4128
▁hinheup	-12.4128
▁supreme	-12.4128
▁txomfaav	-12.4129
▁background	-12.413
▁category	-12.413
▁foung	-12.413
▁mikas	-12.4131
▁phiajxwm	-12.4132
▁pacific	-12.4132
▁ntxaib	-12.4136
▁dlaig	-12.4136
▁fr	-12.4138
▁mws	-12.4146
▁predict	-12.4149
▁1991	-12.415
▁nang	-12.415
mev	-12.4151
▁24/7	-12.4151
sam	-12.4153
▁leev	-12.4162
▁plain	-12.4163
ntsuaghmoobruam	-12.4173
▁bab	-12.4179
▁npaab	-12.418
hawj	-12.418
??????	-12.418
that	-12.4182
▁hn	-12.4191
tawv	-12.4192
▁khij	-12.4194
▁ted	-12.4206
▁nqas	-12.4211
▁arrest	-12.4217
plaub	-12.4222
▁kevntseeg	-12.4224
▁npaas	-12.4224
eej	-12.4224
po	-12.4227
gec	-12.4227
flip	-12.4228
▁13,	-12.4229
▁5,	-12.423
raug	-12.4232
moobsib	-12.4232
coob	-12.4235
1.	-12.4238
▁threat	-12.425
▁suspect	-12.4254
▁twglos	-12.4254
▁exist	-12.4255
▁aderholt	-12.4266
▁realistor	-12.4266
▁apology	-12.4267
▁angeles	-12.4267
▁dekfangkhong	-12.4267
▁pevtxwv	-12.4267
▁namphong	-12.4267
▁asmelikas	-12.4267
▁anthony	-12.4268
▁otv	-12.4268
▁phagna	-12.4268
▁denied	-12.4268
▁tshiav	-12.4269
▁economy	-12.4269
▁qhiv	-12.4272
▁rice	-12.4273
▁zajlaug	-12.4273
▁resign	-12.4274
▁mostly	-12.4276
▁learning	-12.4277
▁yajyeeb	-12.4279
ms	-12.428
▁hlaws	-12.428
▁playing	-12.428
tabsis	-12.4281
▁tsaig	-12.4283
▁sounds	-12.4288
▁fine	-12.429
dy	-12.4292
▁khee	-12.4295
▁lawvle	-12.4295
▁nqaaj	-12.4301
▁ntsaa	-12.4302
ity	-12.4308
▁oil	-12.4317
▁qablos	-12.4322
mhoob	-12.4332
▁qhovncauj	-12.4336
nyaj	-12.4338
thuam	-12.4342
▁dabteb	-12.4349
.00	-12.4351
▁250	-12.4362
uaj	-12.4367
ong	-12.4368
▁daib	-12.4372
lem	-12.4374
▁access	-12.4376
ba	-12.4377
▁123	-12.4378
03	-12.4386
▁ga	-12.4387
▁bg	-12.439
▁murder	-12.4395
▁worship	-12.44
▁yawj	-12.4401
▁ngo	-12.4401
▁48	-12.4402
▁suffer	-12.4405
▁noodlej	-12.4408
▁dovcav	-12.4408
▁thaksin	-12.4408
▁uablag	-12.4408
▁phmd	-12.4408
▁kungfu	-12.4409
▁thimxav	-12.441
▁admit	-12.441
▁reunion	-12.4411
▁thanksgiving	-12.4411
▁pxx	-12.4411
▁$$$	-12.4413
▁trash	-12.4413
▁thuav	-12.4415
▁teeg	-12.4416
▁tunoob	-12.4416
hhpc	-12.4418
▁kick	-12.4418
▁tubpos	-12.4419
lqz	-12.442
▁yem	-12.442
▁tibleeg	-12.4421
▁nploojsiab	-12.4424
lav	-12.443
▁qhovchaw	-12.4435
pam	-12.4437
▁affairs	-12.4439
▁content	-12.4449
▁pain	-12.446
▁nplhu	-12.4464
▁jon	-12.4467
▁suit	-12.4468
0.00	-12.4472
▁vu	-12.4479
▁ja	-12.4488
▁ntxw	-12.449
▁nkaujhmoob	-12.4494
christian	-12.4498
▁eau	-12.45
kaus	-12.4501
▁moon	-12.4503
history	-12.4512
klub	-12.4514
came	-12.4526
▁expression	-12.4536
▁speaker	-12.4538
▁spread	-12.4539
▁follower	-12.4539
▁beside	-12.4541
▁xxxxxxxxxxxxxx	-12.4543
ey	-12.4545
▁xijpeem	-12.455
▁concept	-12.4551
▁comprehension	-12.4551
▁counter	-12.4552
▁confirmed	-12.4553
▁nqhes	-12.4554
▁hello	-12.4557
▁satan	-12.4557
▁npawm	-12.4559
▁plav	-12.456
tshiab	-12.4562
▁fruit	-12.4565
▁nimnov	-12.4567
taug	-12.4569
ter	-12.4569
lais	-12.457
▁caused	-12.4573
▁phi	-12.458
▁kevhlub	-12.4583
▁kawgnkaus	-12.4583
▁died	-12.4586
▁lf	-12.4589
▁nraa	-12.4591
▁som	-12.4594
▁catch	-12.46
▁iob	-12.4608
txheeb	-12.4608
tsoom	-12.4616
▁yuavtau	-12.4619
▁sibzog	-12.4623
▁11,	-12.4624
zos	-12.4625
khawv	-12.4628
▁1996	-12.4633
▁tao	-12.4637
▁worse	-12.4638
▁yao	-12.4638
▁sick	-12.4642
▁15.	-12.4643
video	-12.4644
khaws	-12.4645
▁harm	-12.465
brandon	-12.4656
english	-12.4657
lua	-12.4668
ch	-12.468
▁sen	-12.4681
▁nci	-12.4682
qhuav	-12.4682
▁fault	-12.4683
▁holiday	-12.4683
▁modern	-12.4685
▁khiv	-12.4687
▁cook	-12.4688
▁democratic	-12.4694
▁glad	-12.4695
▁thanouxay	-12.4695
▁broken	-12.4697
▁najkhoos	-12.4697
▁nkaujhmooblis	-12.4697
▁yangdao	-12.4698
▁ncag	-12.4699
▁lat	-12.4701
▁nqaum	-12.4702
tswj	-12.4704
!!!!!!!!!!!!!!!!	-12.4709
▁ntseej	-12.471
ever	-12.4715
chao	-12.4716
▁experienced	-12.4716
▁muav	-12.4716
▁huua	-12.4719
▁scholars	-12.4719
▁stars	-12.4719
75	-12.472
▁representatives	-12.472
▁tasluaj	-12.4726
▁mobx	-12.4728
▁details	-12.4729
▁taken	-12.4733
▁---------	-12.4738
▁txab	-12.4739
▁txhuayam	-12.4739
▁kevxaav	-12.474
▁laudh	-12.4742
▁records	-12.4743
))	-12.4745
▁plu	-12.4746
ka	-12.4749
▁mogx	-12.475
▁duaj	-12.475
▁ntxaa	-12.4752
set	-12.4754
hloov	-12.4773
▁qwv	-12.4775
▁tsaaj	-12.4776
▁dem	-12.4787
▁zees	-12.4787
▁dhi	-12.4787
view	-12.4788
▁noogdej	-12.4789
=3	-12.4791
world	-12.4803
▁duj	-12.4804
neohmong	-12.4804
culture	-12.4804
▁credits	-12.4808
▁ntsau	-12.4815
cv	-12.4828
▁assumption	-12.4829
txim	-12.483
▁cau	-12.483
▁near	-12.4833
▁sometime	-12.4833
▁island	-12.4839
▁evolution	-12.4839
▁road	-12.484
▁reasoning	-12.4841
faj	-12.4841
lag	-12.4842
▁mesnyuam	-12.4843
▁telephone	-12.4843
▁chuck	-12.4843
▁floor	-12.4844
▁hatred	-12.4844
▁meng	-12.4844
▁zone	-12.4845
▁caijnyoog	-12.4845
▁lytek	-12.4845
siav	-12.4846
▁1971	-12.4853
▁nyuabsiab	-12.4854
▁zai	-12.4856
▁ntshuas	-12.4863
maiv	-12.4869
▁independent	-12.4873
▁react	-12.4876
▁qhaum	-12.4877
nm	-12.4886
▁interests	-12.4894
▁khais	-12.4896
vwj	-12.4897
▁individuals	-12.4899
▁taslos	-12.4905
▁versa	-12.4908
vam	-12.4914
▁16.	-12.4918
▁180	-12.4923
self	-12.4939
doctor	-12.494
▁2001	-12.4942
kua	-12.4942
just	-12.4952
▁ten	-12.4953
day	-12.4955
cuag	-12.4955
▁_	-12.4956
▁muslim	-12.4966
▁sawd	-12.4969
▁pluam	-12.4974
▁treatment	-12.4984
▁auto	-12.4984
▁careful	-12.499
▁hartwick	-12.4991
▁faajkum	-12.4992
▁memory	-12.4992
▁pretend	-12.4993
=1&	-12.4994
▁engineering	-12.4994
▁dlib	-12.4996
▁groom	-12.4997
▁dhaus	-12.5001
▁ncawg	-12.5003
htm	-12.5003
txij	-12.5004
▁ntsoos	-12.5006
▁pawglug	-12.5006
▁nyus	-12.5007
▁diaj	-12.5009
▁tsavlis	-12.5009
xob	-12.5009
▁mouas	-12.5036
▁rate	-12.504
▁mix	-12.5041
rn	-12.5049
paum	-12.5049
yob	-12.5055
pao	-12.5059
▁$500	-12.5065
gu	-12.5075
sc	-12.5079
▁ntxha	-12.5094
2000	-12.5097
▁nkuj	-12.5098
▁17.	-12.5103
vaaj	-12.5103
laura	-12.5105
vauv	-12.5114
how	-12.5121
▁beat	-12.5123
xxx	-12.5128
▁xou	-12.513
▁laugh	-12.5133
)"	-12.5133
ntxiv	-12.5135
▁korean	-12.5136
▁topics	-12.5136
neb	-12.514
▁ordinary	-12.5143
▁legacy	-12.5143
▁caivplawv	-12.5143
▁popcorn	-12.5144
▁testify	-12.5144
▁ad	-12.5145
▁nruav	-12.5145
▁wishes	-12.5145
▁hnyuv	-12.5146
▁nhav	-12.5146
▁tegnum	-12.5146
▁lpx	-12.5146
▁tsovrog	-12.5146
▁wives	-12.5146
▁cavpem	-12.5148
▁povfwm	-12.5149
may	-12.515
▁thajkhu	-12.515
▁vuas	-12.5152
▁nthos	-12.5156
▁crosse	-12.5156
▁mnus	-12.5163
▁values	-12.5166
fg	-12.5167
▁ncov	-12.5169
aws	-12.517
▁npeem	-12.5171
▁maus	-12.5173
united	-12.5175
▁yawb	-12.5178
▁ibzaug	-12.5183
kos	-12.5187
ting	-12.5187
▁locha	-12.5187
▁txws	-12.5203
▁nphob	-12.5203
▁vinais	-12.5209
▁minor	-12.5214
▁origin	-12.5223
▁dreams	-12.5226
thai	-12.5235
▁round	-12.5241
image	-12.5246
sec	-12.5253
women	-12.5258
▁ww	-12.5265
,000.00	-12.5269
deb	-12.5272
▁ar	-12.5274
▁regime	-12.5284
pas	-12.5285
▁pwv	-12.5285
▁uniform	-12.5287
line	-12.5288
▁finding	-12.5291
4&	-12.5293
▁introduce	-12.5295
▁struggle	-12.5297
▁prevention	-12.5297
▁max	-12.5297
▁sayaboury	-12.5297
▁hsp	-12.5297
cob	-12.5298
▁dovtawm	-12.5299
▁kitchen	-12.5299
▁paltalk	-12.5299
▁pleeg	-12.5299
▁chery	-12.53
▁friendship	-12.5301
▁txhawjxeeb	-12.5301
▁phlis	-12.5302
▁ghost	-12.5302
▁discrimination	-12.5302
▁examples	-12.5303
▁nplais	-12.5305
▁nraws	-12.5306
▁tshawj	-12.5307
▁track	-12.5307
▁lubsijhawm	-12.5309
▁tshawv	-12.531
▁helping	-12.531
▁pajlug	-12.5312
▁(4)	-12.5312
▁txawjxab	-12.5314
▁neejsaub	-12.5322
▁candidates	-12.5323
▁1969	-12.533
▁ch	-12.5336
▁ntsho	-12.5341
khwv	-12.5341
▁taugkev	-12.5344
▁thob	-12.5345
sch	-12.5354
▁goals	-12.5359
kpia	-12.536
land	-12.5363
rel	-12.5365
ao	-12.5368
93	-12.5379
▁kai	-12.5384
lawb	-12.5388
▁books	-12.5394
▁29,	-12.5399
▁luther	-12.5402
ang	-12.5405
url	-12.5409
▁tamsi	-12.541
tiamsis	-12.5415
▁khosiab	-12.5421
seb	-12.543
▁rhe	-12.5435
▁review	-12.5438
▁tournament	-12.5438
▁observation	-12.5439
▁perspective	-12.5439
▁daughter	-12.544
▁thru	-12.5451
▁approve	-12.5452
▁hmmmmm	-12.5452
▁phawvnyawm	-12.5453
▁xabdias	-12.5453
▁nak	-12.5453
▁yessus	-12.5453
▁xuajmoos	-12.5453
▁hamilton	-12.5453
▁18-25	-12.5453
▁xubntiag	-12.5454
▁ocean	-12.5454
▁conclude	-12.5454
▁certainly	-12.5454
▁ncaav	-12.5454
▁peacock	-12.5454
▁pyramid	-12.5454
▁zomzaws	-12.5455
▁ntshavpim	-12.5455
▁relate	-12.5455
▁trial	-12.5456
▁thaag	-12.5457
▁foot	-12.5457
▁clients	-12.5459
▁burma	-12.5459
▁txhog	-12.546
▁zabdag	-12.5465
▁kwg	-12.5465
▁lostsua	-12.5465
▁nhiav	-12.5466
▁khawg	-12.5471
▁qubqab	-12.5471
ck	-12.5472
▁ntxee	-12.5472
▁decide	-12.5472
▁dedicate	-12.5475
06	-12.548
iec	-12.5482
▁religions	-12.5482
!!!!!!!!	-12.5484
lqh	-12.5494
▁eev	-12.55
▁nchos	-12.5501
▁hnob	-12.5502
aka	-12.5512
▁zaugli	-12.5518
▁op	-12.5518
▁1994	-12.5526
▁covkwvtij	-12.5528
cab	-12.5529
▁tsaag	-12.554
tion	-12.5553
cuab	-12.5564
nai	-12.5569
education	-12.5573
xejthim	-12.5574
including	-12.5574
china	-12.5574
ii	-12.5585
▁tsismuaj	-12.5597
▁favorite	-12.5598
▁guard	-12.5599
▁relative	-12.5602
▁504	-12.5605
▁cwhp	-12.5612
▁software	-12.5612
▁phwvnyawj	-12.5613
▁loojmem	-12.5613
▁bokeo	-12.5613
▁tsooj	-12.5614
▁sensitive	-12.5614
▁forgot	-12.5614
▁birth	-12.5614
▁spend	-12.5614
▁txhimkho	-12.5615
▁ncee	-12.5615
▁yijlaug	-12.5616
▁hiavtxwv	-12.5618
▁civilized	-12.5619
▁phaav	-12.5619
▁sky	-12.562
▁plias	-12.5621
tw	-12.5621
▁formal	-12.5623
▁tagkhi	-12.5624
▁proven	-12.5624
▁qaim	-12.563
▁qabnab	-12.5632
tls	-12.5638
nyiag	-12.5647
▁tyv	-12.5648
gvp	-12.5656
▁islam	-12.5656
aa	-12.5661
▁lair	-12.5669
hmoobruam	-12.5674
▁covphoojywg	-12.5681
▁nplo	-12.5687
▁sac	-12.5689
▁mobsab	-12.5691
old	-12.5693
▁slow	-12.5693
feem	-12.5693
kevcai	-12.5695
▁qhovtseeb	-12.5701
▁npli	-12.5702
▁multi	-12.5702
▁commit	-12.5703
tshuav	-12.5704
▁hlib	-12.5712
▁naws	-12.5714
▁txhuax	-12.5717
love	-12.5734
▁tshajpl	-12.5735
kuam	-12.5737
22	-12.5737
▁wj	-12.574
▁nominate	-12.5741
▁mid	-12.5742
lig	-12.5751
tshoob	-12.5753
▁observe	-12.5757
▁drink	-12.5758
▁tshuag	-12.576
▁obpeb	-12.5761
when	-12.5766
▁pajpaws	-12.5773
▁sincerely	-12.5773
▁khamtay	-12.5773
▁england	-12.5773
▁tuamlijkoob	-12.5773
▁kidding	-12.5774
▁tittle	-12.5774
▁shur	-12.5774
▁claire	-12.5775
▁clearly	-12.5775
▁dibiab	-12.5775
▁harmony	-12.5776
▁plov	-12.5776
▁immigration	-12.5776
▁independence	-12.5777
txais	-12.5778
lqx	-12.5779
▁txhau	-12.5779
▁ntsaug	-12.578
▁freely	-12.578
▁jhai	-12.5781
classified	-12.5783
▁calling	-12.5784
▁kutaw	-12.5785
▁data	-12.5787
zs	-12.5805
cc	-12.5809
▁txivxaiv	-12.5809
▁tasis	-12.581
▁npaub	-12.5813
▁dara	-12.582
▁1984	-12.5823
▁gift	-12.5826
▁dias	-12.5827
sob	-12.583
uab	-12.5831
▁pebhmoob	-12.5841
▁hong	-12.5852
▁norm	-12.5855
xaj	-12.586
▁1999	-12.5861
▁lum	-12.5863
▁19.	-12.587
=9	-12.5876
▁vimtias	-12.5878
et	-12.5882
od	-12.5889
▁heevx	-12.5891
farmer	-12.5898
madison	-12.5899
▁tshajli	-12.5903
▁ntxhe	-12.5917
hawm	-12.5922
!!!!!!!	-12.5922
▁kevin	-12.5924
▁temple	-12.5925
▁soldier	-12.5926
ga	-12.5926
▁reward	-12.5928
naj	-12.5929
▁guest	-12.5932
▁vaajlugkub	-12.5937
▁smelt	-12.5937
▁qhuabqhia	-12.5938
▁plogteb	-12.5938
▁newhom	-12.5938
▁cibnyeej	-12.5939
▁thoov	-12.5941
▁boring	-12.5941
▁recognized	-12.5942
▁pemsij	-12.5942
▁1998	-12.5943
▁qhabmeem	-12.5943
▁acres	-12.5943
▁talked	-12.5944
▁nrawv	-12.5946
▁yrs	-12.5949
xub	-12.5953
▁politically	-12.5953
▁customers	-12.5956
▁sports	-12.5956
proposed	-12.5959
▁nruabsiab	-12.5961
▁rhia	-12.5961
▁rav	-12.5963
▁1988	-12.5964
▁nchaav	-12.5966
goc	-12.5966
▁vajtsev	-12.597
▁ring	-12.5972
▁ntho	-12.5972
▁churches	-12.5976
his	-12.5976
▁thias	-12.5984
▁ntsu	-12.5985
▁tubhluas	-12.5988
▁bail	-12.5988
▁ncus	-12.5991
▁rus	-12.6
nyeem	-12.6
nim	-12.6005
▁govern	-12.6006
▁whom	-12.6006
cav	-12.6009
tswb	-12.601
▁chimx	-12.6014
ive	-12.6022
▁reporter	-12.6023
1,	-12.603
▁grave	-12.6038
▁fail	-12.604
mi	-12.6041
▁sides	-12.6046
▁tubntxhais	-12.6048
million	-12.6052
▁sum	-12.6058
tl	-12.6064
ntsej	-12.6068
nug	-12.6068
▁20,	-12.6068
ntr	-12.6073
▁driver	-12.609
mfu	-12.6091
▁input	-12.6092
▁direction	-12.6092
▁female	-12.6094
▁channel	-12.6098
▁mok	-12.6098
more	-12.61
▁hihihi	-12.6101
5,	-12.6101
▁10-20	-12.6103
▁library	-12.6103
▁lonewriter	-12.6104
▁schedule	-12.6104
▁buffet	-12.6104
▁recently	-12.6104
▁tabmeeg	-12.6105
▁zujzug	-12.6105
pb	-12.6105
▁tuamtshoj	-12.6105
▁prize	-12.6105
▁particular	-12.6106
▁plws	-12.6106
▁nrawj	-12.6106
▁mexico	-12.6108
▁apart	-12.6108
▁personality	-12.6108
▁productive	-12.6108
▁nrwb	-12.6109
▁promised	-12.6109
▁nplaws	-12.6109
▁hlas	-12.611
▁tsimtxiaj	-12.6111
▁nwgnuav	-12.6112
▁fully	-12.6112
▁naskas	-12.612
▁pull	-12.6122
lqb	-12.6125
▁nyoj	-12.6129
gov	-12.6134
▁txhas	-12.6142
▁zen	-12.6146
▁ncuas	-12.6149
daws	-12.6149
▁pop	-12.6152
▁yaud	-12.6154
▁lajntxiag	-12.6155
ris	-12.6159
▁views	-12.616
▁host	-12.6163
▁nrogkuv	-12.6164
term	-12.6172
▁nroglawv	-12.6175
▁lived	-12.6184
▁12,	-12.6189
▁28,	-12.6189
looj	-12.619
khib	-12.6198
fwm	-12.6198
▁em	-12.6198
kws	-12.6206
say	-12.6209
tec	-12.6211
▁command	-12.6216
huam	-12.622
▁addition	-12.6221
▁positions	-12.6223
ku	-12.6223
life	-12.6228
▁mho	-12.623
▁hahhahaha	-12.6231
▁$50	-12.6232
hov	-12.6232
▁thiam	-12.6235
california	-12.6235
tnv	-12.6237
▁magi	-12.6242
▁ntob	-12.6242
images	-12.6242
daj	-12.6251
▁interpret	-12.6251
▁prejudice	-12.6263
▁clerk	-12.6273
▁smalley	-12.6273
▁afraid	-12.6273
▁airport	-12.6273
▁mouanoutoua	-12.6273
▁samphong	-12.6274
▁instinct	-12.6274
▁dangerous	-12.6275
sij	-12.6275
▁intent	-12.6275
▁nowadays	-12.6275
▁:):)	-12.6277
▁nthawv	-12.6277
▁naturally	-12.6277
▁ml	-12.6278
▁txajdlis	-12.6278
▁limited	-12.6278
▁trade	-12.6278
▁tamsino	-12.6279
▁kung	-12.6279
▁thomas	-12.6281
sub	-12.6281
▁consequences	-12.6283
▁besides	-12.6289
▁cuabyeej	-12.6293
▁1983	-12.6294
/07	-12.63
▁vajlug	-12.6303
▁kay	-12.6308
ted	-12.631
▁osh	-12.6313
xyov	-12.632
▁cwb	-12.632
pl	-12.6323
▁contradict	-12.6333
▁ntevx	-12.6341
ntsib	-12.6343
luv	-12.6345
▁pl	-12.6346
zag	-12.6349
▁09	-12.6351
▁tea	-12.6352
▁tawmsis	-12.6354
ung	-12.6356
ad	-12.6358
▁msp	-12.6361
lib	-12.6365
▁tsauj	-12.6365
eeg	-12.6385
▁dha	-12.6386
▁hole	-12.6389
▁kees	-12.639
▁ntshab	-12.6393
▁nplaub	-12.6393
txhiaj	-12.6395
▁firm	-12.6403
rooj	-12.6406
lpdr	-12.6408
▁thos	-12.641
vietnam	-12.6417
▁txhiam	-12.6418
gb	-12.6426
▁sentence	-12.6431
▁spring	-12.6432
▁vibnai	-12.6434
▁killer	-12.6435
▁ntxhia	-12.6436
▁cojdab	-12.6442
▁daiv	-12.6443
▁facility	-12.6445
▁rotavirus	-12.6445
▁coojpwm	-12.6445
▁tsuvtum	-12.6446
▁cuamtshuam	-12.6446
▁golf	-12.6446
▁wahoua	-12.6446
▁mainstream	-12.6446
▁npaav	-12.6446
▁beginanew	-12.6446
▁hawaii	-12.6446
▁xyuamxim	-12.6447
▁nkhawb	-12.6447
▁demonstration	-12.6447
▁txavtxim	-12.6447
▁emotional	-12.6447
▁anouvong	-12.6447
▁sweet	-12.6448
▁considered	-12.6448
▁laujkaub	-12.6449
▁tujlub	-12.645
▁khev	-12.645
▁cuz	-12.6452
▁gold	-12.6452
▁txujcai	-12.6454
▁legally	-12.6454
▁deeg	-12.6456
▁faav	-12.6456
▁31,	-12.6457
▁phawv	-12.6461
xiv	-12.6469
▁atf	-12.647
▁pobthawj	-12.6473
▁qhais	-12.6479
▁hrs	-12.6484
▁kad	-12.6489
▁jd	-12.6491
▁brandon	-12.6492
▁hauvlub	-12.6494
▁oom	-12.6495
▁qais	-12.6495
▁irs	-12.6497
tsov	-12.6498
▁plawm	-12.65
ais	-12.6508
▁practices	-12.6513
▁ntswb	-12.6524
hauj	-12.653
▁associate	-12.6532
▁27,	-12.6538
tsuag	-12.6545
▁nrhau	-12.6548
frm	-12.6559
▁looks	-12.6577
▁ncuv	-12.6578
▁$3	-12.6579
▁1997	-12.6581
lee	-12.6582
chinese	-12.6583
▁covdab	-12.6589
ay	-12.6605
▁contribution	-12.6608
▁neighbor	-12.6608
▁scientist	-12.6608
▁audience	-12.6609
ea	-12.6612
▁grant	-12.6616
▁argue	-12.6619
▁mmr	-12.6619
▁separate	-12.662
▁hohoho	-12.6621
▁cyber	-12.6621
▁shopping	-12.6621
▁muatony	-12.6621
▁lastees	-12.6621
▁chose	-12.6622
▁thoobtsib	-12.6622
▁ndlag	-12.6622
▁duty	-12.6622
▁kaisone	-12.6623
▁qhatxug	-12.6623
▁ibtxhis	-12.6623
▁average	-12.6624
▁calendar	-12.6624
▁mutual	-12.6624
▁neegtojsiab	-12.6624
but	-12.6625
▁yesterday	-12.6625
hoom	-12.6627
▁lhwb	-12.6627
▁daab	-12.6628
▁appointed	-12.663
▁dark	-12.6631
▁chertoua	-12.6631
▁thousands	-12.6633
▁twbywm	-12.6634
▁nrhw	-12.6642
▁global	-12.6646
▁critical	-12.6646
04	-12.6646
lc	-12.6646
▁tablaj	-12.665
!.....	-12.6652
▁8,	-12.6653
rua	-12.6655
▁jkuv	-12.6658
luas	-12.6663
▁thjia	-12.6667
▁dus	-12.6668
▁accident	-12.6679
ily	-12.6686
▁(65	-12.6694
▁compound	-12.6696
sex	-12.67
▁khuas	-12.67
moua	-12.6701
▁$0.0	-12.6707
▁metal	-12.6707
▁ntshia	-12.671
▁reform	-12.671
ous	-12.6713
city	-12.6724
▁cojlos	-12.6729
tsw	-12.6738
fe	-12.6755
xiong	-12.6757
▁nkaw	-12.6758
▁sibhais	-12.6758
power	-12.6761
personal	-12.6763
tsiaj	-12.6764
▁exchange	-12.6783
yaam	-12.6784
▁shoot	-12.6785
▁bridge	-12.6789
▁47	-12.6794
▁wild	-12.6798
▁rescue	-12.6798
▁jewish	-12.6799
▁francisco	-12.6799
▁satisfy	-12.68
▁eliminate	-12.68
▁refuse	-12.6801
▁received	-12.6801
▁pronoun	-12.6801
▁potential	-12.6802
▁laosking	-12.6802
▁blej	-12.6803
▁cali	-12.6803
▁nationalism	-12.6803
▁npaim	-12.6804
▁correction	-12.6804
fa	-12.6804
▁nrha	-12.6805
-7	-12.6805
▁ntshaus	-12.6805
▁nkuav	-12.6806
▁zaim	-12.6807
▁tamtseeb	-12.6808
albums	-12.6808
▁mlm	-12.6809
▁flag	-12.6811
▁lajkab	-12.6812
vicp	-12.6813
▁dauv	-12.6816
▁ntseem	-12.6829
xyuas	-12.6831
▁pkm	-12.6831
▁3000	-12.6832
▁yawv	-12.6833
xis	-12.6833
xaav	-12.6835
▁nthua	-12.6835
▁txhaav	-12.6836
▁fix	-12.6841
▁determine	-12.6842
yig	-12.6853
nuav	-12.6854
▁player	-12.6864
▁1950	-12.6866
▁niamtsev	-12.687
▁xoj	-12.6879
▁gets	-12.688
ni	-12.6907
▁hw	-12.6912
▁offend	-12.6912
ance	-12.6913
▁talks	-12.6916
▁7,	-12.6921
19	-12.6926
thab	-12.6937
▁feature	-12.6943
▁ill	-12.6946
▁300,000	-12.6962
▁desire	-12.6965
▁fax	-12.6965
▁avenue	-12.6966
▁activist	-12.6969
▁require	-12.6969
:"	-12.697
▁nge	-12.6971
ban	-12.6975
▁500,000	-12.6975
▁wake	-12.6981
▁divide	-12.6981
▁mccoy	-12.6981
▁arlington	-12.6982
▁publish	-12.6982
▁ilean	-12.6982
▁nkhib	-12.6982
▁published	-12.6982
▁zuam	-12.6983
▁mccain	-12.6983
▁palestine	-12.6983
▁koomtxoos	-12.6984
▁accused	-12.6984
▁qhub	-12.6984
▁memorial	-12.6984
▁fantasy	-12.6985
▁weakness	-12.6986
▁pour	-12.6987
▁thorps	-12.6987
▁lajkam	-12.6988
▁marketing	-12.6988
▁liscuab	-12.6989
▁85	-12.699
▁served	-12.699
▁fighting	-12.6991
▁heheheheh	-12.6993
▁phlws	-12.6993
▁qhaim	-12.6995
zoov	-12.7011
▁demonstrate	-12.7024
wd	-12.7024
▁lawn	-12.7025
▁qhaab	-12.7027
▁xxx	-12.7029
qa	-12.7034
les	-12.7036
▁$100,000	-12.7042
▁22,	-12.7047
▁ntswm	-12.706
▁qaa	-12.7061
tuav	-12.7069
phiaj	-12.7071
turned	-12.7073
xaum	-12.7073
▁muslawm	-12.7076
!!!!!!!!!	-12.7077
▁tr	-12.7084
▁tactic	-12.7085
▁fuaj	-12.7089
caub	-12.7091
▁xem	-12.7092
▁probat	-12.7092
▁05	-12.7099
▁nin	-12.7102
kaum	-12.7104
▁pra	-12.7105
▁4-	-12.711
don	-12.711
ray	-12.7113
qau	-12.712
▁kang	-12.7124
▁xy	-12.7128
▁zu	-12.7128
▁cold	-12.7128
▁conversation	-12.7153
▁educator	-12.7154
▁structure	-12.7154
▁thousand	-12.7155
▁phrase	-12.7156
lqn	-12.7156
▁za	-12.7157
▁prince	-12.7159
loc	-12.716
tabsim	-12.7163
▁accurate	-12.7164
▁reserve	-12.7164
▁remove	-12.7165
▁agencies	-12.7166
▁credibility	-12.7166
▁phwnyawm	-12.7166
▁hitler	-12.7166
▁abraham	-12.7167
▁assisted	-12.7167
▁finish	-12.7167
▁phon	-12.7167
▁memkuj	-12.7167
▁condemn	-12.7168
▁twice	-12.7168
▁analysis	-12.7168
▁enemies	-12.7168
nqa	-12.7168
▁salary	-12.7168
▁adin	-12.717
▁nrawg	-12.717
▁zky	-12.7171
▁npws	-12.7171
▁grammar	-12.7172
▁tsee	-12.7173
▁lholi	-12.7173
▁hahhahah	-12.7173
▁pathetlao	-12.7173
▁ntshij	-12.7173
▁lamw	-12.7174
▁vous	-12.7174
▁tras	-12.7175
▁changing	-12.7175
▁loan	-12.7176
▁lff	-12.7177
▁acting	-12.7178
haj	-12.7178
▁nkaujstp	-12.7182
▁ytt	-12.7183
▁mees	-12.7183
▁xwmkab	-12.7184
▁rhuv	-12.7186
bs	-12.7186
▁jun	-12.7189
▁hahhaha	-12.719
▁ntshoo	-12.7193
▁farmer	-12.7198
nce	-12.72
▁lytec	-12.7202
▁pictures	-12.7217
▁statements	-12.7223
▁beliefs	-12.7223
nawb	-12.7224
tis	-12.7234
▁ceskawg	-12.7244
▁sat	-12.7245
▁plaus	-12.7248
cua	-12.7248
=5	-12.7249
▁magic	-12.7249
▁meat	-12.7254
▁zi	-12.7256
▁uacaag	-12.7258
▁pan	-12.7263
▁nkaujfa	-12.7268
▁gu	-12.727
▁sala	-12.7272
▁nyho	-12.7274
mental	-12.7279
can	-12.7279
▁chab	-12.7288
▁sing	-12.7293
nees	-12.7296
▁plaj	-12.7299
ship	-12.7307
53	-12.7311
=6	-12.7313
very	-12.7314
▁200,000	-12.7314
nyuam	-12.7317
zej	-12.7319
▁xes	-12.7338
▁produce	-12.7338
▁employee	-12.7342
▁ntsiagto	-12.7346
▁idiot	-12.7349
ntaus	-12.7349
rs	-12.7351
▁technical	-12.7353
▁easter	-12.7355
▁invitation	-12.7355
▁kaosiabhlub	-12.7355
▁kongmeng	-12.7356
▁somewhere	-12.7356
▁xuvxwm	-12.7356
▁academy	-12.7356
▁permission	-12.7356
aspx	-12.7357
▁zimtxwv	-12.7358
▁humble	-12.7358
▁pehawm	-12.7359
▁judgement	-12.7359
▁mistress	-12.7362
ra	-12.7364
▁pawm	-12.7366
▁ntxooj	-12.7367
▁skill	-12.7367
▁telling	-12.7367
▁tubnpis	-12.7371
▁saibx	-12.7374
▁golden	-12.7374
▁nrhiab	-12.7377
▁paav	-12.738
cais	-12.7386
▁charter	-12.7386
▁haaj	-12.7387
▁ntsawg	-12.739
▁nwb	-12.7398
▁match	-12.7401
08	-12.7409
▁neejtsaa	-12.741
▁rug	-12.7422
▁ncoom	-12.7422
▁wise	-12.7422
▁paoze	-12.7428
▁happens	-12.743
▁bear	-12.7432
▁educational	-12.7432
▁tiagtiag	-12.7434
▁sort	-12.7434
95	-12.7436
pua	-12.7444
▁powerful	-12.7445
rec	-12.7449
▁1:	-12.745
plig	-12.746
▁phuas	-12.7464
▁lubtsev	-12.7467
klawv	-12.7476
▁$3000	-12.7478
▁kawgli	-12.7481
▁exception	-12.7482
▁bat	-12.7484
32,	-12.7485
twv	-12.7488
▁il	-12.7491
▁tech	-12.7491
▁nrhu	-12.7494
public	-12.7506
pheng	-12.7507
txivneej	-12.7509
▁nawm	-12.7512
▁ntaa	-12.7517
▁blaj	-12.7521
viv	-12.7521
▁heat	-12.7532
▁begin	-12.7533
▁resolution	-12.7534
▁wikileak	-12.7534
▁bin	-12.7537
▁network	-12.7539
▁taxi	-12.754
▁klawm	-12.7541
▁alphabet	-12.7542
▁ther	-12.7543
▁automatic	-12.7544
▁exile	-12.7547
▁martin	-12.7548
▁ladies	-12.7548
▁tubcajces	-12.7548
▁earn	-12.7548
▁prison	-12.7548
▁studies	-12.7549
▁homeland	-12.7549
▁humanright	-12.7549
▁phabnab	-12.7549
▁noobqes	-12.755
▁yajdaus	-12.755
▁pajnplaimcua	-12.755
▁authorities	-12.755
▁hopefully	-12.755
▁asmekas	-12.755
▁tribal	-12.7551
lau	-12.7552
▁hahahhahaha	-12.7552
▁samana	-12.7552
▁scientific	-12.7552
▁allah	-12.7552
▁hnuv	-12.7553
▁elementary	-12.7553
▁kamoos	-12.7553
▁ssa	-12.7554
▁cuabkav	-12.7554
▁lease	-12.7558
▁temporary	-12.7559
▁ncaujlug	-12.7565
qw	-12.757
▁fingers	-12.7571
▁ntsoj	-12.7574
ntxub	-12.758
▁believed	-12.7584
▁pilots	-12.7584
▁kij	-12.7598
quas	-12.7609
▁hunt	-12.7622
bm	-12.7634
khawm	-12.7641
▁ntawn	-12.7644
▁projects	-12.7645
▁chaofab	-12.7647
▁phuab	-12.7655
▁guide	-12.7657
▁hehehehehehehe	-12.766
ate	-12.7661
▁rid	-12.7666
awb	-12.7667
ge	-12.7667
cev	-12.7675
nti	-12.7676
▁dejsiab	-12.7679
txug	-12.7683
zaub	-12.7688
ized	-12.7688
info	-12.7704
jesus	-12.7705
pobzeb	-12.7706
think	-12.7706
▁noces	-12.7709
politics	-12.7715
jhe	-12.7716
▁investment	-12.7729
▁gangster	-12.7731
▁lock	-12.7731
▁agreement	-12.7732
▁weapon	-12.7733
▁battle	-12.7733
▁sale	-12.7734
▁session	-12.7736
▁receipt	-12.7736
▁phoubia	-12.7736
▁garage	-12.7743
▁oklahoma	-12.7743
▁liberty	-12.7743
▁thorsp	-12.7744
▁lynhiavu	-12.7744
▁sisavangvong	-12.7744
▁nplaam	-12.7744
▁disappointed	-12.7744
▁companies	-12.7744
▁vivncaus	-12.7744
▁fuabfwm	-12.7744
▁previous	-12.7744
▁powerball	-12.7744
▁phasnyas	-12.7744
▁crisis	-12.7745
▁spider	-12.7745
caij	-12.7745
▁nqog	-12.7746
▁jurors	-12.7746
▁password	-12.7746
▁hungry	-12.7746
▁leepao	-12.7747
▁housing	-12.7747
▁res	-12.7747
▁htt	-12.7747
▁najnpawb	-12.7748
▁corner	-12.7748
▁pliav	-12.7748
▁lieutenant	-12.7748
▁klawv	-12.7749
▁nkaujmim	-12.7749
▁xyaab	-12.7752
▁ntaab	-12.7756
▁1-800-	-12.7756
▁nomtooj	-12.7759
▁vaim	-12.7761
▁haujsim	-12.7761
san	-12.7762
▁qh	-12.7765
▁kavhlau	-12.7767
▁$100.00	-12.7777
▁kips	-12.7781
▁144	-12.7783
seem	-12.7788
▁phaws	-12.779
-30	-12.7802
▁nobody	-12.7804
▁ualicas	-12.7804
▁nquas	-12.7806
▁cdc	-12.7809
pauv	-12.7811
▁kli	-12.7815
▁ncia	-12.7816
bhmong	-12.7819
▁primar	-12.7834
▁ibpliag	-12.7836
▁zoglawm	-12.7838
▁tone	-12.7844
▁lwmyam	-12.7855
▁award	-12.7855
lawj	-12.7861
▁liar	-12.7868
▁band	-12.7871
lino	-12.7872
nrhiav	-12.7884
txiaj	-12.7885
opinion	-12.7891
uag	-12.7893
uy	-12.7901
mercenary	-12.7905
democracy	-12.7905
victor	-12.7906
vaajmoob	-12.7907
▁69	-12.7907
asp	-12.792
▁chemical	-12.7933
▁context	-12.7933
▁technique	-12.7935
▁hearing	-12.7937
▁qoovsua	-12.7939
▁lispov	-12.7942
▁atlantic	-12.7943
▁chanthalangsy	-12.7943
▁earlier	-12.7943
▁bylaw	-12.7944
▁doyle	-12.7944
▁edison	-12.7944
▁koobmoov	-12.7944
▁laagluam	-12.7944
▁$20,000	-12.7944
▁empty	-12.7944
▁nvision	-12.7944
▁1986	-12.7944
▁famous	-12.7944
▁lanxang	-12.7945
▁ndlwg	-12.7945
▁$10,000.00	-12.7945
▁felt	-12.7945
▁facebook	-12.7945
▁earned	-12.7946
▁rheev	-12.7946
▁kablaum	-12.7946
▁kept	-12.7946
▁meaung	-12.7946
▁evaluate	-12.7947
▁signature	-12.7947
▁kabtsib	-12.7948
▁thugs	-12.7948
▁identif	-12.7948
▁muaslwj	-12.7948
▁openly	-12.7948
▁hnyo	-12.795
▁aware	-12.7952
▁twmxeeb	-12.7954
▁analyze	-12.7956
05	-12.7957
▁taiwan	-12.7957
▁nplas	-12.7959
▁cable	-12.7959
▁ntshuab	-12.7961
▁drug	-12.7964
▁dagzog	-12.7971
▁keng	-12.7975
▁1500	-12.7976
▁dlawm	-12.7976
▁resource	-12.7984
mt	-12.7985
▁saving	-12.7986
there	-12.7989
▁tuabzoo	-12.7994
thao	-12.8001
phaj	-12.8002
▁bav	-12.8004
▁pak	-12.8006
30,000	-12.8013
▁pages	-12.8015
▁nrw	-12.8016
▁ntoog	-12.802
choj	-12.8024
▁nyha	-12.8028
np	-12.8035
▁49	-12.8037
ud	-12.8043
▁huvsi	-12.8045
▁en	-12.805
,,,,,	-12.8053
▁valid	-12.8059
▁phlw	-12.8063
uav	-12.8064
iaj	-12.8065
▁areas	-12.8067
with	-12.8073
▁$300	-12.808
▁replace	-12.8092
▁gives	-12.8097
...!!!	-12.8101
▁devil	-12.8107
nb	-12.8108
hlwb	-12.8111
▁dhaw	-12.8114
▁timub	-12.8115
oi	-12.8117
link	-12.8117
note	-12.8118
▁throw	-12.8125
▁yoom	-12.813
aim	-12.813
hn	-12.8133
▁kor	-12.8134
▁(1	-12.8135
phim	-12.8136
▁reaction	-12.8136
▁fighter	-12.8138
▁adverb	-12.8139
▁gw	-12.814
side	-12.814
▁shaman	-12.8142
▁bv	-12.8144
78	-12.8145
▁difficult	-12.8147
▁ultimate	-12.8147
▁bien	-12.8147
▁easily	-12.8148
▁omaha	-12.8148
▁caabsaab	-12.8148
▁sacto	-12.8148
▁commission	-12.8148
▁everest	-12.8148
▁chicago	-12.8148
▁plenty	-12.8148
▁completely	-12.8148
▁asmeliskas	-12.8149
▁caubmoos	-12.8149
▁nthoob	-12.8149
pum	-12.8149
▁9:00	-12.8149
▁kongle	-12.8149
▁qaabzib	-12.815
▁recognition	-12.815
▁yuepheng	-12.815
▁ntivtes	-12.815
▁complex	-12.815
▁chivkeeb	-12.8151
▁coffee	-12.8151
▁dictatorship	-12.8151
▁cycle	-12.8151
▁explanation	-12.8151
▁oxygen	-12.8152
▁nriam	-12.8152
▁saaj	-12.8153
▁speed	-12.8153
▁mentally	-12.8154
▁vaughn	-12.8155
▁maker	-12.8156
▁nreb	-12.8156
▁expenses	-12.8156
▁petition	-12.8157
▁tyy	-12.8157
▁nplawv	-12.8157
▁raised	-12.8158
▁nahas	-12.8165
▁daily	-12.8167
▁(3	-12.8169
▁iabsiab	-12.8171
▁ntsog	-12.8175
bo	-12.8177
▁documents	-12.8178
▁advisors	-12.8178
▁55164-097	-12.8178
▁khum	-12.8182
▁hliav	-12.8185
▁620	-12.8187
tig	-12.8189
xim	-12.82
▁mp	-12.8201
▁1967	-12.8203
▁haa	-12.8208
sh	-12.821
▁vuj	-12.8212
vt	-12.8213
▁plos	-12.8221
hlo	-12.8229
tebchaws	-12.8235
▁2015)	-12.8239
▁gosh	-12.8242
▁lubsab	-12.8245
ncu	-12.8245
moo	-12.8246
▁nga	-12.8249
hj	-12.8254
dd	-12.8258
▁81	-12.8265
▁78	-12.8265
▁mentsi	-12.8266
▁male	-12.8274
iag	-12.8276
▁mx	-12.8279
▁connect	-12.828
phone	-12.8283
iav	-12.8285
▁bor	-12.8291
▁tuajlawm	-12.8296
foom	-12.83
▁iq	-12.8314
kubxaj	-12.8318
why	-12.8319
▁lhua	-12.8341
▁dealer	-12.8342
ent	-12.8342
▁congratulation	-12.8343
▁product	-12.8346
▁spot	-12.8348
▁hmoobthawj	-12.8351
red	-12.8351
▁elaborate	-12.8356
▁13-14	-12.8356
▁10-15	-12.8356
▁(33)	-12.8357
▁thwjtim	-12.8357
▁curious	-12.8357
▁sooner	-12.8357
▁asmeslikas	-12.8357
▁institute	-12.8357
▁absolutely	-12.8357
▁nriag	-12.8357
▁xtou	-12.8358
▁pujntxoog	-12.8358
▁winter	-12.8358
▁taagnrho	-12.8358
▁arrested	-12.8358
▁delegates	-12.8358
▁txaag	-12.8359
▁blah	-12.836
▁completed	-12.836
▁appreciated	-12.836
▁novqaab	-12.8361
▁universal	-12.8361
▁nasxus	-12.8362
▁txhem	-12.8362
files	-12.8362
yaim	-12.8363
▁mobile	-12.8365
▁ceeg	-12.8366
▁publicly	-12.8366
▁qoov	-12.8367
▁moobthaibteb	-12.8368
▁chaav	-12.837
▁nreej	-12.837
▁19,	-12.8377
▁ngos	-12.8377
34	-12.8378
lg	-12.8378
▁hlaw	-12.8379
▁liabqab	-12.8379
▁caa	-12.838
▁tuskwvtij	-12.8382
ancient	-12.8383
▁quick	-12.8388
82	-12.8393
▁mug	-12.8402
year	-12.8404
web	-12.8407
▁farm	-12.8407
ncaj	-12.8408
xu	-12.841
▁professors	-12.8417
▁mile	-12.8418
▁tasx	-12.8422
▁npl	-12.8428
▁fat	-12.8437
big	-12.8439
▁mex	-12.8441
ei	-12.8443
fu	-12.8444
▁numbers	-12.8445
family	-12.8447
▁ntsos	-12.8447
▁heevkawg	-12.8452
▁tuias	-12.8456
▁pij	-12.8469
▁naus	-12.8471
▁213	-12.8473
ct	-12.8477
▁cus	-12.8478
▁saix	-12.8489
yg	-12.8489
▁dogs	-12.849
hai	-12.8492
▁blua	-12.8511
▁cure	-12.8523
way	-12.8528
nraim	-12.8528
▁hmt	-12.8529
secret	-12.8531
bmh	-12.8533
▁hamburger	-12.8556
▁competition	-12.8557
▁taabsi	-12.8558
ntag	-12.856
▁haug	-12.8562
hy	-12.8565
▁900	-12.8566
▁1961	-12.8567
▁ncaajnceeg	-12.8569
▁ntxhiavnyuj	-12.8569
▁committed	-12.857
▁indeed	-12.857
▁summary	-12.857
▁cyberspace	-12.857
▁destiny	-12.857
▁applied	-12.857
▁allergy	-12.8571
▁humanitarian	-12.8571
▁khasnyas	-12.8571
▁tsabmim	-12.8571
▁professionalism	-12.8572
▁asean	-12.8572
▁limtiam	-12.8572
▁elected	-12.8573
▁invite	-12.8573
▁roobris	-12.8574
▁reverse	-12.8574
▁missing	-12.8575
▁dws	-12.8576
▁pivxam	-12.8576
▁nteb	-12.858
▁tawvdawb	-12.858
▁klg	-12.8581
▁xubthawj	-12.8582
▁pic	-12.8584
▁sks	-12.8586
▁transfer	-12.8586
▁yellow	-12.8587
▁lajfai	-12.8589
▁tseebtsim	-12.859
strongly	-12.8594
▁__	-12.8594
▁==============	-12.8595
▁mistakes	-12.8602
ism	-12.8602
cy	-12.8603
list	-12.8603
▁rent	-12.8606
▁bas	-12.8607
tawb	-12.8607
▁cousins	-12.8615
▁paste	-12.8617
-4	-12.8618
▁maav	-12.8626
▁mosx	-12.8632
▁txauj	-12.8632
▁bet	-12.8635
▁sibtog	-12.8639
rab	-12.8643
hlau	-12.8644
▁maslis	-12.8645
take	-12.8648
▁77	-12.8657
pro	-12.866
▁centers	-12.8663
▁phao	-12.8665
nk	-12.8665
tiv	-12.8665
38	-12.8673
▁settle	-12.8676
post	-12.8679
aiv	-12.8682
ek	-12.8693
jk	-12.8701
▁reduce	-12.8706
paul	-12.871
▁mike	-12.8713
▁visions	-12.8715
▁ntai	-12.8723
▁txojlus	-12.8724
▁thabhaa	-12.8734
nplooj	-12.874
▁plans	-12.8742
▁16,	-12.8745
▁named	-12.8746
zooniamtsev	-12.8748
▁yaas	-12.8754
di	-12.8762
sw	-12.8765
▁aa	-12.8766
niaj	-12.8771
▁consequence	-12.8774
▁psychologist	-12.8775
▁singer	-12.878
nna	-12.8785
▁epsdt	-12.8786
▁reagan	-12.8786
▁portland	-12.8786
▁kmxiong	-12.8786
▁offense	-12.8787
▁gambling	-12.8787
▁$200.00	-12.8787
▁tlk	-12.8787
▁polio	-12.8787
▁newsgroups	-12.8787
▁raaj	-12.8787
▁txwjlaug	-12.8787
▁dakota	-12.8787
▁faivntaj	-12.8787
▁fyi	-12.8788
▁khamkeuth	-12.8788
▁cobqha	-12.8788
▁cajpas	-12.8788
▁mluas	-12.8788
▁suicide	-12.8788
▁spam	-12.8788
▁nyavdub	-12.8789
▁1981	-12.8789
▁greenbay	-12.8789
▁pamlem	-12.879
▁bread	-12.879
▁senior	-12.879
▁offered	-12.879
▁9-10	-12.8791
▁violence	-12.8791
▁npwg	-12.8791
▁mmrv	-12.8792
▁trace	-12.8792
▁nevada	-12.8792
▁buddhism	-12.8792
▁najkhoom	-12.8792
▁queen	-12.8793
▁5$	-12.8798
▁phees	-12.8799
▁converters	-12.8799
chaws	-12.8801
▁damn	-12.8802
▁khiag	-12.8802
▁moobseem	-12.8803
▁serving	-12.8805
▁ntsus	-12.8807
▁ntsaus	-12.881
▁jury	-12.8811
▁tsotseg	-12.8812
▁kabliab	-12.8817
hr	-12.8817
▁zia	-12.8823
non	-12.8824
▁ibqho	-12.8826
▁qag	-12.8827
▁iii	-12.8827
▁2:	-12.8828
veral	-12.8829
▁xavkom	-12.8831
▁davhlaus	-12.8833
vd	-12.8834
▁senators	-12.8836
▁experts	-12.8837
66	-12.884
some	-12.884
▁speaks	-12.8841
▁johny	-12.8842
taag	-12.8848
▁sws	-12.8849
ot	-12.885
****************	-12.8854
41	-12.8854
▁tri	-12.8856
▁nomleej	-12.886
▁lhau	-12.886
▁mij	-12.8861
▁gods	-12.8861
▁ran	-12.8863
yi	-12.8864
▁reg	-12.8865
mab	-12.8869
▁800	-12.8874
▁choices	-12.8875
our	-12.8877
▁tsoog	-12.8879
them	-12.8885
ntses	-12.8886
▁div	-12.8887
▁--------------	-12.8891
▁1600	-12.8895
▁heej	-12.8895
▁meetings	-12.8895
▁tud	-12.8899
txaim	-12.89
2005	-12.8901
▁mall	-12.8903
▁kinds	-12.8904
pos	-12.8908
▁hoskuv	-12.8924
▁hauvsiab	-12.8924
▁sher	-12.8925
lias	-12.8938
43	-12.8945
page	-12.8947
worker	-12.8953
loos	-12.8959
▁advertise	-12.896
ees	-12.8964
▁nca	-12.8967
▁revolution	-12.8968
health	-12.8969
pdf	-12.897
woman	-12.897
county	-12.8971
black	-12.8972
▁tubhmoob	-12.8972
ur	-12.8972
edu	-12.8981
nkaum	-12.8984
girl	-12.8985
▁ter	-12.8985
▁yw	-12.899
nus	-12.8993
▁script	-12.8996
▁ur	-12.8997
▁attempt	-12.9
▁110	-12.9002
▁loose	-12.9004
▁ntawdlos	-12.9007
▁initial	-12.9008
▁issara	-12.9008
▁zemzuag	-12.9008
▁involvement	-12.9009
▁stockton	-12.9009
▁saddam	-12.9009
▁hidden	-12.901
▁nengshia	-12.901
▁running	-12.901
▁veescas	-12.901
▁downline	-12.901
▁nmr	-12.901
01	-12.901
▁confidential	-12.901
▁clarification	-12.901
▁liberation	-12.901
▁psychological	-12.9011
▁sawvkev	-12.9011
▁vajntxwv	-12.9011
▁ecole	-12.9011
▁labeled	-12.9012
▁equally	-12.9012
▁surprised	-12.9013
▁ntxheev	-12.9013
▁brushoff	-12.9013
hmoov	-12.9015
▁accepted	-12.9015
xej	-12.9016
▁misliskas	-12.9016
▁physically	-12.9016
▁sibfoob	-12.9016
▁solid	-12.9017
▁57	-12.9017
▁reno	-12.9017
▁cwjmeem	-12.9018
▁ordered	-12.9018
qaum	-12.9019
▁tuabneej	-12.902
▁ntshuav	-12.9021
▁jr	-12.9021
▁ncontsoov	-12.9021
▁flow	-12.9024
-------------	-12.9026
▁ntxees	-12.9027
phauj	-12.9027
▁ntwb	-12.9027
▁tshauj	-12.9029
▁idonotknown	-12.9029
▁$2,000	-12.903
menyuam	-12.9031
dlawb	-12.9032
▁hajtsi	-12.9033
▁npoog	-12.9033
▁sly	-12.9033
are	-12.9033
▁kaoly	-12.9034
▁fuabcua	-12.9034
pes	-12.9037
▁maa	-12.9039
▁lasmas	-12.9041
▁tsocai	-12.9047
▁heevlawm	-12.9051
▁workers	-12.9053
▁democrat	-12.9054
▁relax	-12.9055
▁cuagli	-12.9055
▁tickets	-12.9056
▁symbol	-12.9062
▁coin	-12.9064
▁tae	-12.9066
35	-12.9068
▁$25	-12.907
▁persons	-12.9073
▁phlo	-12.9078
plaws	-12.9079
▁qoo	-12.9081
bee	-12.9087
khav	-12.9092
▁uaneeb	-12.9092
▁laajfa	-12.9094
ist	-12.9099
ought	-12.9099
▁hooj	-12.9113
play	-12.9113
ker	-12.9116
▁ibsij	-12.9117
khoom	-12.9132
▁referr	-12.9132
py	-12.9134
ds	-12.9141
▁$4	-12.9142
▁places	-12.9144
▁cv	-12.9147
▁resist	-12.9151
▁forces	-12.9158
▁hlai	-12.916
▁xajn	-12.9161
sai	-12.9163
▁eng	-12.9163
▁ncuj	-12.9164
▁parts	-12.9164
▁62	-12.9169
loskuv	-12.9181
▁zn	-12.9187
qe	-12.919
▁ou	-12.9197
tejzag	-12.9198
ntxias	-12.92
▁bouam	-12.9205
▁lun	-12.9211
iblub	-12.9212
▁helps	-12.9217
▁tsh	-12.9218
zeej	-12.9219
pv	-12.9222
▁stuff	-12.9222
▁robert	-12.9223
▁skin	-12.9224
▁pound	-12.9224
▁inform	-12.9226
▁vte	-12.9227
story	-12.9229
tsuav	-12.923
▁torture	-12.9233
▁successful	-12.9234
▁egypt	-12.9235
▁reliable	-12.9236
▁documentary	-12.9236
▁dawwgy	-12.9236
▁flea	-12.9236
▁receive	-12.9236
▁mhoobvajusa	-12.9236
▁12:00	-12.9236
▁vatthana	-12.9236
▁anywhere	-12.9236
▁toojkhwb	-12.9236
▁ropv	-12.9236
▁ntsuabrwg	-12.9236
▁nruabnraab	-12.9236
▁fakis	-12.9236
▁200-300	-12.9237
▁criteria	-12.9237
▁acceptable	-12.9237
▁wealth	-12.9237
▁finance	-12.9237
▁described	-12.9237
▁lvtltym	-12.9239
▁required	-12.9239
▁boycott	-12.9239
▁concerned	-12.9239
▁hmmob	-12.9239
▁candy	-12.924
▁yeebcuab	-12.924
▁dhawv	-12.9241
▁approved	-12.9241
▁fishing	-12.9241
▁mivmiv	-12.9241
▁minorities	-12.9241
▁tubnkeeg	-12.9242
ac	-12.9243
▁ciajhaiv	-12.9244
▁kheeg	-12.9244
▁taxes	-12.9245
▁leading	-12.9245
▁thuaj	-12.9245
▁txoom	-12.9246
▁sake	-12.9246
▁leemcai	-12.9247
▁tavsu	-12.9247
▁dien	-12.9249
▁kn	-12.925
▁nrws	-12.925
▁yeb	-12.9252
▁ntxhas	-12.9255
io	-12.9255
▁yajy	-12.926
362	-12.9262
▁$25,000	-12.9263
▁vaug	-12.9265
▁nwv	-12.9269
covered	-12.9271
▁loov	-12.9272
huv	-12.9275
ssi	-12.9281
▁lay	-12.9283
▁qhoom	-12.9284
▁tshajkoob	-12.9284
▁tn	-12.9288
mu	-12.9289
▁txivyawg	-12.929
▁xubx	-12.9301
▁yajsab	-12.9301
▁xuj	-12.9306
▁fus	-12.9307
▁cares	-12.9309
▁paula	-12.9314
ym	-12.9318
▁thawjthiab	-12.9319
▁enter	-12.9326
:)	-12.9327
36	-12.933
ak	-12.9334
▁hall	-12.9343
▁thawjx	-12.9343
▁appoint	-12.9345
khaum	-12.9349
▁hauvtsev	-12.935
▁songs	-12.935
▁unto	-12.9359
▁moved	-12.9364
ft	-12.9368
▁wear	-12.9372
▁76	-12.9381
sua	-12.9381
zo	-12.9387
wo	-12.9389
▁khim	-12.939
▁hnee	-12.9409
▁=?	-12.9409
▁minds	-12.941
▁sn	-12.9413
▁1993	-12.9414
kaw	-12.9416
sing	-12.9418
ro	-12.9421
▁__________	-12.9422
▁sibkho	-12.9426
spelling	-12.9429
ally	-12.943
meb	-12.9432
▁submit	-12.9438
▁paubqab	-12.9441
user	-12.945
high	-12.945
▁prediction	-12.9454
▁ntxhee	-12.9456
▁burger	-12.9456
▁discipline	-12.9457
▁lecture	-12.9464
▁deliver	-12.9466
▁yard	-12.9467
▁61	-12.9467
▁german	-12.9467
▁illness	-12.9468
▁trap	-12.9469
▁fulfill	-12.9469
lqu	-12.9469
▁enomy	-12.9469
▁concrete	-12.9469
▁supply	-12.947
▁pobntooslaus	-12.947
▁txwjnkawm	-12.947
▁commitment	-12.947
▁participants	-12.947
▁xovtoojcua	-12.947
▁narrow	-12.947
▁txiajxab	-12.9471
▁sibhaumxeeb	-12.9471
▁ccr	-12.9471
▁unlike	-12.9471
▁pxm	-12.9471
▁koobtsheej	-12.9472
▁cimxeeb	-12.9472
▁intelligent	-12.9472
▁tubpajtsab	-12.9472
▁hpv	-12.9473
▁tsoobkuj	-12.9473
▁nplab	-12.9473
▁theories	-12.9474
▁adultery	-12.9474
▁destruction	-12.9475
▁friendly	-12.9476
▁pawgntseeg	-12.9476
▁tshij	-12.9477
▁naskos	-12.9478
▁txhiajlis	-12.9479
even	-12.9479
▁mongkey	-12.948
▁ntsauj	-12.9481
▁pheejyig	-12.9481
▁fired	-12.9481
▁guards	-12.9487
lr	-12.9488
▁hmongmen	-12.9489
▁huang	-12.9489
▁sibnrauj	-12.949
▁555555	-12.9491
▁tsaugzog	-12.9492
asian	-12.9494
▁hue	-12.9495
▁vet	-12.9496
▁pang	-12.9499
▁bac	-12.9501
wp	-12.9502
-3	-12.9503
▁-->	-12.9505
▁animals	-12.9508
hoc	-12.9509
▁commies	-12.9509
ier	-12.951
▁wed	-12.9516
▁shut	-12.9516
▁ntshaj	-12.9516
txaus	-12.9518
▁photo	-12.952
▁thaug	-12.9521
dog	-12.9527
cam	-12.9527
▁yor	-12.9531
▁xt	-12.9532
qu	-12.9537
▁ntsiaj	-12.9549
=2	-12.9553
▁solutions	-12.9554
▁bam	-12.9555
▁haws	-12.9562
duab	-12.9574
▁xwbntag	-12.9575
▁22.	-12.9577
▁forth	-12.9588
37	-12.9589
▁calm	-12.9591
▁lang	-12.9593
yas	-12.9594
▁roman	-12.9601
▁hlig	-12.9603
hum	-12.9617
▁heheh	-12.9619
tsheej	-12.9622
▁$2000	-12.9632
ntsuag	-12.9636
▁audio	-12.9646
rk	-12.965
luang	-12.9652
pp	-12.9655
idnk	-12.9665
▁cow	-12.9668
charter	-12.9668
keeb	-12.9668
▁tejkev	-12.967
▁nrom	-12.9672
special	-12.9681
▁mivx	-12.9684
▁sell	-12.9692
▁unit	-12.9694
▁360	-12.9694
▁$2	-12.9698
▁ntsee	-12.9698
▁leak	-12.9698
__	-12.9705
▁ntsimtxhe	-12.9706
▁najvej	-12.9706
▁centurion	-12.9706
▁built	-12.9706
▁khauvxim	-12.9706
▁nyoobhoom	-12.9706
▁xiengkhuang	-12.9706
▁comfortable	-12.9706
▁spoke	-12.9706
▁rovmus	-12.9706
▁manner	-12.9707
▁anthrax	-12.9707
▁encephalitis	-12.9707
▁yunnan	-12.9707
▁chiangrai	-12.9707
▁resettlement	-12.9707
▁hotdog	-12.9707
merritt	-12.9707
▁effective	-12.9707
▁phonesavanh	-12.9707
▁solar	-12.9707
▁classify	-12.9707
▁behalf	-12.9707
▁npliam	-12.9707
▁investigation	-12.9708
▁6,500	-12.9708
▁helicopter	-12.9708
▁confidence	-12.9709
▁riov	-12.9709
▁invited	-12.9709
▁revealed	-12.9709
▁vangvieng	-12.9709
▁mysterious	-12.971
▁equality	-12.971
▁nonghet	-12.971
▁typical	-12.971
▁rwb	-12.9711
▁understood	-12.9711
▁declared	-12.9712
▁tilaug	-12.9712
▁poison	-12.9712
▁unique	-12.9713
▁reasonable	-12.9713
▁fiab	-12.9713
▁50,000	-12.9714
▁marx	-12.9714
▁kpnp	-12.9714
▁khoueng	-12.9714
▁dwb	-12.9715
▁nruaj	-12.9715
▁syphd	-12.9715
▁chimeng	-12.9715
▁fast	-12.9716
▁tshim	-12.9716
▁proclaim	-12.9717
▁tisbe	-12.9717
▁looked	-12.9718
▁windows	-12.9725
▁educators	-12.9726
▁ntsheeg	-12.9727
▁avloj	-12.9729
▁rituals	-12.9729
▁kabliam	-12.9729
▁hmoobleejtub	-12.973
▁indians	-12.973
▁proved	-12.9731
▁huabcua	-12.9732
▁feej	-12.9733
mem	-12.9733
▁txub	-12.9733
▁blow	-12.9733
▁ntxawj	-12.9735
▁tty	-12.9737
npis	-12.974
▁xyaa	-12.9746
▁ipe	-12.9747
▁kawj	-12.9748
▁luasmas	-12.9749
▁complaints	-12.9749
▁wash	-12.975
▁tigloo	-12.9751
▁haulwm	-12.9752
sy	-12.9752
▁gossips	-12.9754
▁timmeskas	-12.9754
nqi	-12.9756
▁=>	-12.9759
▁owe	-12.9763
▁mess	-12.9769
▁-------------	-12.9781
▁hlu	-12.9783
▁khe	-12.9787
▁tshuv	-12.9787
▁nowhere	-12.9788
▁khovkho	-12.9789
▁games	-12.9789
▁luagntxhi	-12.979
▁arm	-12.979
▁pastors	-12.9794
▁pla	-12.9796
▁diploma	-12.9797
fc	-12.9807
=7	-12.9808
gd	-12.9809
▁causes	-12.9811
ement	-12.9814
▁moses	-12.9821
el	-12.9821
▁qhaa	-12.9823
▁isreal	-12.9829
dlaag	-12.9843
▁pacha	-12.9859
▁links	-12.9866
fi	-12.9878
age	-12.9881
wife	-12.9885
▁vimlawv	-12.9886
▁sibpaub	-12.9887
▁tseemx	-12.9889
ncaws	-12.989
right	-12.9892
nc	-12.9899
light	-12.99
mode	-12.9907
txom	-12.9908
french	-12.9912
thailand	-12.9912
like	-12.9914
real	-12.9916
▁6)	-12.9919
▁59	-12.9925
▁brown	-12.9929
▁1992	-12.993
▁apologize	-12.9933
▁pomkev	-12.9933
▁boat	-12.9935
▁recommendation	-12.9937
▁iran	-12.9937
▁patient	-12.9938
▁huabtai	-12.9939
▁backward	-12.9942
zam	-12.9945
▁oi	-12.9947
▁convince	-12.9949
▁entire	-12.995
▁founder	-12.995
▁vietiane	-12.995
▁extend	-12.995
▁atleast	-12.995
▁tousavang	-12.995
▁neither	-12.995
▁nploojtsawb	-12.9951
▁syndrome	-12.9951
police	-12.9951
▁12-16	-12.9951
▁phooywg	-12.9951
▁georgia	-12.9952
▁maivkaus	-12.9952
▁minimum	-12.9952
▁laonork	-12.9952
▁hanoi	-12.9952
▁nplhaib	-12.9953
▁hoobkas	-12.9953
▁700	-12.9953
ntsis	-12.9953
▁fly	-12.9954
▁politburo	-12.9954
▁1962	-12.9955
▁yajtk	-12.9955
▁emergency	-12.9956
▁southern	-12.9956
▁nrhaiv	-12.9957
▁kaig	-12.9958
▁burn	-12.9959
▁maintain	-12.9959
▁zaig	-12.9959
▁thaiteb	-12.9959
▁2018	-12.9961
▁garden	-12.9963
▁fam	-12.9963
▁coup	-12.9965
▁techniques	-12.9966
▁ntxhiav	-12.9967
▁makers	-12.9967
▁nkaujhli	-12.9968
▁kongphan	-12.9969
▁bed	-12.997
▁sibtxawv	-12.997
▁ntxiav	-12.9971
▁sp	-12.9972
tic	-12.9972
▁taslawm	-12.9972
▁nujnqis	-12.9975
tc	-12.9978
▁ciajvaj	-12.9978
▁mivtub	-12.998
▁nkagsab	-12.998
main	-12.9981
▁$$	-12.9985
▁plej	-12.9985
▁nqha	-12.9985
▁dialects	-12.9987
▁pobkub	-12.9987
▁foomkom	-12.999
▁ntugkev	-12.9998
rt	-13.0006
aus	-13.0007
▁falls	-13.0012
oral	-13.0018
liv	-13.0018
▁nhro	-13.0039
▁xun	-13.0041
nia	-13.0049
▁nyamx	-13.005
▁lubcaij	-13.0052
▁58	-13.0053
▁volunteers	-13.0065
ial	-13.0066
▁acts	-13.0076
▁six	-13.009
laig	-13.0091
pec	-13.0091
form	-13.0095
nkag	-13.0112
▁rhau	-13.0115
▁plia	-13.0122
......!	-13.0123
eh	-13.0125
▁21.	-13.0128
ful	-13.013
▁changes	-13.0133
▁score	-13.0136
▁youth	-13.0137
▁kings	-13.014
nan	-13.0141
▁tejlus	-13.0144
▁1964	-13.015
radio	-13.0151
minnesota	-13.0153
oec	-13.0154
txwm	-13.0157
plab	-13.0157
make	-13.0161
legal	-13.0161
fresno	-13.0162
child	-13.0162
kwvtijhmoob	-13.0166
▁roo	-13.0171
-18	-13.0176
15,000	-13.0178
mag	-13.0183
▁ray	-13.0185
▁strike	-13.0186
▁toov	-13.0188
▁outcome	-13.0188
▁failure	-13.0188
dav	-13.0188
▁pocket	-13.0189
▁protestant	-13.0189
▁monster	-13.019
tou	-13.0191
▁1989	-13.0198
▁cancel	-13.0199
▁till	-13.02
▁2,000	-13.02
▁liaison	-13.02
▁50/50	-13.02
▁yaajtshajkoob	-13.02
▁treasure	-13.02
▁enforcement	-13.02
▁pennies	-13.0201
▁danai	-13.0201
▁offensive	-13.0201
▁fivyeem	-13.0201
▁zhenged	-13.0202
▁whpc	-13.0202
▁survival	-13.0202
▁kthao	-13.0202
▁currently	-13.0202
▁khaaj	-13.0202
▁dan	-13.0202
▁$1.00	-13.0203
▁lonely	-13.0203
▁ristsho	-13.0203
▁txhwj	-13.0203
▁caught	-13.0203
▁limpiam	-13.0205
▁ntxug	-13.0206
▁dinner	-13.0207
▁cry	-13.0209
▁ended	-13.0209
▁classes	-13.0209
▁dna	-13.0211
▁ref	-13.0212
▁xyaus	-13.0212
za	-13.0213
▁thaws	-13.0214
▁ruv	-13.0214
▁qaumntuj	-13.0214
▁products	-13.0217
▁txhaij	-13.0217
▁tactics	-13.0217
▁zajnkauj	-13.0218
▁quavdev	-13.0218
▁emails	-13.0218
tax	-13.0219
xaab	-13.0219
uk	-13.022
▁nkaujmuam	-13.0223
▁npooj	-13.0223
▁reporting	-13.0224
▁loas	-13.0224
▁efforts	-13.0225
▁verbal	-13.0235
▁thw	-13.0237
▁1966	-13.0237
▁xaavx	-13.0241
▁3-5	-13.0243
▁leegtwg	-13.0245
▁costs	-13.0248
▁boon	-13.0252
regional	-13.0258
▁cop	-13.026
▁nkee	-13.0263
read	-13.0267
ling	-13.0268
▁khou	-13.027
▁npluj	-13.0272
ir	-13.0279
▁valley	-13.0287
=4	-13.029
▁khaublig	-13.0297
cd	-13.0299
hwm	-13.0302
▁huay	-13.0307
va	-13.0308
▁hinh	-13.0309
pu	-13.0311
▁multipl	-13.0311
▁quam	-13.0314
txoov	-13.0315
ks	-13.0321
▁clubs	-13.0323
ncuab	-13.0323
99	-13.0334
▁het	-13.035
nav	-13.0351
hour	-13.0358
▁pee	-13.0362
900	-13.0367
ntaj	-13.037
pt	-13.0372
dlej	-13.0376
▁iee	-13.038
▁tobhau	-13.0381
▁vaus	-13.0386
▁hasx	-13.0394
ied	-13.0395
people	-13.0403
president	-13.0403
politic	-13.0405
31	-13.0407
vue	-13.0407
sign	-13.0409
▁hauvqhua	-13.041
ization	-13.0411
▁maml	-13.0412
ary	-13.0417
lb	-13.0418
▁86	-13.0418
first	-13.0418
court	-13.0418
tty	-13.0421
hehehehehehehehe	-13.0425
ys	-13.0429
▁dress	-13.0433
mon	-13.0438
ntaub	-13.044
▁flirt	-13.044
▁melika	-13.0445
▁function	-13.0445
▁rovlawm	-13.0445
▁window	-13.0446
▁border	-13.0447
▁slave	-13.045
stupid	-13.0454
▁resolve	-13.0454
▁horse	-13.0454
ff	-13.0455
▁kawgkiag	-13.0455
▁activity	-13.0457
▁concordia	-13.0457
▁sihanouk	-13.0457
▁9-1-1	-13.0457
▁backyard	-13.0457
▁verse	-13.0457
▁maabdlawb	-13.0457
▁ameslika	-13.0457
▁bigger	-13.0457
▁ceremony	-13.0457
▁christopher	-13.0457
▁brooklyn	-13.0457
▁highway	-13.0458
▁kavtheej	-13.0458
▁nrhaab	-13.0458
▁hyena	-13.0458
▁==>	-13.0459
▁mankind	-13.0459
▁asmiskas	-13.046
▁proverb	-13.046
▁oneself	-13.046
▁tsawj	-13.046
▁ragtxuj	-13.046
▁decided	-13.0461
lauv	-13.0461
▁shoes	-13.0461
▁teevhawm	-13.0462
▁tshoobkos	-13.0462
▁switzerland	-13.0462
▁senate	-13.0462
▁tsausntuj	-13.0465
▁trained	-13.0465
▁differently	-13.0465
▁npum	-13.0465
▁extreme	-13.0465
▁ntshiv	-13.0466
▁regulations	-13.0466
▁strategies	-13.0466
▁qawv	-13.0466
▁wheel	-13.0468
▁piaj	-13.0469
▁cda	-13.047
▁kiaj	-13.0471
▁phlaw	-13.0472
▁nrhaw	-13.0474
▁players	-13.0476
▁touly	-13.0479
vi	-13.048
gx	-13.0481
▁khaim	-13.0483
▁jib	-13.0483
▁lojhlob	-13.0485
▁chem	-13.0485
▁phee	-13.0487
▁bone	-13.0488
▁hauvkev	-13.0491
sia	-13.0491
▁41	-13.0493
▁xeebleej	-13.0497
▁anger	-13.0504
▁mercenary	-13.0507
▁naphi	-13.0509
▁shared	-13.052
▁tamsisno	-13.0526
▁ruamuag	-13.0527
▁yin	-13.0527
ide	-13.0528
tting	-13.0529
▁npom	-13.0529
npau	-13.0533
▁feed	-13.0538
dib	-13.0539
▁kiaglawm	-13.0545
▁phoojywgzoo	-13.0546
▁qob	-13.0551
▁ncuaj	-13.0561
▁jane	-13.0573
▁9,	-13.0576
▁planet	-13.0584
▁ndlaj	-13.0585
▁mer	-13.0596
▁toos	-13.0601
100	-13.0612
mc	-13.0619
▁brand	-13.0624
▁matters	-13.0628
▁dualawm	-13.0628
xeev	-13.0629
▁kwjha	-13.063
▁yad	-13.0633
▁como	-13.0638
=_	-13.0638
kg	-13.0648
54	-13.065
ar	-13.0653
▁ceo	-13.0655
leader	-13.0659
ol	-13.0661
kim	-13.0661
▁hahahahahah	-13.0663
,000	-13.0667
topic	-13.0667
tuab	-13.0668
▁lines	-13.0668
week	-13.0669
▁tseen	-13.0674
yaaj	-13.0676
▁hahahahhaha	-13.0677
white	-13.0682
plog	-13.0682
hahaha	-13.0682
hwv	-13.0685
same	-13.0687
▁xaslas	-13.0688
▁herb	-13.0688
qus	-13.0689
-47	-13.069
npaum	-13.0691
over	-13.0694
▁nqib	-13.0698
▁sok	-13.0707
▁consonant	-13.0707
▁amelika	-13.0707
▁magazine	-13.0708
▁hahah	-13.0711
▁institution	-13.0711
▁100,000	-13.0711
▁topm	-13.0713
let	-13.0714
▁cambodian	-13.0715
▁believes	-13.0717
gpia	-13.0719
▁recent	-13.0719
▁quiet	-13.0719
▁joking	-13.072
▁accountability	-13.072
01085/	-13.072
▁bunch	-13.072
▁hummm	-13.072
▁walmart	-13.072
▁yahshua	-13.072
▁hehehehhe	-13.072
▁bausuav	-13.072
▁1959	-13.072
▁phouthen	-13.0721
▁disabilities	-13.0721
▁txopg	-13.0721
▁engine	-13.0721
▁plaig	-13.0721
▁slavery	-13.0721
▁50-60	-13.0721
htg	-13.0722
▁navthwm	-13.0722
▁12-13	-13.0722
▁dabntub	-13.0722
▁junk	-13.0722
▁ngum	-13.0723
▁kooshaum	-13.0723
npab	-13.0725
▁blaum	-13.0725
▁ntiagtug	-13.0725
▁introduced	-13.0726
▁pojyaig	-13.0726
qha	-13.0726
▁corrupted	-13.0726
▁rhees	-13.0726
▁hehehhehe	-13.0728
▁bloglab	-13.0728
tony	-13.0729
▁baccalaureate	-13.0729
▁nkawb	-13.0729
▁txaam	-13.073
▁sadam	-13.073
▁twvyeej	-13.0731
▁qug	-13.0732
▁metro	-13.0733
▁nploojsab	-13.0733
▁piab	-13.0733
▁deng	-13.0735
▁nyabxeeb	-13.0735
nyoog	-13.0735
▁nkib	-13.0736
▁boum	-13.0736
▁zauj	-13.0737
▁chuan	-13.0738
▁adapt	-13.0739
▁lajxeeb	-13.074
▁forced	-13.074
▁iraqi	-13.074
▁inch	-13.074
▁pemtxwv	-13.0741
tt	-13.0741
▁scientists	-13.0742
pj	-13.0743
▁nio	-13.0745
hh	-13.0745
▁thaublaus	-13.0746
▁fay	-13.0746
▁yeebyam	-13.0747
▁engage	-13.0748
▁plauv	-13.0749
▁rain	-13.0751
khuam	-13.0752
▁fib	-13.0754
▁khet	-13.0755
▁chib	-13.0758
▁xyos	-13.0759
▁obleeg	-13.0766
klawm	-13.0771
▁leejniam	-13.0773
▁seeing	-13.0775
▁rak	-13.0776
▁wouldn	-13.079
▁hlaug	-13.079
▁kok	-13.0795
nyas	-13.0797
▁ees	-13.0801
▁becomes	-13.0801
▁stands	-13.0806
▁txauv	-13.0809
▁nyhoo	-13.081
▁generations	-13.0817
▁pot	-13.0818
▁sid	-13.0819
eev	-13.0824
▁somsava	-13.083
▁hmoobvaj	-13.0834
822-7	-13.0836
▁56	-13.0844
khawb	-13.0847
▁tay	-13.0852
ul	-13.0852
end	-13.0855
▁zoozoo	-13.0858
ntxim	-13.0876
▁sh	-13.0876
▁khaug	-13.0879
liag	-13.089
▁inter	-13.0896
nhub	-13.0898
▁generalize	-13.0927
cb	-13.0933
green	-13.094
▁suas	-13.0944
▁phw	-13.0945
title	-13.0945
▁roll	-13.0946
dhia	-13.0948
national	-13.0951
lor	-13.0951
▁213,	-13.0951
global	-13.0951
research	-13.0952
xib	-13.0958
▁mak	-13.0959
yav	-13.0967
17	-13.097
▁secrete	-13.0973
they	-13.0975
▁european	-13.0976
▁emotion	-13.0977
▁fairground	-13.0977
▁winner	-13.0977
▁creator	-13.0978
▁hundred	-13.098
▁nyiv	-13.098
▁factor	-13.0982
▁$1,000	-13.0982
▁vajloog	-13.0984
▁teaching	-13.0984
▁kwjtij	-13.099
▁(1-800-	-13.099
▁comparison	-13.099
▁excellent	-13.099
▁huvtuabsi	-13.099
▁persue	-13.099
▁abroad	-13.099
▁plague	-13.099
▁sunny	-13.099
▁toutong	-13.099
▁capitol	-13.0991
▁phetsarath	-13.0991
▁conduct	-13.0991
▁hiem	-13.0991
▁republic	-13.0991
▁graduation	-13.0991
▁carefully	-13.0991
▁afford	-13.0992
▁priminister	-13.0992
▁$20.00	-13.0992
800-232-4636	-13.0992
▁cheap	-13.0992
▁yaajceeb	-13.0992
▁ntswvsiab	-13.0993
▁voting	-13.0993
▁fundraising	-13.0993
▁vajtxiab	-13.0993
▁moobtwmzeej	-13.0993
▁gathering	-13.0993
▁violent	-13.0993
phou	-13.0993
▁reconciliation	-13.0994
▁ntxawv	-13.0994
▁icu	-13.0995
▁wpcs	-13.0995
▁logical	-13.0995
▁destructive	-13.0996
▁gap	-13.0996
▁khue	-13.0996
▁decades	-13.0996
▁khmer	-13.0997
▁actors	-13.0997
▁although	-13.0998
▁nplam	-13.0999
▁raped	-13.0999
▁bigge	-13.1001
ory	-13.1001
▁txhiv	-13.1002
▁ntxeeb	-13.1003
/2010	-13.1004
▁estate	-13.1004
▁download	-13.1004
▁ntxwgnyoog	-13.1007
▁npuateb	-13.1008
▁neeeg	-13.1008
▁nomphaj	-13.1009
967.	-13.1015
▁vum	-13.1016
▁worked	-13.1017
▁violations	-13.1017
▁hasting	-13.102
▁levels	-13.1022
▁yawmtxwv	-13.1023
▁joint	-13.1025
▁nyau	-13.1028
▁mature	-13.1031
▁lover	-13.1031
▁teachers	-13.1038
paubkuv	-13.1039
▁characters	-13.1043
▁chor	-13.1046
▁naiskhu	-13.1047
▁gau	-13.1052
name	-13.1055
▁standards	-13.1062
uam	-13.1072
▁dare	-13.1072
▁hak	-13.1076
▁$800	-13.108
dp	-13.1083
▁ncw	-13.1084
▁hmoobdub	-13.1087
ef	-13.1091
khi	-13.1096
▁txhualeej	-13.1104
▁lubcev	-13.1104
▁hearts	-13.1111
phoojywg	-13.1112
▁consult	-13.1119
!..	-13.1126
▁sibtshum	-13.1127
▁ntshw	-13.1128
who	-13.1139
il	-13.1145
laaj	-13.1147
▁kuvniam	-13.1155
▁-----	-13.1155
▁seat	-13.116
▁lujx	-13.1169
npaj	-13.1178
▁phaus	-13.1187
artial	-13.1194
dig	-13.12
ghais	-13.1204
▁noogqej	-13.1206
deev	-13.1207
xauv	-13.1212
care	-13.1216
fair	-13.1217
order	-13.122
future	-13.1221
▁relation	-13.1221
▁6000	-13.1222
medical	-13.1228
charlie	-13.123
idonotknow	-13.123
fajkhaum	-13.123
pejxeem	-13.123
ntshav	-13.1236
▁npov	-13.1236
▁ntxua	-13.1236
▁plo	-13.1239
▁researcher	-13.1251
▁raven	-13.1251
▁crocodile	-13.1251
md	-13.1251
07	-13.1252
▁praise	-13.1253
▁daniel	-13.1254
caum	-13.1254
▁opponent	-13.1255
▁opposition	-13.1257
▁broke	-13.1266
▁46	-13.1267
▁1945	-13.1267
▁ebola	-13.1268
▁iowa	-13.1268
▁opportunities	-13.1268
▁shiiyi	-13.1268
▁underage	-13.1268
▁profession	-13.1268
▁greatest	-13.1268
▁interior	-13.1269
▁barking	-13.1269
▁creation	-13.1269
▁improvement	-13.127
▁10:00	-13.127
▁thaw	-13.127
▁100-200	-13.127
▁humanity	-13.127
▁behave	-13.127
▁intended	-13.127
▁hmongruag	-13.127
▁namyau	-13.1271
▁anybody	-13.1271
▁ntxaum	-13.1272
▁10-12	-13.1272
▁domestic	-13.1273
▁sawvntxov	-13.1273
▁che	-13.1273
▁nyij	-13.1274
▁suiab	-13.1274
▁tshwv	-13.1274
▁rise	-13.1274
▁khites	-13.1275
▁$5000	-13.1275
log	-13.1275
▁sorties	-13.1275
▁paajyeeb	-13.1276
▁cho	-13.1276
▁collective	-13.1278
▁loud	-13.1279
▁cojnoj	-13.1279
huas	-13.128
▁formed	-13.128
▁herself	-13.1281
eme	-13.1281
zw	-13.1282
▁coglus	-13.1282
▁monthly	-13.1284
▁qb	-13.1286
▁played	-13.1287
▁range	-13.1288
▁yuslub	-13.1288
▁tseemswb	-13.1288
▁restrain	-13.1289
▁ntxeevsiab	-13.1291
vy	-13.1301
▁125	-13.1306
cker	-13.1308
tsum	-13.1312
▁ht	-13.1312
▁tsispaub	-13.1312
▁tosli	-13.1315
▁ntxog	-13.1316
local	-13.1321
▁hnubno	-13.1323
▁doos	-13.1325
▁ntshu	-13.1326
▁tip	-13.1326
▁ualuam	-13.133
▁hlubx	-13.1335
ntsws	-13.1338
▁poster	-13.134
▁siabnyiam	-13.134
09	-13.1348
▁feelings	-13.135
▁tseemnyob	-13.135
lawvlub	-13.1351
..!	-13.1353
ec	-13.1359
eu	-13.1364
▁54	-13.1364
▁governments	-13.1366
only	-13.1371
▁nplogdawb	-13.1372
▁2002,	-13.1374
▁yawgkoob	-13.1376
▁dhaulawm	-13.1379
khu	-13.1381
▁nkoo	-13.1384
80	-13.1393
▁professionals	-13.1394
▁ceevx	-13.1395
▁sibxws	-13.1397
▁judges	-13.14
msg	-13.1405
▁lwmtug	-13.1406
ntug	-13.1407
▁fan	-13.1408
▁paint	-13.1424
▁statistic	-13.1424
▁nqho	-13.1425
▁bno	-13.143
tiaj	-13.1436
70	-13.144
▁masters	-13.1444
ated	-13.1445
▁haim	-13.1445
phab	-13.1449
▁nrhai	-13.1453
hw	-13.1454
case	-13.1459
▁1/	-13.1461
!!!!!!!!!!	-13.1463
▁thian	-13.1479
riam	-13.1479
zus	-13.1486
dong	-13.1499
▁npu	-13.1501
traitor	-13.1501
02	-13.1505
▁mloo	-13.1507
too	-13.1507
▁2005.	-13.151
nqaij	-13.1513
▁bvv	-13.1513
▁txivlawv	-13.1513
▁haven	-13.1513
royal	-13.1515
▁task	-13.153
▁carpet	-13.1537
▁speculation	-13.1539
▁alternative	-13.154
▁servant	-13.154
▁five	-13.1543
op	-13.1543
▁shift	-13.1546
▁holy	-13.155
▁accuse	-13.1551
▁measure	-13.1552
▁reject	-13.1552
▁succeed	-13.1553
▁hujsaam	-13.1553
▁obvious	-13.1553
▁nlpog	-13.1553
▁greedy	-13.1554
▁livxwm	-13.1554
▁baseball	-13.1554
▁usual	-13.1554
▁privacy	-13.1554
▁kennedy	-13.1554
▁txoovkavtiab	-13.1554
▁repent	-13.1554
▁dignity	-13.1554
quot	-13.1554
▁tuabyaamnkaus	-13.1555
▁resort	-13.1555
▁thinks	-13.1555
▁hmnoob	-13.1555
▁classmate	-13.1555
▁grandpa	-13.1555
nyam	-13.1556
▁chivthawj	-13.1556
▁touyer	-13.1556
▁eastern	-13.1557
▁hmongmekas	-13.1557
▁yofg	-13.1557
▁micheal	-13.1557
▁banning	-13.1557
▁everyday	-13.1558
▁lately	-13.1559
▁juagnos	-13.1559
▁stamp	-13.1559
▁blaig	-13.1559
jec	-13.1559
▁irc	-13.156
▁6:00	-13.156
▁chov	-13.1561
▁credible	-13.1561
▁subgroup	-13.1561
thoob	-13.1561
▁nplhis	-13.1562
▁posmuas	-13.1564
▁fiction	-13.1564
▁qaav	-13.1565
▁provided	-13.1566
▁relations	-13.1566
▁nyablajliab	-13.1567
▁respected	-13.1572
▁pujyawm	-13.1574
▁scher	-13.1579
▁feemntau	-13.1581
faab	-13.1581
▁kaib	-13.1582
▁plhe	-13.1584
tk	-13.1585
taus	-13.1586
▁xwg	-13.159
▁cents	-13.1593
tsib	-13.1599
back	-13.1599
▁rfa	-13.1599
▁lwjsiab	-13.1602
▁wing	-13.1612
▁pleg	-13.1618
▁saved	-13.162
nag	-13.1621
dem	-13.1622
taum	-13.1625
▁nhab	-13.1633
▁hlw	-13.1633
▁fees	-13.1639
▁hun	-13.1645
▁nri	-13.1656
tx	-13.1657
▁hmm	-13.1659
tsiv	-13.1659
▁----	-13.1664
▁oop	-13.1669
▁jobs	-13.1675
52,	-13.1678
sp	-13.1681
hla	-13.1684
▁hmu	-13.1684
nroog	-13.1685
xf	-13.1691
▁ncokoj	-13.1691
txheej	-13.1691
▁fl	-13.1699
▁cup	-13.1707
▁rose	-13.1717
▁btw	-13.1718
▁huana	-13.1718
▁twh	-13.1722
cag	-13.1722
▁hnu	-13.1723
▁frank	-13.1731
▁critique	-13.1733
▁->	-13.1735
▁tejlub	-13.1736
▁tusiav	-13.1736
▁zoonraug	-13.1736
▁sec	-13.1743
▁moom	-13.1746
txig	-13.1757
ygo	-13.1757
ish	-13.1762
▁core	-13.1772
▁zee	-13.1772
▁hat	-13.1778
ian	-13.1779
▁tsiskam	-13.1785
▁nqab	-13.1786
▁amkha	-13.1791
ikuv	-13.1799
your	-13.18
▁thaas	-13.1801
▁bird	-13.1804
▁fag	-13.1805
majority	-13.1809
department	-13.1809
▁taim	-13.1811
level	-13.1813
▁tool	-13.1816
▁yoos	-13.1825
83	-13.1826
txeeb	-13.1829
zaus	-13.1833
▁user	-13.1833
xy	-13.1833
▁nationalist	-13.1833
▁mammuab	-13.1834
taj	-13.1836
▁seminar	-13.1836
▁stock	-13.1838
txhiab	-13.1838
▁historian	-13.1839
▁walleye	-13.1839
▁tran	-13.184
▁invention	-13.1842
▁corrupt	-13.1843
▁khmu	-13.1843
▁xavtias	-13.1843
lnk	-13.1845
▁abandon	-13.1845
▁escape	-13.1845
▁communicate	-13.1846
▁describe	-13.1847
▁nchaa	-13.1847
▁utah	-13.1848
▁776-5746	-13.1848
▁versus	-13.1848
▁15-20	-13.1848
▁pativat	-13.1848
▁duluth	-13.1848
▁basement	-13.1848
▁ntxwjnyoog	-13.1848
▁pursue	-13.1848
▁najkaib	-13.1848
▁xamxabnam	-13.1848
▁believing	-13.1848
▁yeeej	-13.1848
▁dismiss	-13.1849
▁13-16	-13.1849
▁twjkum	-13.1849
▁upper	-13.1849
▁curse	-13.1849
▁fiav	-13.1849
▁khekme	-13.1849
▁webcam	-13.1849
▁pujnyaaj	-13.1849
▁accountable	-13.1849
▁tseeem	-13.185
▁tsdis	-13.185
▁3:00	-13.185
▁maabqus	-13.185
▁nomkhwb	-13.185
▁koosphas	-13.1851
▁doens	-13.1851
▁timxyeej	-13.1851
▁daddy	-13.1852
▁nyaib	-13.1852
▁udon	-13.1852
▁1,500	-13.1853
▁halloween	-13.1853
▁tmc	-13.1853
▁modify	-13.1854
▁dlhos	-13.1855
▁weight	-13.1855
▁somphone	-13.1855
▁hearsay	-13.1855
▁ycha	-13.1856
▁tubtxib	-13.1856
▁organized	-13.1857
▁zuas	-13.1857
▁registered	-13.1857
▁bark	-13.1858
▁gia	-13.1858
▁hunters	-13.186
▁cohr	-13.186
▁zwb	-13.186
▁rhuab	-13.186
▁dejtshiab	-13.1861
▁ceeblaj	-13.1864
▁scare	-13.1864
▁nruabsab	-13.1865
▁xwbhwb	-13.1865
▁dlob	-13.1866
▁sistxuas	-13.1866
▁dreaming	-13.1866
xawm	-13.1868
▁idiots	-13.1868
▁ocr	-13.1869
▁souk	-13.1869
▁ibtxha	-13.1869
▁nplu	-13.1872
▁phoj	-13.1872
6)	-13.1873
▁ntsaab	-13.1877
▁hluasnraug	-13.1879
▁(5)	-13.1881
▁zoua	-13.1882
ww	-13.1882
amen	-13.1883
pg	-13.1885
▁hij	-13.1886
▁nosavanh	-13.1888
▁txujlug	-13.1889
▁plane	-13.1891
▁chan	-13.1891
▁xejt	-13.19
lue	-13.1901
▁hnubqub	-13.1902
▁covnyom	-13.1902
cuav	-13.1904
▁porn	-13.1907
▁bond	-13.191
▁tibtug	-13.1914
dg	-13.1917
▁tubse	-13.1922
▁heal	-13.1922
-***	-13.1926
tha	-13.1927
▁npajsiab	-13.1928
asia	-13.1929
▁mds	-13.1932
caj	-13.1933
▁74	-13.1934
qhuas	-13.1937
paus	-13.1943
nqe	-13.1943
▁faa	-13.1945
▁hint	-13.1961
yej	-13.1964
▁spen	-13.1968
▁yuavkom	-13.1968
▁el	-13.1977
gdqo	-13.1978
associated	-13.1979
▁nnk	-13.198
cim	-13.1981
laub	-13.1985
▁answers	-13.1986
▁ntias	-13.1987
▁turns	-13.1989
cent	-13.199
▁cc	-13.1997
▁tough	-13.1997
yo	-13.2004
▁mw	-13.2006
fv	-13.2007
▁ves	-13.2008
mog	-13.2008
▁thamlus	-13.2017
▁$1,	-13.2019
per	-13.202
zug	-13.2027
ant	-13.2033
▁mainas	-13.2034
▁tin	-13.2042
▁gum	-13.2043
▁txoh	-13.2047
kum	-13.2047
paab	-13.2051
dluag	-13.2056
▁67	-13.2057
▁(30	-13.206
nrauj	-13.206
ine	-13.2066
wa	-13.2081
txhawb	-13.2084
dablaug	-13.2085
txia	-13.2085
home	-13.2086
npas	-13.2088
aab	-13.2088
thooj	-13.2089
report	-13.2098
government	-13.21
▁pol	-13.21
kong	-13.2103
thank	-13.2103
73	-13.2106
comcast	-13.2107
gm	-13.2107
example	-13.2113
tshwj	-13.2113
nkaujnyiag	-13.2113
change	-13.2118
cyb	-13.2129
----	-13.2131
tsawv	-13.2133
xoom	-13.2133
▁commercial	-13.2137
▁phuan	-13.2137
▁christain	-13.2138
▁mexican	-13.2139
▁error	-13.2139
▁expense	-13.2141
702	-13.2142
▁graduate	-13.2143
▁jay	-13.2146
▁nkausli	-13.2147
▁trail	-13.2148
▁qeev	-13.2149
ywj	-13.2149
▁elite	-13.2149
▁sawvdaw	-13.2149
▁cooperate	-13.215
▁silent	-13.215
▁greek	-13.2151
▁nthse	-13.2151
▁crappy	-13.2151
▁partnership	-13.2151
▁exact	-13.2151
▁policies	-13.2151
▁phuajxab	-13.2151
mloog	-13.2151
▁sacrify	-13.2151
▁admitted	-13.2151
▁registration	-13.2151
▁zzh	-13.2151
▁corona	-13.2151
▁citizenship	-13.2151
▁huajvam	-13.2152
▁5:00	-13.2152
▁laughable	-13.2152
▁angola	-13.2152
▁transparency	-13.2152
▁adjust	-13.2152
▁bodies	-13.2152
▁kabntsab	-13.2153
▁tolerate	-13.2153
▁everywhere	-13.2153
▁tsujsuadluag	-13.2153
▁nyaim	-13.2153
▁txhwv	-13.2153
▁dawbpaug	-13.2153
▁discussed	-13.2153
▁majtras	-13.2153
▁nyawb	-13.2153
▁prosperity	-13.2154
▁suggested	-13.2154
▁waiver	-13.2154
▁loyal	-13.2154
▁attached	-13.2154
▁xabtham	-13.2154
▁ignorance	-13.2155
▁abyab	-13.2155
▁rheeb	-13.2155
▁tcmd	-13.2155
▁chosen	-13.2156
▁summon	-13.2156
▁pajntaub	-13.2156
▁paajlug	-13.2156
▁doctorate	-13.2157
▁searching	-13.2157
▁commissioner	-13.2157
▁tubqaug	-13.2158
▁employment	-13.2158
▁ac	-13.2159
▁pamtuag	-13.2159
▁sibsau	-13.216
▁dolas	-13.216
▁cobmoos	-13.216
▁8,000	-13.216
▁expected	-13.2162
▁surely	-13.2162
haw	-13.2165
▁paud	-13.2167
leem	-13.2168
kauj	-13.2169
▁qhovcub	-13.2169
▁****	-13.2172
▁activists	-13.2172
▁qibsiab	-13.2174
▁sibdig	-13.2174
▁raim	-13.2175
▁taabsis	-13.2176
wr	-13.2176
▁weapons	-13.2176
▁txawjvam	-13.2176
▁nomdlub	-13.2179
▁covjeeg	-13.2181
▁txhaistes	-13.2182
gy	-13.2183
▁theung	-13.2186
▁bai	-13.2186
ical	-13.2186
ricin	-13.2189
yis	-13.2192
▁khiam	-13.2196
phau	-13.22
▁mou	-13.2204
kw	-13.2208
tawj	-13.2212
most	-13.2213
▁xon	-13.2216
▁yiam	-13.2216
▁secure	-13.2218
▁dlais	-13.2229
xw	-13.2232
kuvlub	-13.2233
loob	-13.2235
last	-13.224
former	-13.2244
agf	-13.2249
bel	-13.225
▁201	-13.2251
txiag	-13.2252
plan	-13.2252
▁khem	-13.2253
guc	-13.2255
nawd	-13.2256
45	-13.226
dh	-13.2261
▁yahoo	-13.2264
kasmoos	-13.2265
oli	-13.2268
▁pomtas	-13.2273
▁hahhahahaha	-13.2274
▁nojqab	-13.2278
txuas	-13.228
▁reps	-13.2283
▁xyog	-13.2287
awd	-13.229
▁tsevkawm	-13.2293
▁dump	-13.2296
▁siabzoo	-13.2307
▁sej	-13.2307
▁hlov	-13.2308
23	-13.2309
standard	-13.2317
tswvyim	-13.232
▁wu	-13.2324
▁npho	-13.2327
ceev	-13.2328
mis	-13.2332
▁teu	-13.2334
▁char	-13.2342
iens	-13.2343
▁nyi	-13.2347
rm	-13.2352
txeeg	-13.2352
▁93	-13.2353
▁pope	-13.2359
zi	-13.236
xais	-13.2364
▁43	-13.2366
educated	-13.2367
ru	-13.2368
muang	-13.2368
oc	-13.2369
▁loved	-13.2371
▁shows	-13.2375
▁pack	-13.2379
hub	-13.2386
▁kevkawm	-13.2389
▁kentt	-13.2389
pham	-13.2406
qwv	-13.2413
▁cult	-13.2416
▁egg	-13.2423
▁qhovquav	-13.2423
ex	-13.2423
fuabtais	-13.2425
office	-13.2425
internet	-13.2426
dabneeg	-13.2429
get	-13.2432
jy	-13.2434
dlev	-13.2438
mes	-13.2444
▁qui	-13.2445
▁laugx	-13.2446
▁ntxiaj	-13.2446
▁strength	-13.2448
▁ignorant	-13.2449
▁twist	-13.245
▁shop	-13.245
▁miracle	-13.245
▁westerner	-13.2451
▁hunter	-13.2451
▁payment	-13.2453
▁archive	-13.2453
▁suffering	-13.2454
▁champion	-13.2455
▁quv	-13.2456
hand	-13.2456
▁sk	-13.2458
▁iblo	-13.2459
▁hehehhe	-13.246
▁450	-13.246
▁threaten	-13.2462
▁desperate	-13.2463
▁botulism	-13.2463
▁dlpy	-13.2463
▁canberra	-13.2463
▁undercover	-13.2463
▁warren	-13.2463
▁flash	-13.2463
▁elevation	-13.2464
▁cancelled	-13.2464
▁loyalty	-13.2464
▁definitely	-13.2464
▁threatened	-13.2464
▁tshaajplawg	-13.2464
▁expired	-13.2464
▁teejtug	-13.2464
▁branch	-13.2465
▁ntxhub	-13.2465
▁rocket	-13.2465
▁oregon	-13.2465
▁anyhow	-13.2465
▁montana	-13.2465
▁xubpwg	-13.2465
▁gender	-13.2465
▁negotiate	-13.2466
▁txhojpob	-13.2466
▁season	-13.2466
▁kaavlam	-13.2467
▁ntxaij	-13.2467
▁ntlag	-13.2467
▁treaty	-13.2467
▁significant	-13.2468
▁vawb	-13.2468
▁fajkaum	-13.2468
▁bbc	-13.2468
▁nploojntsuab	-13.2469
▁yeng	-13.2469
▁risky	-13.2469
▁prepared	-13.247
▁angle	-13.247
▁plim	-13.2471
▁amazing	-13.2471
▁fortune	-13.2471
▁persecute	-13.2471
▁nciav	-13.2472
▁inner	-13.2472
▁dlaabqhuas	-13.2472
▁kerry	-13.2472
▁bog	-13.2473
▁lower	-13.2473
▁saav	-13.2474
▁kaajsab	-13.2474
▁$500.00	-13.2474
▁thoojsab	-13.2475
▁tshavntuj	-13.2475
sbc	-13.2475
▁yamntxwv	-13.2476
▁vaajlug	-13.2477
part	-13.2479
▁phaas	-13.248
▁ntxuas	-13.2481
▁ghmoob	-13.2482
▁ntsaav	-13.2482
▁standing	-13.2482
▁barbaric	-13.2482
▁lwmzaus	-13.2482
▁mivkuj	-13.2484
▁tabkaum	-13.2484
▁ntsaaj	-13.2485
▁thovtxim	-13.2485
▁txawjcuab	-13.2488
▁kluv	-13.2491
▁ibhom	-13.2492
▁ntawj	-13.2492
▁draft	-13.2494
▁seemed	-13.2495
▁aliens	-13.2504
▁daub	-13.2507
dlub	-13.2509
qeej	-13.2519
▁letters	-13.2519
▁ntxib	-13.2521
▁crimes	-13.2522
date	-13.2533
▁dawd	-13.2536
▁7)	-13.2536
▁xias	-13.2539
dl	-13.2539
sov	-13.2542
▁23.	-13.2542
▁butt	-13.2544
kauv	-13.2545
▁bz	-13.2546
usg	-13.2549
▁bliaj	-13.2551
▁mor	-13.2553
thong	-13.2559
▁yer	-13.2561
jl	-13.2563
▁clans	-13.257
▁funds	-13.2572
sev	-13.2574
▁npos	-13.2575
▁khooj	-13.2576
▁tsodag	-13.2577
▁leejnam	-13.2579
358	-13.2579
▁tshia	-13.2579
▁1200	-13.2599
▁exp	-13.2599
▁mauv	-13.26
khaus	-13.2604
▁npaw	-13.2606
ane	-13.2608
▁tuskwv	-13.2608
key	-13.2617
▁lubnpe	-13.2622
▁phe	-13.2622
71	-13.2623
▁heu	-13.2624
fwb	-13.2633
▁bib	-13.2637
ju	-13.2638
pej	-13.2642
rely	-13.2645
▁nraw	-13.2646
▁nchu	-13.2655
yb	-13.2656
▁npus	-13.2658
▁mnuaj	-13.2661
=8	-13.2661
dha	-13.2662
????????	-13.2664
pha	-13.2665
maim	-13.2667
▁niamlaus	-13.2668
▁nplho	-13.2668
▁colonels	-13.2671
▁hou	-13.2674
▁advers	-13.2681
pre	-13.2683
▁useful	-13.2689
▁elect	-13.27
open	-13.2704
▁ibsab	-13.2713
▁txivlaus	-13.2713
▁menyuamhmoob	-13.2715
ou	-13.2717
lej	-13.272
head	-13.2721
hd	-13.2722
▁dl	-13.2723
▁nplaaj	-13.2727
▁qhoo	-13.2731
bw	-13.2734
▁fell	-13.2734
private	-13.2747
▁kevcais	-13.2747
▁scene	-13.2747
fabkis	-13.2748
76	-13.2749
leejtwg	-13.275
tshua	-13.275
▁ncoj	-13.2751
".....	-13.2756
scl	-13.2758
phwv	-13.2759
▁technic	-13.2768
▁yan	-13.277
▁oversea	-13.2773
▁orgasm	-13.2773
▁producer	-13.2774
maly	-13.2775
▁assessment	-13.2776
▁material	-13.2776
capt	-13.2777
▁smell	-13.2778
▁hotels	-13.278
master	-13.2782
-16	-13.2785
▁implement	-13.2785
▁immediate	-13.2785
▁jealous	-13.2785
▁savannakhet	-13.2786
▁thonglith	-13.2786
▁mojthej	-13.2786
▁mock	-13.2786
▁liberate	-13.2786
▁duties	-13.2786
▁cloud	-13.2786
▁piamsij	-13.2786
▁valuable	-13.2786
▁khhx	-13.2786
▁taksin	-13.2786
▁khakawj	-13.2786
▁twjlij	-13.2786
▁midwest	-13.2786
▁probation	-13.2787
▁tuabywv	-13.2787
▁plaag	-13.2787
▁entitled	-13.2787
▁khejdub	-13.2787
▁honestly	-13.2787
▁genocide	-13.2788
▁juice	-13.2788
rl	-13.2788
▁temper	-13.2788
▁romantic	-13.2788
▁quapuj	-13.2788
▁nhyav	-13.2788
▁comfort	-13.2788
▁historical	-13.2788
▁graduated	-13.2788
▁clovis	-13.2789
▁guyana	-13.2789
▁nyee	-13.2789
▁cheebtsam	-13.279
▁txhoob	-13.279
▁plaim	-13.279
▁capability	-13.279
▁spokesperson	-13.279
▁amnesty	-13.279
▁refused	-13.279
▁offended	-13.279
▁diamond	-13.2791
▁cruise	-13.2791
▁caijtsuj	-13.2791
▁samthiaj	-13.2791
▁kaitong	-13.2791
▁milk	-13.2792
▁despite	-13.2792
▁ncajnraim	-13.2792
▁immigrants	-13.2793
▁numtuam	-13.2793
▁selfish	-13.2793
▁jai	-13.2793
▁vangpao	-13.2793
▁wondering	-13.2794
▁pajxab	-13.2794
▁dominate	-13.2794
▁joined	-13.2795
▁answered	-13.2796
▁covntawv	-13.2796
▁hwvtsam	-13.2796
▁preaching	-13.2797
kiab	-13.2797
▁npx	-13.2797
▁laujtsab	-13.2798
▁federate	-13.2798
▁ywjsab	-13.2798
▁idon	-13.28
▁native	-13.28
▁savanh	-13.28
▁camping	-13.28
▁kanmuang	-13.28
▁2017	-13.2801
▁pawb	-13.2802
war	-13.2803
▁povkhawv	-13.2803
▁yards	-13.2804
▁nqeeg	-13.2805
▁vuv	-13.2805
▁tools	-13.2805
lqt	-13.2806
▁thxua	-13.2809
▁6497	-13.281
▁nyablajteb	-13.281
▁hawmntawd	-13.281
luib	-13.2811
▁nqawm	-13.2811
▁xxxxxxxxxxxx	-13.2813
▁listed	-13.2814
▁xan	-13.2814
hooj	-13.2816
▁nid	-13.2817
▁victory	-13.282
▁perform	-13.2825
▁phoufa	-13.2825
▁arts	-13.2829
ncaug	-13.2829
pr	-13.2832
▁cows	-13.2833
▁speculate	-13.2833
▁bc	-13.2835
▁miab	-13.2836
▁vajnom	-13.2841
▁dejdag	-13.2842
▁ntx	-13.2843
ut	-13.2844
▁liglawm	-13.2844
▁tseemmuaj	-13.2844
▁$600	-13.2846
sin	-13.2847
▁cap	-13.2848
▁xto	-13.2851
▁tie	-13.2853
▁broad	-13.2855
live	-13.2861
▁qhaug	-13.2865
fs	-13.2867
▁counselor	-13.2868
bc	-13.2876
▁khoum	-13.2876
▁lan	-13.288
▁tshw	-13.2887
▁zob	-13.2889
moj	-13.2889
77	-13.2892
▁steps	-13.2895
▁qwj	-13.2897
▁1.5	-13.2901
gq	-13.2905
▁lion	-13.2905
▁fem	-13.291
▁hihihihihihihi	-13.2914
▁64	-13.2916
▁lajthab	-13.2919
kaub	-13.2929
gn	-13.2934
▁notre	-13.2938
iuc	-13.2941
▁pabtha	-13.2944
▁touge	-13.2944
▁tubtxawj	-13.2946
▁nthaw	-13.2951
txias	-13.2952
▁ntxhaw	-13.2964
seuk	-13.2968
nta	-13.2971
▁feels	-13.2981
caag	-13.2982
▁shape	-13.2982
qabntxhiab	-13.2985
▁nqo	-13.2987
▁african	-13.2988
loslawm	-13.2996
▁stream	-13.3
▁94	-13.3001
holding	-13.3009
▁ywb	-13.301
▁jet	-13.3015
▁sou	-13.3017
gh	-13.3017
phas	-13.3017
ver	-13.3022
saum	-13.3028
1600	-13.303
▁yaib	-13.3032
▁que	-13.3032
saws	-13.3041
▁fau	-13.3044
ps	-13.3047
know	-13.3047
▁sons	-13.3048
hiaj	-13.3056
▁uaskuv	-13.3063
lios	-13.3064
will	-13.3065
word	-13.3066
member	-13.3067
tsaug	-13.3074
tsuj	-13.3074
▁pool	-13.3077
hmao	-13.308
church	-13.308
jury	-13.3081
txhuv	-13.3081
▁vip	-13.3082
bible	-13.3084
▁txee	-13.3086
pictures	-13.3086
blue	-13.3087
host	-13.3091
▁recipe	-13.3102
lbs	-13.3103
ada	-13.3103
▁prosecutor	-13.3106
▁nyu	-13.3106
▁flight	-13.3106
▁allegation	-13.3106
▁parent	-13.3106
▁principal	-13.3107
▁yexu	-13.3107
▁niece	-13.3107
▁bb	-13.311
▁fabrication	-13.311
txawv	-13.311
▁genetic	-13.3111
▁wo	-13.3115
▁establish	-13.3117
▁discover	-13.3118
▁intend	-13.3118
▁deport	-13.3118
▁caucus	-13.3118
nq	-13.3119
▁baptist	-13.3119
▁hinhheup	-13.3119
▁nebraska	-13.3119
▁dejadust	-13.3119
▁prior	-13.3119
▁yavtomntej	-13.3119
▁15-16	-13.312
▁kheng	-13.312
▁barbara	-13.312
▁compensation	-13.312
▁pleasure	-13.312
▁cyndi	-13.312
▁fraud	-13.312
▁vaajntxwv	-13.312
▁therapist	-13.312
▁disappeared	-13.312
▁museum	-13.312
dao	-13.312
▁savior	-13.312
▁amount	-13.312
▁nqajtawv	-13.312
▁downtown	-13.312
▁meaningless	-13.312
▁pojnaim	-13.312
▁1-800-33	-13.3121
▁aimpim	-13.3121
▁tan	-13.3121
▁childish	-13.3121
▁nkaujxawspaum	-13.3122
▁tshajplaw	-13.3122
▁obligation	-13.3122
▁creative	-13.3122
▁siblhub	-13.3122
▁tired	-13.3122
▁reports	-13.3123
▁grill	-13.3123
▁kaij	-13.3124
▁troops	-13.3124
▁tubtxawg	-13.3124
▁ynd	-13.3124
▁dadej	-13.3125
▁nyaam	-13.3125
▁vaajmoog	-13.3125
▁allowed	-13.3125
▁discriminate	-13.3125
▁1-3	-13.3126
▁pajtshiab	-13.3126
▁confident	-13.3126
▁supporters	-13.3127
▁morris	-13.3127
▁nraugseem	-13.3127
▁mivnyuam	-13.3128
▁kablig	-13.3129
▁jhaw	-13.3129
▁(19	-13.3132
▁materials	-13.3132
▁ombudsman	-13.3134
▁xabphas	-13.3135
▁producers	-13.3136
▁huplig	-13.3136
lov	-13.3138
▁pounds	-13.3138
▁cerd	-13.3138
rain	-13.3138
▁mdd	-13.3139
▁ssdi	-13.314
▁tssi	-13.314
▁tshawg	-13.314
▁fighters	-13.3141
▁jus	-13.3142
▁hauvntej	-13.3142
▁txhee	-13.3147
▁laas	-13.3149
▁thoojsiab	-13.3149
▁koomteg	-13.3151
▁txawjtuam	-13.3152
▁yimtxwv	-13.3153
▁khun	-13.3154
▁txawjlem	-13.3155
nua	-13.3158
)))	-13.3161
ln	-13.3163
▁pointing	-13.3164
▁bm	-13.3167
▁partners	-13.3168
▁kwb	-13.3174
txh	-13.3176
etc	-13.318
ring	-13.3181
▁xcov	-13.3184
kwj	-13.3188
▁tshaws	-13.319
sion	-13.3193
▁usenet	-13.3195
▁nqaag	-13.3195
▁ntxhwb	-13.3195
type	-13.3202
daum	-13.3203
▁nun	-13.3209
▁nrua	-13.3209
▁advices	-13.321
▁thub	-13.3211
lw	-13.3213
▁siabntev	-13.3215
-10	-13.3215
▁px	-13.3223
▁tawkev	-13.3226
ue	-13.3229
▁siabphem	-13.3235
▁nawg	-13.3236
▁ntxhiv	-13.3241
▁sabtwg	-13.3241
▁articles	-13.3241
▁qhoob	-13.3244
▁timtswv	-13.3246
▁camps	-13.3246
▁txausx	-13.325
▁tagzog	-13.3253
ntxoov	-13.3255
xe	-13.3256
▁bills	-13.3263
▁ain	-13.3264
tp	-13.3266
fy	-13.3268
▁txivtsev	-13.3275
▁thang	-13.328
cf	-13.3283
yr	-13.3286
!!!!!!!!!!!!!!	-13.3288
vog	-13.3289
lun	-13.3296
wu	-13.3296
gc	-13.33
▁lojx	-13.3303
▁63	-13.3312
▁hnya	-13.3313
▁heheheheheh	-13.3316
zeeg	-13.3316
▁suabhmoob	-13.3319
▁loving	-13.3323
lqa	-13.3328
gr	-13.3329
▁tsoomhmoob	-13.3331
kao	-13.3336
xyoob	-13.3336
▁thesis	-13.3342
▁loves	-13.3354
niv	-13.3356
▁practic	-13.336
tai	-13.336
mitted	-13.3373
zaug	-13.3377
▁tnb	-13.3381
▁paubhaus	-13.3387
▁tsevlawm	-13.3389
bad	-13.3391
58	-13.3393
▁forums	-13.3394
ntxawm	-13.3395
▁bag	-13.3397
chia	-13.3399
town	-13.3401
▁dawbl	-13.3401
ities	-13.3415
hua	-13.3417
xawj	-13.3418
▁polite	-13.3421
khov	-13.3424
buffalo	-13.3426
ital	-13.3426
original	-13.3426
military	-13.3426
noogdlej	-13.3426
▁"1	-13.3426
joke	-13.3426
ytk	-13.3428
beer	-13.3429
▁suj	-13.343
▁71	-13.3432
▁cf	-13.3434
0800	-13.3443
▁pia	-13.3445
▁thx	-13.3445
▁24.	-13.3445
▁160	-13.3446
qis	-13.3446
▁dialogue	-13.3449
▁corporation	-13.3451
▁scope	-13.3451
▁signal	-13.3452
▁chip	-13.3452
▁regulation	-13.3454
▁booth	-13.3454
▁client	-13.3455
▁koomntsw	-13.3455
▁accusation	-13.3456
ize	-13.3456
▁sheep	-13.346
▁suck	-13.3461
xi	-13.3461
▁1954	-13.3461
▁punish	-13.3463
▁distinguish	-13.3464
▁beepimvaaj	-13.3464
▁guiana	-13.3464
▁loojkoov	-13.3464
▁asmeslivkas	-13.3464
▁meningococcal	-13.3464
▁whitebass	-13.3464
▁sandiego	-13.3464
▁califonia	-13.3464
▁krom	-13.3464
▁jehovah	-13.3464
▁yunan	-13.3464
▁jva	-13.3464
▁ntujceebtsheej	-13.3464
▁tshuabqeej	-13.3465
▁nreeb	-13.3465
▁chimlajxeeb	-13.3465
▁joseph	-13.3465
▁maryland	-13.3465
▁$50.00	-13.3465
▁nyoojhoom	-13.3465
▁giv	-13.3465
▁fundamental	-13.3465
▁accomplished	-13.3465
▁11:00	-13.3465
▁somehow	-13.3466
▁fwjtxwv	-13.3466
▁koumisith	-13.3466
▁tijuana	-13.3466
▁agriculture	-13.3466
▁murdered	-13.3466
▁wameng	-13.3466
▁resigned	-13.3466
▁highest	-13.3466
▁qavkaws	-13.3466
▁tswvxyas	-13.3466
▁jony	-13.3466
▁mixed	-13.3467
▁soui	-13.3467
▁organizers	-13.3467
▁hzen	-13.3467
▁capable	-13.3468
▁guav	-13.3468
▁jhav	-13.3468
▁phaij	-13.3468
▁gaib	-13.3468
▁6,000	-13.3469
▁qhanab	-13.3469
earthlink	-13.3469
off	-13.3469
▁lacking	-13.347
▁treated	-13.347
▁cdss	-13.347
▁funders	-13.347
▁entertainment	-13.347
▁wao	-13.3471
▁democrate	-13.3471
▁blessing	-13.3472
▁ciamteb	-13.3474
▁:(	-13.3474
▁nkuag	-13.3475
▁lacrosse	-13.3475
▁tuableeg	-13.3476
▁ntsiob	-13.3476
kawv	-13.3477
▁invent	-13.3479
▁magnum	-13.3482
▁vammej	-13.3483
▁zoonyob	-13.3483
▁aside	-13.3484
▁assuming	-13.3485
▁lops	-13.3487
▁koomtsis	-13.3487
▁yuan	-13.3487
▁fest	-13.3488
▁archives	-13.3491
▁ntujtawg	-13.3493
▁puabtais	-13.3494
▁tyus	-13.3495
_______________	-13.3497
laud	-13.3497
▁txawjteev	-13.35
▁sir	-13.3501
▁yawmluj	-13.3502
▁behaviors	-13.3505
qi	-13.3505
zb	-13.3507
▁saibxyuas	-13.351
▁conditions	-13.3511
▁meejtswv	-13.3513
chi	-13.3513
▁ego	-13.3513
▁ntxho	-13.3517
▁opeb	-13.3517
▁pliv	-13.3524
▁vaum	-13.353
▁rely	-13.3531
kham	-13.3536
▁disappear	-13.3537
▁soom	-13.3537
▁xad	-13.3538
▁concerns	-13.3546
ri	-13.3549
ooj	-13.3557
▁tswx	-13.3557
▁solomon	-13.3557
▁represents	-13.3558
cg	-13.3558
▁sawvlos	-13.3559
▁hkm	-13.3566
nw	-13.3568
▁manage	-13.3569
▁coast	-13.3574
rg	-13.3587
▁herlao	-13.3592
▁naaj	-13.3594
▁lajsiab	-13.3595
▁hc	-13.36
auj	-13.3601
dc	-13.3605
▁muajntsis	-13.3609
▁talent	-13.361
▁seco	-13.3617
▁dawbx	-13.362
▁plom	-13.3621
▁73	-13.3623
saab	-13.3626
▁thak	-13.3628
xo	-13.3629
east	-13.3631
kwm	-13.3632
▁$30	-13.3637
▁txuav	-13.3645
lay	-13.3661
▁nqaib	-13.3663
▁toy	-13.3666
▁nork	-13.3675
teem	-13.3676
57	-13.3677
▁nlog	-13.3684
▁hill	-13.3685
chaofa	-13.3688
▁ear	-13.3693
ncej	-13.3693
tsheb	-13.3693
59	-13.3696
8-23	-13.3696
▁bub	-13.3701
zeem	-13.3705
▁hah	-13.3715
north	-13.3715
never	-13.3716
con	-13.372
▁siabloj	-13.3724
▁covkevcai	-13.3726
ged	-13.3727
▁gua	-13.3728
plawv	-13.3731
▁mamkom	-13.3734
neng	-13.3735
▁xyiv	-13.3736
swv	-13.3738
▁coc	-13.3743
▁mentxhais	-13.3746
iii	-13.3749
ywg	-13.3749
▁ceej	-13.3755
▁2007.	-13.3757
▁din	-13.3757
20,000	-13.3759
▁tiaslawv	-13.376
▁beevee	-13.3761
▁ton	-13.3767
▁tsawgx	-13.3769
peace	-13.377
kuvli	-13.3773
ntxoog	-13.3779
vientiane	-13.3783
sunrise	-13.3783
teebmeem	-13.3784
international	-13.3784
▁pwj	-13.3785
cawm	-13.3786
tshuab	-13.3787
▁dlaw	-13.3791
▁2500	-13.3793
▁tomx	-13.3794
chair	-13.3795
▁mhoo	-13.3798
hrs	-13.3803
▁tsaas	-13.3805
▁diaper	-13.3805
▁tense	-13.3805
▁permit	-13.3806
▁vitamin	-13.3807
▁dozen	-13.3808
▁occasion	-13.3808
nli	-13.3812
▁menyuammus	-13.3812
▁hmmmmmmm	-13.3816
▁russian	-13.3816
▁rare	-13.3818
▁suppose	-13.3818
▁sayasit	-13.382
▁experiment	-13.3821
800-776-5746	-13.3821
▁916-504-580	-13.3821
▁grocer	-13.3821
▁kasmeaung	-13.3821
▁motorcycle	-13.3821
▁translator	-13.3821
▁eventually	-13.3821
▁bouager	-13.3821
▁vaubkib	-13.3821
▁management	-13.3821
▁thamkabbok	-13.3821
▁ctj	-13.3821
▁kuammemiab	-13.3821
▁potter	-13.3821
▁hmoong	-13.3821
▁phonsavanh	-13.3822
▁profanity	-13.3822
▁distance	-13.3822
▁perception	-13.3822
▁brave	-13.3822
▁flood	-13.3822
▁pkyn	-13.3822
▁specifically	-13.3822
▁battalion	-13.3822
▁putting	-13.3822
▁bacteria	-13.3822
▁tuammom	-13.3822
▁taabfaab	-13.3822
▁ntawmkuv	-13.3822
▁description	-13.3823
▁finished	-13.3823
▁agthiv	-13.3823
▁lkm	-13.3823
▁hickory	-13.3823
▁prominent	-13.3823
▁revenge	-13.3823
▁messenger	-13.3823
▁nruabqaum	-13.3823
▁karma	-13.3823
▁peacefully	-13.3823
▁txijnkawm	-13.3823
▁kelly	-13.3823
▁requested	-13.3824
▁bullshit	-13.3824
▁phubthawj	-13.3824
▁diplome	-13.3825
▁triangle	-13.3825
▁nujnqes	-13.3825
▁expertise	-13.3825
▁chaxwm	-13.3825
▁seven	-13.3825
▁trend	-13.3825
▁presentation	-13.3826
▁nthiav	-13.3826
▁dedication	-13.3826
▁revolutionary	-13.3826
▁paajnruag	-13.3826
▁limitation	-13.3827
▁alcohol	-13.3827
▁boyfriend	-13.3827
▁naiphone	-13.3827
▁moobloojceeb	-13.3827
▁dpt	-13.3828
▁rwm	-13.3828
▁secondly	-13.3829
▁rhode	-13.3829
▁gaug	-13.3829
▁kwmxeeb	-13.3831
▁tubntsuaghmong	-13.3831
▁racial	-13.3832
▁niamntiav	-13.3833
▁mount	-13.3833
▁cuabtsav	-13.3834
▁happening	-13.3835
▁sahapha	-13.3835
▁spoken	-13.3835
▁allegations	-13.3835
▁notice	-13.3837
▁liber	-13.3837
▁houang	-13.3838
dos	-13.384
▁edit	-13.3841
▁zaud	-13.3841
▁consonants	-13.3842
business	-13.3843
▁hnubnyoog	-13.3843
▁uaslawv	-13.3844
▁nasty	-13.3845
▁businesses	-13.3845
▁requires	-13.3847
▁nyuabx	-13.3847
▁suavtawg	-13.3849
▁qin	-13.385
▁hmongness	-13.385
chai	-13.3851
▁ntejlawm	-13.3852
▁cws	-13.3854
▁sibthooj	-13.3854
▁lubntees	-13.3859
▁nrus	-13.3861
▁pobtsuas	-13.3862
▁veg	-13.3863
▁nqev	-13.3864
ncj	-13.3865
▁txhuayaam	-13.3867
▁saumntuj	-13.3867
▁choo	-13.3869
peter	-13.387
▁togtwg	-13.3873
▁linked	-13.3875
under	-13.3878
kh	-13.3882
▁nerve	-13.3883
khuj	-13.3888
▁crap	-13.3888
qg	-13.3889
▁wide	-13.3891
▁xabpha	-13.3892
dam	-13.3893
kaysone	-13.3894
▁cw	-13.3896
▁nongkhais	-13.3898
▁----------	-13.3902
???????????????	-13.3903
yag	-13.3907
outre	-13.3908
=-	-13.3911
▁wwii	-13.3922
wh	-13.3929
khas	-13.3935
fought	-13.3936
▁hlias	-13.3947
▁hmongme	-13.3948
▁mars	-13.3948
email	-13.3952
iob	-13.3955
▁501	-13.3959
lilawm	-13.3977
vn	-13.398
▁taszog	-13.3984
cobfab	-13.3986
▁thou	-13.3987
lm	-13.3991
)....	-13.3992
▁eu	-13.3992
nyog	-13.3993
vas	-13.4007
55,	-13.4014
pi	-13.4017
▁noel	-13.4019
▁tsumkiag	-13.4022
▁nplee	-13.4033
▁quit	-13.4043
▁acha	-13.4051
▁dds	-13.4067
▁legs	-13.4068
bin	-13.4068
bd	-13.4075
ihdy	-13.4078
▁tshees	-13.4079
nee	-13.4084
363	-13.4103
▁tabsiskuv	-13.4105
lom	-13.4108
▁zip	-13.4108
/2011	-13.4109
tsaam	-13.4116
dais	-13.4116
txaj	-13.412
▁chas	-13.412
▁int	-13.4125
▁organ	-13.4132
vision	-13.4133
experience	-13.4134
gv	-13.4136
two	-13.4138
▁qhabna	-13.4143
??????????	-13.4147
▁siam	-13.4149
▁bid	-13.415
▁dust	-13.415
except	-13.4152
operation	-13.4153
which	-13.4153
yaweh	-13.4153
▁sr	-13.4154
zuaj	-13.4154
about	-13.4156
▁sins	-13.4159
▁luvb	-13.416
▁pubkuv	-13.4163
aug	-13.4163
▁libya	-13.4172
▁tongue	-13.4174
thaiv	-13.4175
▁attract	-13.4176
▁disaster	-13.4176
▁nyon	-13.4177
▁expectation	-13.4177
▁ambition	-13.4178
▁psychiatrist	-13.4178
▁production	-13.4178
▁investigator	-13.4178
▁headquarter	-13.4181
▁elder	-13.4182
▁usage	-13.4183
▁applie	-13.4189
▁nose	-13.4189
▁nropg	-13.419
▁sheet	-13.4191
▁213-213-800	-13.4191
▁eekiv	-13.4191
▁excercise	-13.4191
▁nyujquslaug	-13.4191
▁lansing	-13.4191
rocketmail	-13.4191
▁keyboard	-13.4191
▁laophuan	-13.4191
▁battery	-13.4192
▁counseling	-13.4192
▁hospice	-13.4192
▁glue	-13.4192
▁ntyob	-13.4192
▁taigkis	-13.4192
▁scripture	-13.4192
▁dying	-13.4192
▁convention	-13.4192
▁destination	-13.4192
▁easier	-13.4192
▁(1975)	-13.4192
▁safty	-13.4192
▁existence	-13.4192
▁hussein	-13.4192
▁kuatxob	-13.4192
▁football	-13.4192
▁txoovtuam	-13.4192
▁xoomxaim	-13.4192
▁consideration	-13.4193
▁30-50	-13.4193
▁threatening	-13.4193
▁phuvnyawm	-13.4193
▁began	-13.4193
▁aaskiv	-13.4193
▁singapore	-13.4193
▁combined	-13.4193
▁alot	-13.4194
▁kunming	-13.4194
▁pertussis	-13.4194
▁throat	-13.4194
▁tsunami	-13.4194
▁capitalism	-13.4194
▁possess	-13.4194
▁pabvav	-13.4194
▁sawvntsug	-13.4194
▁sawvdwas	-13.4195
▁heavy	-13.4195
▁consulting	-13.4195
▁aibnoob	-13.4195
▁opportunist	-13.4195
▁txujlom	-13.4196
▁beauty	-13.4196
▁divided	-13.4197
▁hmmmmmm	-13.4197
▁interviewed	-13.4197
▁lesbian	-13.4197
bu	-13.4198
▁daaj	-13.4198
▁samneua	-13.4199
▁ntxus	-13.4199
▁civilization	-13.42
▁realistic	-13.42
▁buying	-13.42
▁tsimnuj	-13.42
▁rush	-13.4201
▁nq	-13.4202
▁nyuabsab	-13.4204
▁released	-13.4204
lqe	-13.4204
▁ears	-13.4205
▁ntxaiv	-13.4206
▁khuaib	-13.4206
▁moung	-13.4206
▁walking	-13.4206
▁tawmtsaam	-13.4207
▁tshws	-13.4207
▁walleyes	-13.4208
▁solved	-13.4209
▁christains	-13.4211
af	-13.4211
▁dhcs	-13.4213
ja	-13.4215
▁vajxab	-13.4217
▁poglaus	-13.4217
▁minded	-13.4217
▁paig	-13.422
▁chaol	-13.422
▁lovers	-13.4222
▁naiphoog	-13.4222
npawg	-13.4224
▁nplhus	-13.4227
▁tomn	-13.4228
▁mivntxhais	-13.4229
▁tiger	-13.423
▁indicate	-13.423
▁wood	-13.4233
ix	-13.4234
uc	-13.4235
▁generate	-13.4236
▁chin	-13.4237
▁pointed	-13.4237
▁betray	-13.4238
▁ruaqhov	-13.4238
▁supported	-13.4239
▁covxibfwb	-13.424
▁noah	-13.4242
▁dhuas	-13.4244
▁nojmov	-13.4247
")	-13.4248
▁ghais	-13.4248
▁dlebx	-13.4249
▁lostuas	-13.425
▁blocks	-13.4251
ip	-13.4254
▁engineers	-13.4254
je	-13.4255
oog	-13.4256
▁voo	-13.4257
▁pdf	-13.4258
▁chimsab	-13.4261
▁khon	-13.4263
27	-13.4268
▁couples	-13.4269
cog	-13.427
▁tang	-13.4271
▁moobntsuab	-13.4271
▁niajnhu	-13.4279
▁hauvtoj	-13.4287
neo	-13.4291
▁hahahahhaa	-13.4296
hiv	-13.4296
▁listub	-13.4298
▁nqiv	-13.4298
▁salt	-13.4306
him	-13.4309
▁thiavb	-13.4312
▁chercho	-13.4314
▁nyavnyua	-13.432
▁format	-13.4325
lqq	-13.4329
▁bu	-13.4329
▁ideal	-13.4335
▁alwm	-13.4336
▁2003,	-13.4339
▁qabno	-13.4346
▁$3,000	-13.4358
▁cialawv	-13.4358
khw	-13.4358
▁98	-13.436
▁sta	-13.4364
nyem	-13.4371
use	-13.4376
▁phle	-13.4378
ped	-13.4384
cs	-13.4384
▁minorit	-13.4393
▁tak	-13.4395
▁teams	-13.4395
▁covmenyuam	-13.4397
muc	-13.4399
bf	-13.4399
where	-13.4407
33	-13.4408
armed	-13.4411
wk	-13.4424
wn	-13.4436
▁thajchaw	-13.4436
money	-13.4441
46	-13.4442
▁quajx	-13.4442
▁hlubhmong	-13.4455
qq	-13.4459
ble	-13.4476
▁=========	-13.4477
▁411,	-13.4478
▁===	-13.4479
xxxx	-13.4479
▁zoodua	-13.4482
xay	-13.4485
▁thor	-13.4486
▁nphlu	-13.4494
iq	-13.4496
▁systems	-13.4498
computer	-13.4498
▁274	-13.4502
ky	-13.4502
refered	-13.451
ik	-13.4515
das	-13.4516
point	-13.4522
evidence	-13.4524
kov	-13.4527
print	-13.453
▁ky	-13.4533
peg	-13.4535
txooj	-13.4537
golden	-13.4538
judge	-13.4538
ntxuav	-13.4538
sorry	-13.4538
congress	-13.4538
water	-13.4539
phak	-13.4541
▁$40	-13.4541
kuag	-13.4542
▁tend	-13.4543
cause	-13.4544
quaj	-13.4547
ile	-13.4549
pliaj	-13.4557
hwj	-13.4557
rho	-13.4558
▁fis	-13.4558
▁ethic	-13.4563
▁motion	-13.4563
▁190	-13.4563
▁wall	-13.4563
▁acre	-13.4564
▁legend	-13.4564
▁umbrella	-13.4564
▁uhv	-13.4565
▁airplane	-13.4567
▁toilet	-13.4568
▁wam	-13.4569
▁imagination	-13.4569
▁collection	-13.4569
▁hehhehe	-13.4572
▁accomplish	-13.4575
▁strange	-13.4576
▁(((	-13.4576
▁16035457	-13.4576
▁651-201-5414	-13.4576
▁illinois	-13.4576
▁kuameiab	-13.4576
▁qujqees	-13.4576
▁scale	-13.4576
▁osama	-13.4576
▁puamchawj	-13.4576
▁ysl	-13.4576
▁$50,000	-13.4576
▁bliatou	-13.4576
▁weather	-13.4576
(763)	-13.4576
▁nqagkab	-13.4576
▁kwtij	-13.4576
▁yangsta	-13.4577
▁insist	-13.4577
▁tchang	-13.4577
▁performance	-13.4577
▁dauslas	-13.4577
▁zebcub	-13.4577
▁bamboo	-13.4577
▁toyota	-13.4577
▁nthxais	-13.4577
▁consistent	-13.4577
▁morganton	-13.4577
▁fas	-13.4577
▁babies	-13.4577
▁clothes	-13.4577
▁koohaum	-13.4577
▁globe	-13.4577
▁stopped	-13.4577
▁txaajmuag	-13.4577
▁supplies	-13.4577
▁laajlim	-13.4577
▁steve	-13.4577
▁sapa	-13.4578
▁kausmom	-13.4578
▁courage	-13.4578
▁yep	-13.4578
▁indonesia	-13.4578
▁presidential	-13.4578
▁madamet	-13.4578
▁possibility	-13.4578
▁foreplay	-13.4578
▁paimquav	-13.4578
▁electrical	-13.4578
▁prayer	-13.4579
▁hmongonline	-13.4579
▁sexually	-13.4579
▁puastsuaj	-13.4579
▁obviously	-13.4579
▁nujyob	-13.4579
▁button	-13.458
▁tshwjkab	-13.458
▁manipulate	-13.458
▁richard	-13.458
▁satisfied	-13.458
▁entertain	-13.4581
▁hmonglish	-13.4581
▁syang	-13.4581
▁beijing	-13.4581
▁tobewitty	-13.4581
▁coleman	-13.4581
▁fillet	-13.4582
▁lojleeb	-13.4582
▁originally	-13.4582
▁cooperation	-13.4582
▁txiam	-13.4582
▁txawjvag	-13.4583
▁broadcast	-13.4583
▁mercy	-13.4583
▁noobnyoog	-13.4584
▁nelson	-13.4584
▁mercenaries	-13.4584
▁contributed	-13.4585
▁tswyim	-13.4585
▁phauntawv	-13.4586
▁vise	-13.4586
nuj	-13.4586
▁nyopb	-13.4586
pc	-13.4587
▁adopted	-13.4588
now	-13.4588
▁vuim	-13.4588
▁violated	-13.4588
▁simuang	-13.4588
▁passion	-13.4589
▁attacking	-13.4589
▁vajkhaum	-13.459
▁guessing	-13.459
▁nile	-13.4591
=0&	-13.4591
▁jays	-13.4592
▁plhawv	-13.4594
▁nian	-13.4594
▁hundreds	-13.4594
▁aunt	-13.4595
face	-13.4595
▁yajtshaj	-13.4595
▁kabke	-13.4596
▁pole	-13.4597
▁pobze	-13.4599
tknow	-13.4599
▁vets	-13.46
▁hnovli	-13.4601
▁gmail	-13.4602
▁mary	-13.4602
▁dragon	-13.4603
▁wikileaks	-13.4603
lqi	-13.4603
▁tshoov	-13.4603
▁maug	-13.4604
▁naikhou	-13.4604
haib	-13.4606
cultural	-13.4608
▁cajces	-13.4609
jm	-13.4609
▁qaabteb	-13.461
▁sibtxuas	-13.4611
▁pluab	-13.4611
▁fresh	-13.4612
▁niav	-13.4614
▁effects	-13.4619
▁sisntsib	-13.462
▁tysi	-13.4623
▁tricks	-13.4623
▁laotians	-13.4625
▁huli	-13.4625
▁solo	-13.4626
▁gut	-13.4626
taab	-13.4632
▁jkom	-13.4633
praya	-13.4634
49	-13.464
▁qiab	-13.4641
▁tsevkho	-13.4647
48	-13.4652
nrov	-13.4655
▁npaumtwg	-13.4662
der	-13.4666
▁tsheg	-13.4667
▁55555	-13.4673
▁ser	-13.4679
▁nyiajpov	-13.4683
gl	-13.4687
kj	-13.4688
tsho	-13.469
yau	-13.4692
tshav	-13.4695
oom	-13.4696
tob	-13.4699
▁hia	-13.4703
ui	-13.471
▁continues	-13.471
▁kx	-13.4713
▁nojhaus	-13.4717
haam	-13.4717
▁yoh	-13.4719
▁juab	-13.4723
▁cave	-13.4723
▁ruamx	-13.4724
full	-13.4726
▁lessons	-13.4727
kaim	-13.4732
▁cp	-13.4735
pluag	-13.4736
▁warn	-13.4746
▁rthiab	-13.475
west	-13.4753
▁6-8	-13.4753
607	-13.4755
nl	-13.4762
nev	-13.4763
yias	-13.4769
lwg	-13.4778
ploj	-13.4779
▁bucks	-13.478
▁ligl	-13.4786
▁pujmoob	-13.479
▁2006.	-13.479
96	-13.48
puv	-13.4801
▁nqais	-13.4808
▁bait	-13.4809
▁thumb	-13.4814
urir	-13.4823
▁par	-13.4828
caug	-13.4838
▁prof	-13.4839
-----	-13.4849
▁xyau	-13.4853
???????	-13.4854
=&	-13.4855
low	-13.4856
▁niamno	-13.4856
▁jew	-13.4857
▁ship	-13.4857
69	-13.4864
▁qhuag	-13.4866
530	-13.4874
▁olub	-13.4876
1/	-13.4878
▁ibphom	-13.488
▁zauglawm	-13.4881
▁82	-13.489
▁lubntuj	-13.4892
kk	-13.4892
xas	-13.4895
bn	-13.49
ntiaj	-13.491
qua	-13.4912
ntsiv	-13.4919
ethnic	-13.4922
ntsi	-13.4923
wink	-13.4926
nyoos	-13.4931
peem	-13.4932
-070	-13.4934
▁hahahahaa	-13.4935
down	-13.4937
800	-13.4937
believe	-13.4937
food	-13.4938
ntxeev	-13.4938
▁crack	-13.4939
lk	-13.4942
rr	-13.4944
000	-13.4947
xiam	-13.4948
being	-13.4954
khees	-13.4954
▁tshoo	-13.4958
nkawm	-13.4959
▁credential	-13.4961
▁bak	-13.4961
▁rat	-13.4961
▁foodstamp	-13.4962
▁amendment	-13.4963
▁infection	-13.4964
▁hihihihihi	-13.4964
▁tunnel	-13.4965
▁bull	-13.4965
▁tourist	-13.4967
nais	-13.4968
▁thaun	-13.4969
sawm	-13.4972
▁99.9	-13.4975
3610;	-13.4976
jvdgu	-13.4976
▁bong	-13.4976
▁traffic	-13.4976
photostream	-13.4976
▁brucellosis	-13.4976
▁guitar	-13.4976
▁scenario	-13.4976
▁volontaire	-13.4976
▁langxang	-13.4976
▁pouvez	-13.4976
▁yoglentawd	-13.4976
▁lengsavat	-13.4976
▁discount	-13.4976
▁disorder	-13.4976
▁meaningful	-13.4976
▁mooblajleeb	-13.4976
▁hujsim	-13.4976
▁7:00	-13.4976
▁weird	-13.4977
▁1946	-13.4977
▁bottle	-13.4977
▁approval	-13.4977
▁confusion	-13.4977
▁jackson	-13.4977
▁pobntoolaus	-13.4977
▁mungkey	-13.4977
▁$20,000.00	-13.4977
▁deeper	-13.4977
▁linguistic	-13.4977
▁pusliv	-13.4977
▁hluavtaws	-13.4977
▁motor	-13.4977
▁tsachijdawb	-13.4977
▁peejxeem	-13.4978
▁moobvaaj	-13.4978
▁64975	-13.4978
▁txomfav	-13.4978
▁granted	-13.4978
▁hollywood	-13.4978
▁smarter	-13.4978
▁underwear	-13.4978
▁1:00	-13.4978
▁possibly	-13.4978
▁biology	-13.4978
▁shamanism	-13.4978
▁sincere	-13.4978
▁shong	-13.4979
▁cobkheem	-13.4979
▁anytime	-13.4979
▁suffered	-13.4979
▁pronounce	-13.4979
▁2:00	-13.498
▁krub	-13.498
▁vaajmev	-13.498
▁witnesses	-13.498
▁copies	-13.4981
▁held	-13.4981
▁kasxum	-13.4981
▁lfi	-13.4981
▁guizhou	-13.4982
▁nursing	-13.4982
▁presented	-13.4982
▁memiab	-13.4982
▁observed	-13.4982
▁cheating	-13.4983
▁ntlav	-13.4983
▁donkey	-13.4983
▁nrij	-13.4984
▁xauvmas	-13.4984
▁chijdawb	-13.4985
▁heut	-13.4985
▁xuviaj	-13.4986
▁blank	-13.4986
▁bite	-13.4986
▁tight	-13.4987
loog	-13.4987
▁appears	-13.4987
▁kwvnpawg	-13.4987
▁enjoyed	-13.4988
▁soft	-13.4989
▁crown	-13.499
▁accusations	-13.4991
▁cheers	-13.4991
▁allies	-13.4992
▁boxing	-13.4993
▁assumed	-13.4994
▁sample	-13.4995
▁145	-13.4997
▁hehheheh	-13.4998
▁hahhahahah	-13.4999
▁nyhavsiab	-13.5001
▁usaid	-13.5002
▁licence	-13.5002
▁suavtuam	-13.5003
▁numtswv	-13.5004
▁vwb	-13.5004
▁2-4	-13.5004
▁actual	-13.5005
▁tyk	-13.5008
▁vajtsab	-13.5009
bntsuaghmoobruam	-13.501
▁laswm	-13.5015
ccs	-13.5015
shoua	-13.5015
▁drpao	-13.5015
▁keeping	-13.5016
▁priests	-13.5018
▁pieces	-13.5021
▁ending	-13.5022
phaum	-13.5024
pz	-13.5024
▁(6)	-13.5024
▁ncoqab	-13.5025
house	-13.5025
▁responses	-13.5025
▁kuc	-13.5027
87	-13.503
awg	-13.503
▁tpm	-13.5032
▁muah	-13.5032
▁hush	-13.5032
▁dawbliab	-13.5032
▁ntshavsiab	-13.5033
-8	-13.5035
▁tsaim	-13.5036
▁hlaav	-13.5041
run	-13.5044
▁pobtws	-13.5051
hiav	-13.5052
▁mamn	-13.5052
▁closet	-13.5053
▁lying	-13.5053
lice	-13.5056
▁includes	-13.5056
▁poem	-13.5057
▁ntxoos	-13.5058
▁plhi	-13.5058
▁ntshee	-13.5061
▁dabneeb	-13.5068
nn	-13.5071
▁guns	-13.5078
▁serves	-13.5081
▁prey	-13.5083
khob	-13.5085
▁tsheem	-13.5091
▁gao	-13.5092
▁restaurants	-13.5096
▁niamhluas	-13.5101
pus	-13.5103
▁immune	-13.5105
achanh	-13.5108
▁dies	-13.5112
▁ntauntau	-13.5116
▁gho	-13.512
▁79	-13.512
ite	-13.5128
tong	-13.513
▁------	-13.5132
antizab	-13.5134
than	-13.5135
▁deer	-13.5136
▁missions	-13.5142
▁nrio	-13.5144
win	-13.5145
khaub	-13.5147
hihihihihihihihi	-13.5148
ruamtuatsov	-13.5156
▁$250	-13.5158
zig	-13.516
▁pres	-13.5165
▁sees	-13.5166
qho	-13.5167
▁faces	-13.5167
▁hmoon	-13.517
▁muskom	-13.5171
▁hnubtwg	-13.5177
▁navy	-13.518
ntej	-13.5187
▁dlabtsi	-13.5193
▁aubyau	-13.5195
365	-13.5197
vh	-13.5198
▁load	-13.5199
▁dj	-13.52
▁kaslas	-13.5202
▁sak	-13.5209
ntxais	-13.5212
▁ngai	-13.5214
▁scan	-13.5216
rh	-13.5221
ace	-13.5228
▁txojlug	-13.5232
▁wonderful	-13.5235
▁electronic	-13.524
▁mlee	-13.5241
▁npluaj	-13.5241
ology	-13.5241
loslawv	-13.5243
son	-13.5246
nv	-13.5248
tsuv	-13.5249
dis	-13.5254
translated	-13.5257
▁130	-13.5258
▁ntaww	-13.5259
▁rue	-13.5268
▁lubsuab	-13.527
nawm	-13.5271
▁3:	-13.5271
▁hahahhahaa	-13.5275
61	-13.5276
1;&	-13.5277
▁neu	-13.5279
▁constitutional	-13.5283
▁del	-13.5284
vc	-13.529
▁feng	-13.5292
▁lwmleej	-13.5293
sig	-13.5301
▁ntha	-13.5308
nu	-13.5309
▁cajtw	-13.531
▁foo	-13.5319
thib	-13.5323
▁96	-13.5326
zone	-13.5329
▁5555	-13.5336
br	-13.5337
uncle	-13.5337
colonel	-13.5338
▁leejtub	-13.5338
animal	-13.534
▁zoole	-13.5341
force	-13.5341
qauv	-13.5341
single	-13.5343
▁nste	-13.5344
ih	-13.5346
▁spray	-13.5348
song	-13.5348
tshev	-13.5351
hb	-13.5352
practice	-13.5353
lity	-13.5354
positive	-13.5354
faith	-13.5355
kaoly	-13.5355
huabtais	-13.5355
5)	-13.5355
share	-13.5356
nrho	-13.5359
such	-13.5362
phd	-13.5364
▁languages	-13.5366
hang	-13.537
code	-13.5371
txis	-13.5372
▁testament	-13.5376
▁wan	-13.5376
▁compatriot	-13.5379
▁fw	-13.538
▁preacher	-13.538
▁lols	-13.5381
▁object	-13.5381
▁increase	-13.5381
▁judgment	-13.5382
▁defendant	-13.5382
▁doctrine	-13.5382
nraab	-13.5387
▁writer	-13.5388
▁zioo	-13.5389
▁nthsa	-13.5389
ehors	-13.539
▁hnyoo	-13.5391
yk	-13.5391
!!!!!!!!!!!!	-13.5392
▁12-14	-13.5393
▁dancing	-13.5393
▁horny	-13.5393
▁qghov	-13.5393
▁resume	-13.5393
▁sociaty	-13.5393
▁orlean	-13.5393
▁hillary	-13.5393
▁disney	-13.5393
▁frustration	-13.5393
▁xaykao	-13.5393
▁compassion	-13.5393
▁khamchong	-13.5393
▁puzzle	-13.5393
▁administrator	-13.5393
▁argentina	-13.5393
▁tubcaghmoob	-13.5393
▁xasloos	-13.5393
▁motive	-13.5393
▁kauslausnees	-13.5393
▁phabntsa	-13.5393
▁$100,000.00	-13.5393
▁phavkheb	-13.5393
▁melbourne	-13.5393
▁dauvtawm	-13.5393
▁aimway	-13.5393
▁loobtswb	-13.5393
▁ttmh	-13.5394
▁concentrate	-13.5394
▁garbage	-13.5394
▁meneejxaustas	-13.5394
▁nntp	-13.5394
▁jujplig	-13.5394
▁technologies	-13.5394
▁umm	-13.5394
▁khaubzig	-13.5394
▁txoojkuam	-13.5394
▁ncejpuab	-13.5394
▁meslikas	-13.5394
▁nonsense	-13.5394
▁nyajtxag	-13.5394
▁caavpem	-13.5395
▁qawj	-13.5395
▁pakao	-13.5395
▁toupao	-13.5395
▁eeskiv	-13.5395
▁sugar	-13.5395
▁phoojyw	-13.5395
▁zejzos	-13.5396
▁businessman	-13.5396
▁xeevkhuam	-13.5396
▁chico	-13.5396
▁nkaujfaa	-13.5396
▁tec	-13.5396
▁pity	-13.5397
▁congressman	-13.5397
▁distant	-13.5397
▁correctly	-13.5397
▁basis	-13.5397
▁complicated	-13.5397
▁rtug	-13.5397
▁prisoners	-13.5397
▁fever	-13.5398
▁jars	-13.5398
▁accordingly	-13.5398
▁added	-13.5398
▁denomination	-13.5398
▁rhib	-13.5398
▁reserved	-13.5398
▁winning	-13.5399
▁tshaabxu	-13.5399
▁twmtswb	-13.5399
▁ntsuv	-13.5399
▁morality	-13.5399
khab	-13.5399
▁gpa	-13.54
▁visiting	-13.54
▁eating	-13.54
▁zoovzuag	-13.54
▁literally	-13.54
arious	-13.5401
▁hmuag	-13.5401
▁txoojtub	-13.5401
▁foreigners	-13.5401
▁samxeeb	-13.5401
▁seeking	-13.5401
▁ysis	-13.5401
▁ngeun	-13.5402
▁specially	-13.5402
▁kislas	-13.5402
▁fajlem	-13.5403
▁attacked	-13.5403
▁worthy	-13.5403
▁pejthuam	-13.5404
▁poobplig	-13.5405
▁passing	-13.5406
▁tawgrog	-13.5406
▁maumdev	-13.5407
▁kbif	-13.5407
behmoob	-13.5407
▁honesty	-13.5408
▁mosmos	-13.5411
▁stocks	-13.5411
▁abused	-13.5412
▁ntsuaj	-13.5412
▁qubqaab	-13.5412
▁rws	-13.5413
▁qhaws	-13.5414
▁hoping	-13.5415
▁paying	-13.5415
▁dawbliaj	-13.5417
▁ntevloo	-13.5417
start	-13.5417
eve	-13.5418
have	-13.5418
▁tubcaj	-13.5419
▁nyes	-13.5419
▁zws	-13.5421
????????????????	-13.5422
▁202	-13.5425
▁cabinet	-13.5425
▁teen	-13.5426
▁guests	-13.5426
▁tuatsov	-13.5428
▁ntxhis	-13.5428
pubs	-13.5433
▁clips	-13.5434
▁nkuas	-13.5434
▁deed	-13.5435
▁tshwb	-13.5438
▁belongs	-13.5439
▁muscle	-13.5441
tsiab	-13.5442
▁pon	-13.5444
▁rim	-13.5444
▁polices	-13.5447
▁counts	-13.5451
▁suri	-13.5453
▁nah	-13.5458
▁bao	-13.546
stone	-13.546
mhong	-13.5461
▁kasmoo	-13.5463
▁tublwj	-13.5464
▁(4	-13.5465
▁pli	-13.5466
▁meskasteb	-13.5467
▁losxij	-13.5468
nf	-13.547
gst	-13.5474
▁balls	-13.5476
ihr	-13.5477
▁sablaug	-13.5493
mamli	-13.5494
▁cultures	-13.55
▁australian	-13.5504
nyav	-13.5508
▁flu	-13.5519
3/	-13.5523
▁ber	-13.5525
▁results	-13.5528
▁folk	-13.5529
▁uatxhaum	-13.5532
=20	-13.5547
vong	-13.5549
ple	-13.5549
zq	-13.555
▁youtub	-13.555
▁nrhi	-13.5553
▁dlaus	-13.5558
▁kuvtij	-13.5559
▁5-	-13.5564
▁bow	-13.5564
▁========	-13.5568
dee	-13.5574
ton	-13.5574
▁cham	-13.5575
▁nhiaj	-13.5578
14-16	-13.5582
▁lixwm	-13.559
▁situations	-13.5596
happy	-13.5598
fo	-13.5605
▁sole	-13.5616
72	-13.5619
xuv	-13.5622
dlua	-13.5623
aise	-13.5624
▁koomtshaa	-13.5624
▁dp	-13.5639
yooj	-13.5641
lh	-13.5645
▁bio	-13.5651
▁funerals	-13.5654
body	-13.5654
tum	-13.5659
212	-13.566
▁1800	-13.5663
rc	-13.5666
saw	-13.5669
84	-13.5669
▁pal	-13.5675
▁npi	-13.5684
tws	-13.5685
▁plea	-13.5686
lz	-13.5692
zc	-13.5695
="	-13.5695
ow	-13.5697
oun	-13.5703
khej	-13.5704
▁sapha	-13.5706
past	-13.5706
sav	-13.5706
kuab	-13.5707
▁ulia	-13.5708
▁likes	-13.572
que	-13.5727
haujlwm	-13.5729
▁(6	-13.5741
▁chis	-13.5748
86	-13.5751
▁hahahhaa	-13.5759
hoob	-13.5762
proof	-13.5764
▁tavtoj	-13.5765
miskas	-13.5768
▁laosk	-13.577
▁mejtxw	-13.5771
bird	-13.5773
swm	-13.5773
ntxwj	-13.5773
terrorist	-13.5776
vajncuab	-13.5778
▁11:1	-13.5779
ological	-13.5781
front	-13.5783
▁zaa	-13.5786
============	-13.5787
determination	-13.5788
according	-13.5789
medicare	-13.5789
south	-13.5789
check	-13.5789
catholic	-13.5789
heaven	-13.5789
leadership	-13.5789
suabnoog	-13.579
middle	-13.579
phiajzeb	-13.579
fq	-13.5791
nplogliab	-13.5791
▁lossi	-13.5792
rawv	-13.5793
talk	-13.5794
kiagli	-13.5797
97	-13.5797
nceb	-13.5804
dang	-13.5804
leaders	-13.5805
dress	-13.5807
▁xubke	-13.5807
▁hmooblis	-13.5809
qhuab	-13.581
lossis	-13.581
zps	-13.5812
noun	-13.5815
▁shock	-13.5815
▁separatist	-13.5817
▁baumli	-13.5818
▁abya	-13.5821
den	-13.5824
▁tejntawd	-13.5826
▁millionair	-13.5826
▁annual	-13.5827
▁shadow	-13.5827
rlogo	-13.5827
▁silence	-13.5827
▁tdap	-13.5827
▁rnog	-13.5827
▁lengsavad	-13.5827
▁kazoua	-13.5827
▁longtien	-13.5827
▁phraya	-13.5827
▁exciting	-13.5827
▁phetchabun	-13.5827
▁dispute	-13.5827
▁kevinlee	-13.5827
▁yathotou	-13.5827
▁toufue	-13.5828
▁ownership	-13.5828
▁$5.00	-13.5828
▁$5,000.00	-13.5828
responsibilities	-13.5828
▁50-100	-13.5828
▁8:00	-13.5828
▁commandments	-13.5828
▁cjm	-13.5828
▁assassination	-13.5828
▁saigon	-13.5828
▁boundary	-13.5828
▁hobby	-13.5828
▁congressmen	-13.5828
▁aussie	-13.5829
▁txwvtxoob	-13.5829
▁secondary	-13.5829
▁slowly	-13.5829
▁guilt	-13.5829
▁stronger	-13.5829
▁ouch	-13.5829
▁sga	-13.583
▁arab	-13.583
▁crappies	-13.583
▁riverside	-13.583
▁feemcuam	-13.5831
▁cheese	-13.5831
▁sisouk	-13.5831
▁yawmtxajdlis	-13.5831
▁yangsao	-13.5831
▁declaration	-13.5832
well	-13.5832
▁unka	-13.5832
▁crystal	-13.5833
▁ghev	-13.5833
▁xibteg	-13.5833
▁taubtawj	-13.5833
▁mirror	-13.5833
▁npawj	-13.5834
▁khaubhlab	-13.5834
▁mintsis	-13.5834
▁muong	-13.5834
▁lhawv	-13.5834
▁qawm	-13.5834
▁buk	-13.5834
▁artist	-13.5834
▁mongolia	-13.5834
▁returned	-13.5834
▁dlawj	-13.5835
▁tunrho	-13.5835
▁developed	-13.5835
▁legitimacy	-13.5835
▁npautawg	-13.5837
▁ntshiag	-13.5837
▁vajvovvajpamusa	-13.5837
▁hire	-13.5837
▁calculate	-13.5838
▁individually	-13.5838
▁encounter	-13.5838
▁ualecaag	-13.5838
▁colleagues	-13.5838
▁divorced	-13.5839
-130	-13.5839
▁bullets	-13.5839
▁spanish	-13.5839
▁four	-13.5839
▁dovtaws	-13.5839
▁phra	-13.5839
▁display	-13.584
▁elements	-13.584
▁realized	-13.584
▁tsimtsawv	-13.584
▁dawbhuv	-13.584
ntseg	-13.584
▁zajtshoob	-13.5841
▁watching	-13.5841
▁tuagkiag	-13.5841
▁tshuj	-13.5843
field	-13.5843
▁invisible	-13.5843
▁100$	-13.5844
▁pussy	-13.5844
▁neejyag	-13.5845
▁muastxwv	-13.5846
▁truam	-13.5849
▁3,000	-13.5849
▁tubsaab	-13.5851
▁esxias	-13.5852
gay	-13.5855
▁continued	-13.5857
▁fed	-13.5858
▁farmers	-13.5858
▁pcv	-13.5858
▁kilo	-13.5859
▁lugtxaj	-13.5859
▁associates	-13.5859
▁rehabilitation	-13.586
▁cioa	-13.586
div	-13.5861
▁taught	-13.5864
▁testing	-13.5865
▁havdej	-13.5866
▁testaw	-13.5867
▁plays	-13.5873
ruc	-13.5879
ntus	-13.5879
▁roots	-13.5881
▁khuajli	-13.5882
kus	-13.5886
▁cuba	-13.589
hlawv	-13.589
bp	-13.5895
▁qubx	-13.5897
▁xue	-13.5897
lf	-13.5904
▁leung	-13.5906
▁fits	-13.5907
pag	-13.5908
▁cwm	-13.5909
▁nkaujxwb	-13.5911
▁obtain	-13.592
▁hurts	-13.592
dents	-13.5921
▁shed	-13.5922
cwa	-13.5924
keej	-13.5934
0000	-13.5934
▁sabtes	-13.5938
▁1978.	-13.5938
bi	-13.5939
uq	-13.5941
▁($	-13.5942
▁purposes	-13.5942
▁cards	-13.5943
ux	-13.5945
▁lubtswvyim	-13.5945
▁npla	-13.5945
▁pow	-13.5946
▁coov	-13.5973
▁nrhee	-13.5974
▁hmoobntsuab	-13.5993
▁leads	-13.5993
39	-13.5998
▁att	-13.6
▁ncuag	-13.6005
▁txhus	-13.6005
thas	-13.6006
▁ride	-13.601
kem	-13.601
ahn	-13.6012
▁nplhi	-13.6013
▁phubia	-13.6014
▁beu	-13.6016
yaig	-13.6025
rpa	-13.6028
ture	-13.6028
▁teebmee	-13.6033
▁realm	-13.6033
▁lubsij	-13.6035
▁totau	-13.6037
▁plate	-13.6041
▁cong	-13.6045
other	-13.6047
kiv	-13.6048
▁tru	-13.6053
rb	-13.6057
mav	-13.6062
▁84	-13.6063
tr	-13.6068
▁ek	-13.6073
30-45	-13.6083
▁fac	-13.6087
▁tra	-13.6092
ax	-13.6094
▁xe	-13.6113
tre	-13.6114
pav	-13.6117
▁presidents	-13.612
bsb	-13.6122
▁bitch	-13.6135
nrab	-13.6139
nhia	-13.6142
▁abthi	-13.6149
quc	-13.6149
▁phana	-13.6151
qiv	-13.6152
▁ibhli	-13.6157
kan	-13.6162
-94	-13.6165
thi	-13.6166
▁====	-13.6167
ntshaw	-13.6175
▁appear	-13.6175
▁hauvno	-13.6184
rw	-13.6186
▁27.	-13.6196
app	-13.62
after	-13.6201
phij	-13.6204
▁ntxheeb	-13.6206
ger	-13.621
test	-13.6216
▁fran	-13.6218
msn	-13.6219
pajhuam	-13.6224
college	-13.6227
▁vo	-13.6227
68	-13.6228
father	-13.6229
month	-13.623
▁68	-13.6231
▁beg	-13.6233
▁heevli	-13.6238
▁grandma	-13.6239
rhuav	-13.6239
debate	-13.624
caubfab	-13.624
▁heheeh	-13.6241
clean	-13.6242
yellow	-13.6243
txivneejyawg	-13.6243
txhim	-13.6243
serving	-13.6244
worship	-13.6244
unknown	-13.6244
vietnamese	-13.6244
txhij	-13.6244
honey	-13.6244
tijlaug	-13.6245
teen	-13.6245
give	-13.6246
mp	-13.6247
hem	-13.6248
major	-13.6251
▁forms	-13.6251
party	-13.6251
nyaab	-13.6252
▁pheb	-13.6253
ned	-13.6255
dyd	-13.6256
▁khan	-13.626
mask	-13.6261
any	-13.6261
▁esan	-13.6263
young	-13.6264
▁minesota	-13.6267
▁kilometer	-13.6269
▁negotiation	-13.6269
▁dice	-13.6271
▁plot	-13.6271
▁hahahhah	-13.6271
▁lotto	-13.6272
▁syllable	-13.6272
▁element	-13.6277
▁tuition	-13.6279
▁evolve	-13.6279
▁phonsavan	-13.6279
▁sanya	-13.628
▁custom	-13.6281
▁necessar	-13.6281
▁grass	-13.6281
▁abusive	-13.6282
▁algebra	-13.6282
▁desecration	-13.6282
▁sayasone	-13.6282
▁imply	-13.6282
▁missionaries	-13.6282
▁missouri	-13.6282
▁1976-1979	-13.6282
▁bouasone	-13.6282
▁metrodome	-13.6282
▁sananikone	-13.6282
▁thirst	-13.6282
▁salmon	-13.6282
▁studio	-13.6282
▁comviab	-13.6282
▁taugrigntev	-13.6282
▁ummm	-13.6282
▁centuries	-13.6282
▁ltbi	-13.6282
▁justify	-13.6282
▁siphandone	-13.6282
▁vichay	-13.6283
▁treasurer	-13.6283
▁luvtem	-13.6283
▁cherry	-13.6283
▁dlovtawm	-13.6283
▁ncojoov	-13.6283
▁unify	-13.6283
▁defeat	-13.6283
▁scientifically	-13.6283
▁vongsavang	-13.6283
▁rapist	-13.6283
▁sayavong	-13.6283
▁anthem	-13.6283
▁acknowledge	-13.6283
▁xamana	-13.6284
▁1971-72	-13.6284
▁borrow	-13.6284
▁6,26	-13.6284
▁phwvnyam	-13.6284
▁harsh	-13.6284
▁deeply	-13.6285
▁samfwm	-13.6285
▁conservative	-13.6285
▁pneumococcal	-13.6285
▁sympathy	-13.6285
▁hipaa	-13.6285
▁consultant	-13.6285
▁promotion	-13.6285
▁dental	-13.6285
▁healing	-13.6285
▁hwy	-13.6285
▁pobcaus	-13.6285
▁usdos	-13.6285
▁combine	-13.6285
▁htiab	-13.6285
▁photong	-13.6285
▁latter	-13.6285
▁mouasao	-13.6285
adieu	-13.6285
▁inclusive	-13.6285
▁lawjxeeb	-13.6286
▁npig	-13.6286
▁kansas	-13.6287
▁designed	-13.6287
▁yof	-13.6287
▁chuchu	-13.6287
▁hubby	-13.6287
▁edge	-13.6287
▁mooscab	-13.6287
▁lottery	-13.6288
▁poverty	-13.6288
▁roov	-13.6289
▁normally	-13.6289
▁99.99	-13.6289
▁freeman	-13.6289
▁mandarin	-13.629
▁opium	-13.629
▁nkeej	-13.629
▁viom	-13.629
▁zomlis	-13.6291
▁7000	-13.6291
▁meemtxom	-13.6292
▁mevkas	-13.6292
▁slang	-13.6293
▁knock	-13.6293
pias	-13.6293
▁koosluam	-13.6293
lqc	-13.6293
▁dating	-13.6294
▁vuam	-13.6295
▁falling	-13.6296
▁informed	-13.6296
▁nplias	-13.6297
▁timothy	-13.6297
▁npuv	-13.6298
▁racism	-13.6299
▁menyaum	-13.6299
▁kubtwm	-13.6299
▁neck	-13.6299
▁fabkisteb	-13.6299
▁kuiv	-13.6299
▁thajneeb	-13.63
▁wolf	-13.6301
licas	-13.6302
▁pujkoob	-13.6302
▁ntsiablus	-13.6303
▁opening	-13.6303
▁dme	-13.6303
▁xeevlaus	-13.6304
▁nkuab	-13.6306
▁pockets	-13.6306
fd	-13.6306
▁lubntiajteb	-13.6307
▁tibet	-13.6307
▁sibfaib	-13.6307
▁faum	-13.6308
▁remark	-13.631
mim	-13.6311
▁charged	-13.6312
▁kinda	-13.6312
555	-13.6312
▁phawg	-13.6313
▁huge	-13.6314
▁begins	-13.6314
▁boil	-13.6315
▁abyaj	-13.6315
▁sibcog	-13.6316
▁neighbors	-13.6317
▁claiming	-13.6317
▁ntujtshiab	-13.6318
nyoo	-13.632
▁325	-13.632
▁forest	-13.632
▁hahahahahaa	-13.632
▁hehehee	-13.6321
▁ntsooj	-13.6321
▁dauj	-13.6323
▁uses	-13.6323
ves	-13.6323
▁speakers	-13.6325
▁sibtxhawb	-13.6325
▁ntxob	-13.6327
▁boot	-13.6327
▁nqu	-13.6327
▁overthrow	-13.6328
▁threats	-13.6328
▁lca	-13.633
▁adults	-13.633
▁nst	-13.633
▁ew	-13.6331
▁til	-13.6333
▁350	-13.6337
aging	-13.6338
▁dlaug	-13.6339
▁practical	-13.6339
▁rib	-13.6343
▁keeg	-13.6344
▁vimli	-13.6351
toog	-13.6352
▁harrass	-13.6353
▁boys	-13.6353
look	-13.6356
misc	-13.6359
lkos	-13.636
radom	-13.6361
han	-13.6368
car	-13.6369
▁docs	-13.6371
hc	-13.6372
▁zeeb	-13.6373
▁spirits	-13.6374
▁xwn	-13.6377
oos	-13.6377
▁qusx	-13.6378
▁races	-13.6378
ping	-13.638
-40	-13.6385
▁isan	-13.6388
nkaagsab	-13.6394
▁mood	-13.6395
ara	-13.6402
▁nkausx	-13.6402
air	-13.6405
▁ben	-13.6413
▁dick	-13.6413
▁pumzoo	-13.6416
lev	-13.642
tsaab	-13.6424
caam	-13.6427
thim	-13.643
▁nqees	-13.643
▁rhwb	-13.643
▁kuataw	-13.6431
huav	-13.6434
poog	-13.6437
ntxa	-13.6437
▁tabsislawv	-13.644
▁swj	-13.6444
uw	-13.6447
▁saii	-13.6448
ht	-13.6449
▁txaisyuav	-13.6452
▁khoon	-13.646
▁lubbe	-13.6461
▁mien	-13.6467
▁abtsis	-13.6469
uneducated	-13.647
▁suavyaj	-13.6471
▁ntl	-13.6477
du	-13.648
xuab	-13.6484
▁sishlub	-13.6484
eo	-13.6488
▁qhovtsua	-13.6492
▁ntxis	-13.6494
yeeg	-13.6495
▁exam	-13.6502
xhob	-13.6502
▁coma	-13.6502
fwj	-13.6504
▁xaavzoo	-13.6504
nuv	-13.6511
▁tall	-13.6514
▁mini	-13.6519
▁=============	-13.6521
▁jk	-13.6523
▁thaa	-13.6528
loom	-13.6531
▁tour	-13.6532
▁raid	-13.6543
txhaum	-13.6544
!!..	-13.6548
▁tsispom	-13.655
▁moron	-13.6564
▁bullet	-13.6567
▁calls	-13.6568
▁ntij	-13.6568
▁555	-13.657
kuaj	-13.6573
/30	-13.6584
▁pebhmoobr	-13.6585
naus	-13.6593
dabtsi	-13.6595
ried	-13.6596
▁xos	-13.6596
nuc	-13.6599
▁hahahahahahah	-13.66
muj	-13.6601
tn	-13.6603
hk	-13.6604
▁ntooj	-13.6609
▁rhi	-13.6609
gi	-13.661
jkom	-13.6614
▁75,	-13.6615
▁joy	-13.6617
▁suavdlaw	-13.6618
▁urge	-13.6625
yoojyim	-13.6629
▁cemx	-13.6632
▁blo	-13.6634
ywm	-13.6634
▁vaas	-13.6646
cl	-13.6651
▁cheer	-13.6655
▁tsauv	-13.6663
ically	-13.6664
hood	-13.6667
lic	-13.6668
▁hormone	-13.6668
▁tseemmoob	-13.6668
▁vr	-13.6673
ntsev	-13.6678
wat	-13.6691
kluv	-13.6693
cuam	-13.6695
▁ntshuag	-13.6698
work	-13.6701
▁comm	-13.6701
style	-13.6702
puam	-13.6703
quote	-13.6706
belief	-13.6707
yexus	-13.6709
tshajplaws	-13.671
tradition	-13.6712
▁sink	-13.6713
houei	-13.6717
grade	-13.6718
chiyou	-13.6719
qaij	-13.6719
control	-13.672
minority	-13.672
central	-13.672
target	-13.672
cwjmem	-13.672
because	-13.672
▁supports	-13.6722
44	-13.6722
▁ntshawb	-13.6722
nraum	-13.6723
laam	-13.6724
phub	-13.6724
▁kuvpom	-13.6728
xyuam	-13.6728
school	-13.6728
▁mabsua	-13.673
intellectuals	-13.6731
zis	-13.6733
▁blam	-13.6737
every	-13.6737
▁phemx	-13.674
nkawd	-13.6741
nes	-13.6741
▁phai	-13.6742
▁hebrew	-13.6744
▁objective	-13.6745
▁kwvtijmoob	-13.6746
pass	-13.6747
▁develope	-13.6747
▁stranger	-13.6748
▁breath	-13.6755
ans	-13.6755
hotel	-13.6755
▁outsider	-13.6755
▁decease	-13.6756
▁disappoint	-13.6756
▁vientian	-13.6756
▁complicate	-13.6757
▁foods	-13.6757
▁nkhau	-13.6758
▁60,000	-13.6758
▁capacity	-13.6758
▁cemetery	-13.6758
▁jordan	-13.6758
▁yialiher	-13.6758
▁picnic	-13.6758
▁defensive	-13.6758
▁italy	-13.6758
▁bzness	-13.6758
▁syracuse	-13.6758
▁naokao	-13.6758
▁70-80	-13.6758
69-79	-13.6758
▁$1,200	-13.6758
▁edward	-13.6758
▁dropped	-13.6758
▁kubnyiab	-13.6758
▁monies	-13.6758
▁mysteriousking	-13.6758
▁planned	-13.6759
▁tubbis	-13.6759
▁rental	-13.6759
zais	-13.6759
▁immediately	-13.6759
▁thoojtxhij	-13.6759
▁somebody	-13.6759
▁advocacy	-13.6759
▁knife	-13.6759
▁zealand	-13.6759
▁extremely	-13.6759
▁antony	-13.6759
▁documentation	-13.6759
▁cobphum	-13.676
▁saablaaj	-13.676
▁nakhang	-13.676
▁tshaajlij	-13.676
▁kxf	-13.676
▁$1,000.00	-13.6761
▁4,000	-13.6761
▁$10.00	-13.6761
▁lutheran	-13.6761
▁laptop	-13.6761
▁hepatitis	-13.6761
▁polygamy	-13.6761
▁qaibqus	-13.6761
▁trivia	-13.6761
▁yuig	-13.6761
▁conscience	-13.6761
▁thernsp	-13.6761
▁jeep	-13.6761
▁lacross	-13.6761
▁growth	-13.6761
▁djk	-13.6762
▁havnyom	-13.6762
▁virginia	-13.6762
▁500$	-13.6762
[...]
