[UNK]	0
<s>	0
</s>	0
[CLS]	0
[SEP]	0
[MASK]	0
.	-3.32001
,	-3.5903
▁yog	-3.97352
▁li	-4.10748
▁ua	-4.21047
▁los	-4.29877
▁kuv	-4.33246
▁no	-4.33875
▁koj	-4.37071
▁tsis	-4.37849
▁yuav	-4.40599
▁tau	-4.43611
▁cov	-4.48573
▁lawm	-4.4881
▁thiab	-4.56526
▁hais	-4.62029
▁muaj	-4.6477
▁xwb	-4.68706
▁hmoob	-4.68876
▁ces	-4.69272
▁rau	-4.72118
▁tus	-4.76391
▁mus	-4.76613
▁ib	-4.78242
▁peb	-4.80324
▁mas	-4.82748
▁lub	-4.86059
▁tias	-5.03876
▁nws	-5.04487
▁zoo	-5.05135
▁yeej	-5.07914
▁lawv	-5.14166
▁tsi	-5.1747
▁nyob	-5.22308
▁qhov	-5.31459
▁kom	-5.37149
▁neeg	-5.40166
▁kev	-5.40244
▁tuaj	-5.40861
▁	-5.42136
▁tej	-5.44091
▁paub	-5.45583
▁tug	-5.48416
▁es	-5.49634
▁tseem	-5.50753
▁ntawd	-5.55835
▁twb	-5.5623
▁xav	-5.56888
▁muab	-5.60443
▁thiaj	-5.60928
?	-5.62139
...	-5.63157
▁nej	-5.6572
▁twg	-5.70304
▁txog	-5.70944
▁thaum	-5.74689
▁yus	-5.75845
▁cas	-5.79522
▁lus	-5.80382
▁siab	-5.83451
▁le	-5.84089
▁luag	-5.85091
▁teb	-5.86612
▁sib	-5.88982
▁pab	-5.98913
▁vim	-5.99847
▁coj	-6.00166
▁uas	-6.00976
▁tas	-6.02067
▁txiv	-6.0733
▁nawb	-6.08314
▁saib	-6.08428
▁hauv	-6.09983
▁kawg	-6.10385
▁pom	-6.11276
▁tiag	-6.12428
▁puas	-6.13006
▁tag	-6.14314
▁me	-6.14536
▁yawg	-6.19232
▁nrog	-6.19931
-	-6.22333
▁ntau	-6.23633
▁yam	-6.23709
▁ho	-6.24254
▁ntawm	-6.24773
▁noj	-6.25033
▁leej	-6.25478
▁tub	-6.25621
▁niam	-6.26956
▁kiag	-6.27344
▁hab	-6.30314
▁the	-6.3054
▁sis	-6.31669
▁"	-6.31931
▁has	-6.32046
▁tom	-6.3631
▁txoj	-6.36841
▁txhob	-6.37427
▁to	-6.38879
▁lwm	-6.39862
2	-6.40679
▁qab	-6.40846
▁rov	-6.40952
▁os	-6.4127
▁nplog	-6.41993
▁txawm	-6.45682
▁hnub	-6.46127
▁(	-6.47983
▁tim	-6.48837
▁kuj	-6.49532
/	-6.50539
▁neej	-6.51481
▁lug	-6.52725
▁cia	-6.55247
▁dab	-6.55821
▁tawm	-6.5585
▁tuag	-6.56365
▁siv	-6.56779
▁tham	-6.5678
▁moob	-6.57215
▁ntawv	-6.5755
▁mam	-6.58779
▁tsev	-6.59549
▁ob	-6.59799
"	-6.62382
▁rua	-6.63634
▁tso	-6.64108
▁txawj	-6.6563
....	-6.67143
)	-6.67561
▁tua	-6.68309
▁nyiaj	-6.68544
▁heev	-6.68549
▁kawm	-6.7134
▁tab	-6.71593
▁sab	-6.71637
▁moog	-6.72881
s	-6.7313
▁sawv	-6.74207
▁ntseeg	-6.77935
▁ntag	-6.78555
▁tsum	-6.79392
▁lam	-6.79763
▁nuav	-6.81909
▁ntuj	-6.83211
▁tsuas	-6.84003
▁and	-6.84382
▁qhia	-6.84739
▁tseeb	-6.85341
▁tswv	-6.85368
▁kwv	-6.85841
▁xyoo	-6.8805
▁niag	-6.89945
▁suav	-6.90023
▁tshaj	-6.91724
▁coob	-6.9226
▁raug	-6.93845
▁muag	-6.94673
▁hos	-6.95388
▁loj	-6.96029
▁nwg	-6.96269
▁txhua	-6.97459
▁hu	-6.98204
▁laus	-6.9845
▁dua	-6.98894
▁poj	-6.99324
▁sau	-6.99405
▁cai	-6.9996
▁of	-7.00017
▁thov	-7.00147
▁daws	-7.00349
!	-7.00803
▁zaum	-7.01143
▁pheej	-7.01531
▁raws	-7.02471
▁tabsis	-7.02952
▁you	-7.02954
▁hlub	-7.03597
▁tes	-7.03883
▁tsam	-7.04181
▁sim	-7.04688
▁zog	-7.05195
▁kws	-7.0599
▁ne	-7.06207
▁yug	-7.06446
▁tib	-7.0647
▁yawm	-7.07371
▁tij	-7.08482
▁nkauj	-7.08681
▁hluas	-7.09496
▁i	-7.0994
▁nom	-7.1098
▁haiv	-7.11433
▁npe	-7.11707
▁ntxiv	-7.1261
▁vaj	-7.1263
▁hnov	-7.13273
▁tsim	-7.135
▁is	-7.14666
▁puab	-7.14672
:	-7.16179
▁dhau	-7.16192
▁phem	-7.16379
▁npaum	-7.1726
▁dag	-7.17461
▁a	-7.1753
▁chaws	-7.18053
▁hmong	-7.18343
▁pov	-7.21365
▁dr	-7.21442
▁ntej	-7.22357
'	-7.22826
▁ntshai	-7.23629
▁thaib	-7.23748
▁koom	-7.24227
▁ub	-7.24959
▁xeem	-7.26547
▁ntse	-7.26822
▁yim	-7.28558
▁yaj	-7.30354
▁tos	-7.31105
▁ov	-7.31974
▁chaw	-7.32361
▁tseg	-7.32686
▁txaus	-7.3354
▁nyiam	-7.33637
▁ntev	-7.3378
▁dawb	-7.33875
▁in	-7.34141
▁lis	-7.34484
▁mob	-7.3484
▁pob	-7.35993
▁thawj	-7.36224
▁seb	-7.37275
▁vp	-7.37613
▁ruam	-7.37718
▁mej	-7.37786
▁kam	-7.38409
▁leeg	-7.38819
▁dej	-7.41004
▁ntsib	-7.41728
▁maj	-7.42349
▁2	-7.42864
▁xaav	-7.4346
.....	-7.44184
▁luaj	-7.44423
▁nkaus	-7.44585
--	-7.4484
▁meej	-7.45096
v	-7.45724
▁ntxhais	-7.46531
▁khiav	-7.46615
▁nyuam	-7.4691
▁poob	-7.47303
▁nco	-7.47306
▁tsaug	-7.4762
▁daim	-7.47764
▁qub	-7.47864
▁tu	-7.47894
▁nug	-7.4799
kuv	-7.486
▁pub	-7.4866
▁na	-7.48752
▁tiam	-7.49095
▁naj	-7.49113
......	-7.4925
▁nyias	-7.50202
▁ntshe	-7.50598
▁lo	-7.51568
▁pem	-7.52401
▁hlob	-7.52851
b	-7.5454
▁kho	-7.54814
▁laug	-7.56027
▁kav	-7.56173
▁pojniam	-7.57212
▁nrhiav	-7.57415
▁txug	-7.57734
▁haus	-7.59229
;	-7.59729
▁wb	-7.60292
▁caag	-7.60315
▁nkawv	-7.60748
m	-7.61101
▁caij	-7.61317
▁-	-7.61606
▁for	-7.6317
▁as	-7.6318
▁mloog	-7.6348
▁tog	-7.63522
com	-7.63528
▁cem	-7.63966
▁tabsi	-7.6446
▁kheej	-7.6493
▁it	-7.65263
▁liab	-7.65337
▁neb	-7.65392
▁txim	-7.66248
▁tsawg	-7.66662
▁that	-7.66892
▁tebchaws	-7.67362
▁nyuag	-7.68991
▁nas	-7.69123
▁born	-7.69335
▁meem	-7.6938
▁laiv	-7.7
▁teeb	-7.70127
▁niaj	-7.70761
▁si	-7.71249
▁ze	-7.7189
yog	-7.72062
▁3	-7.73103
▁txhaj	-7.73897
▁chim	-7.74448
▁hom	-7.74612
▁kwvtij	-7.74802
▁zaug	-7.75127
▁haum	-7.7556
▁nam	-7.7607
▁ko	-7.76473
▁hov	-7.7705
▁txuj	-7.77391
▁quav	-7.78023
▁phoojywg	-7.78229
▁tsa	-7.78457
▁rog	-7.78494
▁sawvdaws	-7.7879
▁rooj	-7.78897
▁ncaj	-7.78942
▁meskas	-7.80464
▁xa	-7.81097
▁taag	-7.81545
▁puav	-7.81641
▁taub	-7.82097
j	-7.82233
▁nram	-7.82253
▁pib	-7.82381
▁huv	-7.82767
▁yuam	-7.8289
▁kub	-7.83199
4	-7.83223
▁kuas	-7.84419
▁ceeb	-7.84476
koj	-7.84764
.......	-7.84868
://	-7.84903
▁zaj	-7.84983
▁ywg	-7.85031
g	-7.85087
▁piav	-7.85566
▁nua	-7.85731
▁nyaj	-7.85831
▁txawv	-7.85861
▁hauj	-7.86735
▁lauj	-7.86905
▁phooj	-7.87372
▁txhais	-7.87786
▁xwm	-7.88236
▁mog	-7.88425
▁av	-7.88734
▁saum	-7.88964
▁tshuav	-7.88977
▁hau	-7.89513
▁ytk	-7.8984
▁deb	-7.90504
▁he	-7.90784
▁ntsis	-7.90836
▁them	-7.9104
▁pum	-7.93044
▁6	-7.93361
▁tshiab	-7.93405
▁not	-7.93427
▁mos	-7.93578
▁mag	-7.94255
▁taw	-7.94275
▁taug	-7.94277
▁tam	-7.94546
t	-7.95272
▁laj	-7.95272
▁tseemyeej	-7.95885
▁zos	-7.97205
▁sij	-7.97779
▁ke	-7.98048
▁dabtsi	-7.98333
▁are	-7.98415
▁neeb	-7.98997
▁tuav	-7.99205
▁be	-7.99277
▁txom	-7.99856
▁koob	-8.00235
▁nim	-8.00703
▁yeeb	-8.00808
▁cev	-8.01481
▁1	-8.01555
▁http	-8.01772
▁pw	-8.01807
▁qho	-8.01876
▁co	-8.02212
▁hav	-8.02756
▁or	-8.02876
▁mov	-8.02893
▁vajtswv	-8.03045
▁xeeb	-8.03153
▁nyog	-8.03324
=	-8.03504
▁blog	-8.03549
▁feem	-8.03775
▁luas	-8.03952
▁taus	-8.04597
▁cais	-8.05045
▁cav	-8.05639
www	-8.05729
▁nyeem	-8.06026
▁yav	-8.06162
▁hawm	-8.06894
▁leejtwg	-8.08267
▁tuab	-8.08921
▁puag	-8.09546
▁ma	-8.09649
▁cuab	-8.09654
▁thaub	-8.09781
▁hloov	-8.09952
▁sub	-8.10051
▁your	-8.10509
▁tais	-8.10544
▁yang	-8.11158
▁this	-8.11269
▁on	-8.11509
▁yau	-8.11909
▁paj	-8.13099
▁ntiaj	-8.13554
▁sch	-8.13876
▁miv	-8.1389
▁laura	-8.13971
▁so	-8.14473
▁lau	-8.14956
▁nov	-8.14981
▁dev	-8.14982
▁ms	-8.15004
▁yaam	-8.1564
▁qhuas	-8.15702
▁have	-8.16016
▁pao	-8.1631
▁xov	-8.16852
▁suab	-8.16901
▁txwm	-8.17615
▁ntsej	-8.17906
▁xyuas	-8.18495
▁lov	-8.18643
▁muas	-8.18807
▁kab	-8.18957
▁gvp	-8.18969
▁post	-8.19028
d	-8.19061
▁menyuam	-8.19143
▁noog	-8.19657
▁liam	-8.19806
▁tawg	-8.20002
li	-8.20471
▁ned	-8.20636
▁phwvnyawm	-8.21108
▁xyov	-8.21364
▁nyuj	-8.21503
▁teev	-8.21631
▁xaiv	-8.21877
▁tsoom	-8.22791
▁tsua	-8.23376
▁las	-8.23382
▁phom	-8.23434
▁nkag	-8.23668
▁num	-8.24111
▁nav	-8.24182
▁noob	-8.24619
▁xub	-8.25598
ua	-8.25827
▁zoov	-8.25978
▁pawg	-8.26067
▁ncauj	-8.26366
▁cuag	-8.26619
▁paab	-8.27116
▁we	-8.27315
▁lees	-8.27761
▁aw	-8.27947
▁txais	-8.28024
▁30	-8.28661
▁nrho	-8.29022
▁txwv	-8.29356
▁txhaum	-8.29471
▁vam	-8.29706
▁hlo	-8.29742
▁quas	-8.29768
▁by	-8.29853
▁faj	-8.2989
▁plaub	-8.30279
▁ca	-8.30347
▁do	-8.30877
▁dlaab	-8.31067
▁puj	-8.31409
▁txij	-8.31571
▁qhuav	-8.31714
▁nrug	-8.31862
▁all	-8.32508
▁zag	-8.32615
▁nkawd	-8.32876
▁haujlwm	-8.3288
8	-8.33742
▁b	-8.33791
▁nqa	-8.34039
▁ce	-8.34133
▁txheeb	-8.34638
▁xam	-8.34715
▁tig	-8.34859
▁toj	-8.34892
▁haj	-8.35058
▁thaj	-8.35129
▁tsav	-8.35771
▁what	-8.36319
▁hmo	-8.3672
▁mhoob	-8.37129
▁roob	-8.37163
▁4	-8.37999
▁saub	-8.38152
▁hlwb	-8.38305
▁ntshaw	-8.38619
▁ntaus	-8.38737
▁tawv	-8.39016
▁us	-8.3907
▁vwm	-8.39132
▁tsab	-8.39213
6	-8.39329
▁will	-8.40015
▁tooj	-8.40038
▁lao	-8.40642
▁ntsoov	-8.40741
▁with	-8.40778
▁ceg	-8.4084
▁npaj	-8.41125
▁txhia	-8.4136
).	-8.41437
▁but	-8.42054
▁nyem	-8.4212
▁nqi	-8.4235
peb	-8.42518
▁tuam	-8.43475
▁nyab	-8.43548
▁my	-8.43596
▁nub	-8.43622
▁ciaj	-8.43667
▁qaab	-8.43944
▁tshuaj	-8.43959
▁caum	-8.43971
x	-8.44336
▁hwv	-8.4446
▁dub	-8.44579
▁ham	-8.45743
▁aws	-8.45888
▁nraug	-8.46114
▁u	-8.4641
▁tijlaug	-8.47205
▁xyooj	-8.47433
▁thoj	-8.476
▁zhen	-8.47845
▁plig	-8.47984
▁tsij	-8.48111
▁ha	-8.48118
▁10	-8.48195
▁pog	-8.48301
▁txhawb	-8.48962
▁pej	-8.49745
▁vang	-8.49963
▁laud	-8.50009
▁kas	-8.50414
▁ntsuab	-8.50497
▁txeeb	-8.51015
▁ntug	-8.51118
▁ceev	-8.51407
▁nab	-8.51746
▁1.	-8.52054
▁hli	-8.52089
▁qha	-8.52239
▁txiav	-8.53628
▁tswvyim	-8.53727
▁dav	-8.53808
▁tsov	-8.54111
▁nrov	-8.54248
▁plaws	-8.5472
▁pauv	-8.55504
▁zaub	-8.55855
▁yis	-8.56056
k	-8.56155
▁npau	-8.56199
▁2.	-8.56304
1	-8.56332
▁teg	-8.56643
▁thuam	-8.56881
cov	-8.57317
▁khav	-8.57491
▁muam	-8.57612
▁luj	-8.57875
▁piv	-8.58349
▁&	-8.58517
3	-8.58807
▁teebmeem	-8.58838
▁ntoo	-8.58887
▁can	-8.5894
▁luam	-8.59197
▁hl	-8.59583
▁=	-8.59668
▁moos	-8.59801
▁pes	-8.59869
▁nad	-8.59896
▁fab	-8.60018
▁phiaj	-8.60055
▁one	-8.60096
▁txaj	-8.60356
▁tiav	-8.60563
▁nyablaj	-8.60926
▁tshoob	-8.60985
▁xws	-8.61305
▁kuam	-8.61679
▁ntsia	-8.61684
▁at	-8.61738
▁church	-8.61813
▁nce	-8.6197
▁quaj	-8.62342
e	-8.62477
▁sijhawm	-8.62505
▁tshwm	-8.62701
▁tsuav	-8.62713
▁qaib	-8.62714
▁qw	-8.62784
▁ntes	-8.62982
▁kua	-8.63104
n	-8.63823
▁rab	-8.63987
▁zeb	-8.64114
▁people	-8.64246
▁tw	-8.64364
▁zab	-8.64373
▁from	-8.64591
........	-8.65513
▁thoob	-8.65654
▁yooj	-8.66034
▁khoom	-8.661
▁if	-8.6621
▁nyuaj	-8.66594
▁pos	-8.6719
0	-8.67397
▁tiv	-8.67633
▁kis	-8.6795
▁they	-8.68623
▁cua	-8.68859
▁tsheej	-8.69243
▁5	-8.69657
▁tsuj	-8.70032
▁nqaij	-8.70406
▁col	-8.7137
▁good	-8.71673
▁nev	-8.72173
▁un	-8.72674
▁thaus	-8.72948
."	-8.73558
los	-8.73654
▁yom	-8.74653
▁npua	-8.74769
▁america	-8.74993
▁ris	-8.75426
hmoob	-8.75454
▁sai	-8.75642
▁khwv	-8.76088
▁ncaws	-8.76103
a	-8.76199
▁nyoog	-8.76334
▁ntxim	-8.76392
▁duab	-8.77114
▁moobsib	-8.77591
▁ya	-8.778
▁sia	-8.77848
▁cias	-8.77919
▁huab	-8.77931
▁swb	-8.78016
▁ploj	-8.78018
▁ab	-8.78306
▁thaam	-8.78622
▁maum	-8.78633
5	-8.7878
▁zam	-8.78784
youtube	-8.78822
▁dhia	-8.78881
▁khaws	-8.78947
watch	-8.79277
▁nyuas	-8.79472
▁neohmong	-8.7948
▁npawg	-8.79588
▁lwj	-8.79623
▁mn	-8.79719
▁zaus	-8.79747
▁peev	-8.79844
▁xab	-8.80064
▁18	-8.80104
▁dlua	-8.80411
▁who	-8.8042
▁thab	-8.80456
▁haivneeg	-8.80867
▁ci	-8.80869
▁more	-8.80996
▁qhua	-8.81457
▁ntxub	-8.81799
▁noogdlej	-8.81973
▁kaw	-8.8227
▁mekas	-8.82272
▁laos	-8.82382
▁txheej	-8.82407
▁ntxawm	-8.82449
▁looj	-8.82479
▁tis	-8.82535
▁tsheb	-8.82963
▁ntxias	-8.83045
tsis	-8.8319
▁ncig	-8.83205
lawv	-8.83699
▁hawj	-8.83886
▁hlau	-8.83933
▁time	-8.8436
▁khib	-8.84369
▁kaj	-8.84697
▁yeem	-8.84782
vim	-8.8484
▁twm	-8.84935
▁3.	-8.85204
".	-8.85207
i	-8.85877
▁ntaub	-8.86022
▁lawd	-8.87293
▁tswj	-8.88009
▁zus	-8.8859
▁vaaj	-8.88656
▁kos	-8.88688
▁xyaum	-8.88762
▁nai	-8.8884
▁taws	-8.8896
▁choj	-8.89066
▁cob	-8.8914
▁just	-8.8925
9	-8.89428
moob	-8.90301
▁maam	-8.90324
▁ncees	-8.90877
▁tshua	-8.91374
▁fajkhaum	-8.91647
▁txhawj	-8.91707
▁nruab	-8.91743
▁there	-8.92316
▁faib	-8.92394
▁txiaj	-8.92461
▁kag	-8.92563
▁nrauj	-8.9268
▁zuj	-8.92807
thaum	-8.92981
c	-8.93378
▁dim	-8.9341
▁tav	-8.93455
▁txivneej	-8.93863
▁tsiaj	-8.93947
▁cawm	-8.93979
lub	-8.94022
▁loo	-8.94076
▁usa	-8.94112
nws	-8.94131
▁puv	-8.94358
(	-8.94444
▁thaiv	-8.94454
▁nqe	-8.94511
ing	-8.94683
▁nyam	-8.95179
▁ntses	-8.95339
▁xob	-8.95382
tus	-8.95498
▁licas	-8.95534
▁nyiag	-8.95697
▁about	-8.95706
▁x	-8.95734
▁nkaum	-8.95752
es	-8.95973
▁cawv	-8.96067
▁***	-8.96592
_	-8.96852
bh	-8.96872
▁fresno	-8.96929
▁xij	-8.96981
▁zov	-8.97383
▁xuas	-8.9783
▁charlie	-8.97852
&	-8.97914
▁his	-8.97962
▁xiong	-8.98086
▁lod	-8.98504
▁sav	-8.98548
behmong	-8.9859
▁siav	-8.98759
▁was	-8.9901
ib	-8.99027
▁nqis	-8.99304
▁ntshav	-8.99537
▁am	-8.99842
),	-9.00119
▁plab	-9.00432
▁cog	-9.00728
▁tsw	-9.01515
▁khov	-9.01987
▁ti	-9.02274
▁caj	-9.02302
▁lpdr	-9.02456
▁kaus	-9.02502
▁thanks	-9.02831
▁lee	-9.02847
▁hahaha	-9.03399
▁our	-9.03811
▁nuj	-9.04078
▁tshum	-9.044
▁tsuag	-9.04457
▁aub	-9.04562
▁vwj	-9.04713
▁haib	-9.04898
hmong	-9.05155
▁txha	-9.05375
▁tiamsis	-9.05667
▁ncuab	-9.05884
▁qhib	-9.05892
▁meb	-9.05991
▁xyoos	-9.06094
▁foom	-9.06104
▁know	-9.06678
▁new	-9.06713
qhov	-9.06915
▁etc	-9.06983
▁qaum	-9.07058
▁vaajmoob	-9.07247
▁lom	-9.07745
▁nplooj	-9.07957
o	-9.08404
▁doctor	-9.08531
▁m	-9.08587
▁py	-9.08824
▁dig	-9.09032
▁twv	-9.0949
▁paul	-9.09521
▁tsawv	-9.09592
aw	-9.09722
▁dd	-9.10022
▁pejxeem	-9.10067
▁pim	-9.1015
▁dao	-9.10278
▁yob	-9.10343
▁yaim	-9.10412
▁tshav	-9.10485
▁human	-9.10548
▁don	-9.1061
▁iab	-9.10625
▁cuav	-9.1068
▁twj	-9.10763
▁paus	-9.11031
▁right	-9.11637
▁dyd	-9.11701
▁lu	-9.11871
▁cab	-9.12123
▁nqq	-9.12715
▁phaj	-9.12719
▁like	-9.13016
▁hastas	-9.13165
▁caug	-9.13261
▁only	-9.13333
▁nti	-9.13633
▁yij	-9.13892
▁sob	-9.14198
▁ntseg	-9.14397
▁keeb	-9.1452
▁cuam	-9.14535
▁xf	-9.15015
▁xejthim	-9.15127
▁ntu	-9.15319
▁tuabneeg	-9.15619
▁laid	-9.16331
▁'	-9.16406
▁tshaaj	-9.16458
▁hwm	-9.16496
▁case	-9.16584
▁ywm	-9.16865
muaj	-9.1693
▁st	-9.17039
▁xeev	-9.17173
▁phoo	-9.17212
▁2-3	-9.17225
▁rhuav	-9.1723
▁tshawb	-9.17511
▁nrab	-9.17531
▁phau	-9.17615
▁haistias	-9.17699
▁laam	-9.17796
▁pas	-9.18125
▁lav	-9.18231
▁og	-9.18521
▁ntsiab	-9.18673
▁dlawb	-9.18913
▁e	-9.18968
▁caw	-9.19164
▁moua	-9.19298
▁pe	-9.19359
▁cheem	-9.1957
▁yaweh	-9.19973
▁hlis	-9.2007
▁kwm	-9.2009
▁lig	-9.20248
▁tsiv	-9.20286
▁very	-9.20439
▁hmoov	-9.20454
▁qee	-9.20507
▁t	-9.20511
▁nais	-9.20595
y	-9.20616
▁bee	-9.20783
▁hnav	-9.21075
▁ntsuag	-9.21137
▁qeej	-9.21475
▁qau	-9.22068
▁khu	-9.22165
▁make	-9.22198
org	-9.22379
▁other	-9.22532
▁phwv	-9.22627
▁up	-9.22907
▁cam	-9.23173
▁dlawg	-9.23261
▁quaspuj	-9.23383
▁their	-9.23391
▁lauv	-9.23492
▁saab	-9.23759
▁ncu	-9.23815
7	-9.23823
▁neohom	-9.23986
▁ntaag	-9.24521
▁--	-9.25088
▁roj	-9.25265
▁tawb	-9.25284
▁qe	-9.25293
▁txiag	-9.25786
▁yees	-9.25819
▁sov	-9.25912
▁her	-9.26137
tsi	-9.26165
▁lossis	-9.26189
yuav	-9.26221
▁sam	-9.26379
▁lag	-9.2667
ces	-9.2739
▁pam	-9.2773
▁p	-9.27737
▁soj	-9.2774
▁tsoob	-9.27915
▁tony	-9.27936
▁kasmoos	-9.28012
▁tamsim	-9.28104
▁see	-9.2815
▁any	-9.28329
▁lab	-9.28385
tej	-9.28444
▁txuas	-9.28493
▁how	-9.29152
▁lostsuas	-9.29219
▁vajncuab	-9.29369
▁tia	-9.29532
▁tsaam	-9.29736
▁need	-9.29939
▁family	-9.30198
▁huas	-9.30221
▁tsho	-9.30352
h	-9.3079
▁vmged	-9.31111
▁zais	-9.31187
▁...	-9.31379
▁qaug	-9.31723
▁rub	-9.31863
▁fabkis	-9.31938
▁rho	-9.32051
▁vaajtswv	-9.324
▁riam	-9.32664
!!!	-9.32675
▁laib	-9.32755
▁huabtais	-9.32796
▁way	-9.33069
▁fwv	-9.33119
▁general	-9.3317
▁nos	-9.33482
▁tsaus	-9.33609
▁nroog	-9.33728
▁go	-9.33885
***	-9.33886
▁out	-9.3402
▁ntxov	-9.34184
ed	-9.34198
▁ntxawg	-9.34268
▁nuv	-9.34413
kom	-9.3449
▁dlaag	-9.34703
▁tshab	-9.34763
▁life	-9.34864
▁txias	-9.34912
▁email	-9.34985
▁tsob	-9.35116
▁dlhau	-9.35122
▁pluag	-9.35251
u	-9.35438
▁too	-9.35531
▁tid	-9.35566
▁zej	-9.3569
▁think	-9.35716
▁txia	-9.36355
▁text	-9.36473
lawm	-9.36732
▁phim	-9.36828
▁xaus	-9.37025
▁hlua	-9.37044
▁daj	-9.37362
haj	-9.37523
▁foob	-9.37642
▁khawv	-9.37667
zoo	-9.37786
▁why	-9.37802
▁4.	-9.37807
▁nkaujnyiag	-9.3784
▁yaus	-9.38054
▁nrhav	-9.38192
yawg	-9.38215
▁lim	-9.38255
▁deev	-9.38269
▁txob	-9.38286
▁tou	-9.38477
▁thooj	-9.38538
▁yig	-9.38771
▁tsoo	-9.388
▁zeem	-9.38964
▁kubxaj	-9.38972
▁mab	-9.39248
▁pua	-9.39248
▁zug	-9.39318
▁z	-9.39435
▁tswb	-9.39453
lao	-9.39496
▁ly	-9.39828
▁plawv	-9.39828
▁xim	-9.40063
▁txhiaj	-9.40131
▁luv	-9.40156
▁thib	-9.40243
▁thao	-9.40347
▁xib	-9.40579
▁ntiajteb	-9.4059
culture	-9.40745
▁txhim	-9.40801
▁ntiav	-9.40805
▁quoted	-9.40863
▁hla	-9.41018
▁txhiab	-9.41178
▁god	-9.417
▁would	-9.41707
▁state	-9.41912
▁tob	-9.41974
▁ntxeev	-9.42328
▁pa	-9.42735
▁nrau	-9.42892
▁said	-9.42937
▁victor	-9.4327
▁some	-9.4338
▁fwm	-9.43393
▁paum	-9.43447
feature	-9.43681
▁ziag	-9.43764
no	-9.44229
▁chao	-9.44306
▁support	-9.44436
▁12	-9.44532
▁take	-9.44638
▁od	-9.44805
▁s	-9.45363
▁when	-9.45837
▁xaj	-9.45916
l	-9.45962
▁txhom	-9.46073
▁22	-9.46118
▁8	-9.46121
▁k	-9.46512
▁miskas	-9.46668
▁amen	-9.4681
▁nyag	-9.47201
▁nraim	-9.47282
▁nag	-9.47404
▁dlej	-9.47485
▁lawb	-9.47501
▁du	-9.47608
▁tejzaum	-9.47773
▁wrote	-9.47877
▁nkawm	-9.48403
▁khawb	-9.48453
▁long	-9.48501
▁mad	-9.48886
▁nees	-9.49228
▁txav	-9.49293
nej	-9.49356
▁nto	-9.49444
▁show	-9.49462
▁huam	-9.49538
▁phab	-9.49577
▁les	-9.49673
▁ntsuj	-9.49835
▁nres	-9.49896
yahoo	-9.50022
▁then	-9.50155
▁hmoo	-9.50527
▁posted	-9.50543
hais	-9.50982
▁caiv	-9.51035
▁qhev	-9.51156
▁hle	-9.51375
▁lino	-9.51496
▁pliag	-9.51509
▁president	-9.51571
yus	-9.51709
▁nyuab	-9.51783
▁khaub	-9.51803
▁vauv	-9.51976
▁freedom	-9.52047
▁qhuab	-9.52085
▁fawm	-9.52182
▁here	-9.52573
▁many	-9.52596
▁tod	-9.52633
▁man	-9.52648
----------------	-9.52672
▁kov	-9.52706
luag	-9.52973
▁ntees	-9.53076
▁mev	-9.53189
▁kaub	-9.53316
▁mt	-9.53445
▁dog	-9.53593
▁peg	-9.53605
▁cha	-9.53651
▁hlawv	-9.53733
▁law	-9.53785
▁phav	-9.53798
▁ntus	-9.53953
▁dlaim	-9.54119
▁may	-9.54171
▁phaum	-9.54367
▁ntsiag	-9.54375
▁9	-9.54507
▁own	-9.54568
▁caubfab	-9.55006
▁teem	-9.5519
▁cwjmem	-9.55432
▁say	-9.55805
▁yingb	-9.56102
▁koos	-9.56133
▁american	-9.56177
▁tibsi	-9.56541
▁o	-9.56999
▁rights	-9.57298
▁mom	-9.57328
▁nraum	-9.57329
▁n	-9.5742
▁nkagsiab	-9.57951
▁cwj	-9.57989
▁ntsim	-9.58263
▁zaaj	-9.58521
▁taab	-9.58617
▁ev	-9.58656
▁nplogliab	-9.59068
▁thai	-9.59199
▁back	-9.59313
related	-9.59513
.........	-9.5968
▁kaum	-9.59869
▁zem	-9.60085
▁mai	-9.60267
▁kevcai	-9.60295
▁nawj	-9.60339
▁an	-9.60398
▁ywj	-9.60429
▁dai	-9.60607
▁ntxwv	-9.6068
▁tibneeg	-9.609
▁havzoov	-9.61032
▁school	-9.615
▁txo	-9.61518
mus	-9.6158
▁world	-9.61951
▁maiv	-9.61995
▁khi	-9.62274
▁than	-9.62429
▁work	-9.62484
▁totaub	-9.62527
▁yaig	-9.62793
▁tiaj	-9.62927
▁year	-9.63185
▁xej	-9.63318
▁yaaj	-9.63338
▁pav	-9.63407
▁him	-9.63963
▁issue	-9.64079
▁awd	-9.64087
▁get	-9.64214
▁vue	-9.64224
▁liaj	-9.64257
▁information	-9.64324
▁h	-9.64343
▁maag	-9.64498
▁xiam	-9.64745
▁tshaib	-9.64758
▁thaibteb	-9.64784
▁nthuav	-9.64933
txiv	-9.65187
▁peevxwm	-9.653
▁qhabnab	-9.65479
▁now	-9.65694
▁cim	-9.65955
▁beer	-9.66104
▁tebchaw	-9.66111
lgate	-9.66134
▁hm	-9.6675
▁tsau	-9.66978
▁nyav	-9.67107
▁hlais	-9.67334
▁nkuaj	-9.67511
▁tshem	-9.67536
ly	-9.67583
▁point	-9.67635
▁should	-9.67779
▁mis	-9.67848
▁even	-9.67934
▁those	-9.67987
▁diam	-9.67994
▁communist	-9.67997
▁rawv	-9.68114
▁ruaj	-9.68295
▁xum	-9.68696
▁pauj	-9.68832
▁because	-9.68932
▁tsib	-9.69008
▁court	-9.69396
▁nus	-9.6955
▁tshuab	-9.69712
as	-9.69764
ha	-9.69808
▁yauv	-9.70088
▁uake	-9.70188
▁tshuam	-9.70291
▁yexus	-9.70348
▁ntiag	-9.70438
▁ceem	-9.70633
▁want	-9.70674
▁movie	-9.709
▁mamli	-9.71083
▁agree	-9.71122
▁keej	-9.71127
▁tsom	-9.71313
▁suabnoog	-9.71316
▁20	-9.71342
▁dlev	-9.71607
▁thau	-9.7182
▁week	-9.71837
▁party	-9.71991
▁100	-9.7202
▁moo	-9.72133
▁politic	-9.72254
▁kaam	-9.72666
▁tswm	-9.72839
▁thim	-9.72872
▁7	-9.73528
▁thauj	-9.7354
siab	-9.73548
▁leader	-9.74043
▁cobfab	-9.74551
▁txhij	-9.74552
▁uncle	-9.74646
▁cag	-9.74764
▁history	-9.74773
▁government	-9.7491
▁c	-9.74977
▁theem	-9.75183
th	-9.75337
thiab	-9.75436
▁let	-9.75474
lol	-9.75493
▁seem	-9.75676
▁ciali	-9.75711
▁please	-9.7594
▁hnab	-9.75958
▁hum	-9.76007
▁bawg	-9.76462
▁person	-9.76598
▁rawm	-9.76605
▁nyoo	-9.76863
▁zooli	-9.77109
▁qib	-9.77192
▁political	-9.77505
▁share	-9.77576
▁su	-9.78081
▁love	-9.78281
▁ntxoog	-9.78425
▁ok	-9.78461
▁sibtham	-9.78489
▁npis	-9.78524
▁nyhav	-9.78821
▁tusiab	-9.78869
▁gen	-9.78932
▁100%	-9.79026
▁5.	-9.79098
213	-9.79224
▁nkim	-9.79252
▁xauj	-9.79374
the	-9.79411
▁fa	-9.79423
▁vibnais	-9.79659
▁nplua	-9.79978
▁zoj	-9.80088
▁txua	-9.8014
▁caub	-9.80234
▁same	-9.80245
▁yesxus	-9.80513
▁business	-9.80612
▁pm	-9.81081
▁moj	-9.81573
▁high	-9.81981
▁1975	-9.82059
▁qus	-9.82114
▁never	-9.82148
▁hus	-9.82166
▁tagnrho	-9.82183
▁tsaj	-9.82193
▁she	-9.82611
▁ntsug	-9.8276
▁tswvntuj	-9.83148
▁message	-9.83169
▁nyas	-9.83461
▁day	-9.83502
▁qis	-9.83587
▁thaij	-9.83685
▁community	-9.84072
▁ntua	-9.84288
▁hwj	-9.84302
▁duas	-9.84365
▁ntsws	-9.84386
▁nplogteb	-9.84481
▁news	-9.84541
▁true	-9.84548
▁religion	-9.85187
p	-9.8521
▁lha	-9.85315
▁se	-9.85351
▁ncaim	-9.85619
▁dony	-9.85666
nyob	-9.8569
▁kuamemiab	-9.85736
▁puam	-9.8582
▁tauj	-9.86185
▁still	-9.864
▁men	-9.86563
w	-9.86854
▁personal	-9.8688
▁xyuam	-9.86999
yeej	-9.87092
au	-9.87198
▁yaav	-9.87334
▁$	-9.87389
▁raus	-9.87395
▁mr	-9.87417
▁vientiane	-9.87544
▁tshoj	-9.87545
▁ntiv	-9.87548
▁these	-9.87922
▁come	-9.87924
▁hiam	-9.88336
▁july	-9.8834
▁tse	-9.88416
▁xyoob	-9.88501
▁ntxhov	-9.88555
▁nyom	-9.88585
▁aib	-9.88615
▁npas	-9.88643
▁nes	-9.88925
▁police	-9.89049
▁kaav	-9.89121
▁cub	-9.89481
▁group	-9.89537
▁nuas	-9.89598
▁chaofa	-9.89668
▁ntxoov	-9.89861
▁mong	-9.89915
▁yoog	-9.90098
▁khw	-9.90115
▁ntsuas	-9.90208
▁well	-9.90259
temsis	-9.9029
▁d	-9.90374
▁tshev	-9.9059
▁years	-9.90619
▁ntog	-9.90706
▁ntsuam	-9.90752
▁de	-9.9096
▁qhab	-9.91078
f	-9.91193
▁theeb	-9.912
▁xaam	-9.91559
▁chij	-9.91653
▁wrong	-9.91847
▁over	-9.91952
▁pwm	-9.91975
▁ciam	-9.91997
kev	-9.92057
▁xyom	-9.92078
▁losyog	-9.92171
▁anti	-9.92329
▁power	-9.92426
▁yoojyim	-9.92556
▁internet	-9.92797
!!	-9.92937
▁txooj	-9.93045
▁paaj	-9.93086
▁csy	-9.9313
▁level	-9.93143
▁thing	-9.93258
▁bible	-9.93284
▁public	-9.93749
▁ntxuav	-9.9412
▁nothing	-9.94151
oo	-9.94207
▁computer	-9.94461
ab	-9.94509
▁hniav	-9.94623
▁phauj	-9.94728
▁play	-9.95064
▁were	-9.95105
lolz	-9.9522
▁tsiab	-9.95572
▁y	-9.96029
▁ncaaj	-9.96099
▁question	-9.96413
▁vammeej	-9.96451
▁hma	-9.96554
▁did	-9.96555
▁every	-9.96587
▁mi	-9.96671
▁care	-9.96951
▁qos	-9.97046
▁first	-9.97469
▁caav	-9.97471
▁kuab	-9.9755
▁had	-9.97686
▁ntxhi	-9.97711
▁mav	-9.97941
▁example	-9.9796
▁minnesota	-9.98308
▁weekend	-9.98314
▁khob	-9.98566
▁qua	-9.98614
▁video	-9.98621
▁soob	-9.98814
▁name	-9.99062
▁nriav	-9.9922
▁such	-9.99287
▁thiajli	-9.99592
▁koomhaum	-10.0013
▁reason	-10.0021
▁must	-10.0023
▁npog	-10.0027
▁xaa	-10.0069
▁yias	-10.0083
▁kk	-10.0104
▁kauv	-10.0105
▁free	-10.0115
niam	-10.0129
▁brother	-10.013
▁fuab	-10.0135
▁temsis	-10.0142
▁story	-10.0146
▁mo	-10.0148
r	-10.0204
▁report	-10.0208
▁believe	-10.0217
▁hide	-10.0233
▁chob	-10.0234
▁nruj	-10.0235
▁npab	-10.0263
▁again	-10.0264
▁phabej	-10.0274
▁phone	-10.0278
---	-10.0289
▁lt	-10.031
▁zuag	-10.0327
▁khwb	-10.0333
▁pobzeb	-10.0358
▁old	-10.0383
ob	-10.0385
▁respect	-10.0389
▁khuam	-10.0396
▁khaus	-10.0397
▁ntsiv	-10.04
▁nruas	-10.0409
▁tabtom	-10.0413
▁dov	-10.0419
txhob	-10.0421
▁ntaj	-10.0427
▁xoom	-10.0429
▁california	-10.0434
▁peace	-10.0434
▁l	-10.0434
▁best	-10.0435
▁nqes	-10.0437
▁oh	-10.0439
about	-10.0439
▁4-5	-10.0442
▁mivnyuas	-10.0447
▁caws	-10.0466
▁radio	-10.0489
▁hod	-10.0492
▁xavzoo	-10.0509
tseem	-10.0533
▁qheb	-10.0543
▁qauv	-10.0546
▁english	-10.0559
talk	-10.0565
▁yajtshajkoob	-10.0569
▁sad	-10.0585
▁been	-10.0589
▁npam	-10.0611
▁plam	-10.0611
▁king	-10.0619
▁txi	-10.0636
▁yuavtsum	-10.0648
▁degree	-10.0651
▁much	-10.0665
▁tsaws	-10.0667
▁christian	-10.0669
▁yes	-10.067
▁member	-10.0673
▁zom	-10.0693
▁khawm	-10.0697
▁ntim	-10.0707
▁laub	-10.072
▁kwvtijhmoob	-10.0766
▁ntsw	-10.0766
▁qws	-10.0777
and	-10.0778
▁kaws	-10.0794
▁dleb	-10.0816
▁zujzus	-10.0817
▁hua	-10.0825
▁opinion	-10.0835
▁after	-10.0847
▁aim	-10.0862
▁topic	-10.0869
▁via	-10.0871
▁lem	-10.0874
▁nhub	-10.0903
os	-10.091
txawm	-10.0917
▁txhajle	-10.0932
▁mes	-10.0932
▁3-4	-10.0936
▁lomzem	-10.0958
▁suavdlawg	-10.0958
▁raw	-10.097
lwm	-10.0998
▁hotel	-10.1002
▁vaam	-10.1015
▁nqaj	-10.1035
▁kim	-10.1042
▁help	-10.1043
▁ntsi	-10.1049
▁stupid	-10.1059
▁faus	-10.1073
▁/	-10.1075
▁tseemceeb	-10.1078
▁tshajplaws	-10.1088
▁amelikas	-10.1101
▁tsawb	-10.1103
▁meo	-10.1118
▁qav	-10.1119
▁most	-10.113
▁txawb	-10.1131
▁khuv	-10.1131
us	-10.1163
http	-10.1167
▁better	-10.1188
is	-10.1203
google	-10.1212
▁ntswg	-10.1212
▁hneev	-10.1216
▁where	-10.1218
▁problem	-10.1229
▁cwjpwm	-10.1231
▁chav	-10.1234
▁qaub	-10.1258
▁real	-10.1265
▁txomnyem	-10.129
▁ncua	-10.1295
▁tws	-10.1303
?"	-10.1306
▁saud	-10.1332
▁last	-10.1341
???	-10.1343
am	-10.1348
▁plawg	-10.1364
▁paug	-10.1409
▁mean	-10.1409
▁under	-10.1415
▁tsaa	-10.1436
▁qaij	-10.144
▁education	-10.1466
▁nra	-10.1467
▁kum	-10.1482
▁j	-10.1501
▁50	-10.1506
▁thailand	-10.1514
▁dhuav	-10.1527
▁nqaim	-10.1542
▁jesus	-10.1545
hahaha	-10.1548
▁tum	-10.1571
▁wi	-10.1572
▁ncej	-10.1572
tab	-10.1586
▁xis	-10.1586
▁mentsis	-10.1591
▁keep	-10.1602
▁hahahahaha	-10.1602
▁npav	-10.1603
▁tev	-10.1651
▁aav	-10.1651
▁ntuas	-10.1653
▁server	-10.1662
▁vuag	-10.1663
▁nro	-10.1664
neeg	-10.167
▁nkeeg	-10.1691
▁debate	-10.1692
▁ntshais	-10.1731
▁nrig	-10.1755
▁txau	-10.1767
▁sawm	-10.1773
▁thawjcoj	-10.1773
▁tsuv	-10.179
▁fwj	-10.1798
▁laws	-10.1818
▁zoosiab	-10.1824
▁tsaav	-10.1827
▁xwv	-10.1844
▁culture	-10.1857
▁pro	-10.1863
▁nyoos	-10.1884
▁ntsuav	-10.1895
▁bad	-10.1908
▁nceb	-10.1922
mas	-10.1931
▁nquag	-10.1959
▁hem	-10.1961
▁dablaug	-10.1962
▁live	-10.1975
▁hoob	-10.1976
▁kauj	-10.1978
▁loojceeb	-10.1988
▁khub	-10.2003
soc	-10.2013
▁into	-10.2037
twb	-10.2048
▁zaag	-10.2051
▁laaj	-10.2053
▁txoov	-10.2062
▁zaws	-10.2082
▁vog	-10.2083
▁national	-10.2085
▁paubtab	-10.2094
▁xuv	-10.2096
leej	-10.213
▁duav	-10.2138
▁war	-10.2138
▁could	-10.2145
▁npoj	-10.215
▁kheev	-10.2162
▁dlub	-10.2164
▁being	-10.2176
▁dabneeg	-10.2194
▁toog	-10.2201
▁tseev	-10.221
▁avang	-10.2212
▁yos	-10.2231
▁tamsis	-10.2236
▁social	-10.224
▁zwm	-10.2242
▁research	-10.2257
▁hahahaha	-10.2261
▁tsuaj	-10.2262
▁college	-10.2292
▁daig	-10.2298
▁txheem	-10.2307
▁two	-10.2308
▁ph	-10.2318
tau	-10.233
in	-10.2335
▁txojkev	-10.2355
▁ras	-10.2355
▁yas	-10.2367
▁others	-10.2376
▁before	-10.2389
▁university	-10.2405
▁caus	-10.2411
▁does	-10.2412
▁vees	-10.2421
▁down	-10.2421
▁vietnam	-10.2421
▁claim	-10.2422
▁taj	-10.2425
▁sure	-10.2433
▁australia	-10.2433
▁chiv	-10.244
▁ntsev	-10.2446
▁forum	-10.2461
▁xauv	-10.2476
▁ntxwg	-10.2504
▁money	-10.2523
▁txib	-10.2527
▁sua	-10.2534
▁cauj	-10.2551
▁nawd	-10.2557
▁log	-10.2566
▁txag	-10.2573
▁sa	-10.2589
▁khab	-10.2596
tabsi	-10.2603
▁ntsa	-10.263
▁muang	-10.2644
▁niv	-10.2665
▁tshe	-10.2684
▁company	-10.2686
▁kuamem	-10.2704
▁15	-10.2736
▁ki	-10.2766
▁dos	-10.277
▁hai	-10.277
▁peem	-10.2774
▁nraus	-10.2786
▁always	-10.2788
▁zeej	-10.2795
▁yoo	-10.2836
▁loob	-10.2855
▁vote	-10.286
▁uantej	-10.2862
▁uv	-10.2868
group	-10.2877
gt	-10.2882
▁next	-10.2892
▁give	-10.2911
▁thas	-10.2933
▁another	-10.2943
▁city	-10.2947
mail	-10.295
▁tsem	-10.2966
▁qias	-10.2966
▁ncuav	-10.2966
▁mind	-10.2971
▁rhiab	-10.2976
▁credit	-10.2981
▁qees	-10.299
cas	-10.3021
▁look	-10.3038
▁haub	-10.3044
▁which	-10.305
▁plan	-10.3053
html	-10.306
▁organization	-10.3069
▁....	-10.3087
tiam	-10.3091
▁faaj	-10.3118
▁40	-10.3136
muab	-10.3156
▁tsevneeg	-10.3168
q	-10.317
▁hmos	-10.3178
▁plag	-10.3188
▁loos	-10.3191
▁ualuaj	-10.3204
▁secret	-10.3213
cia	-10.3223
▁system	-10.3229
▁words	-10.325
kawg	-10.3256
▁chia	-10.3257
▁ntuag	-10.3268
▁qoob	-10.3276
▁ntws	-10.3334
▁thornsp	-10.3354
hos	-10.3356
▁nqig	-10.3358
▁xibfwb	-10.3367
▁zib	-10.3368
▁nkaug	-10.3386
▁friend	-10.3389
▁change	-10.3392
▁yaum	-10.3419
▁against	-10.3421
▁)	-10.3435
▁tiab	-10.344
▁nkaag	-10.3445
▁yag	-10.3469
▁use	-10.3478
▁zis	-10.3497
▁hope	-10.3504
▁ntxa	-10.3516
▁txov	-10.3543
av	-10.3573
▁qoos	-10.3604
▁txuam	-10.3632
▁nplej	-10.3641
▁retire	-10.3657
▁la	-10.366
▁without	-10.3661
▁pha	-10.3668
ntuj	-10.3697
▁xyum	-10.3697
▁position	-10.3702
noj	-10.3711
▁country	-10.3715
▁cig	-10.3716
..."	-10.3719
▁evidence	-10.3722
▁khau	-10.3748
▁hiv	-10.375
▁experience	-10.3756
▁txuag	-10.3777
puas	-10.3786
▁different	-10.379
▁txawg	-10.3791
▁kib	-10.3821
▁ej	-10.3826
▁dlha	-10.3836
▁hlab	-10.3847
▁khej	-10.3848
▁things	-10.3849
▁got	-10.385
id	-10.388
▁hk	-10.3888
▁part	-10.3903
▁yov	-10.3926
▁nta	-10.3945
▁hno	-10.3954
▁txaij	-10.396
or	-10.3993
tub	-10.4006
▁understand	-10.4017
▁each	-10.4019
▁international	-10.402
▁txig	-10.4046
▁aka	-10.4049
▁nplaig	-10.4057
▁nkoj	-10.4068
▁theej	-10.4069
▁dollars	-10.4081
▁members	-10.4088
xav	-10.4089
▁yawgloj	-10.4125
▁seev	-10.4127
▁lawyer	-10.4161
thov	-10.4164
▁txwj	-10.4165
▁khaum	-10.4165
▁xu	-10.4176
▁ntov	-10.419
▁tho	-10.4191
▁lias	-10.4192
▁feeb	-10.4197
▁democracy	-10.4197
cha	-10.4207
▁phd	-10.422
▁doctors	-10.4226
▁office	-10.4237
mai	-10.4242
▁nruag	-10.4253
▁nraag	-10.4253
smiles	-10.4272
▁phou	-10.4275
▁board	-10.4287
▁tha	-10.4289
▁homphiaj	-10.4294
▁matter	-10.4297
▁ssi	-10.4297
▁qas	-10.4305
▁thorn	-10.4318
▁director	-10.4318
▁r	-10.4327
▁xyeej	-10.4353
▁qes	-10.4359
▁mouatony	-10.4371
▁idonotknow	-10.4372
▁neo	-10.4373
▁nis	-10.4379
▁thank	-10.438
▁congress	-10.4391
▁kiab	-10.44
................	-10.4402
▁fbi	-10.4415
▁cib	-10.4422
▁dejnum	-10.4432
▁vision	-10.4439
▁side	-10.4447
▁21	-10.4452
it	-10.4459
▁fact	-10.4462
▁daum	-10.4475
▁tx	-10.4482
▁vimhlub	-10.4484
..........	-10.4501
▁colonel	-10.452
▁qeb	-10.4532
▁rwg	-10.4533
▁yawgnomdub	-10.4533
ov	-10.4539
▁re	-10.4542
▁toom	-10.4542
▁:	-10.4548
▁talk	-10.4567
▁mauj	-10.4574
▁vij	-10.459
▁jim	-10.4591
▁also	-10.4593
▁txhum	-10.4595
▁dib	-10.4598
▁link	-10.4601
▁6.	-10.4604
18	-10.4609
▁wisconsin	-10.4614
▁yuag	-10.4616
▁taubhau	-10.4618
▁ntshaws	-10.4618
re	-10.4621
etc	-10.4626
▁list	-10.4632
▁united	-10.4639
▁leaders	-10.4639
▁leg	-10.4644
▁1-2	-10.465
▁future	-10.4657
▁laij	-10.4676
▁ntxiab	-10.4692
▁ntab	-10.4694
bemhong	-10.4694
▁kujxaj	-10.4697
▁xyaw	-10.4701
hnub	-10.4732
▁asia	-10.4732
▁really	-10.4737
▁txiab	-10.4749
▁pluj	-10.4758
▁nkees	-10.4759
▁nchuav	-10.4778
▁tseemfwv	-10.4779
▁hmab	-10.479
tuaj	-10.4802
▁qualify	-10.4819
▁hahahahahaha	-10.4828
▁rhawv	-10.4832
teb	-10.4839
▁kaab	-10.4842
▁lw	-10.4847
▁sais	-10.4862
▁qiv	-10.4867
▁especially	-10.487
▁million	-10.4871
▁try	-10.4883
▁yeebncuab	-10.4883
▁women	-10.4888
▁hehehe	-10.4899
▁learn	-10.4903
st	-10.4908
▁miao	-10.4915
▁npaug	-10.4932
▁kod	-10.4936
gmail	-10.4939
▁using	-10.4956
▁tshwj	-10.4967
▁dlaabtsi	-10.4981
▁yd	-10.4982
================	-10.4994
dab	-10.502
▁11	-10.5045
▁tell	-10.5051
▁check	-10.5052
▁hnyav	-10.5052
▁oz	-10.5054
▁wife	-10.5055
▁made	-10.5062
meem	-10.5067
▁tsog	-10.5068
▁tshee	-10.5069
▁poog	-10.5076
▁word	-10.5084
▁yourself	-10.5094
▁7.	-10.5097
16	-10.5116
vaj	-10.5135
▁nrawm	-10.5138
▁happy	-10.514
▁going	-10.5142
▁qauj	-10.5154
▁yws	-10.518
▁kuaj	-10.518
▁big	-10.5193
▁txhab	-10.5208
▁baum	-10.5236
▁ais	-10.524
me	-10.5243
▁nkhaus	-10.5246
▁funeral	-10.5276
tos	-10.528
▁ciav	-10.5302
▁khaav	-10.5309
oj	-10.5314
▁china	-10.5319
▁sense	-10.5322
▁tsoomfwv	-10.5333
lis	-10.5354
▁mejkoob	-10.5358
▁minister	-10.5364
*	-10.538
▁feel	-10.5384
▁yh	-10.5385
▁rebecca	-10.5422
▁kem	-10.5437
▁vag	-10.5438
▁pdy	-10.5443
▁da	-10.5451
tsam	-10.5453
▁khoo	-10.5461
▁khws	-10.5469
▁ntawg	-10.5469
▁hehehehehe	-10.5471
▁maina	-10.5476
▁sex	-10.5492
▁pus	-10.5506
▁txhis	-10.5513
▁lor	-10.5523
▁call	-10.5529
▁npuab	-10.5546
▁dawm	-10.5552
!!!!	-10.5561
▁order	-10.5564
▁tsuam	-10.5588
▁place	-10.5607
▁hehehehe	-10.5613
▁few	-10.5645
▁nqeg	-10.5646
▁self	-10.5652
▁tubrog	-10.5672
▁ntsig	-10.5674
▁xus	-10.5678
▁npuas	-10.5692
▁ntais	-10.5739
▁tsujsua	-10.5757
able	-10.578
▁saj	-10.5789
▁ta	-10.5789
▁nroj	-10.5791
▁kwj	-10.5799
▁home	-10.5801
▁sunrise	-10.5808
▁nomtswv	-10.581
hotmail	-10.581
▁paib	-10.5812
▁vas	-10.5823
▁keebkwm	-10.5828
▁txujci	-10.5833
▁taam	-10.5868
▁60	-10.5871
▁nchai	-10.5873
▁thwj	-10.5897
▁non	-10.5901
yaj	-10.5902
▁ntsai	-10.5912
▁qhas	-10.5913
▁ty	-10.5913
pom	-10.5919
▁nyaum	-10.592
▁ntxhiab	-10.5923
▁read	-10.593
▁soua	-10.5934
▁haav	-10.5938
▁au	-10.5939
▁qeeb	-10.5944
tom	-10.5946
▁ntsab	-10.5953
▁title	-10.5955
lus	-10.5955
▁nroos	-10.5956
▁sablaj	-10.5971
▁laig	-10.5973
",	-10.5984
▁both	-10.6014
▁fiv	-10.6029
▁shoua	-10.6041
▁pev	-10.6041
▁nteg	-10.6041
▁including	-10.6045
▁dream	-10.6047
▁millions	-10.6078
▁g	-10.6093
nplog	-10.6096
pab	-10.6121
▁txhoj	-10.6135
▁mc	-10.6151
er	-10.6169
▁tuas	-10.6183
▁proof	-10.6191
▁kong	-10.6212
▁ntsha	-10.6219
▁mem	-10.6229
▁poom	-10.6231
paub	-10.6238
smile	-10.6239
he	-10.6248
▁lol	-10.6253
▁ses	-10.6255
sib	-10.6257
▁kind	-10.6286
sab	-10.629
▁nyeg	-10.6301
▁phas	-10.6307
▁awb	-10.6314
▁yong	-10.6326
▁pay	-10.6335
▁defend	-10.6338
▁keb	-10.6344
▁uacas	-10.6344
▁done	-10.6363
▁its	-10.6365
▁ask	-10.6378
▁hwjchim	-10.6397
▁twjywm	-10.6397
pm	-10.6403
▁q	-10.6413
▁seej	-10.6416
jpg	-10.6422
▁hard	-10.6434
▁npo	-10.6442
to	-10.6445
▁tseeg	-10.6448
▁truth	-10.6452
▁txos	-10.6462
▁neejtsa	-10.6463
▁tubntsuag	-10.6466
▁major	-10.6477
▁kavliam	-10.6497
▁hluav	-10.6518
▁phiajzeb	-10.6526
▁lob	-10.6535
▁yua	-10.6544
▁kajsiab	-10.6548
▁hoom	-10.6556
▁niamtxiv	-10.6574
▁13	-10.6617
▁phov	-10.6623
▁issues	-10.6632
▁team	-10.6633
▁website	-10.6635
▁mua	-10.6637
▁around	-10.6645
▁npaaj	-10.6645
▁prove	-10.6653
▁find	-10.6668
▁between	-10.667
▁ban	-10.6671
suav	-10.6718
▁paim	-10.6723
▁neohome	-10.6727
▁weeks	-10.6743
ub	-10.6758
▁npuav	-10.6765
▁nplaum	-10.6771
▁kajntug	-10.6771
▁ntxuag	-10.6772
▁fwjchim	-10.6772
▁yuamkev	-10.6779
▁nraud	-10.678
dr	-10.6782
▁tsu	-10.6786
▁end	-10.6793
▁2005	-10.68
▁kiv	-10.6808
▁chance	-10.6809
▁tov	-10.6819
kiag	-10.6828
cannot	-10.6837
▁put	-10.6843
▁unko	-10.6846
▁nplajteb	-10.6847
▁dlaav	-10.6847
you	-10.6856
wb	-10.6887
▁uasi	-10.6895
▁stop	-10.6911
▁pathet	-10.6924
▁everyone	-10.6926
▁hniaj	-10.6928
▁ai	-10.6929
▁dc	-10.6934
en	-10.6951
▁ntub	-10.6952
phiaj	-10.6953
▁ntxais	-10.6953
▁politics	-10.6958
▁dluab	-10.6963
▁ywjpheej	-10.6976
▁opportunity	-10.6976
▁dhlau	-10.6978
▁lyteck	-10.7003
▁tsig	-10.702
▁fim	-10.7029
ruam	-10.7041
▁yuas	-10.7043
▁control	-10.7048
▁luang	-10.705
▁plhu	-10.7071
▁someone	-10.708
▁kiav	-10.7081
▁something	-10.7081
▁nqeeb	-10.7083
▁tv	-10.7089
▁however	-10.7109
▁meeting	-10.7119
▁yah	-10.7123
213,	-10.7135
▁zuaj	-10.7159
▁tsawm	-10.7164
▁idea	-10.7167
▁kob	-10.7168
▁meejmom	-10.7185
▁anyone	-10.7186
▁mojthem	-10.7187
▁san	-10.7188
▁w	-10.7199
▁km	-10.72
hehehe	-10.7203
▁leem	-10.7207
▁yab	-10.7213
▁hours	-10.7216
▁npaud	-10.7233
mong	-10.7236
▁tsaab	-10.7236
▁ntxhw	-10.7237
▁35	-10.724
z	-10.7241
▁peter	-10.7241
▁top	-10.7248
▁ntoos	-10.7249
▁project	-10.7252
▁moov	-10.7255
▁language	-10.7264
txog	-10.7268
▁txoos	-10.7294
▁txhav	-10.7298
▁bank	-10.7298
▁uatsaug	-10.7306
▁dais	-10.7312
▁thaaj	-10.7319
▁form	-10.7321
▁yeeg	-10.7321
net	-10.7342
▁great	-10.7354
paul	-10.7357
▁zeemmuag	-10.7372
▁bush	-10.7374
▁fwb	-10.7375
lam	-10.7386
▁term	-10.7387
▁club	-10.7389
▁nthe	-10.7398
▁yuj	-10.7398
▁else	-10.7398
▁;	-10.7418
raws	-10.7431
▁science	-10.744
▁nte	-10.7441
▁anything	-10.7452
▁lycee	-10.7453
▁obama	-10.7453
▁nplawm	-10.7453
▁npaws	-10.7454
▁laim	-10.7455
▁sivyis	-10.7456
▁ny	-10.748
▁200	-10.7486
▁past	-10.7491
▁txa	-10.7506
▁meaning	-10.7526
▁2006	-10.7538
▁txhuv	-10.7542
le	-10.7548
▁lfc	-10.7563
▁ntxag	-10.7569
▁kao	-10.7574
▁ntuav	-10.7579
▁mobsiab	-10.7579
yam	-10.7585
▁zeeg	-10.76
▁ntaug	-10.7604
▁doing	-10.7604
▁https	-10.7608
ntxhais	-10.7615
▁ciab	-10.7616
▁situation	-10.7631
▁special	-10.7638
▁nqos	-10.7638
▁speech	-10.767
on	-10.771
▁volunteer	-10.7714
▁phua	-10.772
▁kaaj	-10.7728
▁unhcr	-10.7728
▁pkh	-10.7729
▁sorry	-10.7734
▁tiamsi	-10.774
▁tshaav	-10.7751
▁line	-10.7755
▁teng	-10.7757
▁master	-10.7765
▁land	-10.7768
▁little	-10.7786
▁cuaj	-10.7796
▁mim	-10.7796
▁judge	-10.7797
▁ruas	-10.7801
▁24	-10.7816
▁mais	-10.7816
▁ghov	-10.784
▁nqus	-10.7841
▁answer	-10.7853
▁off	-10.786
▁vib	-10.7861
lug	-10.7865
▁pleev	-10.7868
▁*	-10.7871
▁tshuas	-10.7872
▁po	-10.7872
▁liag	-10.7873
▁young	-10.7877
▁bangkok	-10.7896
▁ntaiv	-10.7897
▁moobleeg	-10.7903
▁thaud	-10.7904
faq	-10.7922
▁25	-10.7934
xyoo	-10.794
▁plog	-10.7943
▁sacramento	-10.7955
▁fuabtais	-10.796
▁om	-10.7962
▁turn	-10.7984
▁plis	-10.7984
▁youtube	-10.8001
▁fair	-10.8004
news	-10.8005
▁nroo	-10.801
▁tai	-10.8013
▁ntxhias	-10.8014
ntshe	-10.8028
▁john	-10.8032
▁legal	-10.805
▁samthong	-10.8069
▁least	-10.8069
▁enjoy	-10.8072
▁nias	-10.8072
▁naw	-10.8074
▁follow	-10.8079
▁copy	-10.8081
▁khees	-10.8102
img	-10.8105
but	-10.8105
▁kawv	-10.813
ll	-10.8131
▁xaim	-10.8134
▁txam	-10.8135
▁xaab	-10.8141
"...	-10.8143
▁ped	-10.8148
▁age	-10.8161
▁white	-10.8165
saib	-10.8171
▁professional	-10.8172
▁far	-10.8175
tsuas	-10.818
▁sy	-10.8183
▁department	-10.8196
▁join	-10.8209
▁lajlim	-10.8214
▁diav	-10.8218
▁fight	-10.8226
▁second	-10.8228
▁zaam	-10.8273
▁moghlub	-10.8275
▁yuad	-10.8276
▁tsavneeg	-10.8276
▁madison	-10.828
▁v	-10.8286
▁tabsim	-10.8303
▁phuv	-10.8308
▁vinai	-10.831
htm	-10.833
▁heart	-10.8337
▁haas	-10.8342
be	-10.8343
poj	-10.8375
▁ii	-10.8378
thiaj	-10.8383
▁f	-10.8389
▁wow	-10.8397
▁amelicas	-10.8406
▁zes	-10.8411
▁qa	-10.8413
▁vaammeej	-10.842
▁pestsawg	-10.8421
▁piam	-10.8422
▁tejzag	-10.8437
▁luck	-10.8451
▁ntsaws	-10.846
▁ncaug	-10.8487
▁until	-10.8488
▁kes	-10.8499
laus	-10.851
▁already	-10.851
▁nploglab	-10.8515
▁rawsli	-10.8521
▁lais	-10.8534
▁pajtsab	-10.8542
▁nthi	-10.8551
▁tomqab	-10.8553
▁action	-10.856
▁taig	-10.8568
▁nc	-10.8571
▁yet	-10.8572
▁per	-10.858
▁vdo	-10.8602
rau	-10.8602
▁ntsujplig	-10.8603
▁zim	-10.8604
▁kham	-10.8604
▁npuaj	-10.8608
▁nyooj	-10.8615
29	-10.8632
▁xovtooj	-10.8632
▁society	-10.8634
▁hnia	-10.8636
▁npuag	-10.8638
▁night	-10.8651
▁laag	-10.8661
▁nyo	-10.8661
▁vob	-10.8663
▁qi	-10.8664
▁maub	-10.8668
▁khuj	-10.8688
▁leadership	-10.8696
▁mee	-10.8708
▁number	-10.8712
yawm	-10.8727
▁pag	-10.8743
▁body	-10.8758
▁program	-10.8759
▁pebcaug	-10.8761
▁tsag	-10.8765
▁huaj	-10.8772
▁hluag	-10.8774
▁pluaj	-10.8788
▁ntshaav	-10.8789
▁above	-10.8817
▁rhaub	-10.8818
▁ntso	-10.8818
▁rpa	-10.8819
▁hwb	-10.8819
▁bomb	-10.882
▁haam	-10.8826
▁qhovtwg	-10.8832
▁face	-10.8834
▁council	-10.8835
▁committee	-10.8835
▁thought	-10.8838
▁nqhis	-10.8849
kuj	-10.8861
▁8.	-10.8865
▁hajya	-10.8866
▁job	-10.8868
▁colorado	-10.8879
▁tshwmsim	-10.888
▁te	-10.888
▁fawb	-10.8881
tag	-10.8884
▁kuag	-10.8891
▁sao	-10.8895
▁uali	-10.8902
▁kaug	-10.8913
▁lua	-10.8915
▁quasyawg	-10.8924
▁nrim	-10.8943
▁military	-10.8946
▁sign	-10.8951
▁zij	-10.8968
▁1000	-10.8971
▁rig	-10.8971
▁qog	-10.8975
▁ntxhai	-10.8981
▁qhau	-10.9003
▁nuvntses	-10.9006
▁ntwg	-10.9008
kav	-10.9023
▁perfect	-10.9037
▁tsoos	-10.9038
tam	-10.9058
ntshai	-10.9065
▁times	-10.9066
▁tax	-10.9072
tso	-10.9078
▁hlaus	-10.9085
▁saw	-10.9102
▁security	-10.9102
ioc	-10.9106
▁txus	-10.9109
tug	-10.911
▁sibhlub	-10.9123
▁ntsub	-10.9134
▁povthawj	-10.9139
▁16	-10.9144
ag	-10.9147
▁stroke	-10.9151
▁open	-10.9167
▁5-6	-10.9167
tiag	-10.9171
▁lolus	-10.9174
▁away	-10.918
▁pham	-10.9182
▁choice	-10.9184
▁povtseg	-10.92
ia	-10.921
▁14	-10.9213
▁txhuas	-10.9223
▁npliaj	-10.9233
▁khaib	-10.9236
▁mission	-10.925
▁bias	-10.9263
▁tsees	-10.9268
▁lot	-10.9279
▁used	-10.9279
▁dulug	-10.9295
▁ntxiag	-10.9299
▁vt	-10.9308
xeem	-10.9314
▁sunday	-10.9329
coj	-10.9329
kwv	-10.933
▁lwv	-10.9338
▁happen	-10.9341
??	-10.9349
▁yaw	-10.936
▁accept	-10.9361
▁tibyam	-10.9369
...........	-10.9373
▁subject	-10.9379
▁ruag	-10.9391
▁private	-10.9396
▁yaub	-10.9398
▁nkaj	-10.9402
▁enough	-10.9422
▁nplaj	-10.9426
▁chua	-10.9432
▁ever	-10.9432
▁commander	-10.9445
▁nkau	-10.9446
▁khoos	-10.9461
▁xyab	-10.9464
▁came	-10.9466
▁goal	-10.9472
pov	-10.9473
▁khao	-10.9478
▁benefit	-10.9479
▁practice	-10.948
▁yawglaus	-10.9482
▁yaws	-10.9486
▁chong	-10.9493
▁ready	-10.9495
zaum	-10.95
▁former	-10.9501
▁dluag	-10.9504
▁difference	-10.9512
▁ntr	-10.9523
xwb	-10.9524
▁chwv	-10.9526
▁ntsoog	-10.9529
▁rag	-10.9538
▁500	-10.9542
▁lake	-10.9549
▁ntxi	-10.9554
▁maim	-10.9555
▁xiv	-10.9558
▁oib	-10.9559
▁txaaj	-10.9559
▁52	-10.9564
▁zig	-10.9564
lq	-10.9573
▁phu	-10.958
▁cause	-10.9584
twg	-10.9596
▁unless	-10.9597
▁dabtsis	-10.9613
▁friends	-10.9618
▁through	-10.9622
▁earth	-10.9627
▁vov	-10.9628
▁summer	-10.9628
▁qhias	-10.9629
▁txujkev	-10.9638
▁ed	-10.9648
▁address	-10.9658
▁ntxaws	-10.9661
▁hand	-10.9675
▁movies	-10.9676
▁together	-10.9694
▁fgvp	-10.9694
▁nkaujstpaul	-10.9695
▁zawm	-10.9695
▁chue	-10.9695
mej	-10.9699
▁pluas	-10.9701
▁2012	-10.9704
siv	-10.9713
▁ncau	-10.9713
▁bill	-10.9715
her	-10.9717
▁qhovmuag	-10.9724
52	-10.9725
suc	-10.9728
▁george	-10.9729
▁tshauv	-10.9735
▁woman	-10.9735
niag	-10.9741
▁park	-10.9742
zhen	-10.9749
▁khabnab	-10.9762
▁lesson	-10.9784
▁refugee	-10.9784
▁catholic	-10.9785
▁nhov	-10.9797
▁phev	-10.9798
▁kaim	-10.9802
▁daus	-10.9803
▁nrad	-10.9839
▁phlu	-10.9858
▁hihrw	-10.9866
▁nyaab	-10.9868
ntau	-10.9872
▁viv	-10.9876
▁father	-10.9889
sis	-10.9892
▁hin	-10.9905
▁tshais	-10.9914
kawm	-10.992
▁late	-10.9933
▁thawb	-10.9937
▁toob	-10.9938
▁run	-10.9941
▁black	-10.995
▁center	-10.9957
▁lyfoung	-10.997
▁thawm	-10.9971
▁cuj	-10.9972
▁tsham	-10.9974
vp	-10.9974
▁nyeej	-10.9974
▁yia	-10.9982
▁naav	-10.9983
▁pk	-10.9993
▁askiv	-11.0005
▁saturday	-11.0006
▁camp	-11.0007
▁neng	-11.001
dag	-11.0015
▁tomntej	-11.004
▁thwm	-11.0041
▁huav	-11.0046
▁75	-11.0056
▁solution	-11.0063
tes	-11.0071
▁noi	-11.0077
▁ago	-11.0079
▁today	-11.0083
▁chinese	-11.0084
▁generation	-11.0097
▁vau	-11.0099
▁listhoj	-11.0104
▁ka	-11.0108
▁thamkrabok	-11.0111
▁dkj	-11.0111
▁cheng	-11.0112
▁raj	-11.0113
▁asmeskas	-11.0113
▁maybe	-11.0116
▁dam	-11.0125
▁phub	-11.014
▁plees	-11.0148
▁xuaj	-11.0151
▁quab	-11.0164
▁cases	-11.0166
▁kaas	-11.0176
nkawv	-11.0177
▁2000	-11.018
▁xeebceem	-11.0181
▁instead	-11.0182
▁north	-11.0187
▁taij	-11.0188
▁lej	-11.019
groups	-11.0192
▁individual	-11.0203
▁once	-11.0221
▁whole	-11.0225
▁days	-11.0227
so	-11.0239
▁east	-11.026
▁mu	-11.0264
▁attack	-11.0274
▁official	-11.0277
xyov	-11.0277
▁plaab	-11.0289
▁dejdawb	-11.0294
▁feet	-11.0295
▁later	-11.0325
▁tshajlij	-11.0327
▁health	-11.0332
▁capt	-11.0333
▁lwg	-11.0336
▁yoov	-11.0339
if	-11.034
tseemyeej	-11.0355
▁peeb	-11.0357
og	-11.0359
▁means	-11.0361
▁lhub	-11.0362
▁ceevfaj	-11.0362
▁2)	-11.0364
▁bring	-11.0364
txawj	-11.0365
▁funny	-11.0365
▁txis	-11.0366
▁txhos	-11.0367
▁hi	-11.0372
▁tshai	-11.0379
▁cuas	-11.0387
tim	-11.0388
▁milwaukee	-11.0398
▁interesting	-11.0399
▁hmoobvajusa	-11.04
▁npausuav	-11.04
▁sauv	-11.042
tabsis	-11.0453
um	-11.0454
▁canada	-11.0473
▁yuaj	-11.0478
▁interest	-11.0493
dej	-11.0498
▁vajmoob	-11.0504
▁medical	-11.0509
▁dlaaj	-11.0511
▁ntxwj	-11.0512
▁comment	-11.0531
20	-11.0531
▁son	-11.0532
▁yawd	-11.0548
ho	-11.0549
▁tiao	-11.0553
▁retired	-11.0554
▁posts	-11.0562
▁pastor	-11.0566
▁khaw	-11.0575
▁dlau	-11.0577
▁since	-11.0583
▁tiamsid	-11.0585
▁minutes	-11.0587
▁rovqab	-11.0594
▁1)	-11.0601
▁death	-11.0608
▁txw	-11.0614
one	-11.0617
▁nice	-11.0619
▁cos	-11.0628
▁israel	-11.0654
▁txawjvamyias	-11.0655
▁policy	-11.0658
▁fund	-11.066
▁yoj	-11.0661
▁yaiv	-11.0662
▁vs	-11.0682
▁khoob	-11.0684
▁france	-11.0694
▁remember	-11.0695
▁yesus	-11.0695
▁melikas	-11.0696
▁txaum	-11.0706
nyiaj	-11.0711
▁xaws	-11.0731
▁utc	-11.0731
▁ntshiab	-11.0732
▁heard	-11.0734
▁nod	-11.0736
▁hiav	-11.0736
▁saying	-11.0736
▁thaab	-11.0737
tham	-11.0751
▁ku	-11.0753
▁tsimnyog	-11.077
▁friday	-11.077
▁dlig	-11.077
▁sev	-11.08
uas	-11.0804
▁bro	-11.0805
▁create	-11.0808
▁neev	-11.0817
▁vacation	-11.083
▁rock	-11.083
▁blogliab	-11.0848
▁pis	-11.0864
om	-11.0868
▁traitor	-11.0875
dony	-11.0875
▁everything	-11.0885
▁paag	-11.0887
▁lecaag	-11.0888
▁2010	-11.0906
▁66	-11.0911
▁ntxaug	-11.0922
▁kwvluag	-11.0933
▁2007	-11.0939
▁date	-11.0945
▁citizen	-11.0947
ig	-11.095
▁wausau	-11.096
▁quj	-11.0961
▁clan	-11.097
▁kavtsi	-11.0981
▁set	-11.0995
▁nqaa	-11.1023
▁rule	-11.1024
▁lawj	-11.1026
▁xuab	-11.1029
▁xwj	-11.1042
▁nplaim	-11.1044
▁2004	-11.1046
▁phoos	-11.1048
▁xua	-11.1049
▁wat	-11.1049
▁ibtxwm	-11.1056
▁khuaj	-11.1056
tuag	-11.1061
▁pheeb	-11.1077
▁pojntxoog	-11.1078
▁tagkis	-11.1082
▁fai	-11.1097
▁continue	-11.1099
▁gm	-11.1102
▁!	-11.1111
▁dlaws	-11.1116
▁reality	-11.1116
▁called	-11.1119
▁maab	-11.1119
▁thiv	-11.1121
▁veteran	-11.1136
▁game	-11.114
▁south	-11.1153
▁apply	-11.1154
▁nceeg	-11.1156
▁ntsejmuag	-11.1157
▁!!!	-11.1163
▁xau	-11.1164
▁dead	-11.1179
▁knowledge	-11.118
▁century	-11.1194
▁living	-11.1195
▁either	-11.1197
ve	-11.121
▁nqua	-11.122
▁limit	-11.122
▁80	-11.1228
▁20-30	-11.123
▁prabang	-11.1234
▁while	-11.1234
▁noobneej	-11.1234
▁rais	-11.1237
▁wish	-11.1247
profit	-11.1249
▁ntsaw	-11.1255
▁phij	-11.1261
▁states	-11.1269
▁chawj	-11.127
▁vajlugkub	-11.1273
▁possible	-11.1273
▁lulug	-11.1274
▁teej	-11.1275
▁yaa	-11.1279
▁move	-11.1285
▁ntswj	-11.1285
▁challenge	-11.1292
▁record	-11.1297
▁lead	-11.1299
▁yo	-11.13
▁view	-11.1301
▁cale	-11.1305
not	-11.1307
eb	-11.1309
▁positive	-11.1315
▁tshis	-11.1317
▁koo	-11.1327
▁npaumli	-11.133
▁santa	-11.135
▁xev	-11.1357
▁xiab	-11.1357
▁puavleej	-11.1362
▁meme	-11.1362
▁saibseb	-11.1366
aj	-11.1367
▁agenda	-11.1379
▁txhu	-11.1392
▁raab	-11.1393
▁lpd	-11.1393
▁dongdok	-11.1394
▁deja	-11.1394
▁charge	-11.1417
▁di	-11.1419
lo	-11.1426
▁voos	-11.1434
▁nraab	-11.144
loj	-11.1454
thread	-11.1466
▁green	-11.1473
txhua	-11.1481
▁bis	-11.149
51	-11.1494
▁jail	-11.1516
▁ntxeem	-11.1516
pheej	-11.1523
▁kaag	-11.1528
▁naab	-11.1529
▁suv	-11.1529
▁step	-11.1529
▁heaven	-11.1543
▁head	-11.1545
▁xya	-11.1547
tswv	-11.1555
ng	-11.1583
kub	-11.1589
▁watch	-11.159
▁normal	-11.1596
▁amekas	-11.1596
▁nqai	-11.16
al	-11.1607
▁1980	-11.1607
▁chai	-11.1609
▁agent	-11.1626
▁thaumtwg	-11.1636
▁suavdaws	-11.1639
▁mung	-11.1641
nom	-11.1641
we	-11.1641
▁fun	-11.1648
▁vab	-11.1648
▁groups	-11.1657
▁walk	-11.1665
▁stay	-11.1665
▁kill	-11.1667
▁stand	-11.1668
▁might	-11.1676
▁yt	-11.1677
---------------	-11.1678
▁taav	-11.168
▁snow	-11.168
▁army	-11.1681
▁pluav	-11.1682
▁khuav	-11.1688
thawj	-11.1696
aub	-11.171
tias	-11.1716
▁9.	-11.1718
▁short	-11.1722
▁mental	-11.1726
▁ana	-11.1747
▁nation	-11.1752
▁act	-11.1754
▁ntaw	-11.1756
▁naiphoo	-11.1757
pao	-11.1759
▁negative	-11.1762
▁touby	-11.1763
▁wayne	-11.1763
▁talking	-11.1764
▁mejthaub	-11.1766
▁ntuv	-11.1776
▁xamphaj	-11.1804
▁xeng	-11.1805
sim	-11.1815
▁daw	-11.1818
▁nkig	-11.1847
▁plus	-11.1852
▁xais	-11.1866
▁pig	-11.1879
▁xo	-11.188
neb	-11.1891
▁theory	-11.1892
▁pubthawj	-11.1894
▁google	-11.1898
$	-11.1899
▁guys	-11.1899
▁nrag	-11.19
▁qia	-11.191
▁become	-11.1917
hlub	-11.1918
▁.....	-11.1919
▁plau	-11.1933
▁yogli	-11.194
▁caab	-11.1945
▁2008	-11.1962
▁tubcajceszoo	-11.1973
▁roog	-11.1973
▁txhuam	-11.1979
▁flip	-11.1985
▁nh	-11.1991
▁statement	-11.2002
at	-11.2002
▁conference	-11.2002
▁medal	-11.2003
hahahaha	-11.2007
▁lolz	-11.2013
▁moslwj	-11.2017
▁tshooj	-11.202
▁nkaub	-11.2023
..?	-11.2024
▁chi	-11.2032
▁zoox	-11.2053
txoj	-11.2054
▁behind	-11.2058
▁child	-11.2058
▁nyaav	-11.2058
▁county	-11.206
▁thuj	-11.2061
▁dlag	-11.2062
▁yu	-11.2069
▁tem	-11.2071
▁txum	-11.2081
cab	-11.2085
▁within	-11.2085
▁event	-11.2092
▁xyua	-11.2097
▁children	-11.2102
▁jungle	-11.2102
▁meliskas	-11.2102
▁dheev	-11.2103
▁yej	-11.2109
▁anyway	-11.213
▁promote	-11.2135
▁ak	-11.2143
▁tseb	-11.2154
nub	-11.2158
▁th	-11.2169
▁regard	-11.2174
▁das	-11.2176
▁fav	-11.2177
▁hias	-11.2191
▁thinking	-11.2196
▁ntseeb	-11.2198
▁ip	-11.2206
▁force	-11.2208
▁carp	-11.2213
ai	-11.2219
▁house	-11.2222
▁noogqejqawg	-11.2232
▁insurance	-11.2232
▁naag	-11.2234
▁tsoobniam	-11.2234
▁ntis	-11.2236
▁dabqhuas	-11.224
▁nyuav	-11.2241
▁vajpov	-11.2243
cj	-11.2255
▁tz	-11.2255
▁vaajmung	-11.2275
▁kaujruam	-11.2276
▁blong	-11.2277
▁nplig	-11.2277
muas	-11.2279
▁questions	-11.2279
▁original	-11.2283
▁book	-11.2294
ntawv	-11.2297
▁khua	-11.2307
im	-11.2308
▁ncho	-11.231
▁nong	-11.2315
▁tsuab	-11.2318
▁nyaablaaj	-11.2319
▁jeeg	-11.2321
▁dlov	-11.2322
dawb	-11.2337
▁michigan	-11.2364
▁nyug	-11.2369
▁xuam	-11.2373
during	-11.2385
▁die	-11.2392
▁marriage	-11.2397
▁ntshis	-11.2414
▁hawv	-11.2418
▁ncaus	-11.2426
▁puaj	-11.2436
▁nib	-11.2437
▁simple	-11.2447
▁17	-11.245
▁page	-11.2451
▁npojyaig	-11.2453
▁welfare	-11.2454
ntse	-11.2458
▁hahahahahahaha	-11.2458
▁clear	-11.2458
▁bus	-11.2465
▁ciasiab	-11.2475
▁rest	-11.2493
▁voj	-11.2494
php	-11.2496
▁deal	-11.25
▁middle	-11.2502
▁yod	-11.2506
▁nig	-11.2513
▁chang	-11.2532
mam	-11.2533
▁hmoobdawb	-11.2546
xeeb	-11.2551
▁thi	-11.2561
▁hub	-11.2575
▁??	-11.258
▁3)	-11.2588
▁tshob	-11.2593
▁cultural	-11.2594
lqy	-11.2595
▁yuv	-11.2601
mn	-11.261
▁chief	-11.2622
▁feeling	-11.2624
▁laajxeeb	-11.2636
law	-11.2639
an	-11.264
▁dawj	-11.2641
▁xwbfwb	-11.2645
▁va	-11.2646
▁offer	-11.2648
▁result	-11.2665
▁soon	-11.2665
▁qhaub	-11.2674
▁rhu	-11.2676
▁txheev	-11.2677
▁guarantee	-11.2677
▁dlim	-11.2679
▁hh	-11.2685
▁qhaj	-11.2706
▁guy	-11.2712
▁cher	-11.2716
tu	-11.2718
▁tuj	-11.2723
▁washington	-11.2726
▁nqug	-11.2726
▁phiam	-11.2731
▁zooniamtsev	-11.2737
▁ntsaj	-11.2737
▁ex	-11.2744
▁namtxiv	-11.2747
▁decision	-11.2757
▁qeeg	-11.276
▁taamsim	-11.2771
▁test	-11.2773
▁asian	-11.2774
▁faiv	-11.278
▁yawmsib	-11.279
▁dong	-11.2792
▁txhaa	-11.2796
▁npluav	-11.2798
????	-11.28
▁pajyeeb	-11.282
▁tshau	-11.2826
▁pwg	-11.2837
▁lawg	-11.2843
thaib	-11.2847
▁professor	-11.2851
sawv	-11.2852
▁grade	-11.2859
▁iav	-11.286
▁chee	-11.2863
▁fee	-11.2864
▁brothers	-11.2865
▁ts	-11.2871
▁article	-11.2872
▁service	-11.2897
▁ibtug	-11.2897
haus	-11.2902
ne	-11.2904
liab	-11.2907
▁guess	-11.2909
▁ntsaum	-11.2914
50	-11.2921
▁principle	-11.2944
▁complain	-11.2952
▁nros	-11.2957
▁7-8	-11.2958
▁5000	-11.2959
▁personally	-11.2962
▁victims	-11.2964
▁start	-11.2968
▁zehn	-11.3005
▁khuvxim	-11.3006
▁nteeg	-11.3007
▁crazy	-11.3008
▁caaj	-11.301
▁luav	-11.302
nam	-11.3027
▁luab	-11.3031
▁thornspear	-11.3036
▁restaurant	-11.3038
▁fuam	-11.3054
▁told	-11.3054
▁50%	-11.3054
▁royal	-11.3055
▁npuj	-11.3056
▁repeat	-11.3068
▁knows	-11.3084
▁pawv	-11.3087
▁fue	-11.3092
▁tong	-11.3098
▁serious	-11.3099
▁bojyaig	-11.3099
▁tajlaj	-11.3099
▁mavtais	-11.3101
▁ntiab	-11.3108
▁faab	-11.3133
▁thev	-11.3141
▁qoog	-11.3149
▁et	-11.3157
▁hmov	-11.3172
gate	-11.3173
▁represent	-11.3182
▁tsaub	-11.3189
mec	-11.3191
▁rovlos	-11.3191
▁common	-11.3192
▁ba	-11.3193
nkauj	-11.3195
▁easy	-11.3196
▁therefore	-11.3198
▁qhe	-11.3203
▁sibpab	-11.3204
▁xang	-11.3204
▁hlaa	-11.3207
▁refugees	-11.3217
ma	-11.3226
▁dee	-11.3226
▁advice	-11.3231
that	-11.3232
▁iblub	-11.3234
▁dis	-11.3234
▁forward	-11.3244
▁koomhum	-11.3245
▁iv	-11.3275
▁officer	-11.328
▁belief	-11.3283
tas	-11.3284
▁doesn	-11.3294
▁goes	-11.3302
wv	-11.3304
▁meeg	-11.3318
▁xas	-11.3318
▁hehehehehehe	-11.3336
)...	-11.3337
▁important	-11.3341
▁constitution	-11.3342
▁contact	-11.3344
▁heup	-11.3344
▁eyes	-11.3347
▁ambassador	-11.3352
▁nrav	-11.3362
▁sd	-11.337
▁ntos	-11.3376
thank	-11.3378
▁nras	-11.3379
▁xoo	-11.3383
▁balance	-11.3388
▁thais	-11.3399
ntawm	-11.342
tij	-11.3426
▁plaw	-11.3434
▁tsus	-11.3434
▁nancy	-11.3441
▁according	-11.3444
▁baj	-11.3449
do	-11.3452
▁kha	-11.3456
▁focus	-11.3467
▁blood	-11.3476
▁qai	-11.3486
gec	-11.3487
▁muastony	-11.349
▁fire	-11.349
▁buddha	-11.3492
▁pheev	-11.3492
▁claimed	-11.3492
▁zias	-11.3495
▁air	-11.3522
▁lue	-11.3526
▁source	-11.3529
▁standard	-11.3532
▁qeg	-11.3537
▁teck	-11.3538
▁krabok	-11.3539
▁embassy	-11.354
▁defense	-11.3541
▁qhauv	-11.3551
▁qev	-11.3554
▁limhiam	-11.3562
tsev	-11.3567
qab	-11.3576
▁cancer	-11.3589
▁making	-11.3591
▁nkias	-11.3591
nco	-11.3597
▁hmob	-11.3599
wm	-11.36
▁xh	-11.3612
for	-11.3616
▁dance	-11.3621
▁main	-11.3622
▁course	-11.3625
▁zo	-11.3627
;&	-11.3629
▁bye	-11.3632
▁ni	-11.3639
▁blame	-11.3639
▁tzexa	-11.3639
▁reply	-11.3641
▁class	-11.3647
▁pheejxeeb	-11.3649
▁hear	-11.3656
▁theev	-11.366
▁ntaux	-11.3661
chim	-11.3677
hl	-11.3681
24	-11.3683
▁losmas	-11.3687
▁nyhiab	-11.3689
nd	-11.3693
▁70	-11.3698
▁dok	-11.3699
▁khuab	-11.3705
▁npliag	-11.3706
▁visa	-11.3713
▁thorns	-11.3713
▁xyav	-11.3718
▁tsha	-11.372
▁nyiav	-11.3723
▁purpose	-11.3727
▁nplim	-11.3735
this	-11.3735
▁surithay	-11.374
▁qhwv	-11.3741
▁monday	-11.3742
▁prime	-11.3743
▁xieng	-11.3762
▁cover	-11.3763
she	-11.3769
tawm	-11.377
▁ntsais	-11.3772
▁serve	-11.3775
▁ibyam	-11.378
▁qwb	-11.3783
▁leng	-11.3789
▁ntxuv	-11.3793
▁nchav	-11.3795
▁nwj	-11.3796
▁food	-11.3798
▁nations	-11.3808
▁quag	-11.3826
▁speak	-11.3828
▁yi	-11.3832
▁diego	-11.3842
▁casino	-11.3842
▁early	-11.3847
laug	-11.3881
▁amelivka	-11.3888
▁lubsiab	-11.389
▁101%	-11.3894
▁meka	-11.3896
▁nyawm	-11.3896
▁phaya	-11.3897
▁cassette	-11.3899
▁based	-11.39
▁1960	-11.39
▁ah	-11.39
▁rovqaab	-11.3901
▁pliaj	-11.3901
thaub	-11.3909
▁chais	-11.3916
ca	-11.3919
▁dob	-11.3927
▁txiabneeb	-11.3927
what	-11.3931
▁pass	-11.3939
▁dear	-11.3946
▁welcome	-11.3947
▁hmantsuab	-11.3948
▁rwj	-11.3948
kas	-11.3949
▁nasthis	-11.3951
neej	-11.3954
▁pod	-11.3956
has	-11.3957
tsua	-11.3959
▁song	-11.396
▁sawb	-11.398
▁dollar	-11.3986
▁senator	-11.3986
▁version	-11.3987
▁npib	-11.4
▁hliv	-11.4007
▁vav	-11.4015
born	-11.4015
dev	-11.4018
tshum	-11.4028
hauv	-11.4033
▁market	-11.4035
▁1976	-11.4036
▁role	-11.4039
▁ntsoo	-11.4042
▁gain	-11.405
▁beach	-11.405
▁natural	-11.4053
▁lisfoom	-11.4053
▁trying	-11.4053
▁txhib	-11.4055
▁license	-11.4057
▁students	-11.4058
▁dia	-11.4079
▁ncoo	-11.408
▁fall	-11.4093
▁nt	-11.4101
▁oo	-11.4102
▁nqov	-11.4104
▁asmesliskas	-11.4104
▁tugkheej	-11.4107
▁tsaib	-11.4108
▁sivyig	-11.4109
▁kids	-11.4111
hluas	-11.4111
▁phais	-11.4112
▁cooj	-11.4112
▁36	-11.4116
▁kus	-11.4122
▁phlus	-11.4124
▁qabhau	-11.4135
▁phob	-11.4136
un	-11.4139
yim	-11.4142
▁ceebtsheej	-11.4157
▁nrhab	-11.4157
▁xai	-11.4171
▁npoos	-11.4171
▁flop	-11.4179
▁khiab	-11.4183
▁maaj	-11.4194
▁evil	-11.4198
nwg	-11.4198
▁thom	-11.4207
▁cujpwm	-11.4208
▁explain	-11.4209
▁himself	-11.4209
▁nraugnruag	-11.421
32	-11.4211
▁xovxwm	-11.4211
ce	-11.4212
▁pug	-11.4214
▁phiab	-11.4217
▁khai	-11.4235
▁election	-11.4246
▁nrauv	-11.4255
▁though	-11.4258
▁merced	-11.426
▁plhis	-11.4265
▁kaasmoos	-11.4266
▁tamsimno	-11.4271
luj	-11.4279
▁sys	-11.4287
nrog	-11.4299
▁press	-11.4299
paj	-11.4301
▁politician	-11.4305
▁sommer	-11.4305
▁hmoobsib	-11.431
▁qhob	-11.4311
▁simply	-11.4317
▁sgu	-11.4318
ntawd	-11.4321
co	-11.4324
▁poor	-11.4324
▁leeb	-11.4325
ws	-11.4339
▁90	-11.4341
▁pws	-11.4349
my	-11.4359
▁npoo	-11.4368
▁went	-11.4372
▁indigenous	-11.4373
▁zuv	-11.4373
▁buy	-11.4375
▁full	-11.4375
▁save	-11.4379
muag	-11.439
▁nuam	-11.4392
▁moral	-11.4413
▁seems	-11.442
▁cobtsib	-11.4426
▁brig	-11.4426
▁phaab	-11.4426
▁niab	-11.4431
▁economic	-11.4436
▁lubneej	-11.4454
▁txojsia	-11.4459
▁operation	-11.4472
▁covlus	-11.4476
▁wonder	-11.4483
▁qhawv	-11.4483
▁thong	-11.4491
▁...............	-11.4494
▁interview	-11.4507
▁husband	-11.4523
lqz	-11.4526
▁consider	-11.4533
▁solve	-11.4533
▁koomtsihaum	-11.4534
▁civ	-11.4534
▁nature	-11.4536
▁clean	-11.4537
zeb	-11.4539
file	-11.4543
▁loog	-11.455
▁concern	-11.4574
▁mother	-11.4577
▁foundation	-11.4577
oib	-11.4585
▁lagluam	-11.4591
▁whatever	-11.4595
▁created	-11.4596
▁cheeb	-11.4598
▁tiagx	-11.4603
hu	-11.4603
▁sivzog	-11.4604
wg	-11.4607
▁2013	-11.4612
▁coobx	-11.4614
▁wisdom	-11.463
▁pre	-11.4632
zog	-11.4637
▁joke	-11.4638
▁hdd	-11.4645
▁swm	-11.4645
hnov	-11.4648
▁hnubkaj	-11.4654
▁nw	-11.4656
kab	-11.4656
_0	-11.4663
▁thia	-11.4666
▁jan	-11.4669
▁kooj	-11.4682
▁won	-11.4688
▁leave	-11.469
▁governor	-11.469
▁tswjfwm	-11.4701
▁detroit	-11.4701
▁happened	-11.4702
▁dlejnum	-11.4702
▁minneapolis	-11.4703
▁tshiaj	-11.4703
oh	-11.4703
▁lives	-11.4707
▁muj	-11.4708
▁29	-11.4714
nov	-11.4726
▁york	-11.4732
▁koog	-11.4737
xx	-11.4738
▁lawyers	-11.4741
▁having	-11.4742
▁label	-11.4742
▁equal	-11.4743
dhau	-11.4743
tshuav	-11.4743
up	-11.4751
nyuj	-11.4759
▁sw	-11.4761
▁ying	-11.4761
▁paiv	-11.4766
▁phabmab	-11.4766
koob	-11.478
▁txojcai	-11.4786
▁dluav	-11.4791
▁note	-11.4794
▁smile	-11.4797
▁contract	-11.4798
▁refer	-11.4801
meo	-11.4801
▁md	-11.4806
▁naikong	-11.4808
▁pejkum	-11.4813
▁26	-11.4815
▁nwslub	-11.4816
▁forget	-11.4817
▁december	-11.4817
▁tagx	-11.4821
▁left	-11.4821
▁inc	-11.4822
▁ncaw	-11.4824
▁relationship	-11.4826
▁meet	-11.4838
▁unpo	-11.4841
▁sharing	-11.4851
▁pau	-11.4851
▁affair	-11.4859
image	-11.486
kwvtij	-11.4861
▁worry	-11.4871
▁ncav	-11.4872
▁rather	-11.4873
▁reasons	-11.4873
▁involve	-11.4878
▁among	-11.4887
▁win	-11.4901
pob	-11.4902
▁correct	-11.4923
▁west	-11.4927
▁enemy	-11.4928
▁xyeem	-11.493
▁dlog	-11.4935
▁nquab	-11.4937
▁niajhnub	-11.494
▁28	-11.4944
▁zas	-11.4946
▁411	-11.4948
▁willing	-11.4954
rov	-11.4965
▁base	-11.4969
tua	-11.4971
▁koua	-11.4975
▁houa	-11.4978
god	-11.4979
▁120	-11.4984
▁txajmuag	-11.4986
▁federal	-11.4987
▁txhub	-11.4993
▁tswg	-11.4994
▁lai	-11.4995
▁xoob	-11.4995
▁super	-11.4999
▁dau	-11.5001
rd	-11.5004
▁yauj	-11.5006
/0	-11.5006
▁seconds	-11.5013
▁hlos	-11.5014
▁xyas	-11.5028
ther	-11.5032
koom	-11.5033
▁expect	-11.5043
▁ntxheb	-11.5045
▁asked	-11.5045
▁pepsi	-11.5046
▁rev	-11.5048
▁phiv	-11.5048
▁needs	-11.505
▁2011	-11.5051
lauj	-11.5059
▁khoov	-11.5063
▁process	-11.5064
quav	-11.5069
▁india	-11.5081
mob	-11.5093
▁meska	-11.5095
▁bs	-11.5102
▁tsiag	-11.5104
▁ibleeg	-11.5109
▁trust	-11.511
posting	-11.5112
▁comes	-11.5113
▁ntxhoo	-11.5123
▁ntxhib	-11.5129
▁info	-11.5129
▁qhiav	-11.5145
▁detail	-11.515
▁iraq	-11.5155
lqx	-11.5162
▁noom	-11.5165
▁qabzib	-11.5165
▁gab	-11.5167
▁hmuv	-11.517
▁sas	-11.5171
"....	-11.5185
▁paam	-11.52
▁toulia	-11.5213
ej	-11.5214
▁liajdawb	-11.5219
▁koobmeej	-11.522
▁ncaig	-11.5221
▁bravo	-11.5223
▁fij	-11.5223
▁present	-11.5226
▁vajhmoob	-11.523
▁muskawm	-11.5238
"?	-11.524
▁sibhaum	-11.5246
▁kee	-11.5248
▁attorney	-11.5263
▁nrhia	-11.5267
▁style	-11.527
▁haavzoov	-11.5278
▁vieng	-11.5279
▁vws	-11.5279
▁technology	-11.528
▁vice	-11.528
▁march	-11.5282
▁vietnamese	-11.5283
▁french	-11.5288
▁phuaj	-11.5288
40	-11.5289
▁khom	-11.5294
▁suavteb	-11.5306
▁return	-11.5318
▁train	-11.5318
▁expert	-11.5324
em	-11.5324
▁water	-11.5329
▁$1	-11.5332
▁08	-11.5349
▁except	-11.535
▁bo	-11.5364
▁tubsab	-11.5384
▁19	-11.5386
▁town	-11.5391
▁saykao	-11.5397
▁staff	-11.5399
hab	-11.54
▁majority	-11.5406
▁pajcai	-11.5407
▁qig	-11.5409
uv	-11.5426
▁due	-11.544
▁saint	-11.5446
haum	-11.5448
▁laum	-11.5451
▁hnug	-11.5458
▁iabliam	-11.5459
▁phwvyawm	-11.546
maj	-11.546
10	-11.5461
▁small	-11.5462
▁nkawg	-11.5462
▁busy	-11.5462
▁similar	-11.5465
▁david	-11.5466
▁ged	-11.5469
▁cell	-11.5471
25	-11.5472
▁update	-11.5499
▁ntswv	-11.55
▁account	-11.5502
▁nongkhai	-11.5504
▁key	-11.5515
▁ncab	-11.5523
▁300	-11.5523
▁xawb	-11.5531
▁ideas	-11.555
haiv	-11.5551
▁lwmtus	-11.5561
▁davhlau	-11.5565
▁hate	-11.557
▁africa	-11.5575
▁thawv	-11.5581
▁parents	-11.5582
▁november	-11.5583
▁zaab	-11.5584
▁txoob	-11.5585
▁txwb	-11.5591
▁soc	-11.5593
▁dec	-11.5614
▁close	-11.5623
=1	-11.5627
▁cousin	-11.5627
▁sister	-11.5634
▁kuav	-11.5637
communist	-11.564
▁attention	-11.5641
▁pressure	-11.5643
▁generals	-11.5645
▁com	-11.5647
piv	-11.5655
▁kawmntawv	-11.5661
dub	-11.5677
▁iha	-11.5685
▁intention	-11.5689
▁hero	-11.5689
index	-11.569
▁sawdaws	-11.5701
▁exactly	-11.5701
▁vej	-11.5702
▁qov	-11.5703
▁pheem	-11.5704
drg	-11.5728
▁1979	-11.5752
cias	-11.5754
▁card	-11.5755
seb	-11.5757
▁plhuav	-11.5764
▁jerry	-11.5765
▁western	-11.5765
▁naiphom	-11.5766
▁logic	-11.5768
▁looking	-11.5771
▁tshos	-11.5772
▁xw	-11.5774
▁txhias	-11.5779
▁services	-11.5784
▁haislus	-11.5785
▁movtshua	-11.5787
▁comments	-11.5788
▁niamyau	-11.5791
▁phak	-11.5792
▁phia	-11.5792
▁ntsees	-11.5806
▁ticket	-11.5813
14	-11.5817
awv	-11.5822
▁problems	-11.5823
▁authority	-11.5826
▁www	-11.5826
▁xwmtxheej	-11.5828
▁6-7	-11.583
▁tsos	-11.5832
neeb	-11.5835
just	-11.584
▁saam	-11.5844
▁khauj	-11.5848
▁auv	-11.5853
▁hmoog	-11.5865
▁nphoo	-11.5874
▁writing	-11.5879
▁terrorist	-11.5882
▁youa	-11.5888
▁ntxhuv	-11.5889
▁xibhwb	-11.589
▁pobntseg	-11.589
▁wait	-11.5891
▁rhais	-11.5895
▁tshaw	-11.59
▁ntsaig	-11.5901
▁tsug	-11.5902
▁single	-11.5902
▁media	-11.5903
▁03	-11.5912
▁search	-11.5914
▁ntxhua	-11.5927
▁abuse	-11.5927
...............	-11.5927
-28	-11.5938
▁couple	-11.594
▁dlai	-11.5944
!"	-11.5944
ew	-11.5946
▁thav	-11.595
▁nhia	-11.5954
▁ntaubntawv	-11.5954
▁didn	-11.5959
▁nee	-11.5964
.."	-11.5964
**	-11.5976
▁nts	-11.5977
▁month	-11.598
▁site	-11.5997
si	-11.5999
lqb	-11.6001
edit	-11.6004
▁less	-11.6007
oob	-11.6015
▁nyobzoo	-11.6016
▁build	-11.6016
▁stabbing	-11.6016
▁maamle	-11.6019
▁haujsam	-11.6019
▁cheej	-11.6023
▁wa	-11.6025
▁nquam	-11.6025
▁lisnom	-11.6026
▁yy	-11.603
tiamsis	-11.6036
▁nrob	-11.6043
meskas	-11.6054
laos	-11.607
xwm	-11.6072
▁protect	-11.6081
▁npiab	-11.6083
▁xeb	-11.6084
▁jews	-11.6084
▁miles	-11.6085
▁yaug	-11.6092
▁seen	-11.6102
▁thuv	-11.6104
sec	-11.6136
▁des	-11.6138
▁ntxia	-11.6141
▁brgds	-11.6145
▁deg	-11.615
hehehehe	-11.6151
▁working	-11.6154
▁ps	-11.6169
▁tsoov	-11.6192
▁association	-11.6195
▁race	-11.6198
yes	-11.6201
▁nqhuab	-11.621
▁themselves	-11.621
▁laab	-11.6215
▁pdr	-11.6218
▁tuskheej	-11.6221
▁local	-11.6223
▁hang	-11.6225
▁dhos	-11.6225
▁direct	-11.6228
▁medicine	-11.6234
tog	-11.6234
▁lhi	-11.6237
cai	-11.6243
▁45	-11.6247
sa	-11.6248
▁hurt	-11.626
▁whe	-11.6263
▁huh	-11.6265
▁trau	-11.6273
▁further	-11.6275
▁cambodia	-11.6276
▁nyaaj	-11.6276
▁religious	-11.6279
▁ywv	-11.628
▁phus	-11.6286
lawd	-11.6298
▁hold	-11.6302
▁1972	-11.6307
▁lho	-11.6308
lui	-11.6318
▁scam	-11.6324
▁write	-11.6327
▁pilot	-11.6329
▁txiavtxim	-11.6341
▁compromise	-11.6343
▁lawbdab	-11.6345
▁dhla	-11.6346
▁dawg	-11.6351
▁10.	-11.6351
usp	-11.6356
▁leejhmoob	-11.6357
laj	-11.6363
▁author	-11.6377
▁discussion	-11.6394
▁tshom	-11.6398
▁tibsis	-11.6401
▁gay	-11.6401
▁beemouachaofa	-11.6401
▁alone	-11.6408
▁koobhmoov	-11.6408
▁penny	-11.6409
▁christianity	-11.6411
▁nyiab	-11.6413
▁kwvtxhiaj	-11.6418
▁doog	-11.6418
▁hluasnkauj	-11.6422
%20	-11.6439
.............	-11.6439
▁phong	-11.6442
▁thauv	-11.6452
▁ntw	-11.6452
%3	-11.6454
▁tank	-11.6455
▁include	-11.6458
▁brain	-11.6462
▁ple	-11.6467
▁add	-11.6473
▁boss	-11.6474
▁tuabyaam	-11.6475
▁latin	-11.6477
▁npub	-11.6477
▁roos	-11.6479
lqh	-11.6495
............	-11.6505
▁dlu	-11.6506
▁hell	-11.6511
▁$100	-11.6513
▁organizations	-11.6525
▁training	-11.6527
ie	-11.6528
▁toua	-11.653
▁baby	-11.6544
▁joe	-11.6544
▁meejpem	-11.6544
▁click	-11.6545
▁nqia	-11.6553
▁wants	-11.6569
txij	-11.6571
▁phaw	-11.6574
ntsuab	-11.6577
▁ntoj	-11.6582
uj	-11.6598
▁listen	-11.6601
tsij	-11.6608
▁ro	-11.6608
▁xyomcuab	-11.661
%	-11.661
▁hlav	-11.661
▁pai	-11.661
man	-11.6623
pojniam	-11.663
▁ntxo	-11.6632
browse	-11.6634
yug	-11.6639
la	-11.664
▁kig	-11.6641
▁viet	-11.6647
▁pho	-11.6651
▁qabteb	-11.6664
maum	-11.6671
▁txhooj	-11.6677
▁cheb	-11.6678
▁michael	-11.6679
▁mentality	-11.6679
▁nploj	-11.6681
▁along	-11.6682
▁justice	-11.6682
▁schers	-11.6682
▁vaub	-11.6689
▁strong	-11.6692
▁nraj	-11.6699
▁suam	-11.6703
▁eh	-11.6704
hiv	-11.6716
ko	-11.672
▁dla	-11.673
▁hleb	-11.6731
▁propaganda	-11.6745
▁appleton	-11.6746
▁strategy	-11.6746
▁thabham	-11.6748
amp	-11.6754
rec	-11.6755
▁hot	-11.6766
blog	-11.6767
▁hands	-11.6773
▁nyia	-11.6773
nas	-11.6774
▁meant	-11.6775
▁safe	-11.6785
▁innocent	-11.6799
▁passport	-11.68
▁crime	-11.6803
▁dvd	-11.6803
▁yee	-11.6803
▁protest	-11.6807
ug	-11.6809
▁shall	-11.6814
▁gary	-11.6815
▁status	-11.6816
▁npug	-11.6816
▁10%	-11.6817
▁secretary	-11.6817
!!!!!	-11.682
▁central	-11.6821
puj	-11.6836
nyias	-11.6838
▁doua	-11.6845
▁qaus	-11.6854
▁file	-11.6857
se	-11.6863
▁cost	-11.6869
▁table	-11.6873
▁spirit	-11.6874
▁nraub	-11.6877
▁chuhu	-11.6881
▁lajleeb	-11.6883
▁clarify	-11.6885
▁zuav	-11.6885
▁txeev	-11.6885
▁yiag	-11.6889
▁txu	-11.689
▁mig	-11.6892
▁educated	-11.6895
▁nchaiv	-11.6903
▁aus	-11.6911
▁khas	-11.6913
▁loom	-11.6914
iv	-11.6924
▁define	-11.6936
▁screen	-11.6938
▁dont	-11.6939
▁total	-11.6945
eg	-11.6945
na	-11.6952
▁vias	-11.6953
▁oshkosh	-11.6955
▁phajej	-11.6956
▁three	-11.6957
▁hnd	-11.6958
▁bla	-11.6962
▁naisphoo	-11.6971
sharing	-11.6976
hom	-11.7
▁aiv	-11.7001
dua	-11.7013
goc	-11.7015
▁taubhaus	-11.7021
▁hospital	-11.7025
▁schlers	-11.7025
▁npawv	-11.7025
▁smart	-11.7027
▁txheebze	-11.7027
▁dirty	-11.7029
▁june	-11.703
▁box	-11.7034
▁np	-11.7037
▁ntsav	-11.7039
▁27	-11.7049
▁stated	-11.7051
all	-11.7057
▁compare	-11.7062
iec	-11.7074
▁lc	-11.7075
▁poo	-11.7078
▁risk	-11.7083
turning	-11.7083
▁lack	-11.7088
▁room	-11.7091
ev	-11.7093
▁pivtxwv	-11.7096
▁inside	-11.7096
▁toward	-11.7097
ee	-11.7097
▁written	-11.7098
▁oct	-11.7098
▁90%	-11.7099
▁tojxeem	-11.7101
txwv	-11.7111
▁mub	-11.7114
▁tsheeb	-11.7115
▁lubtebchaws	-11.7126
▁took	-11.713
xws	-11.7131
▁gossip	-11.7155
qaib	-11.7157
▁hmoobnplog	-11.7162
▁nthab	-11.7168
▁paws	-11.7169
▁final	-11.717
▁physical	-11.7172
yeeb	-11.7176
▁ag	-11.7183
ta	-11.7189
▁caam	-11.7189
▁points	-11.72
▁fit	-11.7212
ntseeg	-11.722
zab	-11.7233
▁visit	-11.7238
▁girl	-11.724
▁ntaaj	-11.7241
▁tseej	-11.7241
▁cug	-11.7243
▁khouang	-11.7243
▁txhaub	-11.7245
▁fong	-11.7248
▁dlav	-11.7248
▁kou	-11.7248
▁ntsag	-11.7257
▁rules	-11.7266
▁plua	-11.7271
yang	-11.7274
▁kj	-11.7277
feem	-11.7279
▁beeveev	-11.7279
▁4)	-11.728
▁khang	-11.7288
▁32	-11.7289
▁mouth	-11.7296
▁connection	-11.7296
xob	-11.7298
▁corruption	-11.73
▁intellectual	-11.7303
▁pany	-11.731
▁taumdub	-11.731
▁actually	-11.7311
▁mebthaub	-11.7312
▁ministry	-11.7313
▁reading	-11.7315
▁nkaws	-11.7317
▁1-	-11.732
▁mias	-11.7327
▁honor	-11.7339
▁naib	-11.7341
▁npauj	-11.7341
▁provide	-11.7361
▁income	-11.7369
▁trip	-11.7372
▁character	-11.7373
▁npauv	-11.738
▁light	-11.738
▁rtg	-11.7384
▁directly	-11.7384
▁myself	-11.7385
▁study	-11.7385
▁vajhuam	-11.7387
▁ploog	-11.7388
▁haumxeeb	-11.7391
▁events	-11.7409
▁khauv	-11.741
puab	-11.7411
txiabneeb	-11.7429
▁treat	-11.743
▁sibkoom	-11.743
phem	-11.7433
▁station	-11.7444
▁ntxoo	-11.7453
▁music	-11.7456
▁hnyiab	-11.7457
▁break	-11.7457
▁lhoov	-11.7457
▁faabkis	-11.7457
▁thajyeeb	-11.7459
▁basic	-11.7461
▁abtsi	-11.7464
▁cut	-11.7469
▁kip	-11.7473
▁thiav	-11.7477
-6	-11.7478
▁npluas	-11.7478
▁hib	-11.7491
▁kawb	-11.7495
▁ntaws	-11.7499
▁xoua	-11.7499
▁10,000	-11.7523
▁advance	-11.7527
▁bruce	-11.7531
▁khavtheeb	-11.7532
▁ncajncees	-11.7532
▁lasvoos	-11.7533
▁souphanouvong	-11.7533
▁yeebceeb	-11.7534
▁tsuis	-11.7534
▁phajhauj	-11.7534
▁5-10	-11.7534
▁asthiv	-11.7534
▁ways	-11.7537
ion	-11.754
▁nauj	-11.7543
▁hlubhmoob	-11.7564
photos	-11.7566
▁drive	-11.7577
▁send	-11.7581
▁id	-11.7586
▁blooj	-11.7586
▁bau	-11.7592
zaj	-11.7594
▁ia	-11.7596
▁invest	-11.7605
▁activities	-11.7605
▁phwvxev	-11.7606
▁lso	-11.7606
▁zaubntsuab	-11.7608
▁txeej	-11.7608
▁april	-11.7609
▁nrub	-11.7609
▁ntsum	-11.7611
▁print	-11.7612
khiav	-11.7614
▁phoom	-11.7618
ment	-11.7623
lua	-11.7626
▁mar	-11.763
▁khis	-11.7641
▁xia	-11.7646
▁-"	-11.7666
▁river	-11.7666
▁capital	-11.7672
ers	-11.7676
▁ncha	-11.768
▁blia	-11.7681
▁geneva	-11.7682
▁foreign	-11.7684
▁married	-11.7684
▁regardless	-11.7685
▁txujsa	-11.7685
▁yawmyij	-11.7687
▁japan	-11.7687
▁txhai	-11.7688
▁23	-11.7689
txhais	-11.7689
iab	-11.7713
▁ge	-11.7713
▁obtug	-11.7715
▁poobsiab	-11.7724
leeg	-11.7728
▁twin	-11.7736
▁conclusion	-11.7742
aib	-11.7743
▁choose	-11.7744
▁low	-11.7747
▁rumor	-11.7749
sitebuilder	-11.7756
▁mpls	-11.7759
▁tshov	-11.7759
▁almost	-11.776
▁boj	-11.7761
▁yajyuam	-11.7763
▁yeev	-11.7765
▁wanted	-11.7765
▁heem	-11.777
▁sibcav	-11.7773
8.	-11.7773
▁tsub	-11.7778
▁11.	-11.7786
▁nimno	-11.7786
▁saus	-11.779
▁xaum	-11.7798
▁front	-11.7821
faj	-11.7822
▁pretty	-11.7833
gu	-11.7833
▁register	-11.7834
▁countries	-11.7835
▁vaag	-11.7835
▁worker	-11.7836
▁coming	-11.7838
▁kuamuag	-11.7838
▁feb	-11.784
▁nplos	-11.7841
▁chaleun	-11.7842
drive	-11.7859
▁thej	-11.7859
▁chair	-11.7861
▁bombs	-11.7867
nyaj	-11.7871
ry	-11.7879
loc	-11.7885
▁none	-11.7885
▁investigate	-11.7887
hlob	-11.7893
▁bon	-11.7894
▁alaska	-11.7896
▁shan	-11.7906
▁mlom	-11.7907
▁clinton	-11.791
▁certain	-11.791
▁denver	-11.791
▁republican	-11.7911
nt	-11.7911
▁ugly	-11.7912
▁learned	-11.7913
▁nruam	-11.7914
▁pobtw	-11.7919
▁%	-11.7921
▁tsej	-11.7925
▁2009	-11.7946
▁eat	-11.7948
▁release	-11.795
▁ball	-11.7958
▁recruit	-11.7961
▁price	-11.7976
▁saws	-11.7977
▁tradition	-11.798
▁ceslawv	-11.7985
▁reveal	-11.7986
▁impact	-11.7987
▁fake	-11.7988
▁memtoj	-11.7988
▁humxeeb	-11.7989
▁october	-11.7989
▁thojnam	-11.7991
▁zero	-11.7993
▁skills	-11.7994
!...	-11.7996
▁ger	-11.8
▁roojteb	-11.8002
npua	-11.8003
-5,	-11.8008
▁christ	-11.8012
▁mooj	-11.8027
▁sibtua	-11.8033
11	-11.8033
▁carry	-11.8035
▁traditional	-11.804
▁criminal	-11.8051
▁candidate	-11.8052
▁engineer	-11.8054
▁rank	-11.8058
▁nywj	-11.8065
▁hmloog	-11.8066
▁dleev	-11.8067
▁pajkaub	-11.8067
▁qualified	-11.8068
▁ntsuabxwm	-11.807
da	-11.8076
▁nr	-11.8095
▁fuck	-11.8109
===============	-11.8112
there	-11.8117
▁ntxas	-11.8125
▁pobtxha	-11.8127
▁truck	-11.813
▁ameska	-11.8131
▁wedding	-11.8132
▁representative	-11.8133
▁stone	-11.814
▁yawmtxiv	-11.814
▁xuvtooj	-11.8144
▁nriaj	-11.8144
▁knew	-11.8145
▁totally	-11.8145
▁christmas	-11.8145
▁ahead	-11.8146
▁laav	-11.8147
▁lx	-11.8149
▁ntxhab	-11.815
▁sexual	-11.8151
vang	-11.8153
kpia	-11.8155
▁sibcam	-11.8156
▁txhov	-11.8157
moog	-11.8161
qhia	-11.8166
▁sources	-11.8167
▁traitors	-11.8174
▁txivneeb	-11.8174
28	-11.8178
tsim	-11.8183
▁2-	-11.8195
▁boun	-11.8199
xam	-11.8206
▁scl	-11.8207
▁tusneeg	-11.8208
▁definition	-11.8213
usa	-11.8218
▁ntoob	-11.8219
▁npaus	-11.822
▁celebrate	-11.8225
▁august	-11.823
▁kavxwm	-11.8231
▁phaib	-11.8232
▁girls	-11.8242
tec	-11.8246
▁pheng	-11.8252
▁txaug	-11.8252
ic	-11.8253
▁kw	-11.8283
▁kan	-11.8283
pog	-11.8292
▁field	-11.8298
▁witness	-11.8302
▁cawmseej	-11.8303
▁mentioned	-11.8304
▁energy	-11.8304
▁tubntsuagruam	-11.8305
▁below	-11.8305
▁jump	-11.8306
▁assume	-11.8306
▁longer	-11.8306
▁ziab	-11.8307
▁tsimtxom	-11.8309
▁mtt	-11.8316
▁sibntsib	-11.8317
▁tsuasyog	-11.8325
▁waste	-11.8332
▁officials	-11.8334
awm	-11.8338
▁known	-11.834
kho	-11.8341
▁peej	-11.8341
▁koov	-11.8351
▁tawj	-11.8356
▁travel	-11.8356
nr	-11.8367
miao	-11.8378
▁pegsuab	-11.8384
▁profit	-11.8386
▁sooblwj	-11.8386
▁nyablaaj	-11.8386
▁80%	-11.8386
▁phej	-11.8387
▁mivnyuag	-11.8387
▁txeem	-11.839
▁34	-11.8391
▁txhaaj	-11.8396
▁ground	-11.8396
go	-11.8397
▁vn	-11.8403
▁sibceg	-11.8405
▁seng	-11.8406
sau	-11.8408
▁vaajm	-11.841
▁nawv	-11.8415
▁commie	-11.8427
▁kotaw	-11.8431
sub	-11.8432
▁sibtw	-11.844
▁xyaws	-11.8442
91	-11.8444
▁37	-11.8446
▁voice	-11.8453
▁2003	-11.8453
▁mormon	-11.8453
npe	-11.8454
▁space	-11.8457
▁thaying	-11.8466
▁passed	-11.8468
▁ntujkag	-11.8468
▁truly	-11.8468
▁current	-11.8469
▁gone	-11.8469
▁sheboygan	-11.847
▁nyiajtxiag	-11.847
▁bay	-11.847
▁xiav	-11.8474
▁thij	-11.8479
tsawg	-11.8481
▁khaj	-11.8483
est	-11.8485
▁haab	-11.8488
▁:)	-11.8499
▁nyos	-11.8506
▁hlaub	-11.851
▁xee	-11.8511
▁lentawd	-11.8512
▁cy	-11.8517
90	-11.852
55	-11.8532
taws	-11.8533
▁fool	-11.8535
▁proposal	-11.8538
▁bua	-11.854
▁ntlaj	-11.8547
▁chupheng	-11.8547
▁plogliab	-11.8548
▁january	-11.8549
roob	-11.8553
▁cuv	-11.8554
▁nao	-11.8558
▁metub	-11.8559
ke	-11.8561
▁doc	-11.8561
▁yaag	-11.8568
▁xi	-11.8568
▁nick	-11.8578
▁xees	-11.8581
pw	-11.8584
▁xat	-11.8588
images	-11.859
pawg	-11.8592
▁noun	-11.8594
)?	-11.8597
▁lws	-11.8597
▁kej	-11.8605
tseg	-11.8613
▁demand	-11.8617
▁picture	-11.8622
▁tuv	-11.8629
▁communities	-11.863
▁dogdig	-11.863
▁lijchoj	-11.8631
▁advocate	-11.8631
▁bottom	-11.8631
▁integrity	-11.8632
▁itself	-11.8632
▁spy	-11.8633
▁apartment	-11.8633
▁al	-11.865
▁chimsiab	-11.8667
hau	-11.8682
▁ones	-11.8691
new	-11.8694
▁paper	-11.8702
▁5,000	-11.8705
▁stress	-11.8712
▁gave	-11.8714
▁suggest	-11.8715
▁responsibility	-11.8715
▁txaav	-11.8715
▁1977	-11.8716
▁nyuv	-11.8718
▁healthy	-11.8718
mos	-11.8718
▁nkais	-11.8719
▁herr	-11.872
▁signed	-11.8721
▁nyaus	-11.8721
▁vos	-11.8722
▁works	-11.8724
▁tasli	-11.8731
▁aud	-11.8732
▁thovpab	-11.8746
▁havzoo	-11.8747
lt	-11.8749
▁block	-11.8752
teg	-11.8753
▁ass	-11.8754
cem	-11.8764
▁hey	-11.8783
▁disagree	-11.8794
▁florida	-11.8798
▁rhwbliag	-11.8798
▁beemoua	-11.8799
▁ntsaag	-11.8801
▁lyfong	-11.8801
▁dept	-11.8802
▁kheem	-11.8804
▁quite	-11.8805
▁npeeg	-11.8811
▁pleb	-11.8815
▁drs	-11.8819
▁hnoob	-11.8831
out	-11.8835
de	-11.8856
▁ntee	-11.8856
▁lev	-11.8864
▁ysu	-11.8867
▁cash	-11.8871
▁model	-11.8873
▁adam	-11.8877
▁red	-11.888
▁otherwise	-11.8883
▁confuse	-11.8883
▁chiangmai	-11.8883
▁tshaab	-11.8883
▁raise	-11.8884
▁ntxuam	-11.8884
▁911	-11.8885
▁double	-11.8886
▁lord	-11.8888
▁names	-11.8888
▁xom	-11.8891
▁development	-11.8891
▁(1)	-11.8892
▁txhaus	-11.8898
▁caim	-11.8953
▁sponsor	-11.8957
▁kl	-11.8959
▁owner	-11.896
▁1987	-11.8962
▁haha	-11.8962
▁animal	-11.8963
▁enforce	-11.8966
▁lomted	-11.8969
▁psychology	-11.897
▁deny	-11.897
▁ros	-11.897
▁nouka	-11.897
▁killed	-11.8972
▁kkk	-11.8982
▁nomdub	-11.8982
▁spelling	-11.8986
▁con	-11.8988
taw	-11.9004
▁2014	-11.9005
▁hlauv	-11.9017
tsuav	-11.9023
▁americans	-11.9027
ok	-11.9028
meej	-11.9046
▁fo	-11.9047
ya	-11.9049
num	-11.9055
▁type	-11.9056
▁recognize	-11.9056
▁parking	-11.9057
▁wang	-11.9058
▁campaign	-11.9058
▁illegal	-11.9059
▁ntshua	-11.9061
▁hour	-11.9062
74	-11.9065
▁???	-11.9068
▁star	-11.9072
tseeb	-11.9083
ci	-11.9091
saub	-11.9091
▁zau	-11.9102
▁qaabhau	-11.9109
▁related	-11.9121
▁lak	-11.9128
213.	-11.9129
▁bachelor	-11.9129
▁croc	-11.9138
▁chiang	-11.9139
▁xyeejtsawg	-11.9141
▁hloob	-11.9141
▁phluav	-11.9142
▁zamtxim	-11.9143
▁specific	-11.9144
▁involved	-11.9145
▁quincy	-11.9146
▁lady	-11.9148
muam	-11.9149
▁bother	-11.9151
▁film	-11.9157
..............	-11.9158
▁coos	-11.917
▁ntig	-11.918
▁tejyam	-11.9182
▁xaaj	-11.9188
▁paa	-11.9188
▁cees	-11.9195
▁boards	-11.9202
hahahahaha	-11.9203
▁sound	-11.9218
▁phwj	-11.9226
ti	-11.9226
▁found	-11.9227
▁confirm	-11.9228
▁era	-11.9229
▁ol	-11.923
▁referred	-11.923
▁tuesday	-11.923
▁geu	-11.923
▁nyhuv	-11.923
▁educate	-11.9231
▁nploos	-11.9231
▁cities	-11.9231
▁soccer	-11.9231
▁code	-11.9232
▁tuabsi	-11.9234
▁taas	-11.9235
flick	-11.9241
by	-11.9243
▁1978	-11.9248
▁mail	-11.9248
▁haivhmoob	-11.925
▁mouang	-11.9252
lqn	-11.9266
▁fais	-11.9267
▁phib	-11.9267
liam	-11.9274
hiab	-11.9288
▁kingdom	-11.9306
▁1,	-11.9308
▁teacher	-11.931
▁mention	-11.9316
ny	-11.9317
▁valentine	-11.9317
▁longcheng	-11.9317
▁nplawg	-11.9318
▁khejme	-11.932
▁99%	-11.932
▁likely	-11.9327
▁rep	-11.9332
ceeb	-11.9336
lee	-11.9338
▁politicians	-11.9342
tsav	-11.9346
free	-11.935
▁citizens	-11.9351
taking	-11.9351
▁naam	-11.936
coob	-11.936
▁maas	-11.9366
▁xk	-11.9367
▁freezer	-11.9391
▁document	-11.9392
▁village	-11.9394
▁conflict	-11.9398
▁txho	-11.9406
▁nabkaj	-11.9409
▁okay	-11.9409
▁zawv	-11.941
▁txuv	-11.9416
▁yawmsaub	-11.9421
te	-11.9426
even	-11.9427
rog	-11.9428
▁niamtais	-11.9429
...."	-11.9433
▁tshaus	-11.9433
▁niamtij	-11.9441
▁---	-11.9449
▁terms	-11.9452
▁blind	-11.9454
▁02	-11.9464
▁maslawv	-11.9466
▁cross	-11.948
▁attitude	-11.9486
▁faith	-11.9491
▁neua	-11.9493
col	-11.9496
▁families	-11.9497
▁nthav	-11.9497
▁minh	-11.9497
▁constructive	-11.9499
▁guilty	-11.95
chaw	-11.95
▁hmmm	-11.95
▁orange	-11.95
▁pojnrauj	-11.9502
▁txwg	-11.9503
▁152	-11.9506
▁mhong	-11.9508
▁cij	-11.951
▁messages	-11.9519
....!	-11.9524
▁nem	-11.9537
nyuag	-11.954
cm	-11.9549
ntev	-11.9554
▁tawmtsam	-11.9555
▁mistake	-11.9561
▁thum	-11.9568
▁nces	-11.9569
tib	-11.9573
▁respond	-11.9586
▁beyond	-11.9589
▁forgive	-11.9592
▁cheat	-11.9592
▁rhiav	-11.9594
▁ethical	-11.9594
▁daug	-11.9595
▁spiritual	-11.9595
▁osxaum	-11.9595
▁sibtxeeb	-11.9597
▁car	-11.9604
nyab	-11.9606
pec	-11.9613
▁ra	-11.9614
▁terrorists	-11.9615
▁mivntsiv	-11.9627
qub	-11.9628
lprd	-11.9631
good	-11.9636
xa	-11.9638
▁uw	-11.9639
▁street	-11.9666
▁donation	-11.9668
▁value	-11.967
▁target	-11.9674
▁advise	-11.9676
▁plhaw	-11.9676
▁aeon	-11.9679
▁marxfree	-11.9679
▁vaajncuab	-11.9679
▁circle	-11.968
▁zong	-11.9681
▁qaws	-11.9681
▁kgb	-11.9681
▁fuas	-11.9682
▁cis	-11.9684
▁alive	-11.9685
hmo	-11.9685
▁bass	-11.9685
▁cej	-11.9688
▁ntxig	-11.9692
▁peoples	-11.9695
▁1%	-11.9696
▁nroov	-11.9698
thoj	-11.9699
▁dlaa	-11.9707
▁$10	-11.9709
▁boy	-11.9712
▁rawg	-11.9713
▁org	-11.9714
▁sus	-11.9715
!....	-11.9721
photo	-11.9721
▁klos	-11.9733
▁25,	-11.974
▁zex	-11.9744
▁celebration	-11.9757
▁claims	-11.9757
▁quarter	-11.9758
▁promise	-11.9759
▁advisor	-11.9759
shack	-11.9759
▁kau	-11.9764
▁ethnic	-11.9768
▁donate	-11.977
▁missionary	-11.9772
▁downunder	-11.9772
▁express	-11.9772
▁vuab	-11.9773
▁interested	-11.9774
▁nciab	-11.9777
▁boua	-11.9777
▁(2)	-11.9779
▁hej	-11.9782
▁yum	-11.979
content	-11.9805
pa	-11.9809
▁lots	-11.9814
phwvnyawm	-11.9818
▁hoo	-11.9823
▁prefer	-11.9828
▁min	-11.983
lib	-11.984
▁xwsli	-11.9846
▁verb	-11.9847
▁funding	-11.9855
▁1970	-11.9857
▁quality	-11.9866
▁paris	-11.9868
▁qaumteb	-11.9871
▁lugntsuag	-11.9871
▁stories	-11.9872
▁8-9	-11.9872
▁hws	-11.9874
▁naas	-11.9878
▁stick	-11.9879
▁txeeg	-11.988
anti	-11.9888
▁medals	-11.9895
square	-11.9912
00	-11.9916
nraug	-11.9918
▁sue	-11.9929
▁sem	-11.9939
▁ri	-11.9945
▁delegation	-11.9945
▁stage	-11.9947
▁partner	-11.9948
▁kid	-11.9948
▁rai	-11.995
▁kiabtoom	-11.9959
▁phalak	-11.996
▁teach	-11.996
poob	-11.9962
▁legitimate	-11.9962
mr	-11.9962
▁kasxim	-11.9962
▁kasmias	-11.9962
▁confused	-11.9964
▁active	-11.9977
▁gas	-11.9978
▁tomtxwv	-11.9982
▁suaj	-11.9989
▁xoos	-11.9992
kam	-11.9997
▁allow	-11.9999
player	-12.0007
heev	-12.001
▁count	-12.0011
ze	-12.0011
▁pebmoob	-12.002
lim	-12.0024
▁japanese	-12.0041
▁150	-12.0043
▁1990	-12.0051
ham	-12.0054
archan	-12.0055
▁npluanuj	-12.0055
▁responsible	-12.0056
▁npias	-12.0056
▁proud	-12.0056
▁environment	-12.0056
▁cwjsoquav	-12.0056
▁third	-12.0058
▁ncaimtseemnco	-12.0058
▁kwvyees	-12.0065
▁ntxhuav	-12.0066
▁txaws	-12.0067
▁blue	-12.0068
▁tshaum	-12.0073
▁shit	-12.0074
las	-12.008
▁nphau	-12.0084
▁ntshaa	-12.0086
nram	-12.0095
how	-12.0103
leejtwg	-12.0105
▁depend	-12.0108
▁touch	-12.0121
30	-12.0129
toj	-12.013
▁bia	-12.014
xaiv	-12.0141
▁student	-12.0143
▁hmonglao	-12.0146
embedded	-12.0151
▁half	-12.0151
▁failed	-12.0151
▁success	-12.0152
▁txaijnrob	-12.0152
▁impossible	-12.0152
less	-12.0152
▁thread	-12.0153
▁voog	-12.0154
▁happiness	-12.0154
▁motel	-12.0155
▁simneej	-12.0156
▁period	-12.0157
▁ceevxwm	-12.0158
▁nyajlaj	-12.0158
hi	-12.0168
▁kug	-12.017
▁changed	-12.017
su	-12.0173
▁tojsiab	-12.0185
.....!	-12.0187
article	-12.0187
tais	-12.0202
▁chou	-12.0212
▁sent	-12.0215
lu	-12.0217
▁xyo	-12.023
▁says	-12.0238
▁profile	-12.0242
▁organize	-12.0245
▁worth	-12.0246
lees	-12.0247
▁sinwung	-12.0248
▁dejntshiab	-12.0248
▁xeebntxwv	-12.0249
▁homphaj	-12.025
ncauj	-12.0251
▁opposite	-12.0251
▁elders	-12.0252
▁npais	-12.0255
▁tsovtom	-12.0256
▁copv	-12.0256
▁lhuas	-12.0257
▁qabrooj	-12.026
▁majmam	-12.0261
▁communism	-12.0262
▁nyov	-12.0263
▁design	-12.0265
▁ntsov	-12.027
ah	-12.0271
▁posting	-12.0274
lqu	-12.0279
ies	-12.0298
of	-12.0307
vajtswv	-12.0309
▁haslug	-12.0312
▁nrhov	-12.0316
▁fu	-12.0319
▁influence	-12.0332
▁deserve	-12.0332
▁tree	-12.0335
▁tried	-12.0346
▁plho	-12.0347
▁vom	-12.0348
▁dabqhua	-12.0348
▁hunting	-12.0348
▁subtuam	-12.035
▁james	-12.0351
▁cajdab	-12.0351
▁nraav	-12.0353
moos	-12.0356
▁ncaujlus	-12.0357
▁warning	-12.036
▁naikhu	-12.0364
▁destroy	-12.0369
huab	-12.0369
▁txhaab	-12.0371
laws	-12.0376
▁ntsias	-12.0386
▁khia	-12.0387
▁lintawd	-12.0389
▁incident	-12.041
▁pure	-12.0414
niaj	-12.0419
▁$10,000	-12.0427
▁hoos	-12.0431
▁executive	-12.0431
▁minute	-12.0435
▁letter	-12.0438
▁xyw	-12.0439
▁nyawj	-12.0445
▁doctawm	-12.0446
▁tshawbfawb	-12.0446
▁membership	-12.0446
▁upon	-12.0448
▁weak	-12.0451
▁xeej	-12.0457
▁plhws	-12.0458
92	-12.0469
▁sep	-12.0487
noob	-12.0487
▁ler	-12.0488
▁tek	-12.0492
▁chat	-12.0493
▁gettin	-12.0494
--------------	-12.0497
limhiam	-12.0497
oz	-12.0497
suab	-12.05
▁region	-12.0512
▁soo	-12.0517
▁kais	-12.0526
▁request	-12.0529
▁qhaus	-12.053
vwm	-12.053
▁rape	-12.053
▁fi	-12.0531
▁killing	-12.0535
▁achieve	-12.054
▁tejno	-12.054
▁divorce	-12.0543
▁straight	-12.0545
▁moospheeb	-12.0545
▁chairman	-12.0545
▁deputy	-12.0545
▁minyuam	-12.0546
▁identity	-12.0547
▁arkansas	-12.0547
▁zwj	-12.0547
▁moment	-12.0548
▁forever	-12.0548
▁probably	-12.0549
▁qoj	-12.0549
▁nhubkaj	-12.055
▁tasseng	-12.055
▁large	-12.0552
▁65	-12.0562
▁pais	-12.057
▁agents	-12.0578
lab	-12.0591
▁qhaib	-12.0593
▁alien	-12.0595
▁tubki	-12.0605
▁ceb	-12.0621
▁web	-12.0628
ty	-12.0632
when	-12.0633
▁1/10	-12.0633
▁nuad	-12.0634
▁raag	-12.0646
▁administration	-12.0646
▁option	-12.0647
▁captain	-12.0647
▁monitor	-12.0647
▁khabmeem	-12.0647
▁flexible	-12.0648
pe	-12.0651
▁tp	-12.0652
▁txoog	-12.0652
▁understanding	-12.0652
▁txivntxawm	-12.0653
▁shame	-12.0653
▁plob	-12.0655
pem	-12.0656
▁yajceeb	-12.0656
▁soldiers	-12.0657
▁given	-12.0659
▁pias	-12.0661
▁ntawb	-12.0662
▁xz	-12.0665
▁hawb	-12.0666
▁pojnom	-12.067
▁muv	-12.0673
yuam	-12.0674
hahahahahahahaha	-12.0675
▁pick	-12.0676
▁vaajhmoob	-12.0685
▁kiss	-12.0688
▁xuav	-12.0692
▁15,	-12.0699
especially	-12.0701
▁leo	-12.0714
▁area	-12.0714
ntsuaghmoobruam	-12.0733
▁affect	-12.0733
▁criticism	-12.0736
▁blogteb	-12.0739
▁mayor	-12.0739
▁mine	-12.0742
▁kangaroo	-12.0744
▁ncai	-12.0748
▁txiajntsim	-12.0749
▁inches	-12.0749
▁nrees	-12.0749
▁folks	-12.0751
▁permanent	-12.0752
▁cma	-12.0752
▁tostaub	-12.0755
▁remind	-12.0755
tsab	-12.0756
▁nor	-12.0756
loo	-12.0759
▁keev	-12.0762
▁buffalo	-12.0762
▁honey	-12.0763
▁pc	-12.0767
▁agreed	-12.078
▁sun	-12.0791
ntoo	-12.0791
▁hloo	-12.0801
nkaus	-12.0807
▁ntas	-12.0809
they	-12.0816
▁cat	-12.0818
▁directors	-12.0818
▁$5	-12.0821
▁nqag	-12.0823
▁scholarship	-12.0839
▁william	-12.084
▁kv	-12.084
▁laotian	-12.0844
▁anymore	-12.0852
▁tseemy	-12.0852
▁xaivkaub	-12.0853
nyuamqhuav	-12.0855
▁xaivxwm	-12.0855
21	-12.0856
▁encourage	-12.0862
▁qhos	-12.0863
▁sometimes	-12.0863
▁dang	-12.0865
▁mekong	-12.0866
):	-12.0866
▁39	-12.087
▁dlo	-12.0876
▁dhua	-12.0883
puag	-12.0893
▁bit	-12.0896
pib	-12.0909
tshaj	-12.0911
▁txhi	-12.0912
▁nan	-12.092
▁vi	-12.093
▁suggestion	-12.0942
▁statue	-12.0944
▁nris	-12.0948
nyiam	-12.0951
▁honest	-12.0954
▁homework	-12.0955
▁zejzog	-12.0958
▁nyub	-12.0959
miv	-12.096
▁indochina	-12.096
▁relatives	-12.0965
▁paid	-12.0966
==	-12.0971
▁cent	-12.0971
▁nqee	-12.0975
▁pin	-12.0978
04	-12.0984
▁color	-12.0987
▁cd	-12.0988
oec	-12.0995
▁dad	-12.1019
▁mask	-12.1022
▁yiv	-12.1023
nim	-12.1036
▁damage	-12.1042
▁vis	-12.1045
▁condition	-12.1046
▁chapter	-12.1047
▁mark	-12.1051
▁discuss	-12.1058
▁advantage	-12.1061
▁beginning	-12.1061
▁philosophy	-12.1062
▁adopt	-12.1063
▁kauslim	-12.1063
▁tawd	-12.1064
▁thursday	-12.1065
▁section	-12.1067
▁moobdlawb	-12.1067
▁proper	-12.1071
▁houei	-12.1071
▁txheevcom	-12.1071
raug	-12.1074
▁1975,	-12.1074
pub	-12.1077
▁minority	-12.1078
noog	-12.1086
▁sisters	-12.1089
8&	-12.109
▁reported	-12.1091
▁ga	-12.1095
▁ntav	-12.1099
yij	-12.1105
▁insult	-12.1107
forms	-12.1111
▁01	-12.1112
▁ntsua	-12.1113
▁dle	-12.1121
flop	-12.1121
▁txawjntse	-12.1123
▁thua	-12.1131
xov	-12.1144
jec	-12.1144
▁soviet	-12.1148
▁finger	-12.1153
▁sea	-12.1155
▁survive	-12.1164
▁huamnab	-12.1167
▁koomtsishaum	-12.1168
▁digmuag	-12.1169
▁assistant	-12.1169
▁deep	-12.1171
▁zum	-12.1174
▁zauv	-12.118
▁isn	-12.1183
▁huj	-12.1184
tooj	-12.1185
▁thus	-12.119
▁tees	-12.119
▁38	-12.1195
▁zoonkauj	-12.1205
▁actions	-12.1215
phav	-12.1227
▁nrooj	-12.1227
ts	-12.1236
men	-12.124
▁marry	-12.1244
▁nya	-12.1245
▁politik	-12.126
et	-12.127
aws	-12.1271
▁delete	-12.1273
▁prevent	-12.1275
▁doubt	-12.1275
▁techaws	-12.1275
▁exercise	-12.1275
▁seriously	-12.1276
▁1995	-12.1277
▁camera	-12.1277
▁pobtawb	-12.1277
▁waiting	-12.1278
▁kheb	-12.1278
▁kabmob	-12.1278
▁van	-12.1279
▁saiv	-12.1279
▁txhawv	-12.1279
▁christians	-12.128
uk	-12.1282
▁phaub	-12.1286
▁qhuabke	-12.1287
▁hmooob	-12.1289
▁depends	-12.129
▁ntsawv	-12.1294
▁hlaab	-12.1298
▁intellectuals	-12.1305
yab	-12.1307
▁aug	-12.1311
▁tee	-12.1315
▁xaub	-12.1317
▁plhus	-12.1332
▁nu	-12.1336
from	-12.1336
▁formula	-12.1337
▁yib	-12.1339
▁thee	-12.1349
▁facts	-12.1351
▁meejx	-12.1366
▁building	-12.1376
▁uaneej	-12.1376
don	-12.1381
▁tzianeng	-12.1383
▁nrhuav	-12.1383
▁peebzeej	-12.1385
▁ntxuaj	-12.1386
▁30-40	-12.1387
▁outside	-12.1387
▁nkoos	-12.1389
▁pobkws	-12.1391
▁xyob	-12.1391
▁propose	-12.1393
▁timkhawv	-12.1394
▁plev	-12.1395
fr	-12.1398
▁je	-12.14
▁der	-12.1404
pim	-12.1412
▁zeg	-12.1413
▁officers	-12.1414
▁pabpawg	-12.1418
hm	-12.1419
.00	-12.1427
video	-12.1434
▁miss	-12.1436
▁communists	-12.1437
hav	-12.1441
pic	-12.1449
▁lp	-12.1453
see	-12.1462
▁spouse	-12.1477
▁vong	-12.1478
▁population	-12.148
▁caslos	-12.1481
▁rich	-12.1482
▁kablia	-12.1483
▁certificate	-12.1486
teeb	-12.1492
▁map	-12.1492
▁degrees	-12.1492
▁tswjhwm	-12.1493
▁improve	-12.1494
▁available	-12.1494
▁nyua	-12.1495
▁europe	-12.1496
▁sisavang	-12.1498
▁yeah	-12.15
▁naim	-12.1504
▁sang	-12.1504
▁thiag	-12.1505
▁nwm	-12.1507
▁tomqaab	-12.151
▁txivtub	-12.1516
▁3-	-12.1518
▁yawgnom	-12.1544
▁seek	-12.1545
ms	-12.1546
▁txawjx	-12.1566
________________	-12.1575
▁dho	-12.1579
▁$20	-12.1582
0&	-12.1585
▁declare	-12.1586
▁hr	-12.1588
kaj	-12.1588
phom	-12.1589
▁flien	-12.1601
▁preach	-12.1602
▁xiengkhouang	-12.1604
▁ruamqauj	-12.1605
▁virus	-12.1606
▁vaugh	-12.1606
mo	-12.1606
▁fooj	-12.1606
▁nkawj	-12.1607
▁txhawm	-12.1608
▁terrorism	-12.1609
▁safety	-12.1609
vu	-12.1612
▁bride	-12.1614
twm	-12.1615
▁laugtxawj	-12.162
▁phuam	-12.1628
vam	-12.1639
▁door	-12.1642
▁ncas	-12.1643
hoc	-12.1643
▁xay	-12.1648
moobsib	-12.1649
tiny	-12.1651
▁method	-12.1667
freedom	-12.1669
why	-12.167
▁fes	-12.1673
▁art	-12.1677
▁yamli	-12.168
▁bath	-12.1689
ciaj	-12.1697
▁festival	-12.1703
▁nephew	-12.1705
▁response	-12.1706
▁mao	-12.1708
▁qham	-12.171
▁1975.	-12.1716
▁worst	-12.1718
▁germany	-12.1718
▁retirement	-12.1719
▁favor	-12.172
▁september	-12.1721
▁ntxaag	-12.1721
▁following	-12.1721
▁ntsauv	-12.1722
▁unity	-12.1723
▁dialect	-12.1724
▁oops	-12.1726
▁nteev	-12.1727
▁raising	-12.1727
▁ciov	-12.1728
▁followers	-12.1728
▁bar	-12.1729
▁pomzoo	-12.1748
▁labor	-12.1753
▁paas	-12.1754
▁pasdej	-12.1756
15	-12.1758
dlaab	-12.1761
search	-12.1782
nyablaj	-12.1784
taub	-12.1789
wiki	-12.1794
ls	-12.1797
▁cu	-12.1802
hawj	-12.1808
▁dumb	-12.1808
▁souvanna	-12.1811
▁plooj	-12.1815
▁qualification	-12.1818
▁adjective	-12.182
▁behavior	-12.182
xab	-12.1821
▁surrender	-12.183
▁nreeg	-12.183
▁protection	-12.183
▁property	-12.1831
▁vegas	-12.1831
▁bless	-12.1832
▁maivnas	-12.1832
▁budget	-12.1833
▁perhaps	-12.1834
▁nploog	-12.1834
▁ffc	-12.1834
▁korea	-12.1834
gpia	-12.1835
▁txhaws	-12.1836
▁pawj	-12.1838
▁career	-12.1846
▁phouma	-12.1847
▁1).	-12.1853
▁pojyawm	-12.1865
▁yuab	-12.1866
▁5)	-12.1871
▁xyuav	-12.1877
▁ice	-12.1892
aol	-12.1892
web	-12.1897
tsov	-12.1901
123	-12.1902
▁12.	-12.191
?????	-12.1918
▁contribute	-12.1928
▁vaajtsw	-12.1932
▁figure	-12.1933
▁grand	-12.1941
▁translate	-12.1944
▁limham	-12.1947
...!	-12.1948
▁ghia	-12.1949
▁neutral	-12.195
▁charles	-12.195
▁younger	-12.195
▁popular	-12.1952
▁sawvcev	-12.1952
southeast	-12.1954
▁unknown	-12.1957
▁oblub	-12.196
▁sauntawv	-12.1971
liaj	-12.1972
▁sit	-12.1992
▁ruav	-12.1996
religion	-12.1999
▁tshu	-12.2001
ation	-12.2003
rry	-12.2014
▁apr	-12.2016
cuag	-12.2016
▁lwb	-12.2023
▁ntia	-12.2029
▁qaj	-12.2034
tsa	-12.204
maiv	-12.205
▁trouble	-12.2051
eng	-12.2056
▁appreciate	-12.206
▁nuclear	-12.2061
▁governing	-12.2062
gov	-12.2063
▁zuagpaj	-12.2063
▁sayasith	-12.2064
▁speaking	-12.2065
▁necessary	-12.2067
▁higher	-12.2067
▁usually	-12.2069
▁employees	-12.2069
▁hauvpaus	-12.207
▁txivplig	-12.2077
▁nyuajsiab	-12.2082
▁ntximli	-12.2087
▁20,000	-12.2089
▁tibzoo	-12.2091
▁ameskas	-12.2095
▁qhovrooj	-12.2102
luas	-12.2103
▁0	-12.211
▁yours	-12.2113
king	-12.212
▁npuam	-12.2122
▁image	-12.2133
▁**	-12.2145
▁path	-12.2146
▁gene	-12.2147
lwj	-12.2159
▁sport	-12.217
▁compete	-12.2172
▁qhovntawd	-12.2177
▁nia	-12.2179
▁violate	-12.2179
▁1974	-12.2179
▁participate	-12.2179
▁goverment	-12.2179
▁percent	-12.218
▁rhab	-12.218
▁shake	-12.218
▁feemcoob	-12.2185
▁lpb	-12.2185
▁false	-12.2186
▁lucky	-12.2188
▁thuab	-12.2192
lqa	-12.2195
▁thoos	-12.2201
▁koomtes	-12.2204
▁vm	-12.2213
▁haukev	-12.2216
▁cum	-12.2226
yw	-12.2229
▁tsaw	-12.2231
▁21,	-12.2245
ntsoov	-12.2245
story	-12.2258
nab	-12.226
▁pr	-12.2263
▁experiences	-12.2266
▁1985	-12.2268
ns	-12.2274
▁haud	-12.2276
▁dhauli	-12.2277
▁tseebx	-12.2278
▁plhw	-12.2281
ceg	-12.2281
▁carolina	-12.2283
▁regret	-12.2284
▁piece	-12.2285
▁belong	-12.2287
▁movement	-12.2287
▁phanya	-12.2287
xyooj	-12.2288
▁vajtse	-12.2296
fab	-12.2296
▁recommend	-12.2297
▁nkas	-12.2298
▁teleport	-12.2298
▁veescam	-12.2298
▁tivthaiv	-12.2299
▁started	-12.23
▁yopg	-12.23
▁quavntsej	-12.2301
▁sisili	-12.2302
▁uabnyuab	-12.2302
▁dictionary	-12.2302
▁criticize	-12.2303
▁ect	-12.2303
▁birthday	-12.2304
▁mivkas	-12.2304
▁txawjxoom	-12.2305
ness	-12.2307
▁drop	-12.2308
▁nuag	-12.231
▁diplomatic	-12.231
▁txham	-12.2315
world	-12.2318
▁keem	-12.2319
ntxawg	-12.2326
▁hit	-12.2326
nh	-12.2329
▁civil	-12.2332
wi	-12.2333
▁khong	-12.2346
▁bi	-12.2357
▁maij	-12.2361
▁hahahahha	-12.2362
▁kia	-12.2368
laib	-12.2371
true	-12.2378
piav	-12.2379
▁31	-12.2383
▁xyem	-12.2386
qhua	-12.2389
▁aid	-12.2391
▁mib	-12.2396
con	-12.2397
▁1973	-12.2401
▁takes	-12.2402
ka	-12.2405
▁qhi	-12.241
show	-12.2418
km	-12.2419
▁russia	-12.2419
▁extra	-12.242
▁ideology	-12.242
▁pamthawj	-12.2421
▁hauvpaug	-12.2423
▁saumtoj	-12.2423
▁qawg	-12.2425
▁mabdawb	-12.2425
▁17,	-12.2426
▁1/2	-12.2428
▁(3)	-12.2429
▁province	-12.2429
▁ntxws	-12.2432
▁ntsawj	-12.2433
▁options	-12.2436
▁sexy	-12.2436
▁khaiv	-12.2436
▁kue	-12.2445
▁txaw	-12.2456
▁yais	-12.2456
▁regards	-12.2456
▁ascas	-12.2456
▁reach	-12.2471
▁thoughts	-12.2473
▁niamntawv	-12.2476
qaab	-12.2478
▁wis	-12.2479
▁sibluag	-12.248
=0	-12.2481
▁2).	-12.2499
▁23,	-12.2501
▁lajhais	-12.2501
▁interpretation	-12.2525
▁turkey	-12.2525
▁excuse	-12.2527
url	-12.2529
▁jack	-12.2532
▁ibtxhia	-12.2533
yob	-12.2539
▁2002	-12.254
▁larry	-12.254
▁txheejtxheem	-12.2541
▁plhaub	-12.2541
▁ndlav	-12.2542
▁alliance	-12.2542
▁nreg	-12.2542
▁tshwjxeeb	-12.2542
▁nyaag	-12.2543
▁luangprabang	-12.2543
▁across	-12.2546
general	-12.2548
▁nyhos	-12.2551
▁plas	-12.2551
▁tubntsuaghmoob	-12.2551
▁tsaiv	-12.2551
lqt	-12.2553
93	-12.2571
▁yawghlob	-12.2573
cav	-12.2578
▁huag	-12.258
▁ntxab	-12.2581
▁:):):)	-12.2592
▁13.	-12.2594
▁tejlaus	-12.2596
▁lprd	-12.2604
▁4,	-12.2609
▁---------------	-12.2614
▁pees	-12.2618
▁14,	-12.2621
time	-12.2634
ph	-12.2641
▁tshi	-12.2646
▁tape	-12.2649
▁fellow	-12.265
▁reference	-12.2652
▁racist	-12.2653
▁billion	-12.2654
▁1,000	-12.2655
▁msu	-12.2656
▁prepare	-12.2661
▁imagine	-12.2661
▁coalition	-12.2664
▁vajluskub	-12.2664
▁dlhuav	-12.2665
▁tsimmuajcia	-12.2665
▁iliki	-12.2665
▁lunch	-12.2665
▁thws	-12.2665
▁phaaj	-12.2666
▁tobe	-12.2666
▁finally	-12.2666
▁nruabnrab	-12.2666
▁privately	-12.2667
▁root	-12.2667
▁financial	-12.2668
▁fill	-12.2668
▁danger	-12.2669
▁pemsuab	-12.267
nawb	-12.2673
▁khes	-12.2675
▁phlom	-12.2678
more	-12.2684
▁khaab	-12.2688
tuam	-12.2693
▁zogli	-12.2698
▁dlab	-12.2699
▁$200	-12.2699
mhoob	-12.2701
tawg	-12.2702
▁sin	-12.2703
tsoob	-12.2705
▁critic	-12.2709
ting	-12.2709
hot	-12.2709
▁04	-12.2719
▁caas	-12.2724
neohom	-12.274
china	-12.2742
▁nij	-12.2752
▁evidences	-12.2758
▁nru	-12.2771
yeem	-12.2774
▁nujnqi	-12.2776
▁effect	-12.2776
dy	-12.2777
▁argument	-12.2777
▁bastard	-12.278
▁shot	-12.2781
▁push	-12.2781
od	-12.2788
▁assembly	-12.2789
▁smith	-12.2789
▁texas	-12.2789
▁sombath	-12.279
▁phan	-12.2791
▁riag	-12.2792
▁beautiful	-12.2793
▁officially	-12.2793
▁tomorrow	-12.2793
▁whoever	-12.2794
▁handle	-12.2795
▁closed	-12.2799
▁asking	-12.2801
▁poov	-12.2802
▁phanyas	-12.2803
▁needed	-12.2806
▁online	-12.2807
▁kablis	-12.2807
state	-12.2808
▁yub	-12.2813
▁vu	-12.2814
▁eve	-12.2835
▁55	-12.2837
▁abc	-12.284
▁sofa	-12.284
▁hee	-12.2843
▁puasyog	-12.2846
▁qu	-12.2847
ap	-12.285
▁pooj	-12.2853
luam	-12.2855
▁42	-12.2856
▁nyoob	-12.2857
▁pebhmoobruam	-12.2858
human	-12.2859
▁kiagli	-12.2864
▁hehe	-12.2866
back	-12.2872
▁sibyuav	-12.2872
▁14.	-12.2875
▁linov	-12.2882
▁nd	-12.2883
▁ken	-12.2884
▁gov	-12.2886
▁1968	-12.2897
gdqo	-12.2904
▁chicken	-12.2905
▁pen	-12.2911
▁opinions	-12.2912
▁realize	-12.2913
▁reflect	-12.2916
▁february	-12.2918
▁often	-12.2919
▁nthwv	-12.292
▁poos	-12.2921
▁dnr	-12.2923
▁unite	-12.2925
▁pu	-12.2936
▁dawv	-12.2936
▁100%.	-12.2938
txuj	-12.294
▁rumors	-12.294
▁tsws	-12.2943
▁..............	-12.2946
eeb	-12.2949
▁dom	-12.2974
doctor	-12.2983
lajntxiag	-12.2996
xejthim	-12.2996
▁dluas	-12.2996
thai	-12.3005
▁jul	-12.3007
tshuaj	-12.301
▁oppose	-12.3014
▁ruab	-12.3017
▁thaumkawg	-12.3023
▁26,	-12.3025
▁violation	-12.3031
▁customer	-12.3031
1.	-12.3032
▁fear	-12.3034
▁kin	-12.3037
▁union	-12.3037
▁hmooblees	-12.3039
▁soul	-12.3039
▁brought	-12.3043
▁federation	-12.3044
▁discredit	-12.3044
▁surgery	-12.3044
▁han	-12.3044
▁sleep	-12.3045
▁tshaam	-12.3046
▁nplag	-12.3046
▁ceevfaaj	-12.3046
▁giving	-12.3047
▁ntaim	-12.3048
▁manager	-12.3049
▁xyaav	-12.305
pdf	-12.305
▁mostxwv	-12.3051
▁hnyos	-12.3052
▁vow	-12.3062
hee	-12.3067
▁size	-12.3068
▁rs	-12.3076
▁tnv	-12.3081
▁mia	-12.3084
▁veterans	-12.3092
▁differences	-12.3096
▁benefits	-12.3096
▁thaumntawd	-12.3104
▁khus	-12.3105
▁thu	-12.3114
luaj	-12.3115
▁!!	-12.3124
respect	-12.3126
neohmong	-12.3127
▁dhiav	-12.3128
▁npa	-12.3132
▁qej	-12.3138
▁koomsiab	-12.3141
yees	-12.3141
%2	-12.3147
▁virgin	-12.3152
▁surprise	-12.3155
lc	-12.3158
▁mountain	-12.3162
▁scholar	-12.3166
▁store	-12.3166
▁chu	-12.3169
▁fuabtai	-12.3169
▁monkey	-12.317
▁taste	-12.317
▁lobby	-12.3172
▁twmzeej	-12.3174
▁progress	-12.3174
▁parties	-12.3175
▁mesliskas	-12.3175
▁morning	-12.3176
▁xaivnceb	-12.3176
▁zawj	-12.3177
▁intelligence	-12.3177
▁resistance	-12.3177
▁haw	-12.3179
▁vaajpov	-12.3179
▁pride	-12.3179
▁$$$$	-12.318
▁included	-12.318
▁peaceful	-12.3182
bla	-12.3184
▁videos	-12.3193
ch	-12.3198
▁lamkoom	-12.3199
▁plaubhau	-12.3204
ntxiv	-12.3208
▁$5,000	-12.3224
cob	-12.3233
mm	-12.3241
sam	-12.3242
history	-12.3244
edu	-12.3246
vmged	-12.3258
long	-12.3266
vauv	-12.3267
aum	-12.3268
▁txhuav	-12.3269
▁cool	-12.3289
▁remain	-12.3292
▁millionaire	-12.3294
▁trick	-12.3299
▁eye	-12.3301
▁approach	-12.3302
▁ntsaub	-12.3302
▁dynasty	-12.3306
▁planning	-12.3306
▁ntsablug	-12.3306
▁thaajyeeb	-12.3306
▁rhwv	-12.3306
▁kabxev	-12.3307
▁95%	-12.3308
▁older	-12.331
▁xabmaim	-12.3311
▁seeb	-12.3316
▁ability	-12.3317
▁khamtai	-12.3318
▁kiam	-12.3319
▁billions	-12.3322
▁nka	-12.3327
ias	-12.3327
▁diab	-12.333
▁qhav	-12.3333
cawv	-12.3338
▁principles	-12.3343
▁swv	-12.3349
▁pray	-12.335
▁shi	-12.3353
ey	-12.3354
thuam	-12.3363
▁zk	-12.3385
▁max	-12.3385
iam	-12.3386
▁grow	-12.3387
tejzaum	-12.3395
▁nplob	-12.3406
▁effort	-12.3425
▁baht	-12.3425
▁clue	-12.3426
▁hlox	-12.3432
▁collect	-12.3438
▁nyaij	-12.3439
▁ourselves	-12.3439
▁verify	-12.3439
▁rally	-12.3439
▁thajying	-12.344
▁fang	-12.344
▁rhav	-12.344
▁phoumi	-12.344
▁depression	-12.344
▁ignore	-12.3441
lql	-12.3441
▁khawvkoob	-12.3443
▁temptation	-12.3449
▁hmub	-12.3449
▁fish	-12.3449
▁txhuatus	-12.3451
▁met	-12.3451
life	-12.3453
▁yuavluag	-12.3457
mev	-12.3458
▁sibhawm	-12.346
▁northern	-12.3463
▁faim	-12.3463
▁80'	-12.3464
lec	-12.3467
▁txivneeg	-12.3484
▁bang	-12.3496
▁square	-12.3506
▁schools	-12.3514
bee	-12.3514
▁mrs	-12.3515
▁zoosab	-12.3523
▁bg	-12.3523
love	-12.3525
laura	-12.3526
english	-12.3526
docs	-12.3529
▁txawjxav	-12.3531
may	-12.3534
▁phum	-12.3536
▁gun	-12.3543
19	-12.3544
▁ntshi	-12.3545
▁yp	-12.3546
▁achan	-12.3547
▁sacrifice	-12.3558
▁nurse	-12.3561
▁1982	-12.3563
tawv	-12.3563
vaaj	-12.3566
▁keo	-12.3566
po	-12.3567
▁attend	-12.3569
▁quote	-12.3569
▁convert	-12.3572
▁kajliag	-12.3574
▁plastic	-12.3574
▁missed	-12.3574
▁bkk	-12.3575
▁xeevxwm	-12.3576
▁zawg	-12.3577
▁regular	-12.3577
▁npleg	-12.3577
▁fws	-12.3578
▁mon	-12.3578
▁tojroob	-12.3578
▁pliab	-12.358
▁ywjsiab	-12.3583
▁resources	-12.3584
▁vimlicas	-12.3585
▁qabntuj	-12.3585
34	-12.359
▁hna	-12.3591
▁gate	-12.3601
▁months	-12.3605
mov	-12.3605
nyeem	-12.3607
uli	-12.3616
vwj	-12.3624
▁nki	-12.363
di	-12.3648
gen	-12.3648
christian	-12.3649
muc	-12.3657
▁math	-12.3659
▁priest	-12.3661
▁yai	-12.3664
lig	-12.3666
▁victim	-12.3671
nug	-12.3673
▁auj	-12.3677
zam	-12.3678
▁hnag	-12.3683
▁xyu	-12.3695
▁reputation	-12.3696
▁disease	-12.3696
▁paragraph	-12.3696
▁apple	-12.37
▁ritual	-12.37
▁clip	-12.3701
▁location	-12.3704
▁newspaper	-12.3705
12	-12.3709
▁comprehend	-12.371
▁hinheup	-12.3711
▁spell	-12.3711
▁phagna	-12.3711
▁supreme	-12.3711
▁txomfaav	-12.3712
▁14-15	-12.3712
▁xyeeb	-12.3713
▁background	-12.3713
▁complete	-12.3714
▁mikas	-12.3714
▁vwg	-12.3714
▁foung	-12.3715
▁virtual	-12.3715
▁nplij	-12.3717
▁pacific	-12.3717
▁npawb	-12.3719
▁universe	-12.3721
▁maib	-12.3723
▁dlaig	-12.3723
▁hastxug	-12.3725
▁vig	-12.3726
▁nhria	-12.3728
▁threat	-12.373
gvp	-12.3736
▁pojkoob	-12.3737
▁harm	-12.375
▁draw	-12.3752
▁indian	-12.3753
▁24/7	-12.3754
▁npaab	-12.3756
sob	-12.3768
▁yoglawv	-12.3769
txheeb	-12.3771
▁plain	-12.3783
▁avoid	-12.3784
▁chom	-12.3784
▁ye	-12.3785
paum	-12.3789
▁develop	-12.3791
▁...........	-12.3795
47	-12.3798
including	-12.3802
▁knowing	-12.3806
▁democratic	-12.381
wj	-12.3812
▁11,	-12.3816
▁arrest	-12.3821
▁$1000	-12.3824
▁npaas	-12.3827
deb	-12.3833
▁rob	-12.3834
▁machine	-12.3837
▁translation	-12.3838
mi	-12.3839
▁exist	-12.3839
▁communication	-12.3841
▁appropriate	-12.3845
▁complaint	-12.3849
▁aderholt	-12.3849
▁apology	-12.3849
▁dekfangkhong	-12.385
▁pevtxwv	-12.385
▁namphong	-12.385
▁taiscaus	-12.385
▁asmelikas	-12.385
▁40-50	-12.385
▁therapy	-12.3851
▁denied	-12.3851
▁internal	-12.3852
▁economy	-12.3852
▁viagra	-12.3852
▁npwb	-12.3852
▁nkos	-12.3853
▁category	-12.3854
▁district	-12.3854
▁ram	-12.3854
tshiab	-12.3855
▁zajlaug	-12.3856
▁nang	-12.3856
▁resign	-12.3859
▁tswvcuab	-12.3859
▁learning	-12.3861
▁yajyeeb	-12.3862
▁fine	-12.3866
▁leejtxiv	-12.3871
▁ntsaa	-12.3875
ity	-12.3878
▁lf	-12.3879
▁nqaaj	-12.3882
hov	-12.3882
▁nre	-12.3882
▁1991	-12.3887
▁lawvle	-12.3894
▁pain	-12.3894
lav	-12.39
▁bab	-12.3902
▁estimate	-12.3905
▁predict	-12.3909
▁duali	-12.3929
plaub	-12.3937
▁ted	-12.3938
education	-12.3943
pobzeb	-12.3944
daim	-12.3947
▁dabteb	-12.3947
teev	-12.3949
▁ngo	-12.3953
some	-12.3961
▁qhovchaw	-12.3963
▁application	-12.3977
▁suspect	-12.3978
ij	-12.3981
▁murder	-12.3982
▁gang	-12.3983
haub	-12.3983
tl	-12.3986
▁suffer	-12.3987
▁priority	-12.399
▁noodlej	-12.3991
▁dovcav	-12.3991
▁uablag	-12.3991
▁anthony	-12.3992
▁nqas	-12.3993
▁admit	-12.3993
▁pxx	-12.3994
▁thimxav	-12.3994
▁thanksgiving	-12.3995
▁pizza	-12.3995
▁reunion	-12.3995
▁$$$	-12.3999
▁rice	-12.3999
▁ruj	-12.4
hhpc	-12.4002
▁mostly	-12.4002
zag	-12.4003
▁ave	-12.4004
▁playing	-12.4005
▁nploojsiab	-12.4006
looj	-12.4009
▁tiom	-12.4009
▁mobx	-12.4021
?)	-12.4025
kua	-12.4028
▁jon	-12.4044
taug	-12.4044
▁pi	-12.4048
▁programs	-12.4053
▁nplhu	-12.4054
kli	-12.4058
▁sick	-12.4077
yav	-12.4079
can	-12.408
came	-12.4081
▁txh	-12.4082
▁kevntseeg	-12.4082
day	-12.4084
women	-12.4084
▁moon	-12.4085
political	-12.4085
!!!!!!	-12.4086
ytk	-12.4087
▁leev	-12.4096
▁daib	-12.4098
radio	-12.4106
▁expression	-12.4118
▁follower	-12.4122
▁53	-12.4123
xiong	-12.4123
▁lat	-12.4124
lag	-12.4125
thanks	-12.4126
▁ru	-12.4128
)"	-12.4128
ku	-12.4129
▁..........	-12.413
▁xxxxxxxxxxxxxx	-12.4131
▁assistance	-12.4133
▁xijpeem	-12.4133
▁concept	-12.4134
▁realistor	-12.4134
▁comprehension	-12.4135
▁otv	-12.4135
▁kungfu	-12.4135
ba	-12.414
▁satan	-12.4141
chao	-12.4143
▁peblub	-12.4146
▁ntxaib	-12.4147
▁xaib	-12.4147
▁hlaws	-12.4147
▁mws	-12.4148
gb	-12.415
txaus	-12.4151
▁nimnov	-12.4153
bm	-12.4156
▁yawj	-12.4157
13	-12.4159
▁yem	-12.416
▁nraa	-12.4161
▁sc	-12.4162
▁kawgnkaus	-12.4164
▁catch	-12.4167
▁npeeb	-12.4168
▁net	-12.4173
▁worse	-12.4175
▁fruit	-12.4175
▁died	-12.4177
▁muav	-12.4178
line	-12.418
▁content	-12.4192
khwv	-12.4196
naj	-12.4196
with	-12.4203
▁yao	-12.4203
▁qhovncauj	-12.4206
▁tao	-12.4208
khawv	-12.4217
american	-12.4217
eem	-12.4219
▁eau	-12.4223
view	-12.4224
▁std	-12.4226
brandon	-12.423
sex	-12.4231
sawvdaws	-12.4231
vaajmoob	-12.4232
▁hello	-12.4233
mloog	-12.4238
ong	-12.4254
▁---------	-12.4259
▁spread	-12.4266
ga	-12.4267
▁suit	-12.427
▁modern	-12.4271
▁division	-12.4273
▁worship	-12.4275
rn	-12.4277
▁thanouxay	-12.4278
xaav	-12.4279
▁ntsiav	-12.4279
▁thaksin	-12.4279
▁txhoov	-12.4279
▁agency	-12.428
▁broken	-12.428
▁ohyo	-12.428
▁ntxw	-12.4281
▁confirmed	-12.4282
▁nqhes	-12.4283
▁loei	-12.4283
▁trash	-12.4283
▁nqaum	-12.4283
▁teeg	-12.4286
▁vub	-12.4286
▁npawm	-12.4287
▁dhi	-12.429
▁kevhlub	-12.4292
▁tibleeg	-12.4295
tswb	-12.4296
lem	-12.4301
▁experienced	-12.4302
koos	-12.4303
▁stars	-12.4303
▁caused	-12.4304
▁scholars	-12.4305
▁details	-12.4315
tswj	-12.4323
▁kevxaav	-12.4324
▁txhuayam	-12.4324
▁zaumno	-12.4327
▁laudh	-12.433
▁oy	-12.4342
▁tsaaj	-12.4342
▁mogx	-12.4343
tsoom	-12.4343
▁ntxaa	-12.4346
▁oil	-12.4347
!!!!!!!!!!!!!!!!	-12.4356
ao	-12.4361
▁5,	-12.4373
khib	-12.4377
▁credits	-12.4395
xxx	-12.4402
let	-12.4404
ever	-12.4407
▁speaker	-12.4412
▁fault	-12.4412
▁holiday	-12.4413
▁zai	-12.4414
=3	-12.4414
qhuav	-12.4418
▁evolution	-12.4424
▁mesnyuam	-12.4426
▁khiv	-12.4426
▁hatred	-12.4428
▁caijnyoog	-12.4428
▁phmd	-12.4428
▁lytek	-12.4429
▁ncag	-12.4429
▁meng	-12.4432
▁qhiv	-12.4433
▁near	-12.4435
▁nyuabsiab	-12.4436
▁ntshuas	-12.4448
▁1971	-12.4449
npaj	-12.4449
tuav	-12.4451
▁representatives	-12.4452
▁tasluaj	-12.4455
▁react	-12.4455
▁nkaujhmoob	-12.4458
▁khee	-12.4459
▁taken	-12.4463
set	-12.4464
khaws	-12.4465
▁yoob	-12.4472
▁plu	-12.4476
▁interests	-12.4481
▁som	-12.4481
are	-12.449
▁khij	-12.4499
▁dhaus	-12.4506
▁versa	-12.4507
very	-12.4514
▁mammus	-12.4514
wikipedia	-12.4524
▁noogdej	-12.4532
ntsej	-12.4534
▁minor	-12.4535
▁72	-12.4541
▁ntsau	-12.4544
▁muslim	-12.4545
▁44	-12.4552
▁pluam	-12.4557
▁nci	-12.4558
▁assumption	-12.456
▁dem	-12.456
▁ja	-12.4571
▁cook	-12.4572
▁careful	-12.4573
▁reasoning	-12.4573
▁access	-12.4574
▁faajkum	-12.4575
▁glad	-12.4575
▁telephone	-12.4575
▁npleem	-12.4576
▁chuck	-12.4576
▁pretend	-12.4577
▁wednesday	-12.4577
=1&	-12.4577
▁nkaujhmooblis	-12.4578
▁dlib	-12.458
▁groom	-12.4582
▁nk	-12.4583
▁thuav	-12.4585
▁ncawg	-12.4585
▁nkab	-12.4586
▁zees	-12.4589
zs	-12.4595
▁tsaig	-12.4596
old	-12.4596
▁coog	-12.4598
▁kick	-12.4611
▁txai	-12.4614
kis	-12.4616
75	-12.462
nce	-12.4629
▁mouas	-12.4634
2000	-12.4637
▁npluag	-12.4638
▁khais	-12.4641
hli	-12.4647
▁ad	-12.465
cuz	-12.4651
▁huua	-12.4654
self	-12.4658
lawb	-12.4659
cuab	-12.4669
xub	-12.4672
flip	-12.4678
tshoob	-12.4684
guc	-12.4684
▁clinic	-12.4687
tsum	-12.4689
mag	-12.4689
▁nkuj	-12.4696
blablabla	-12.4699
▁24,	-12.47
▁beat	-12.4701
ez	-12.4708
▁adult	-12.4716
▁ntom	-12.4717
▁tsamno	-12.4717
▁13,	-12.4718
▁sometime	-12.4718
▁ten	-12.4718
then	-12.4719
▁korean	-12.472
▁thajkhu	-12.4722
▁hartwick	-12.4726
▁ordinary	-12.4726
▁sayaboury	-12.4726
▁legacy	-12.4726
▁caivplawv	-12.4727
▁testify	-12.4727
▁popcorn	-12.4727
▁memory	-12.4727
▁counter	-12.4728
▁lpx	-12.4729
▁nak	-12.4729
▁nruav	-12.4729
▁tegnum	-12.4729
▁cavpem	-12.4731
▁wishes	-12.4731
▁wives	-12.4732
▁zone	-12.4732
▁puavpheej	-12.4739
▁nthos	-12.474
aka	-12.4742
▁tubpos	-12.4743
▁ntseej	-12.4743
▁tsavlis	-12.4743
▁values	-12.4751
▁xou	-12.4752
▁sounds	-12.4754
nai	-12.4755
sch	-12.4761
▁qhaum	-12.4762
▁affairs	-12.4762
rooj	-12.4763
▁yawb	-12.4766
oi	-12.4769
▁locha	-12.4772
▁txab	-12.4773
▁mix	-12.4776
▁nphob	-12.4789
tw	-12.4794
hloov	-12.4802
▁sibzog	-12.4803
ad	-12.4814
▁origin	-12.4818
txhiaj	-12.482
zos	-12.4837
rel	-12.484
▁kh	-12.484
vietnam	-12.4841
▁round	-12.4844
uab	-12.4847
▁sawd	-12.4853
▁laugh	-12.4857
...(	-12.4858
▁duj	-12.4861
▁sen	-12.4863
▁regime	-12.4867
yaam	-12.4868
nm	-12.4871
▁finding	-12.4874
▁island	-12.4877
▁hsp	-12.488
▁struggle	-12.488
ang	-12.4881
▁dovtawm	-12.4882
▁pleeg	-12.4882
54	-12.4883
▁engineering	-12.4883
▁vuas	-12.4883
▁chery	-12.4883
▁friendship	-12.4885
▁1969	-12.4885
▁phlis	-12.4885
▁yangdao	-12.4886
▁ghost	-12.4886
▁burma	-12.4887
▁povfwm	-12.4888
txim	-12.4888
▁tunoob	-12.4888
lqe	-12.4889
▁cau	-12.4891
▁nplais	-12.4891
▁examples	-12.4892
▁helping	-12.4893
quc	-12.4893
▁track	-12.4894
▁diaj	-12.4896
▁pajlug	-12.4896
▁txawjxab	-12.4898
▁lbs	-12.4902
cc	-12.4902
pam	-12.4904
▁neejsaub	-12.4906
▁5%	-12.4907
▁candidates	-12.4908
▁tamsi	-12.4908
▁kai	-12.4918
nuav	-12.4922
▁independent	-12.4935
say	-12.4944
▁goals	-12.4944
tsuag	-12.4946
4&	-12.4951
▁maus	-12.4956
right	-12.4965
▁khosiab	-12.4966
▁auto	-12.4967
▁dreams	-12.4969
thaj	-12.4973
eej	-12.4977
tony	-12.4978
tion	-12.4979
jesus	-12.4989
lpdr	-12.4989
▁tsislam	-12.4995
his	-12.4996
siav	-12.4997
▁tournament	-12.5021
▁observation	-12.5021
▁daughter	-12.5022
rua	-12.5033
▁introduce	-12.5034
▁approve	-12.5035
▁phawvnyawm	-12.5036
▁xabdias	-12.5036
▁yessus	-12.5036
▁hamilton	-12.5036
▁xubntiag	-12.5037
▁topics	-12.5037
▁certainly	-12.5037
▁conclude	-12.5037
▁ncaav	-12.5038
▁pyramid	-12.5038
▁survey	-12.5038
▁nhav	-12.5039
▁thaag	-12.5041
▁txhawjxeeb	-12.5041
▁thru	-12.5041
▁tshiav	-12.5042
▁txhog	-12.5044
▁rhe	-12.5047
▁kwg	-12.5047
▁zabdag	-12.5049
▁qwv	-12.5052
▁nhiav	-12.5054
▁qubqab	-12.5054
▁khawg	-12.5054
▁dedicate	-12.5054
▁decide	-12.5058
▁jhai	-12.5071
??????	-12.5073
▁religions	-12.5076
iuc	-12.5082
▁records	-12.509
lais	-12.5094
▁npli	-12.5096
▁rate	-12.5101
▁ntsho	-12.5106
▁vinais	-12.5109
mt	-12.5113
▁duaj	-12.5121
▁phi	-12.5126
▁books	-12.513
▁==	-12.513
▁tsaag	-12.5134
▁luther	-12.5135
▁20,	-12.514
nyuam	-12.5141
think	-12.5147
power	-12.5147
▁ww	-12.5148
▁smiles	-12.5153
▁ntxha	-12.5156
▁nkua	-12.5156
▁hahahah	-12.516
vd	-12.5166
▁.........	-12.5169
▁uniform	-12.5183
▁,,,	-12.5184
▁relative	-12.5184
▁29,	-12.5185
▁beside	-12.5188
puav	-12.5189
▁cwhp	-12.5193
▁ocean	-12.5196
▁phwvnyawj	-12.5196
▁loojmem	-12.5196
▁zomzaws	-12.5196
▁relate	-12.5197
▁formal	-12.5197
▁kitchen	-12.5197
▁sensitive	-12.5197
▁tsovrog	-12.5198
▁spend	-12.5198
▁forgot	-12.5199
▁yijlaug	-12.5199
▁foot	-12.52
▁400	-12.5202
▁hiavtxwv	-12.5203
▁civilized	-12.5203
▁phaav	-12.5204
▁20%	-12.5205
▁tagkhi	-12.5206
▁tshawv	-12.5213
▁qaim	-12.5214
▁ntsoos	-12.5216
▁qabnab	-12.5216
post	-12.5226
▁npaub	-12.5228
▁thob	-12.5231
ncj	-12.5233
▁ibzaug	-12.5235
▁mobsab	-12.5237
pl	-12.524
▁lostsua	-12.5244
▁tyv	-12.5244
▁lair	-12.525
▁host	-12.5252
▁islam	-12.5256
ncu	-12.5259
22	-12.5261
lino	-12.5264
▁covphoojywg	-12.5266
pum	-12.5273
ted	-12.5274
kws	-12.5277
▁slow	-12.5278
▁commit	-12.5282
kuam	-12.5285
▁nplo	-12.5295
caub	-12.5299
▁multi	-12.53
▁naws	-12.5303
daws	-12.5303
▁600	-12.5304
▁ikuv	-12.5314
hmoobruam	-12.5318
kevcai	-12.5321
uaj	-12.5328
▁observe	-12.534
▁perspective	-12.5342
▁favorite	-12.5342
moua	-12.5348
tls	-12.5349
▁nominate	-12.5353
▁pajpaws	-12.5356
▁sincerely	-12.5356
▁khamtay	-12.5356
▁england	-12.5356
▁tuamlijkoob	-12.5356
▁kidding	-12.5357
94	-12.5357
▁shur	-12.5358
kos	-12.5358
▁claire	-12.5358
▁clearly	-12.5358
lqw	-12.5358
▁dibiab	-12.5359
▁birth	-12.5359
▁peacock	-12.5359
▁harmony	-12.5359
▁ntshavpim	-12.536
▁plov	-12.536
▁acres	-12.5361
▁8-10	-12.5362
▁discrimination	-12.5362
▁dara	-12.5363
▁freely	-12.5363
▁ntsaug	-12.5364
▁immigration	-12.5365
▁plias	-12.5366
classified	-12.5366
▁tshawj	-12.5367
mfu	-12.5368
▁proven	-12.5368
▁nraws	-12.537
▁kutaw	-12.537
aa	-12.5374
▁txhau	-12.5375
sij	-12.538
▁hong	-12.5391
06	-12.5392
▁txivxaiv	-12.5395
meb	-12.5395
zw	-12.5402
lqq	-12.5405
▁hn	-12.541
▁individuals	-12.542
▁txws	-12.542
▁gift	-12.5423
▁norm	-12.5436
▁hlib	-12.5439
ck	-12.5445
▁txhuax	-12.545
▁qhovtseeb	-12.5452
▁vimtias	-12.5458
43	-12.5461
land	-12.5462
▁1996	-12.5467
madison	-12.5472
chinese	-12.5473
fresno	-12.5473
charlie	-12.5473
fwm	-12.5475
▁heevx	-12.5488
▁sac	-12.5488
nti	-12.5489
▁tshajpl	-12.5491
▁mid	-12.5496
▁twglos	-12.5498
▁drink	-12.5506
▁temple	-12.5507
▁soldier	-12.5508
▁female	-12.551
▁pwv	-12.551
▁reward	-12.5511
▁guest	-12.5515
=9	-12.5517
▁covkwvtij	-12.5521
▁qhuabqhia	-12.5521
▁plogteb	-12.5521
▁bokeo	-12.5522
▁tittle	-12.5522
▁newhom	-12.5522
▁cibnyeej	-12.5523
▁qhabmeem	-12.5524
phaj	-12.5524
▁thoov	-12.5525
▁pemsij	-12.5525
▁recognized	-12.5525
▁12,	-12.5527
▁talked	-12.5527
▁rhia	-12.5527
▁nrawv	-12.5531
▁hamtsi	-12.5531
▁yrs	-12.5532
▁ntxee	-12.5533
tabsim	-12.5534
▁nchaav	-12.5534
▁lubsijhawm	-12.5535
▁customers	-12.554
▁sports	-12.5541
▁.............	-12.5541
quas	-12.5543
toc	-12.5551
,000.00	-12.5552
klos	-12.5563
▁........	-12.5579
▁lum	-12.5585
▁govern	-12.5588
▁123	-12.5593
▁churches	-12.5593
▁whom	-12.5595
▁ntho	-12.5596
agf	-12.5598
▁chimx	-12.5604
thao	-12.5605
xaj	-12.5618
▁grave	-12.5619
▁fail	-12.5619
pas	-12.5628
▁sides	-12.5633
▁reporter	-12.5636
▁tubntxhais	-12.5638
kpnp	-12.5638
txivneej	-12.5639
victor	-12.5639
farmer	-12.5639
53	-12.5639
▁48	-12.5644
huam	-12.5654
ay	-12.5665
lqi	-12.5667
▁kevin	-12.5673
▁ar	-12.5674
▁input	-12.5675
▁direction	-12.5675
thab	-12.5685
▁lonewriter	-12.5686
▁vaajlugkub	-12.5687
▁tabmeeg	-12.5688
▁zujzug	-12.5688
▁tuamtshoj	-12.5688
▁prize	-12.5688
▁particular	-12.5689
▁1999	-12.569
take	-12.569
▁zaubmov	-12.5691
▁boring	-12.5692
▁personality	-12.5692
▁nplaws	-12.5692
▁najkhav	-12.5692
▁promised	-12.5693
▁independence	-12.5693
▁productive	-12.5693
▁tsimtxiaj	-12.5693
▁calling	-12.5698
▁pull	-12.5699
▁sky	-12.5701
▁politically	-12.5706
frm	-12.5709
▁txhas	-12.571
▁nyoj	-12.5713
▁yuavtau	-12.5714
ais	-12.5715
▁tsooj	-12.5718
▁vajtsev	-12.5724
▁ring	-12.5726
ntr	-12.5727
tsiaj	-12.5728
▁_	-12.5728
▁bail	-12.5734
ntxim	-12.5739
▁eev	-12.5745
▁views	-12.5747
▁lajntxiag	-12.575
yg	-12.5751
▁yuglos	-12.5755
▁ncus	-12.576
qau	-12.579
liv	-12.5795
▁ncee	-12.5803
▁addition	-12.5804
tnv	-12.5811
▁positions	-12.5815
city	-12.5815
asian	-12.5822
▁ntob	-12.5823
▁mho	-12.5827
▁$3	-12.583
▁driver	-12.5841
▁audience	-12.5842
▁treatment	-12.5842
▁guard	-12.5843
▁prejudice	-12.5846
▁channel	-12.5852
▁mok	-12.5853
▁tshuag	-12.5855
photobucket	-12.5856
▁smalley	-12.5856
▁afraid	-12.5856
▁mouanoutoua	-12.5856
▁18-25	-12.5857
▁samphong	-12.5857
▁recently	-12.5857
▁instinct	-12.5857
▁airport	-12.5857
▁schedule	-12.5857
▁dangerous	-12.5857
▁plws	-12.5859
▁floor	-12.586
▁tamsino	-12.5861
▁limited	-12.5861
▁mexico	-12.5861
▁nthawv	-12.5861
▁trade	-12.5863
▁kung	-12.5863
▁interpret	-12.5863
▁thomas	-12.5865
▁nwgnuav	-12.5866
▁consequences	-12.5866
ki	-12.5875
▁hmmmm	-12.5876
▁kay	-12.5883
▁vajlug	-12.5884
▁sat	-12.5887
▁cuabyeej	-12.5903
hub	-12.5903
▁nchos	-12.5913
tsw	-12.5919
▁ntevx	-12.5923
hoom	-12.5928
yaim	-12.5932
▁yaud	-12.5935
▁vimkuv	-12.5936
▁lived	-12.5938
tis	-12.5944
▁ntshab	-12.5949
▁osh	-12.595
▁tsauj	-12.5952
ung	-12.5955
ban	-12.5957
▁contradict	-12.5959
▁ml	-12.5959
kaus	-12.5963
▁tshajli	-12.5965
like	-12.5979
dib	-12.5983
awb	-12.5984
1600.	-12.5988
nc	-12.5989
▁33	-12.599
bs	-12.5995
▁firm	-12.6003
▁27,	-12.601
▁sentence	-12.6013
▁rav	-12.6015
▁vibnai	-12.6016
▁ntxhia	-12.6018
▁killer	-12.6019
▁kuvlub	-12.6022
▁hlas	-12.6022
▁buffet	-12.6029
▁golf	-12.6029
▁npaav	-12.6029
▁mainstream	-12.603
▁nowadays	-12.603
▁nkhawb	-12.603
▁txavtxim	-12.603
▁demonstration	-12.603
▁anouvong	-12.603
▁emotional	-12.6031
▁mutual	-12.6031
▁apart	-12.6031
▁deeg	-12.6033
▁library	-12.6033
▁paltalk	-12.6034
▁khev	-12.6034
▁txajdlis	-12.6035
uy	-12.6037
tig	-12.6038
▁legally	-12.6038
▁gold	-12.6038
▁appointed	-12.6039
▁fully	-12.6039
▁............	-12.6039
▁faav	-12.6042
▁data	-12.6044
▁pop	-12.6046
▁pawglug	-12.6047
▁zen	-12.6048
▁1988	-12.6055
ily	-12.6055
▁10-20	-12.6056
▁pobthawj	-12.6056
▁atf	-12.6056
yig	-12.606
▁hrs	-12.6073
tebchaws	-12.6076
▁cwb	-12.6076
▁thias	-12.6082
▁qais	-12.6083
▁brandon	-12.6086
▁practices	-12.61
ntsib	-12.6103
▁ntswb	-12.6107
▁hahahhaha	-12.6124
xaum	-12.6127
▁hahahahah	-12.6138
▁1983	-12.614
united	-12.6149
personal	-12.615
▁!!!!	-12.6151
xiv	-12.6154
▁associate	-12.6155
▁hole	-12.6156
▁looks	-12.6166
nyiag	-12.6168
cua	-12.6171
ris	-12.6179
▁review	-12.6187
▁ntxhe	-12.6187
▁$500	-12.6187
▁spring	-12.6189
▁contribution	-12.619
▁neighbor	-12.619
▁scientist	-12.6191
▁bridge	-12.6193
▁txhiam	-12.6194
hawm	-12.6198
▁grant	-12.6199
▁argue	-12.6202
▁chose	-12.6203
▁coojpwm	-12.6204
▁shopping	-12.6204
▁tsuvtum	-12.6204
▁separate	-12.6204
▁smelt	-12.6204
▁lastees	-12.6204
▁muatony	-12.6204
▁thoobtsib	-12.6205
▁intent	-12.6205
▁ndlag	-12.6205
▁xyuamxim	-12.6205
▁kaisone	-12.6206
▁qhatxug	-12.6206
albums	-12.6206
▁beginanew	-12.6206
▁hawaii	-12.6206
▁ibtxhis	-12.6206
▁considered	-12.6207
▁blej	-12.6207
▁average	-12.6208
▁calendar	-12.6208
▁nrwb	-12.6209
▁trial	-12.6211
▁lhwb	-12.6212
▁ncuv	-12.6213
▁dark	-12.6216
▁txujcai	-12.6217
▁twbywm	-12.6217
▁neegtojsiab	-12.6224
▁nrhw	-12.6226
▁nruabsiab	-12.6228
▁2001	-12.6229
▁iob	-12.6229
ni	-12.6233
▁cojdab	-12.6237
▁qhais	-12.6242
▁tea	-12.6242
▁000	-12.6243
▁dus	-12.6244
▁kad	-12.6246
real	-12.6247
▁jd	-12.6248
md	-12.625
▁accident	-12.6267
▁covdab	-12.628
!.....	-12.6286
▁compound	-12.6288
▁metal	-12.6289
▁dha	-12.6306
nrhiav	-12.6312
▁1984	-12.6315
▁1997	-12.6317
zaub	-12.6318
▁28,	-12.6329
tijlaug	-12.6336
▁thos	-12.6342
▁thiam	-12.6347
fa	-12.6351
▁nrha	-12.6363
politics	-12.6363
▁exchange	-12.6364
lexi	-12.6365
ea	-12.6367
▁shoot	-12.6368
proposed	-12.6369
▁wild	-12.6381
▁rescue	-12.6382
▁satisfy	-12.6383
▁duty	-12.6384
▁received	-12.6385
▁wahoua	-12.6385
▁pronoun	-12.6385
▁laosking	-12.6385
▁refuse	-12.6386
▁sweet	-12.6387
▁nationalism	-12.6387
▁npaim	-12.6387
▁vais	-12.6388
▁yesterday	-12.6389
▁nkuav	-12.639
▁pour	-12.6391
turned	-12.6393
▁mlm	-12.6394
▁road	-12.6396
▁thousands	-12.6397
daj	-12.6398
▁irs	-12.64
▁besides	-12.6402
▁critical	-12.6408
▁ntseem	-12.641
▁determine	-12.641
▁global	-12.6413
▁1994	-12.6414
▁pkm	-12.6415
▁3000	-12.6416
cam	-12.6418
ei	-12.6421
hy	-12.6421
▁txhaav	-12.6426
▁fix	-12.6429
▁nplaub	-12.643
▁plawm	-12.6432
ous	-12.6437
▁99	-12.6445
▁niamtsev	-12.6456
eh	-12.6465
txwm	-12.6471
▁gets	-12.6478
▁nrhau	-12.6482
ra	-12.6489
▁4-	-12.6491
▁nin	-12.6492
txug	-12.6493
▁offend	-12.6495
▁300,000	-12.6503
zoov	-12.6504
▁talks	-12.6504
▁command	-12.6505
tejzag	-12.6518
choj	-12.6518
▁qablos	-12.6519
hahahhaha	-12.6527
▁nkaw	-12.6533
its	-12.6537
▁:):)	-12.6537
▁desire	-12.6547
▁activist	-12.6551
▁require	-12.6551
▁flag	-12.6557
files	-12.6559
ntaus	-12.6562
▁finish	-12.6564
▁cuamtshuam	-12.6564
▁cyber	-12.6564
▁mccain	-12.6565
▁eliminate	-12.6565
▁nkhib	-12.6565
▁published	-12.6565
▁ilean	-12.6565
▁laujkaub	-12.6566
▁koomtxoos	-12.6567
▁palestine	-12.6567
▁arlington	-12.6567
▁qhub	-12.6567
▁accused	-12.6567
▁potential	-12.6568
▁txhimkho	-12.6568
▁75%	-12.6569
▁fantasy	-12.6569
▁correction	-12.657
▁vous	-12.657
▁lajkam	-12.6571
▁thorps	-12.6571
▁marketing	-12.6572
cev	-12.6572
▁zaim	-12.6572
▁liscuab	-12.6572
▁nge	-12.6574
▁served	-12.6574
▁fighting	-12.6575
▁kees	-12.6576
▁qhaim	-12.6578
▁qaa	-12.6578
▁chertoua	-12.6579
▁ncuas	-12.6582
haha	-12.6585
▁dauv	-12.6585
/07	-12.6588
▁neg	-12.6588
▁tel	-12.6591
▁farmer	-12.6603
▁yawv	-12.6609
▁qhaab	-12.6615
▁casab	-12.6618
ge	-12.662
▁$100,000	-12.6625
▁ntaa	-12.6634
hauj	-12.664
▁tactic	-12.6643
▁$3000	-12.6643
▁fuaj	-12.6646
▁player	-12.6646
▁khuas	-12.6652
▁reform	-12.6658
opinion	-12.6687
▁8,	-12.6687
py	-12.6689
hohoho	-12.6691
▁xem	-12.6695
▁pebhmoob	-12.6695
because	-12.6702
xis	-12.6703
hlwb	-12.6706
pb	-12.6707
▁kang	-12.6708
kaum	-12.6712
▁tr	-12.6715
rab	-12.672
▁180	-12.6725
▁250	-12.6728
lau	-12.6731
▁conversation	-12.6735
fe	-12.6736
▁educator	-12.6736
▁thousand	-12.6736
▁500,000	-12.6742
▁idiot	-12.6742
▁prince	-12.6742
▁jewish	-12.6748
▁remove	-12.6748
▁wake	-12.6749
▁credibility	-12.6749
▁phwnyawm	-12.6749
▁hitler	-12.6749
▁divide	-12.675
▁mccoy	-12.675
caij	-12.675
▁software	-12.675
▁memkuj	-12.6751
▁zuam	-12.6751
▁1950	-12.6751
▁analysis	-12.6751
▁enemies	-12.6752
▁condemn	-12.6752
▁1967	-12.6753
▁shoes	-12.6753
▁nrawj	-12.6753
▁adin	-12.6753
▁zky	-12.6754
,,,,	-12.6754
▁weakness	-12.6755
▁naturally	-12.6755
▁xes	-12.6755
▁tras	-12.6756
▁memorial	-12.6756
▁pathetlao	-12.6757
▁ntshia	-12.6757
▁lholi	-12.6758
▁grammar	-12.6758
▁plav	-12.6759
▁changing	-12.676
▁loan	-12.6761
pos	-12.6763
▁xwmkab	-12.6764
▁ytt	-12.6766
▁khomob	-12.6769
▁jun	-12.677
▁demonstrate	-12.6775
ntxub	-12.6779
▁nthua	-12.6783
▁lytec	-12.6787
rs	-12.679
nev	-12.6795
▁155	-12.6803
▁pictures	-12.6807
▁statements	-12.6809
▁beliefs	-12.6811
hn	-12.6819
big	-12.6825
liy	-12.6827
▁ntswm	-12.6831
pes	-12.6835
▁sala	-12.6841
▁nkaujfa	-12.6848
▁meat	-12.6851
san	-12.6872
your	-12.6881
them	-12.6883
▁chab	-12.6883
▁hahahha	-12.6889
please	-12.6891
▁ill	-12.6892
▁phon	-12.6893
▁sibhais	-12.6897
▁plaus	-12.6898
luv	-12.6899
plig	-12.6904
ds	-12.6905
▁blaj	-12.6907
▁15.	-12.6911
▁cold	-12.6919
▁produce	-12.692
▁employee	-12.6924
ntag	-12.6925
▁phrase	-12.6928
▁technical	-12.6935
▁accurate	-12.6935
▁automatic	-12.6936
▁easter	-12.6937
xej	-12.6938
▁invitation	-12.6938
▁kaosiabhlub	-12.6938
▁abraham	-12.6938
▁xuvxwm	-12.6939
▁somewhere	-12.6939
▁zimtxwv	-12.6941
▁hnyuv	-12.6941
▁humble	-12.6942
▁pehawm	-12.6942
▁saibx	-12.6943
▁judgement	-12.6943
▁npws	-12.6943
cy	-12.6944
▁acting	-12.6944
▁mistress	-12.6946
▁ntshij	-12.6947
▁publish	-12.6947
▁neejtsaa	-12.6948
▁plhom	-12.6949
▁ntxooj	-12.6951
▁telling	-12.6951
▁phlws	-12.6952
▁lff	-12.6952
lnk	-12.6954
▁tubnpis	-12.6958
▁nrhiab	-12.6961
▁golden	-12.6962
▁haaj	-12.6963
▁paav	-12.6965
▁lamw	-12.6966
▁rhuv	-12.6966
▁nkaujstp	-12.6973
▁ntsawg	-12.6974
32,	-12.6975
▁thjia	-12.6976
▁ntsu	-12.6978
▁nwb	-12.698
▁daiv	-12.6985
lhob	-12.6985
▁bear	-12.6991
▁taugkev	-12.6996
▁dias	-12.6997
mp	-12.6998
:"	-12.6999
▁ncoom	-12.7003
▁educational	-12.7008
▁sort	-12.7013
▁wise	-12.7015
▁happens	-12.7018
▁paoze	-12.7019
caag	-12.702
who	-12.7021
▁magic	-12.7022
now	-12.7032
▁gu	-12.7034
les	-12.7034
hahhahaha	-12.7036
5,	-12.7038
▁nyho	-12.7048
!!!!!!!!	-12.7052
▁heat	-12.7055
▁sing	-12.7058
ter	-12.7061
▁nrhu	-12.7063
▁exception	-12.7066
▁tiagtiag	-12.7071
nees	-12.7075
pheng	-12.7081
viv	-12.7083
▁plaj	-12.7083
fajkhaum	-12.7083
foom	-12.7085
zej	-12.7086
phwv	-12.709
95	-12.7093
▁yaas	-12.7094
vt	-12.7111
▁ntshoo	-12.7112
▁wikileak	-12.7117
▁structure	-12.7118
▁alphabet	-12.7125
▁exile	-12.713
▁lynhiavu	-12.713
▁tubcajces	-12.7131
▁ladies	-12.7131
▁prison	-12.7131
bo	-12.7132
▁kongmeng	-12.7132
▁twice	-12.7132
▁yajdaus	-12.7133
▁noobqes	-12.7133
▁pajnplaimcua	-12.7134
▁authorities	-12.7134
▁studies	-12.7134
▁humanright	-12.7134
▁tribal	-12.7135
▁pak	-12.7135
▁tujlub	-12.7136
▁scientific	-12.7136
▁allah	-12.7137
▁kamoos	-12.7137
▁earn	-12.7137
▁elementary	-12.7137
▁bin	-12.7138
▁cali	-12.7139
▁lease	-12.7141
ance	-12.7141
▁lajkab	-12.7143
▁tech	-12.7147
▁ncaujlug	-12.7148
...24/7....	-12.715
▁phawv	-12.7154
▁sum	-12.7155
xim	-12.7157
▁ntsoj	-12.7159
▁match	-12.717
▁pilots	-12.717
txaim	-12.7171
▁believed	-12.7172
▁powerful	-12.7174
-30	-12.7179
▁nroglawv	-12.718
khav	-12.7181
twv	-12.7187
▁xxx	-12.7195
=6	-12.7198
▁hunt	-12.72
▁bav	-12.7202
▁ther	-12.7211
pauv	-12.7226
▁tawmsis	-12.7229
▁chaofab	-12.7232
▁projects	-12.7233
30,000	-12.7235
=5	-12.7238
▁phuas	-12.7242
ate	-12.7243
▁xoj	-12.7245
▁dejsiab	-12.7251
▁nawm	-12.7276
except	-12.7278
mercenary	-12.7278
which	-12.7279
democracy	-12.7279
such	-12.7286
▁phuab	-12.7288
▁uacaag	-12.7294
▁22,	-12.7298
nb	-12.7308
▁begin	-12.7311
▁gangster	-12.7313
▁agreement	-12.7315
▁battle	-12.7316
▁sale	-12.7316
▁phoubia	-12.7319
▁session	-12.7319
▁hehehehehehehe	-12.7324
▁garage	-12.7326
▁oklahoma	-12.7326
▁liberty	-12.7326
▁sisavangvong	-12.7327
▁nplaam	-12.7327
▁disappointed	-12.7327
▁companies	-12.7327
▁fuabfwm	-12.7327
▁phasnyas	-12.7327
▁previous	-12.7327
▁academy	-12.7328
▁spider	-12.7328
▁homeland	-12.7328
▁nqog	-12.7329
▁jurors	-12.7329
▁najkhoos	-12.7329
▁asmekas	-12.733
▁samana	-12.7331
▁lieutenant	-12.7333
▁nkaujmim	-12.7333
▁xyaab	-12.7334
▁ntshaus	-12.7335
lqk	-12.7338
vy	-12.7338
▁ntaab	-12.7339
▁kavhlau	-12.734
▁haujsim	-12.7344
▁vaim	-12.7345
qa	-12.735
▁mnus	-12.7358
red	-12.7361
ncaj	-12.7363
▁npu	-12.7365
▁charter	-12.7368
▁lawn	-12.737
▁stabber	-12.7373
qw	-12.7374
▁phaws	-12.7376
jk	-12.7376
seem	-12.7379
▁oom	-12.7381
▁nobody	-12.7389
▁bat	-12.739
▁mees	-12.7392
▁nquas	-12.7392
▁ualicas	-12.7395
▁heheheh	-12.74
▁award	-12.7403
ray	-12.7403
▁primar	-12.7417
▁17.	-12.7419
npis	-12.7425
npau	-12.7426
way	-12.7427
▁rus	-12.7429
▁zaugli	-12.7444
▁lubtsev	-12.7446
phone	-12.7452
dd	-12.7456
hack	-12.7459
our	-12.7474
note	-12.7474
lih	-12.7476
stabber	-12.7478
health	-12.7478
zooniamtsev	-12.7479
secret	-12.748
▁replace	-12.7484
▁band	-12.7499
cv	-12.7505
bhmong	-12.7511
lue	-12.7512
▁investment	-12.7513
phauj	-12.7513
▁zi	-12.7514
ct	-12.7515
▁context	-12.7516
▁qoovsua	-12.752
▁taslos	-12.7521
▁taxi	-12.7522
▁agencies	-12.7526
▁chanthalangsy	-12.7526
▁doyle	-12.7526
▁edison	-12.7526
▁koobmoov	-12.7527
▁$20,000	-12.7527
▁laagluam	-12.7527
▁nvision	-12.7527
▁thorsp	-12.7527
▁bylaw	-12.7527
▁qaabzib	-12.7528
▁famous	-12.7528
▁ndlwg	-12.7528
▁permission	-12.7528
▁$10,000.00	-12.7528
▁powerball	-12.7528
▁kept	-12.7529
▁crisis	-12.7529
▁lanxang	-12.7529
▁hungry	-12.7529
▁earned	-12.7529
▁rheev	-12.7529
▁password	-12.753
▁meaung	-12.753
▁evaluate	-12.7531
▁muaslwj	-12.7531
▁nrawg	-12.7532
▁openly	-12.7532
▁hopefully	-12.7532
▁identif	-12.7532
▁aware	-12.7536
hmoov	-12.7538
▁twmxeeb	-12.7538
▁1998	-12.754
▁nplas	-12.7544
▁cable	-12.7544
▁ntshuab	-12.7546
▁dlawm	-12.7547
▁haa	-12.7548
▁fingers	-12.7553
▁aids	-12.7556
▁tablaj	-12.7563
▁rid	-12.7565
aim	-12.7567
▁kips	-12.7567
▁saving	-12.7569
▁nrw	-12.7584
▁dhaw	-12.759
asp	-12.7592
▁31,	-12.7593
▁rug	-12.7598
kim	-12.7603
nk	-12.7609
03	-12.7611
▁16.	-12.7615
▁$100.00	-12.7623
▁op	-12.7623
uag	-12.7627
▁huvsi	-12.7629
ent	-12.7634
police	-12.7638
▁phlw	-12.7641
▁il	-12.7644
fg	-12.7646
nkag	-12.7654
▁res	-12.7654
xf	-12.7656
ive	-12.7657
▁areas	-12.7657
jhe	-12.7661
txiaj	-12.7663
▁valid	-12.7664
oui	-12.7664
▁za	-12.7672
...!!!	-12.7673
▁liar	-12.7683
first	-12.7683
▁devil	-12.7685
▁gives	-12.7689
phim	-12.7705
amen	-12.7707
np	-12.7711
▁hnyo	-12.7712
▁yoom	-12.7715
▁en	-12.7716
yi	-12.7717
▁weapon	-12.7718
▁chemical	-12.772
▁fighter	-12.7721
▁adverb	-12.7722
▁technique	-12.7722
▁kor	-12.7727
▁reserve	-12.7728
▁difficult	-12.773
▁atlantic	-12.773
▁omaha	-12.773
▁easily	-12.773
▁caabsaab	-12.7731
▁plenty	-12.7731
ud	-12.7731
▁asmeliskas	-12.7732
▁9:00	-12.7732
▁recognition	-12.7733
▁salary	-12.7733
▁ntivtes	-12.7734
▁felt	-12.7734
▁complex	-12.7734
▁hnuv	-12.7735
▁signature	-12.7735
▁dictatorship	-12.7735
▁explanation	-12.7735
▁saaj	-12.7735
▁htt	-12.7736
sai	-12.7736
▁corner	-12.7736
▁daab	-12.7737
▁nreb	-12.7738
▁taiwan	-12.7739
▁vaughn	-12.7739
▁tyy	-12.7741
▁raised	-12.7742
khawm	-12.7742
▁maker	-12.7742
▁nplawv	-12.7743
▁analyze	-12.7744
▁temporary	-12.7745
▁nomtooj	-12.7746
uav	-12.7751
▁ngos	-12.7752
▁iabsiab	-12.7754
▁nahas	-12.7754
sw	-12.7757
▁dagzog	-12.7759
▁advisors	-12.7763
▁zu	-12.7764
▁qij	-12.7764
▁keng	-12.7765
ak	-12.7766
%26	-12.7769
▁vuj	-12.777
▁crosse	-12.777
▁lubsab	-12.7771
▁wj	-12.7774
▁khum	-12.7774
▁throw	-12.7775
▁kij	-12.7786
fu	-12.7791
nuc	-12.7794
dlaag	-12.7819
▁ncia	-12.7826
▁tuabzoo	-12.7827
khoom	-12.7829
cais	-12.7832
list	-12.7842
▁ntxhas	-12.7845
▁lwmyam	-12.7848
hlo	-12.7849
sh	-12.7855
▁mentsi	-12.7856
tiv	-12.7859
hwv	-12.7865
▁19,	-12.7882
-7	-12.7883
78	-12.7893
▁male	-12.7894
▁tsee	-12.7912
▁iq	-12.7915
▁shaman	-12.7916
mu	-12.792
▁lhua	-12.7922
awd	-12.7923
▁dealer	-12.7924
▁$50	-12.7924
▁skill	-12.7928
▁hmoobthawj	-12.793
▁sacto	-12.7939
▁elaborate	-12.7939
▁earlier	-12.7939
▁completely	-12.794
▁(33)	-12.794
▁nthoob	-12.794
▁thwjtim	-12.794
▁curious	-12.794
▁asmeslikas	-12.794
▁pujntxoog	-12.7941
▁absolutely	-12.7941
▁xtou	-12.7941
▁1986	-12.7941
▁winter	-12.7941
▁delegates	-12.7942
▁taagnrho	-12.7942
il	-12.7942
▁txaag	-12.7942
▁yuepheng	-12.7942
▁kongle	-12.7942
▁chivkeeb	-12.7943
▁coffee	-12.7943
▁completed	-12.7943
▁cycle	-12.7944
▁arrested	-12.7944
txom	-12.7944
▁novqaab	-12.7944
▁appreciated	-12.7944
▁universal	-12.7944
▁nriam	-12.7945
▁nasxus	-12.7946
lqc	-12.7948
▁expenses	-12.7948
▁petition	-12.7949
▁publicly	-12.7949
▁ceeg	-12.795
▁leepao	-12.795
▁caa	-12.7954
pro	-12.796
ancient	-12.7962
▁liabqab	-12.7963
pr	-12.7964
▁drug	-12.7965
where	-12.7967
▁tseebtsim	-12.7967
▁ntsog	-12.7969
▁1500	-12.7973
tc	-12.7973
▁hliav	-12.7974
year	-12.7976
▁thw	-12.7977
taag	-12.7981
dg	-12.7988
▁professors	-12.8004
only	-12.8005
38	-12.8006
▁plos	-12.8013
hai	-12.8022
▁gw	-12.8025
io	-12.8029
▁mex	-12.8033
▁ntsos	-12.8034
▁pij	-12.8035
▁tone	-12.8038
too	-12.8042
▁pan	-12.8047
ntaj	-12.8048
▁tasx	-12.8052
▁bc	-12.8052
lias	-12.8057
▁cus	-12.8058
gd	-12.8065
▁mx	-12.8067
▁saix	-12.8067
▁7,	-12.807
ziag	-12.808
klub	-12.8081
msn	-12.8085
people	-12.8086
mab	-12.8088
▁haug	-12.8088
▁dogs	-12.809
leader	-12.8091
zo	-12.8093
nplooj	-12.8097
txawv	-12.8097
kubxaj	-12.8105
nothing	-12.8105
sorry	-12.8105
black	-12.8106
music	-12.8106
strongly	-12.8106
link	-12.8114
gc	-12.8116
wo	-12.8117
▁hmt	-12.8121
bmh	-12.8124
eeg	-12.8129
▁kawgli	-12.8133
▁resolution	-12.8137
▁hamburger	-12.8138
ys	-12.8139
▁competition	-12.8139
ship	-12.814
▁bet	-12.814
▁product	-12.8143
▁network	-12.8145
▁1961	-12.815
▁bien	-12.815
▁institute	-12.8152
▁ncaajnceeg	-12.8152
▁70%	-12.8152
▁vivncaus	-12.8152
▁committed	-12.8153
▁cyberspace	-12.8153
▁nriag	-12.8153
▁applied	-12.8153
▁destiny	-12.8153
▁sooner	-12.8153
▁martin	-12.8153
▁humanitarian	-12.8154
▁asean	-12.8155
▁empty	-12.8155
▁professionalism	-12.8155
▁blah	-12.8156
▁elected	-12.8157
▁roobris	-12.8157
▁pliav	-12.8157
▁dws	-12.8157
▁invite	-12.8158
▁pivxam	-12.8159
▁mentally	-12.8159
▁speed	-12.8159
▁missing	-12.816
▁pawm	-12.8162
▁tawvdawb	-12.8163
▁klg	-12.8163
▁spot	-12.8165
nqi	-12.8166
▁chaav	-12.8167
▁lajfai	-12.8173
▁mistakes	-12.8187
▁nga	-12.8188
▁quick	-12.8189
▁69	-12.8191
▁rent	-12.8193
▁facebook	-12.8198
▁bor	-12.8198
▁cousins	-12.8201
qe	-12.8201
▁nyha	-12.8204
▁maav	-12.8211
▁mosx	-12.8213
▁farm	-12.8214
▁pages	-12.8234
gy	-12.8235
▁sibtog	-12.8243
yb	-12.8246
▁numbers	-12.8248
▁phao	-12.825
monthly	-12.825
hlau	-12.8255
laig	-12.8263
▁settle	-12.8277
nqa	-12.8279
▁$300	-12.8282
▁cure	-12.8297
?".	-12.8301
****************	-12.8304
bsb	-12.8312
▁thabhaa	-12.8319
woman	-12.8322
example	-12.8322
noogdlej	-12.8322
▁reduce	-12.8322
phiajzeb	-12.8323
ier	-12.8323
▁fax	-12.8324
haib	-12.8325
▁yw	-12.8336
lun	-12.8336
▁213	-12.8336
▁named	-12.8337
▁msp	-12.8356
▁consequence	-12.8356
▁psychologist	-12.8356
▁congratulation	-12.8356
hr	-12.8357
▁taabsi	-12.8358
=2	-12.8359
▁reaction	-12.8359
▁singer	-12.8363
sy	-12.8367
user	-12.8367
▁commission	-12.8368
▁reagan	-12.8369
▁portland	-12.8369
▁sojntsuam	-12.8369
▁fyi	-12.8369
▁kmxiong	-12.8369
▁xuajmoos	-12.8369
▁offense	-12.8369
▁tlk	-12.837
▁$200.00	-12.837
▁raaj	-12.837
▁txwjlaug	-12.837
▁summary	-12.8371
▁faivntaj	-12.8371
▁spam	-12.8371
▁khamkeuth	-12.8371
▁cobqha	-12.8371
▁phabnab	-12.8371
lij	-12.8372
▁nyavdub	-12.8372
▁newsgroups	-12.8372
▁tsabmim	-12.8373
▁bread	-12.8373
▁offered	-12.8373
▁thugs	-12.8374
▁npwg	-12.8375
▁reverse	-12.8376
▁heheheheh	-12.8376
▁ultimate	-12.8376
▁greenbay	-12.8377
▁buddhism	-12.8377
▁inter	-12.8378
▁jury	-12.8378
▁queen	-12.8378
▁trace	-12.838
▁oos	-12.8381
▁qoov	-12.8382
▁phees	-12.8383
▁200,000	-12.8384
▁nreej	-12.8384
▁converters	-12.8385
▁damn	-12.8385
▁khiag	-12.8386
▁moobthaibteb	-12.8386
▁lispov	-12.8386
▁moobseem	-12.8387
▁transfer	-12.8389
most	-12.8392
▁serving	-12.8392
▁paste	-12.8392
hahhaha	-12.8394
page	-12.8395
▁kabliab	-12.8395
aiv	-12.8401
iav	-12.8402
▁daily	-12.8402
▁tsotseg	-12.8404
▁npeem	-12.8409
xu	-12.8413
-------------	-12.8414
ln	-12.8416
tuab	-12.8418
▁davhlaus	-12.8419
▁mug	-12.8419
▁experts	-12.8419
▁senators	-12.8422
ar	-12.8422
▁ibqho	-12.8425
non	-12.8427
▁speaks	-12.8428
▁johny	-12.843
▁txauj	-12.8435
fbi	-12.8438
!!!!!!!!!	-12.8459
▁choices	-12.8463
▁ntoog	-12.8465
▁hw	-12.8472
khaum	-12.8473
▁lhau	-12.8474
txoov	-12.8481
▁fat	-12.8484
▁meetings	-12.8484
▁nomleej	-12.8484
▁sher	-12.8485
qha	-12.8494
▁kinds	-12.8494
▁gods	-12.8497
asia	-12.8499
▁mike	-12.8501
2005	-12.8502
sing	-12.8509
lr	-12.8511
▁09	-12.8514
▁guide	-12.8514
▁maslis	-12.852
▁lock	-12.8524
▁solid	-12.8525
▁__	-12.8527
luang	-12.853
pua	-12.8534
▁77	-12.8538
▁78	-12.854
nqaij	-12.8542
spelling	-12.8543
facebook	-12.8544
▁obpeb	-12.8545
veral	-12.8546
same	-12.855
▁klawm	-12.8555
▁--------------	-12.8556
▁laajfa	-12.8561
▁revolution	-12.8566
nag	-12.8567
▁attempt	-12.8582
▁receipt	-12.8584
▁ntsiagto	-12.8584
▁19.	-12.8585
!!!!!!!	-12.8585
▁symbol	-12.8588
▁initial	-12.859
▁issara	-12.8591
▁zemzuag	-12.8591
▁involvement	-12.8591
▁13-14	-12.8592
▁saddam	-12.8592
▁zia	-12.8592
▁caubmoos	-12.8592
▁hidden	-12.8593
▁running	-12.8593
▁2015	-12.8593
▁psychological	-12.8593
▁downline	-12.8593
▁senior	-12.8594
▁allergy	-12.8594
▁clarification	-12.8594
▁liberation	-12.8594
▁suicide	-12.8594
▁ntxhiavnyuj	-12.8594
▁vajntxwv	-12.8594
▁labeled	-12.8595
▁indeed	-12.8595
▁ecole	-12.8595
▁everest	-12.8595
▁veescas	-12.8596
▁pamlem	-12.8596
▁khoueng	-12.8597
▁brushoff	-12.8597
▁najkhoom	-12.8598
▁accepted	-12.8599
▁5$	-12.86
▁cwjmeem	-12.86
▁sibfoob	-12.86
▁misliskas	-12.86
▁ordered	-12.8602
▁flow	-12.8605
▁ncontsoov	-12.8605
▁tuabneej	-12.8605
dc	-12.8607
▁xubthawj	-12.8608
▁nteb	-12.8608
▁maa	-12.8609
▁ntxees	-12.861
▁sly	-12.8611
▁ntsus	-12.8611
▁idonotknown	-12.8613
txais	-12.8614
▁naskas	-12.8614
▁npoog	-12.8616
ff	-12.8617
▁fuabcua	-12.8618
▁loose	-12.8621
▁kaoly	-12.8621
▁lasmas	-12.863
tou	-12.8634
za	-12.8635
hj	-12.8635
tawb	-12.8636
▁tickets	-12.864
▁ch	-12.8646
▁coin	-12.8653
▁thaumkuv	-12.8654
qu	-12.8656
hum	-12.8657
▁lay	-12.8663
▁ou	-12.8664
duab	-12.8664
▁kn	-12.8667
▁uaneeb	-12.8673
08	-12.8678
▁khe	-12.8679
▁democrat	-12.8687
▁tsoog	-12.8695
▁ter	-12.8704
▁hlai	-12.8707
▁vte	-12.8712
▁16,	-12.8713
ym	-12.8713
haw	-12.8714
▁pra	-12.8717
▁ran	-12.8726
▁places	-12.873
tsheej	-12.8731
▁resist	-12.8733
politic	-12.8735
over	-12.874
▁bv	-12.8741
ker	-12.8742
▁xajn	-12.8744
▁pl	-12.8744
girl	-12.8749
lawj	-12.8749
ntsuag	-12.875
ntug	-12.8751
▁hajtsi	-12.8752
▁mile	-12.8754
▁parts	-12.8755
vue	-12.8757
▁ncuj	-12.8757
▁txojlus	-12.8763
charter	-12.8771
▁zn	-12.8771
thailand	-12.8771
▁npl	-12.8773
ntxias	-12.8774
kwvtijhmoob	-12.8778
▁eng	-12.878
txheej	-12.8784
▁connect	-12.8789
▁bouam	-12.879
nraim	-12.8798
▁stuff	-12.8805
▁discipline	-12.8806
▁helps	-12.881
▁successful	-12.8817
▁egypt	-12.8818
▁superior	-12.8818
▁documentary	-12.8818
▁reliable	-12.8818
▁dawwgy	-12.8819
▁manage	-12.8819
▁mhoobvajusa	-12.8819
▁receive	-12.8819
▁12:00	-12.8819
▁toojkhwb	-12.8819
▁chicago	-12.8819
▁vatthana	-12.8819
▁ntsuabrwg	-12.8819
▁nruabnraab	-12.8819
▁fakis	-12.8819
▁1:	-12.882
heheheh	-12.882
▁wealth	-12.882
▁described	-12.8821
ur	-12.8821
▁mluas	-12.8821
▁nengshia	-12.8821
▁sawvkev	-12.8821
▁intelligent	-12.8822
▁required	-12.8822
▁concerned	-12.8822
▁finance	-12.8822
▁hmmob	-12.8822
▁boycott	-12.8822
▁kabtsib	-12.8822
▁confidential	-12.8822
▁lvtltym	-12.8822
▁dakota	-12.8822
▁equally	-12.8822
▁oxygen	-12.8823
▁yeebcuab	-12.8824
▁fishing	-12.8824
▁mivmiv	-12.8825
▁surprised	-12.8825
▁dhawv	-12.8825
▁minorities	-12.8826
▁kheeg	-12.8828
▁physically	-12.8829
▁leemcai	-12.8829
▁taxes	-12.8833
▁sake	-12.8833
▁yellow	-12.8841
▁jib	-12.8844
▁$25,000	-12.8847
▁cares	-12.8847
lg	-12.8853
▁documents	-12.8853
▁forces	-12.8855
▁sn	-12.8856
▁qhoom	-12.8856
▁nwv	-12.8857
▁tri	-12.8866
dlawb	-12.8871
▁workers	-12.8871
menyuam	-12.8873
cker	-12.888
ism	-12.8882
▁yajsab	-12.8884
▁xubx	-12.8889
▁songs	-12.8895
kg	-12.89
▁ntawn	-12.8908
▁tubhmoob	-12.8909
▁yajy	-12.891
huas	-12.8914
▁referr	-12.8914
tk	-12.8914
▁heej	-12.8919
▁thawjx	-12.8921
nyas	-12.8921
▁1600	-12.8922
▁blua	-12.8923
▁wear	-12.894
name	-12.894
▁47	-12.894
▁diploma	-12.8942
play	-12.8944
▁moved	-12.8947
▁xt	-12.8951
age	-12.8951
xeev	-12.8952
▁unto	-12.8954
npawg	-12.8961
chaws	-12.8963
▁phlo	-12.8968
▁thawjthiab	-12.8972
wd	-12.8974
moo	-12.8979
▁roman	-12.898
zb	-12.9
▁minds	-12.9003
national	-12.9003
public	-12.9003
white	-12.9004
original	-12.9004
▁800	-12.9007
▁sibkho	-12.901
▁cj	-12.9013
▁ur	-12.9019
▁submit	-12.9021
▁paubqab	-12.9022
cb	-12.9025
topic	-12.9028
▁ntxhee	-12.9034
▁prediction	-12.9036
▁script	-12.904
iaj	-12.9045
▁bas	-12.9045
▁inform	-12.9046
▁lecture	-12.9048
▁torture	-12.9048
▁deliver	-12.9049
▁german	-12.905
▁effective	-12.905
▁advertise	-12.9051
▁stockton	-12.9052
▁fulfill	-12.9052
▁trap	-12.9052
▁pobntooslaus	-12.9053
▁enomy	-12.9053
▁concrete	-12.9053
▁participants	-12.9053
▁flea	-12.9053
▁txwjnkawm	-12.9053
▁xovtoojcua	-12.9053
▁narrow	-12.9053
▁kablaum	-12.9054
▁txiajxab	-12.9054
▁sibhaumxeeb	-12.9054
▁pxm	-12.9054
▁koobtsheej	-12.9054
▁acceptable	-12.9055
▁1981	-12.9055
▁gambling	-12.9055
▁supply	-12.9055
▁nplab	-12.9056
▁tubpajtsab	-12.9057
▁declared	-12.9057
▁violence	-12.9057
▁candy	-12.9057
▁ntxheev	-12.9058
▁9-10	-12.9058
▁tsoobkuj	-12.9058
▁theories	-12.9058
▁mobile	-12.9058
▁tshij	-12.9058
▁tubnkeeg	-12.9058
▁friendly	-12.9059
▁ciajhaiv	-12.906
▁destruction	-12.906
▁pawgntseeg	-12.906
▁txoom	-12.9061
▁leading	-12.9061
▁proclaim	-12.9063
▁ntsauj	-12.9065
▁pheejyig	-12.9065
▁yeb	-12.9066
▁fired	-12.9067
▁hlwv	-12.9067
▁nrws	-12.9067
▁hue	-12.9068
▁guards	-12.907
nna	-12.907
▁huang	-12.9072
ought	-12.9072
▁sibnrauj	-12.9074
▁lang	-12.9074
▁pang	-12.9075
▁ntsheeg	-12.9075
▁$2,000	-12.9077
▁vaug	-12.9082
▁__________	-12.9088
▁vet	-12.9088
▁calm	-12.909
▁animals	-12.9094
▁tshajkoob	-12.91
▁thaug	-12.9105
▁yor	-12.9105
▁shut	-12.9109
lb	-12.911
main	-12.9111
dog	-12.9119
▁hihihi	-12.9119
35	-12.912
ement	-12.9125
▁mij	-12.9137
▁hauvlub	-12.9144
hd	-12.9152
npaum	-12.9169
▁forth	-12.9169
sov	-12.917
▁ibpliag	-12.917
dlej	-12.917
▁ibsij	-12.9171
▁enter	-12.9176
tting	-12.9177
▁hlig	-12.9178
rt	-12.9179
▁mall	-12.9181
ot	-12.9188
light	-12.92
live	-12.9204
op	-12.9205
tsaam	-12.9206
▁visions	-12.9213
ac	-12.9214
▁bac	-12.9217
▁arm	-12.923
▁cow	-12.9233
make	-12.9233
▁naus	-12.9237
dhia	-12.9238
idnk	-12.9238
brother	-12.925
high	-12.9271
▁sell	-12.9274
▁burger	-12.9276
▁skin	-12.9277
▁mivx	-12.9279
▁xyaa	-12.9284
__	-12.9287
▁illness	-12.9288
▁built	-12.9289
▁ntsimtxhe	-12.9289
▁yunnan	-12.9289
▁centurion	-12.9289
▁najvej	-12.9289
▁khauvxim	-12.9289
▁xiengkhuang	-12.9289
▁comfortable	-12.9289
merritt	-12.929
▁behalf	-12.929
▁npliam	-12.929
▁phonesavanh	-12.929
▁classify	-12.929
▁solar	-12.929
▁criteria	-12.9291
▁6,500	-12.9291
▁ceebtoom	-12.9291
▁angeles	-12.9291
▁payment	-12.9292
▁investigation	-12.9292
▁spoke	-12.9292
▁invited	-12.9292
▁vangvieng	-12.9293
▁nonghet	-12.9294
▁tilaug	-12.9295
▁approved	-12.9295
mem	-12.9296
▁(4)	-12.9297
hehehehehe	-12.9297
▁adultery	-12.9298
▁chimeng	-12.9298
▁fast	-12.9299
▁reno	-12.9299
huv	-12.93
▁thuaj	-12.93
▁tisbe	-12.9301
▁looked	-12.9301
▁tshuv	-12.9302
▁mongkey	-12.9305
▁jr	-12.931
▁windows	-12.931
▁educators	-12.9311
▁avloj	-12.9312
▁ntxawj	-12.9313
▁rituals	-12.9313
▁====	-12.9313
▁indians	-12.9313
▁hmoobleejtub	-12.9313
▁tsaugzog	-12.9314
zeej	-12.9317
▁proved	-12.9317
▁feej	-12.9318
▁qhaa	-12.9323
▁wash	-12.9326
nkaum	-12.9329
▁appoint	-12.9334
▁tae	-12.9339
▁qag	-12.934
=7	-12.934
▁luasmas	-12.934
▁gossips	-12.934
cal	-12.9341
mog	-12.9343
▁relax	-12.9349
▁fus	-12.9351
▁owe	-12.9354
plaws	-12.9357
▁kpnp	-12.9358
▁==============	-12.9359
nav	-12.9368
▁qoo	-12.9373
▁aa	-12.9376
▁games	-12.9376
▁txivyawg	-12.938
▁pastors	-12.9381
cn	-12.9383
▁solutions	-12.9383
klawv	-12.9389
▁ntsiaj	-12.9393
▁$2	-12.9394
▁pacha	-12.9399
▁ceskawg	-12.9399
▁cojlos	-12.9408
▁causes	-12.9408
pu	-12.9409
nus	-12.9413
▁101	-12.9426
▁tamsisno	-12.9434
▁ntai	-12.9435
▁isreal	-12.9443
▁$2000	-12.9443
▁05	-12.9447
ntses	-12.9456
ees	-12.946
kaw	-12.9465
worker	-12.9468
▁hnee	-12.9471
▁leak	-12.9472
▁dan	-12.9473
▁(3	-12.9474
plog	-12.9476
mode	-12.948
zi	-12.9484
suabnoog	-12.9486
nkaujnyiag	-12.9486
social	-12.9486
ied	-12.9487
bible	-12.949
▁-------------	-12.9492
▁ntsee	-12.9494
▁moses	-12.9497
xy	-12.9498
▁hooj	-12.9502
el	-12.9503
aus	-12.9504
▁mess	-12.9513
▁apologize	-12.9514
▁pound	-12.9519
▁recommendation	-12.9519
▁boat	-12.952
▁huabtai	-12.9521
......!	-12.9522
cg	-12.9524
▁1992	-12.953
lud	-12.953
▁fly	-12.9531
loos	-12.9532
▁convince	-12.9533
▁yard	-12.9533
▁entire	-12.9533
▁vietiane	-12.9533
▁tousavang	-12.9533
▁chiangrai	-12.9534
▁resettlement	-12.9534
▁hotdog	-12.9534
▁maivkaus	-12.9534
▁manner	-12.9534
▁flirt	-12.9534
▁12-16	-12.9534
▁phooywg	-12.9534
▁founder	-12.9535
▁georgia	-12.9535
local	-12.9535
▁nyoobhoom	-12.9535
▁laonork	-12.9535
rk	-12.9536
▁confidence	-12.9536
▁anywhere	-12.9537
▁iran	-12.9538
▁politburo	-12.9538
▁poison	-12.9538
▁1962	-12.9539
▁yajtk	-12.9539
▁nmr	-12.9539
▁understood	-12.954
▁equality	-12.954
▁mysterious	-12.954
▁50,000	-12.9541
▁marx	-12.9541
▁kaig	-12.9543
mental	-12.9543
▁zaig	-12.9543
=4	-12.9543
▁tshim	-12.9543
▁thaiteb	-12.9544
▁syphd	-12.9546
▁nkaujhli	-12.9547
▁dien	-12.9548
▁ruv	-12.9548
ro	-12.9549
▁techniques	-12.9549
▁coup	-12.9551
▁cuagli	-12.9551
▁makers	-12.9552
▁kongphan	-12.9552
▁9,	-12.9553
mc	-12.9555
▁blow	-12.9557
▁nkagsab	-12.956
▁hmongmen	-12.956
▁nujnqis	-12.956
▁ciajvaj	-12.9562
▁555555	-12.9562
▁ntsaus	-12.9563
▁1966	-12.9564
▁10-15	-12.9565
▁sibtxawv	-12.9565
▁mivtub	-12.9571
▁pobkub	-12.9572
▁tseemx	-12.9572
oy	-12.9573
▁dialects	-12.9574
nhub	-12.9577
▁foomkom	-12.958
▁$$	-12.9584
▁ntshaj	-12.9585
ks	-12.9585
yas	-12.9589
▁xun	-12.9595
▁khovkho	-12.9596
▁falls	-12.9597
▁haulwm	-12.9599
▁nqha	-12.96
▁bed	-12.9603
ned	-12.9603
▁nhro	-12.9605
▁paula	-12.9609
▁xuj	-12.9611
▁wed	-12.9612
▁hlaw	-12.9612
▁hauvsiab	-12.9613
▁zoglawm	-12.9619
va	-12.9626
oral	-12.9631
fc	-12.9634
▁nyamx	-12.9637
▁lubcaij	-12.9638
▁klawv	-12.9641
▁loov	-12.9644
,,,,,	-12.9649
▁hauvtsev	-12.9649
liz	-12.965
ceev	-12.9653
▁volunteers	-12.9655
xyuas	-12.9668
!!,	-12.9673
ft	-12.968
▁nrom	-12.968
▁plia	-12.9684
yaaj	-12.9689
nyam	-12.9691
pv	-12.9694
▁khim	-12.9697
▁links	-12.9701
▁81	-12.9703
▁muslawm	-12.9708
▁heevkawg	-12.9712
green	-12.9724
▁score	-12.9725
ally	-12.9729
title	-12.9733
french	-12.9736
yaweh	-12.9736
nkawd	-12.9736
▁strike	-12.9768
▁outcome	-12.977
▁failure	-12.9771
▁pocket	-12.9771
▁protestant	-12.9772
▁monster	-12.9774
per	-12.9775
▁backward	-12.9777
▁khou	-12.9779
▁horse	-12.9781
any	-12.9781
tauj	-12.9781
▁cancel	-12.9782
▁extend	-12.9783
▁50/50	-12.9783
▁liaison	-12.9783
▁atleast	-12.9783
▁yaajtshajkoob	-12.9783
▁treasure	-12.9783
▁enforcement	-12.9783
▁succeed	-12.9784
▁danai	-12.9784
▁fivyeem	-12.9784
▁zhenged	-12.9785
▁40%	-12.9785
▁survival	-12.9785
▁whpc	-12.9785
▁kthao	-12.9785
▁khaaj	-12.9785
▁txhwj	-12.9786
▁nplhaib	-12.9786
lqr	-12.9786
▁hanoi	-12.9787
▁caught	-12.9787
▁cimxeeb	-12.979
▁ntxug	-12.979
▁typical	-12.979
▁southern	-12.9791
▁dinner	-12.9791
▁dwb	-12.9791
▁ended	-12.9792
▁ray	-12.9793
▁unique	-12.9793
▁nruaj	-12.9794
▁cry	-12.9794
▁txhiajlis	-12.9795
▁classes	-12.9795
▁burn	-12.9798
▁tactics	-12.9801
▁garden	-12.9802
▁quavdev	-12.9803
▁zajnkauj	-12.9804
▁kabliam	-12.9804
▁ntxhiav	-12.9805
▁toov	-12.9806
▁nkaujmuam	-12.9807
▁tshauj	-12.9808
▁efforts	-12.9809
▁fam	-12.9809
xaab	-12.981
▁ntshuav	-12.981
▁ntxiav	-12.9811
▁txub	-12.9812
▁ntwb	-12.9817
hahahahahaha	-12.9828
▁leegtwg	-12.9831
▁boon	-12.9835
▁sibpaub	-12.9837
▁xaavx	-12.9853
mon	-12.9859
▁khaublig	-12.9861
rb	-12.9863
fv	-12.9864
▁76	-12.9865
▁acts	-12.9872
phoojywg	-12.9879
dig	-12.988
▁haws	-12.9885
ncuab	-12.9887
qus	-12.989
ful	-12.9892
▁rhau	-12.9899
▁photo	-12.99
▁quam	-12.9901
wp	-12.991
▁hinh	-12.9916
▁hall	-12.992
▁6)	-12.9922
paab	-12.9931
363	-12.9935
get	-12.9936
▁het	-12.9941
ef	-12.9942
▁nowhere	-12.9947
▁huay	-12.9959
tt	-12.9969
wife	-12.997
deev	-12.997
ek	-12.9973
kong	-12.9975
▁tobhau	-12.9977
▁sh	-12.998
▁hauvqhua	-12.9983
ide	-12.9986
▁changes	-12.9986
tsuj	-12.9986
▁plans	-12.9986
oc	-12.9988
those	-12.9992
well	-12.9997
uam	-13.0005
sua	-13.0011
80	-13.0012
ps	-13.0013
▁timub	-13.0014
▁kawgkiag	-13.0015
sia	-13.0017
▁pomkev	-13.0019
▁melika	-13.0027
▁border	-13.0029
stupid	-13.0032
▁brand	-13.0032
▁slave	-13.0035
▁verse	-13.0036
▁resolve	-13.0036
ntshav	-13.0038
▁concordia	-13.0039
▁sihanouk	-13.0039
▁backyard	-13.004
▁ameslika	-13.004
▁ceremony	-13.004
▁maabdlawb	-13.004
▁nrhaab	-13.004
phou	-13.0041
▁kavtheej	-13.0041
▁cajpas	-13.0041
▁brooklyn	-13.0041
▁khasnyas	-13.0041
▁proverb	-13.0042
▁offensive	-13.0042
▁neither	-13.0042
▁asmiskas	-13.0042
▁mankind	-13.0042
aspx	-13.0043
▁oneself	-13.0043
▁$1.00	-13.0043
▁currently	-13.0043
▁lonely	-13.0044
▁ragtxuj	-13.0044
▁decided	-13.0044
▁teevhawm	-13.0044
▁reasonable	-13.0045
▁tshoobkos	-13.0045
▁creator	-13.0045
▁nevada	-13.0045
▁corrupted	-13.0046
▁switzerland	-13.0046
▁emergency	-13.0048
▁differently	-13.0048
▁57	-13.0048
▁maintain	-13.0049
▁trained	-13.0049
▁qawv	-13.005
▁strategies	-13.0051
▁wheel	-13.0052
▁thaws	-13.0052
▁tsausntuj	-13.0052
▁tavsu	-13.0052
▁ntshiv	-13.0052
▁extreme	-13.0053
▁dna	-13.0053
▁kiaj	-13.0054
never	-13.0055
lauv	-13.0055
▁nrhaw	-13.0056
02	-13.0056
▁plej	-13.0057
▁till	-13.0057
▁huabcua	-13.006
▁players	-13.006
▁$4	-13.006
▁qaumntuj	-13.0061
tsiv	-13.0063
▁emails	-13.0064
▁bone	-13.0068
▁brown	-13.0074
▁ndlaj	-13.0079
qeej	-13.008
▁anger	-13.0092
▁xeebleej	-13.0093
▁kawj	-13.0094
▁kok	-13.0105
▁shared	-13.0112
▁deng	-13.0115
▁ruamuag	-13.0115
▁resource	-13.0117
▁????	-13.012
eu	-13.0122
ist	-13.013
▁nqib	-13.013
▁pot	-13.0134
▁persons	-13.0135
▁900	-13.014
▁multipl	-13.0144
pp	-13.0144
nia	-13.0144
▁hyena	-13.0146
hwm	-13.0149
ntsis	-13.0149
▁kli	-13.015
iag	-13.0154
▁gau	-13.0155
-47	-13.0155
npab	-13.0156
▁como	-13.0168
▁clubs	-13.0172
ial	-13.018
msg	-13.0188
plab	-13.0192
▁phlaw	-13.0195
15,000	-13.0197
▁herb	-13.0208
after	-13.0215
▁ceo	-13.0216
yib	-13.0216
=_	-13.0219
▁matters	-13.0222
txaj	-13.0222
read	-13.0238
▁youth	-13.0238
▁tn	-13.0239
▁vaus	-13.0246
legal	-13.0255
idonotknow	-13.0255
uncle	-13.0256
research	-13.0256
nan	-13.026
laub	-13.026
lor	-13.0262
wow	-13.0264
620	-13.0269
▁lines	-13.0269
362	-13.0273
phaum	-13.0279
nyoog	-13.0285
pj	-13.0286
▁hauvkev	-13.0287
xw	-13.0287
900	-13.0288
▁consonant	-13.0289
▁amelika	-13.0289
▁function	-13.029
▁window	-13.0292
▁magazine	-13.0293
36	-13.0293
▁cambodian	-13.0298
▁recent	-13.0302
▁quiet	-13.0302
▁activity	-13.0303
▁joking	-13.0303
01085/	-13.0303
biggest	-13.0303
▁2,000	-13.0303
▁bigger	-13.0303
▁bunch	-13.0303
▁nploojtsawb	-13.0303
▁pennies	-13.0303
▁1959	-13.0303
▁crocodile	-13.0303
▁yahshua	-13.0303
▁plaig	-13.0304
▁phouthen	-13.0304
▁200-300	-13.0304
▁engine	-13.0304
▁moobtwmzeej	-13.0304
▁christopher	-13.0305
▁slavery	-13.0305
▁navthwm	-13.0305
▁junk	-13.0306
▁kooshaum	-13.0306
▁ngum	-13.0306
▁ristsho	-13.0306
▁revealed	-13.0306
▁iraqi	-13.0306
▁ntiagtug	-13.0308
▁opposition	-13.0309
▁introduced	-13.0309
▁pojyaig	-13.031
▁phee	-13.031
▁bloglab	-13.0311
▁nrhaiv	-13.0311
▁chem	-13.0312
▁sadam	-13.0312
▁txaam	-13.0313
▁nploojsab	-13.0315
▁qug	-13.0316
▁baccalaureate	-13.0316
▁believes	-13.0316
▁piaj	-13.0318
▁lun	-13.0319
▁sks	-13.0319
▁nkib	-13.0319
▁boum	-13.032
ical	-13.0321
▁products	-13.0321
▁raven	-13.0322
66	-13.0323
▁lajxeeb	-13.0324
▁scientists	-13.0325
▁forced	-13.0326
▁npooj	-13.0328
▁touly	-13.0328
▁engage	-13.0329
▁twvyeej	-13.033
▁hlaug	-13.033
▁khaim	-13.0332
▁fay	-13.0332
▁yeebyam	-13.0333
▁rain	-13.0334
dav	-13.0338
hla	-13.034
▁hmmmmm	-13.034
▁verbal	-13.034
▁xyos	-13.0342
▁plauv	-13.0343
taj	-13.0344
▁teachers	-13.0352
▁nyus	-13.0356
▁phw	-13.0357
▁costs	-13.0358
▁2:	-13.0359
▁seeing	-13.036
▁rak	-13.0367
▁mercenary	-13.0367
hh	-13.037
▁npom	-13.0377
▁npluj	-13.0379
qaum	-13.0384
riam	-13.0387
laaj	-13.039
▁qob	-13.039
▁becomes	-13.0391
phooj	-13.0393
▁stands	-13.0394
▁feed	-13.0396
ling	-13.0396
pag	-13.0397
▁foo	-13.0398
▁div	-13.0401
▁(1	-13.0402
hw	-13.0407
▁somsava	-13.0411
▁tud	-13.0414
family	-13.0414
▁mum	-13.0416
▁txauv	-13.0417
end	-13.0425
▁3-5	-13.0434
▁pia	-13.0434
▁xy	-13.0439
▁khaug	-13.0439
▁leejniam	-13.044
▁planet	-13.0443
lit	-13.0444
▁hak	-13.0456
fi	-13.0462
▁phoojywgzoo	-13.0475
phab	-13.048
khu	-13.048
▁jane	-13.0488
txia	-13.0497
dablaug	-13.0498
▁generalize	-13.05
▁nraw	-13.0503
▁yad	-13.0505
president	-13.0509
know	-13.0513
▁cw	-13.0521
▁tejkev	-13.0521
keep	-13.0525
global	-13.0525
court	-13.0526
▁1964	-13.0528
▁mak	-13.0528
▁roll	-13.0541
▁vajloog	-13.0552
▁secrete	-13.0554
zaus	-13.0556
▁european	-13.0558
▁emotion	-13.0559
▁fairground	-13.0559
▁xavkom	-13.056
▁winner	-13.0561
▁factor	-13.0562
▁pee	-13.0562
▁hundred	-13.0562
▁$1,000	-13.0563
▁institution	-13.0563
----	-13.0563
▁teaching	-13.0567
▁kwjtij	-13.0572
▁afford	-13.0572
▁comparison	-13.0573
▁excellent	-13.0573
▁huvtuabsi	-13.0573
▁persue	-13.0573
▁abroad	-13.0573
▁sunny	-13.0573
▁toutong	-13.0573
▁walmart	-13.0574
▁phetsarath	-13.0574
▁hiem	-13.0574
▁carefully	-13.0574
▁republic	-13.0574
▁bausuav	-13.0574
▁priminister	-13.0575
▁yaajceeb	-13.0575
▁minimum	-13.0575
▁ntswvsiab	-13.0576
▁12-13	-13.0576
▁sok	-13.0576
▁cheap	-13.0576
▁fundraising	-13.0576
▁gathering	-13.0576
▁violent	-13.0577
▁commitment	-13.0578
▁decades	-13.0579
▁blaum	-13.0579
▁logical	-13.0579
▁destructive	-13.058
▁actors	-13.0581
▁tsawj	-13.0581
▁txhem	-13.0581
▁rhees	-13.0581
▁hearing	-13.0582
▁fiction	-13.0583
▁khmer	-13.0583
▁nplam	-13.0583
▁ntxeeb	-13.0584
▁dare	-13.0585
▁estate	-13.0586
▁vum	-13.0586
▁raped	-13.0587
▁nkee	-13.0587
▁neeeg	-13.0589
▁nyabxeeb	-13.0589
▁khue	-13.059
▁txhiv	-13.0591
▁ntxwgnyoog	-13.0594
▁npuateb	-13.0594
▁pemtxwv	-13.0596
▁worked	-13.06
▁thaublaus	-13.0601
▁yin	-13.0601
▁violations	-13.0602
tax	-13.0609
hahahha	-13.0612
▁chib	-13.0613
▁levels	-13.0615
▁chor	-13.0616
▁dress	-13.0618
01	-13.0621
▁nca	-13.0623
▁characters	-13.0629
▁consult	-13.0641
▁seat	-13.0642
▁mature	-13.0645
▁reg	-13.0646
▁wouldn	-13.0647
tx	-13.0648
▁nyhoo	-13.0665
▁ncuaj	-13.0669
▁generations	-13.068
fy	-13.0686
sad	-13.0688
▁luagntxhi	-13.0688
khawb	-13.07
▁hearts	-13.0701
37	-13.0702
▁hmoobdub	-13.0706
▁judges	-13.0708
liag	-13.0713
▁sibtshum	-13.0722
▁ntshw	-13.0728
▁txhualeej	-13.0738
▁fan	-13.074
▁$25	-13.074
▁lujx	-13.0762
ntsws	-13.0771
▁phaus	-13.0773
▁suas	-13.0775
▁-----	-13.0777
▁noogqej	-13.0778
▁naphi	-13.0779
▁adapt	-13.0784
▁plo	-13.0786
dong	-13.079
future	-13.0794
▁toos	-13.08
pt	-13.0803
tamsim	-13.0804
ntaub	-13.0807
caj	-13.0809
change	-13.0813
ine	-13.0815
jy	-13.0815
artial	-13.0816
▁6000	-13.0823
2-3	-13.0829
every	-13.0832
▁100,000	-13.0835
▁praise	-13.0835
▁700	-13.0836
▁opponent	-13.0837
▁tejlus	-13.0837
▁shift	-13.0837
keeb	-13.0843
▁researcher	-13.0844
▁61	-13.0846
▁broke	-13.0849
thoob	-13.0849
▁1945	-13.085
jvdgu	-13.085
▁iowa	-13.0851
▁shiiyi	-13.0851
▁1993	-13.0851
▁underage	-13.0851
▁profession	-13.0851
▁greatest	-13.0851
▁wholesale	-13.0851
▁interior	-13.0852
▁50-60	-13.0852
▁$5000	-13.0852
▁barking	-13.0852
▁graduation	-13.0852
▁10:00	-13.0853
▁touyer	-13.0853
▁humanity	-13.0853
▁1989	-13.0853
▁hmongruag	-13.0853
▁vajtxiab	-13.0853
▁intended	-13.0854
▁riov	-13.0854
▁ntxaum	-13.0854
▁anybody	-13.0855
▁namyau	-13.0855
▁reconciliation	-13.0855
▁ntxawv	-13.0856
▁housing	-13.0857
▁tshwv	-13.0859
▁sorties	-13.0859
▁fiab	-13.086
▁nkawb	-13.086
44	-13.0862
▁hnoos	-13.0863
▁loud	-13.0863
▁formed	-13.0864
▁unlike	-13.0865
▁zauj	-13.0866
▁nomphaj	-13.0868
dluag	-13.0869
▁restrain	-13.087
▁played	-13.0871
▁ntxeevsiab	-13.0874
▁tip	-13.0874
lma	-13.0877
taum	-13.0884
▁lojhlob	-13.0886
▁fib	-13.0887
▁joint	-13.0887
▁ntshu	-13.089
▁cop	-13.0907
▁naiskhu	-13.091
▁doos	-13.0912
▁rise	-13.0913
▁loas	-13.0915
05	-13.0916
▁tuajlawm	-13.0921
ghais	-13.0924
▁standards	-13.0928
lii	-13.0929
hahahah	-13.0936
khuam	-13.0936
▁feelings	-13.0936
▁oui	-13.0946
▁em	-13.095
ization	-13.0954
▁mloo	-13.0955
▁nplogdawb	-13.0955
▁tubhluas	-13.0957
▁ceevx	-13.0964
▁hlubx	-13.0965
▁sibxws	-13.0966
-3	-13.0966
pham	-13.0966
▁paint	-13.0978
▁professionals	-13.0984
▁51	-13.1005
▁lwmtug	-13.1012
▁haim	-13.1012
▁statistic	-13.1013
ec	-13.1014
ii	-13.1019
sign	-13.1028
eme	-13.1036
▁gosh	-13.1041
tai	-13.1047
▁nqho	-13.1049
▁heal	-13.1052
▁khet	-13.1052
▁tseen	-13.1053
▁hmoobvaj	-13.1054
tel	-13.1064
ygo	-13.1071
traitor	-13.1074
million	-13.1075
fair	-13.1076
order	-13.108
care	-13.1089
pejxeem	-13.1089
maybe	-13.109
minority	-13.109
▁relation	-13.109
xoom	-13.1097
▁bvv	-13.1098
▁core	-13.1099
▁ntxua	-13.1102
txeeb	-13.1102
wa	-13.1105
▁haven	-13.1111
▁topm	-13.1112
txhiab	-13.1118
▁five	-13.1121
▁speculation	-13.1122
▁servant	-13.1122
caum	-13.1123
▁patient	-13.1123
▁robert	-13.1125
▁heevlawm	-13.1129
taab	-13.1134
▁measure	-13.1135
▁reject	-13.1135
geocities	-13.1136
▁hujsaam	-13.1136
▁nlpog	-13.1136
▁obvious	-13.1136
▁greedy	-13.1137
▁usual	-13.1137
▁livxwm	-13.1137
quot	-13.1137
▁txoovkavtiab	-13.1137
▁repent	-13.1137
▁conduct	-13.1137
▁tuabyaamnkaus	-13.1137
▁resort	-13.1138
▁classmate	-13.1138
▁creation	-13.1139
▁accuse	-13.1139
▁grandpa	-13.1139
▁chivthawj	-13.1139
▁62	-13.1139
▁behave	-13.114
▁capitol	-13.114
▁hmongmekas	-13.1141
▁commercial	-13.1141
▁sawvntxov	-13.1141
paus	-13.1141
▁kings	-13.1141
▁domestic	-13.1141
▁micheal	-13.1141
▁banning	-13.1141
ized	-13.1142
▁juagnos	-13.1142
▁stamp	-13.1142
▁limpiam	-13.1143
▁irc	-13.1144
▁chov	-13.1144
▁6:00	-13.1144
portal	-13.1144
▁nplhis	-13.1145
▁credible	-13.1145
▁khites	-13.1146
▁nyau	-13.1147
▁posmuas	-13.1148
▁holy	-13.1148
▁relations	-13.115
▁nyablajliab	-13.1151
▁poster	-13.1151
▁piab	-13.1152
▁herself	-13.1153
▁download	-13.1153
▁respected	-13.1155
339.	-13.1156
▁thaas	-13.1157
▁60%	-13.1157
ary	-13.1158
▁scher	-13.1159
▁tseemswb	-13.116
▁txhaij	-13.1161
▁pujyawm	-13.1165
loob	-13.1167
▁plhe	-13.1169
▁yawmtxwv	-13.1171
▁hat	-13.1172
▁cal	-13.1172
▁xwg	-13.1173
▁thinks	-13.1173
gq	-13.1174
▁subgroup	-13.1175
▁cents	-13.1178
▁thuas	-13.1179
▁lwjsiab	-13.1184
pg	-13.1189
gm	-13.1191
paubkuv	-13.1194
media	-13.1198
▁rfa	-13.1199
▁wing	-13.1201
thooj	-13.1203
phau	-13.1203
▁pleg	-13.1203
▁rose	-13.1204
qhuas	-13.1205
▁ncw	-13.1215
txiag	-13.1217
▁faa	-13.1217
▁sws	-13.1219
▁sibsau	-13.1242
xib	-13.1243
▁hmm	-13.1247
faab	-13.1249
aab	-13.1249
hehe	-13.1251
▁tuias	-13.1251
npas	-13.1259
▁hlu	-13.126
▁governments	-13.1261
▁lubcev	-13.1262
▁frank	-13.1263
▁jobs	-13.1265
klawm	-13.1267
tiaj	-13.1267
log	-13.127
nroog	-13.1273
▁hmu	-13.1279
▁cup	-13.1279
ane	-13.1281
31	-13.1286
pej	-13.1287
▁bm	-13.1289
loskuv	-13.1289
▁btw	-13.129
09	-13.1291
standard	-13.1292
nl	-13.1292
▁ves	-13.1298
▁tusiav	-13.1299
lie	-13.1308
▁huana	-13.1317
▁masters	-13.1319
45	-13.1321
▁moom	-13.1326
tswvyim	-13.1328
▁six	-13.133
nrauj	-13.1331
▁twh	-13.134
tsaug	-13.134
hwj	-13.1341
▁thian	-13.1343
hahhahah	-13.1344
zus	-13.1355
have	-13.1357
ouc	-13.1358
▁valley	-13.136
▁amkha	-13.1364
xauv	-13.1366
yej	-13.1372
▁nrogkuv	-13.1375
41	-13.1379
▁===	-13.1381
▁2005.	-13.1383
▁bird	-13.1383
royal	-13.1383
majority	-13.1383
military	-13.1383
fuabtais	-13.1384
▁gia	-13.1386
tshuab	-13.1387
tshua	-13.1393
side	-13.1395
dlev	-13.1396
▁critique	-13.1401
kw	-13.1403
▁tran	-13.1409
cyb	-13.141
▁yoos	-13.1415
cag	-13.1415
▁nationalist	-13.1415
▁alternative	-13.1415
▁seminar	-13.142
▁graduate	-13.1421
▁historian	-13.1422
▁stock	-13.1422
▁nyiv	-13.1423
▁bark	-13.1424
▁corrupt	-13.1425
▁khmu	-13.1426
▁escape	-13.1428
▁nchaa	-13.1429
▁abandon	-13.1429
▁communicate	-13.1429
▁roo	-13.143
▁utah	-13.143
▁accountability	-13.143
▁versus	-13.143
▁carpet	-13.1431
▁baseball	-13.1431
▁pativat	-13.1431
▁privacy	-13.1431
dhcs	-13.1431
▁duluth	-13.1431
▁ntxwjnyoog	-13.1431
▁twjkum	-13.1431
▁xamxabnam	-13.1432
ncg	-13.1432
▁describe	-13.1432
▁accountable	-13.1433
▁curse	-13.1433
▁khekme	-13.1433
▁dignity	-13.1433
▁pujnyaaj	-13.1433
▁maabqus	-13.1433
▁nomkhwb	-13.1433
▁tmc	-13.1434
▁champion	-13.1434
▁timxyeej	-13.1434
▁weight	-13.1436
▁everyday	-13.1436
▁nyaib	-13.1436
▁halloween	-13.1437
▁helicopter	-13.1437
▁registered	-13.1438
▁xabtham	-13.1438
▁dlhos	-13.1438
▁ycha	-13.1438
▁cobmoos	-13.1439
▁hummm	-13.1439
ian	-13.1439
▁organized	-13.1439
mis	-13.1439
▁tubtxib	-13.144
▁hearsay	-13.144
▁collective	-13.1441
▁somphone	-13.1441
▁paajyeeb	-13.1443
▁hunters	-13.1443
uoc	-13.1446
▁plane	-13.1446
▁qaav	-13.1447
▁nruabsab	-13.1447
▁sistxuas	-13.1448
▁nplu	-13.1448
▁ceeblaj	-13.1448
▁dlob	-13.1448
▁dreaming	-13.145
▁porn	-13.1451
▁scare	-13.1453
▁senate	-13.1454
▁inch	-13.1456
▁cuabkav	-13.1459
▁ntsaab	-13.1462
ruc	-13.1463
▁fag	-13.1465
nig	-13.1467
▁ibtxha	-13.1467
▁zoua	-13.1473
▁txujlug	-13.1476
▁nosavanh	-13.1476
▁tamtseeb	-13.1477
xawm	-13.148
war	-13.148
▁xwbhwb	-13.1481
▁commies	-13.1481
▁ntugkev	-13.1483
▁xejt	-13.1488
▁ntxog	-13.149
▁covnyom	-13.149
▁hun	-13.1492
xe	-13.1492
associated	-13.1492
▁tay	-13.1494
▁npajsiab	-13.1499
▁task	-13.1501
ou	-13.1503
▁nhab	-13.1505
▁timmeskas	-13.1505
▁hahahahhaha	-13.1505
▁bond	-13.1507
▁qb	-13.1509
kao	-13.1509
▁tibtug	-13.1514
▁spen	-13.1525
▁hlw	-13.1527
dh	-13.1527
▁49	-13.1531
▁nkoo	-13.1531
▁cojnoj	-13.1537
▁tosli	-13.1542
▁nnk	-13.1542
▁yawgkoob	-13.1543
▁chan	-13.1553
▁ntias	-13.1564
▁answers	-13.1579
special	-13.1584
▁$800	-13.1588
..!	-13.159
rm	-13.1593
dem	-13.1599
▁rovlawm	-13.1603
zug	-13.1605
▁mainas	-13.1625
▁ht	-13.1626
▁zee	-13.1629
eev	-13.1629
ywj	-13.1634
txig	-13.1635
open	-13.1635
wr	-13.1639
hour	-13.1643
ja	-13.1643
▁zoonraug	-13.1644
ut	-13.1647
▁elder	-13.1648
luc	-13.1653
yis	-13.1655
holding	-13.1656
txhawb	-13.1657
99	-13.1659
▁gum	-13.1668
ish	-13.1673
vajncuab	-13.1674
tiamsi	-13.1675
comcast	-13.1679
▁59	-13.1679
cultural	-13.168
ncig	-13.1681
▁audio	-13.1682
kuvli	-13.1684
info	-13.1686
similar	-13.1686
cwjmem	-13.1686
-16	-13.1689
▁tool	-13.169
lin	-13.17
mes	-13.171
▁rovmus	-13.1716
▁daniel	-13.1719
▁error	-13.1719
▁christain	-13.1721
▁mexican	-13.1721
▁cult	-13.1721
▁hahah	-13.1726
▁invention	-13.1729
▁86	-13.1729
▁jay	-13.173
▁nyij	-13.1732
▁trail	-13.1732
▁cooperate	-13.1733
▁greek	-13.1733
▁francisco	-13.1733
▁crappy	-13.1734
▁silent	-13.1734
▁ropv	-13.1734
▁policies	-13.1734
▁5:00	-13.1734
▁registration	-13.1734
▁sacrify	-13.1734
dao	-13.1734
▁admitted	-13.1734
▁yeeej	-13.1734
▁citizenship	-13.1735
▁15-20	-13.1735
▁huajvam	-13.1735
▁dismiss	-13.1735
▁nyawb	-13.1735
▁tseeem	-13.1735
▁highway	-13.1735
▁bog	-13.1735
▁kabntsab	-13.1735
▁3:00	-13.1735
▁hmnoob	-13.1736
▁koosphas	-13.1736
▁angola	-13.1736
▁transparency	-13.1736
▁dawbpaug	-13.1736
▁believing	-13.1736
▁tolerate	-13.1736
▁txhwv	-13.1736
▁majtras	-13.1737
▁suggested	-13.1737
▁doens	-13.1737
▁prosperity	-13.1737
▁bodies	-13.1737
▁attached	-13.1738
▁ignorance	-13.1739
▁icu	-13.1739
▁daddy	-13.1739
▁paajlug	-13.1739
▁elite	-13.1739
▁pajntaub	-13.1739
▁tcmd	-13.1739
▁searching	-13.174
▁nrhai	-13.174
▁doctorate	-13.1741
dp	-13.1741
▁dolas	-13.1741
▁modify	-13.1742
▁udon	-13.1742
▁tubqaug	-13.1742
▁8,000	-13.1743
▁lately	-13.1743
▁dump	-13.1743
▁pamtuag	-13.1745
sbc	-13.1745
▁expected	-13.1746
▁pabcuam	-13.1747
▁----	-13.1747
▁rhuab	-13.1748
▁although	-13.1748
▁dejtshiab	-13.1749
▁cohr	-13.175
▁paud	-13.1751
▁provided	-13.1751
▁****	-13.1754
▁activists	-13.1756
▁idiots	-13.1759
▁taabsis	-13.176
▁sibdig	-13.176
level	-13.176
hua	-13.1763
▁covjeeg	-13.1763
▁phoj	-13.1763
▁nomdlub	-13.1764
▁pack	-13.1766
leem	-13.1767
▁txhaistes	-13.1767
▁txawjvam	-13.1769
▁theung	-13.1771
▁hluasnraug	-13.1771
▁khiam	-13.178
▁lover	-13.1783
yau	-13.1784
▁reps	-13.1784
lom	-13.1786
sp	-13.1788
▁hnubqub	-13.1791
iens	-13.1797
gr	-13.1797
▁yiam	-13.1799
cuav	-13.18
▁secure	-13.18
-10	-13.18
ri	-13.1801
pc	-13.181
▁213,	-13.1812
▁tubse	-13.1812
▁dl	-13.1814
▁txoh	-13.1815
▁taim	-13.1817
▁dlais	-13.1819
▁xon	-13.182
▁fees	-13.1828
▁2002,	-13.1828
vn	-13.1834
nqe	-13.1836
ize	-13.1846
▁bam	-13.1847
702	-13.185
ntxoov	-13.1851
▁khem	-13.1855
date	-13.1856
nawd	-13.1861
▁hint	-13.1864
▁zoozoo	-13.1868
▁teu	-13.1872
kaub	-13.1874
ww	-13.1876
▁ees	-13.1877
▁tough	-13.188
rl	-13.1884
▁turns	-13.1885
tic	-13.1887
wh	-13.1897
lej	-13.1903
▁npho	-13.1905
xi	-13.1908
money	-13.1914
▁fl	-13.1923
▁thamlus	-13.1928
txeeg	-13.1934
100	-13.1935
▁kentt	-13.1942
▁egg	-13.1948
kum	-13.1955
khi	-13.1965
qho	-13.1965
▁loved	-13.1968
▁pope	-13.1968
!..	-13.1973
=8	-13.1974
▁yan	-13.1977
iblub	-13.1986
▁kwjha	-13.1989
▁shows	-13.199
▁125	-13.199
internet	-13.1999
maim	-13.1999
sunrise	-13.1999
beer	-13.2003
ntxawm	-13.2003
dabneeg	-13.2005
quaj	-13.2005
xiam	-13.2006
-18	-13.2006
▁qhovquav	-13.2009
dyd	-13.201
zig	-13.2013
bel	-13.2018
▁ncokoj	-13.2018
dlub	-13.2018
▁bai	-13.2019
business	-13.2024
master	-13.203
▁strength	-13.2031
▁ignorant	-13.2031
ol	-13.2033
thaus	-13.2033
▁westerner	-13.2033
▁hunter	-13.2035
▁shop	-13.2035
▁miracle	-13.2035
▁expense	-13.2036
▁suffering	-13.2037
▁walleye	-13.2038
▁threaten	-13.2045
▁canberra	-13.2046
▁opportunities	-13.2046
▁desperate	-13.2046
▁partnership	-13.2046
▁undercover	-13.2046
▁dlpy	-13.2046
▁warren	-13.2046
▁exact	-13.2046
▁basement	-13.2047
▁cancelled	-13.2047
▁threatened	-13.2047
▁loyalty	-13.2047
▁definitely	-13.2047
▁tshaajplawg	-13.2047
▁corona	-13.2047
▁phuajxab	-13.2047
kiab	-13.2047
▁expired	-13.2047
▁teejtug	-13.2047
▁hehehehhe	-13.2048
▁kennedy	-13.2048
▁voting	-13.2048
▁adjust	-13.2048
▁vawb	-13.2048
▁nyaim	-13.2049
▁discussed	-13.2049
▁xubpwg	-13.2049
▁100-200	-13.2049
▁anyhow	-13.2049
▁gender	-13.2049
▁sawvdaw	-13.2049
▁txhojpob	-13.205
▁negotiate	-13.205
▁pursue	-13.205
▁fajkaum	-13.205
▁everywhere	-13.2051
▁ntlag	-13.2051
▁1,500	-13.2051
▁treaty	-13.2051
▁cruise	-13.2051
▁nploojntsuab	-13.2051
▁significant	-13.2052
▁kaavlam	-13.2052
▁risky	-13.2052
▁yeng	-13.2052
▁10-12	-13.2053
▁rwb	-13.2053
kheev	-13.2053
▁chosen	-13.2053
▁dominate	-13.2053
▁prepared	-13.2053
▁laugx	-13.2054
▁abyab	-13.2054
▁kerry	-13.2055
▁inner	-13.2056
▁dlaabqhuas	-13.2056
▁clients	-13.2056
▁saav	-13.2057
▁fortune	-13.2057
▁nciav	-13.2057
▁thoojsab	-13.2057
▁kaajsab	-13.2059
▁surely	-13.2059
▁vaajlug	-13.2062
▁txop	-13.2062
hand	-13.2063
▁phaas	-13.2064
▁persecute	-13.2064
▁ntsaaj	-13.2067
▁standing	-13.2067
▁ntsaav	-13.2068
▁barbaric	-13.207
maly	-13.207
▁range	-13.2071
▁raim	-13.2071
,000	-13.2073
▁txawjcuab	-13.2073
▁seemed	-13.2073
▁weapons	-13.2074
▁mivkuj	-13.2076
▁season	-13.2077
yu	-13.2081
thong	-13.2082
ihr	-13.2087
▁daub	-13.2087
▁aliens	-13.2089
▁mou	-13.209
▁pla	-13.2095
▁draft	-13.2096
▁letters	-13.2098
ir	-13.2103
ue	-13.2103
▁ntxib	-13.2104
lqv	-13.2106
▁crimes	-13.2109
▁butt	-13.2116
▁saved	-13.2126
moj	-13.2133
▁bliaj	-13.2133
▁lajthab	-13.2134
gv	-13.2138
pha	-13.2143
txuas	-13.2146
▁oop	-13.2148
gh	-13.2151
ex	-13.2157
▁hnubno	-13.2158
▁clans	-13.2159
kasmoos	-13.2162
▁funds	-13.2163
gl	-13.217
ip	-13.2171
rv	-13.2174
".....	-13.2176
▁leejnam	-13.2177
▁85	-13.2181
▁ntawdlos	-13.2181
▁pol	-13.2188
▁pomtas	-13.2192
▁xan	-13.2192
usg	-13.2193
khaus	-13.2194
last	-13.22
▁sej	-13.2207
▁nchu	-13.2229
nua	-13.2236
▁22.	-13.2236
ncej	-13.2238
▁npos	-13.2238
rely	-13.2239
▁qhoo	-13.224
bw	-13.2242
-4	-13.2245
lov	-13.2246
▁hahahahahah	-13.2255
▁npus	-13.2256
▁colonels	-13.2268
▁useful	-13.2271
wu	-13.2275
xyoob	-13.2277
▁hnu	-13.2283
▁67	-13.2286
bad	-13.2294
)))	-13.2294
qabntxhiab	-13.2294
▁mauv	-13.2296
▁menyuamhmoob	-13.2296
rious	-13.2296
▁txivlaus	-13.2297
▁touge	-13.2298
▁nplaaj	-13.2311
option	-13.2317
church	-13.232
type	-13.2321
meaning	-13.2322
north	-13.2322
teebmeem	-13.2322
▁kevcais	-13.2325
scl	-13.2331
▁scene	-13.2333
▁gua	-13.2335
chai	-13.2336
educated	-13.2337
▁ref	-13.2342
chia	-13.2346
▁technic	-13.235
▁oversea	-13.2355
▁orgasm	-13.2355
▁producer	-13.2357
nq	-13.2358
▁smell	-13.236
ow	-13.2361
▁hotels	-13.2361
host	-13.2362
▁temper	-13.2367
▁immediate	-13.2368
▁jealous	-13.2368
▁vitamin	-13.2369
▁savannakhet	-13.2369
▁thonglith	-13.2369
▁mojthej	-13.2369
▁piamsij	-13.2369
▁liberate	-13.2369
▁khhx	-13.2369
▁valuable	-13.2369
▁taksin	-13.2369
▁khakawj	-13.2369
▁midwest	-13.2369
▁plaag	-13.237
▁jai	-13.237
▁tuabywv	-13.237
▁13-16	-13.237
▁twjlij	-13.237
▁khejdub	-13.237
▁entitled	-13.237
▁fiav	-13.237
▁ntxhub	-13.237
▁honestly	-13.237
▁quapuj	-13.2371
▁comfort	-13.2371
▁genocide	-13.2371
▁nthse	-13.2371
▁romantic	-13.2371
▁montana	-13.2371
▁rocket	-13.2371
▁graduated	-13.2372
▁historical	-13.2372
▁branch	-13.2372
▁webcam	-13.2373
▁guyana	-13.2373
▁txhoob	-13.2373
▁loyal	-13.2373
▁plaim	-13.2373
▁refused	-13.2374
▁clovis	-13.2374
▁offended	-13.2374
▁oregon	-13.2374
▁spokesperson	-13.2374
▁capability	-13.2374
▁ncajnraim	-13.2374
▁confident	-13.2376
▁numtuam	-13.2376
▁kaitong	-13.2376
▁caijtsuj	-13.2376
▁$500.00	-13.2376
▁wondering	-13.2376
▁pajxab	-13.2377
▁amnesty	-13.2377
▁selfish	-13.2377
▁joined	-13.2378
▁answered	-13.2379
▁vuv	-13.2379
▁samthiaj	-13.2379
peter	-13.2379
▁ywjsab	-13.238
▁federate	-13.2381
▁npx	-13.2381
▁laujtsab	-13.2381
▁angle	-13.2381
▁preaching	-13.2381
▁lower	-13.2381
▁blaig	-13.2382
look	-13.2382
▁camping	-13.2384
house	-13.2384
fwb	-13.2384
▁native	-13.2384
▁kanmuang	-13.2386
▁pawb	-13.2386
ihrw	-13.2388
▁thovtxim	-13.2389
▁lwmzaus	-13.2389
▁vangpao	-13.2389
▁cerd	-13.2389
▁nqeeg	-13.2389
▁tools	-13.239
▁tabkaum	-13.239
▁idon	-13.2392
▁tshavntuj	-13.2392
▁sk	-13.2393
▁nyee	-13.2394
▁hou	-13.2394
hib	-13.2395
▁listed	-13.2398
▁nyablajteb	-13.2398
▁hehehhehe	-13.24
▁hwvtsam	-13.2401
▁txawjlem	-13.2403
▁che	-13.2404
▁nid	-13.2404
muang	-13.2405
▁perform	-13.2407
▁wu	-13.2408
▁victory	-13.241
▁souk	-13.241
▁phoufa	-13.2411
▁hasting	-13.2411
▁arts	-13.2414
▁speculate	-13.2416
dl	-13.2416
/2010	-13.2417
▁miab	-13.2417
▁cows	-13.2419
▁hij	-13.242
gn	-13.2424
▁dejdag	-13.2426
▁ualuam	-13.243
▁khoum	-13.2431
sig	-13.2432
▁obleeg	-13.2436
▁tsh	-13.244
▁mock	-13.2442
▁dawd	-13.2444
▁xto	-13.2445
yag	-13.2445
▁qhaug	-13.2446
▁bz	-13.2446
▁cho	-13.2451
▁lan	-13.2453
tsawv	-13.2454
txh	-13.2456
▁sr	-13.2464
▁khooj	-13.2464
tshav	-13.2465
▁fem	-13.2466
tawj	-13.2466
▁ntxhaw	-13.2469
div	-13.2469
ated	-13.2471
lic	-13.2475
▁pabtha	-13.2483
-***	-13.2488
town	-13.2493
nyem	-13.2494
▁vip	-13.2495
="	-13.2498
kauv	-13.2498
plan	-13.25
lm	-13.2501
taus	-13.2509
nta	-13.2514
▁1200	-13.2517
▁kevkawm	-13.2518
▁dualawm	-13.252
▁notre	-13.253
saab	-13.2533
tsib	-13.2534
▁npaw	-13.2536
auj	-13.2537
▁qhabna	-13.2549
▁tubtxawj	-13.2549
▁58	-13.255
▁siabzoo	-13.2553
ul	-13.2554
chaofa	-13.2558
cd	-13.256
▁feels	-13.2576
teem	-13.258
seuk	-13.2581
▁nplho	-13.2582
▁nri	-13.2583
▁shape	-13.2586
▁ywb	-13.2589
zeeg	-13.2592
▁african	-13.2597
ju	-13.2597
▁jet	-13.26
plawv	-13.2612
▁heu	-13.2617
▁taslawm	-13.2618
▁phe	-13.2627
under	-13.2627
hehehehehehehehe	-13.2627
head	-13.2628
af	-13.2629
1600	-13.263
kov	-13.2632
will	-13.2635
dha	-13.2636
member	-13.2641
▁tie	-13.2642
government	-13.2642
rain	-13.2643
ncaws	-13.265
hiaj	-13.2652
▁pool	-13.2652
▁sons	-13.2652
private	-13.2654
vientiane	-13.2655
txhuv	-13.2655
joke	-13.2656
▁yaib	-13.266
pictures	-13.2661
blue	-13.2664
neo	-13.2668
ntiaj	-13.2677
▁recipe	-13.2684
▁sou	-13.2684
▁tan	-13.2688
▁parent	-13.2688
▁prosecutor	-13.2688
qi	-13.2688
▁principal	-13.2688
▁allegation	-13.2688
▁yexu	-13.2689
▁niece	-13.269
▁material	-13.2692
▁fabrication	-13.2693
▁nthaw	-13.2693
▁genetic	-13.2694
▁mw	-13.2694
▁fell	-13.2699
▁caucus	-13.2701
▁tshajplaw	-13.2701
▁implement	-13.2701
▁intend	-13.2701
▁deport	-13.2701
▁hinhheup	-13.2702
▁nebraska	-13.2702
▁dejadust	-13.2702
▁prior	-13.2702
▁thamkabbo	-13.2702
▁duties	-13.2702
▁yavtomntej	-13.2702
▁kheng	-13.2703
▁vaajntxwv	-13.2703
▁probation	-13.2703
▁pleasure	-13.2703
▁cyndi	-13.2703
▁najkaib	-13.2703
▁nqajtawv	-13.2703
▁savior	-13.2703
▁pojnaim	-13.2703
▁therapist	-13.2703
▁meaningless	-13.2704
▁aimpim	-13.2704
▁baptist	-13.2704
▁museum	-13.2705
▁nkaujxawspaum	-13.2705
▁dabntub	-13.2705
joseph	-13.2705
▁tired	-13.2706
▁assessment	-13.2706
▁creative	-13.2706
▁usenet	-13.2706
▁ynd	-13.2707
▁troops	-13.2707
▁kaij	-13.2708
▁nyaam	-13.2708
▁tubtxawg	-13.2708
▁siblhub	-13.2708
▁diamond	-13.2708
▁allowed	-13.2709
▁vaajmoog	-13.2709
▁plim	-13.2709
▁milk	-13.2709
▁immigrants	-13.271
shoua	-13.271
▁tsujsuadluag	-13.271
▁discriminate	-13.271
▁supporters	-13.2711
▁nraugseem	-13.2711
▁mivnyuam	-13.2712
▁yuan	-13.2714
▁zuas	-13.2714
▁quv	-13.2715
▁yamntxwv	-13.2717
▁lacrosse	-13.2717
▁huplig	-13.2719
▁xabphas	-13.2719
▁ntxuas	-13.272
▁xyaus	-13.272
▁producers	-13.272
▁pounds	-13.2721
▁mdd	-13.2721
▁savanh	-13.2722
▁polite	-13.2724
▁fighters	-13.2725
▁reports	-13.2727
▁koomteg	-13.2731
▁thoojsiab	-13.2731
▁feemntau	-13.2734
▁yimtxwv	-13.2734
▁laas	-13.2736
▁txawjtuam	-13.2738
▁xxxxxxxxxxxx	-13.2739
▁sp	-13.274
▁khun	-13.2741
▁kiaglawm	-13.2742
ital	-13.2743
▁partners	-13.2753
lw	-13.2756
▁liglawm	-13.2756
zyb	-13.2757
soua	-13.2761
ped	-13.2764
qwv	-13.2766
▁vajnom	-13.2769
▁tshaws	-13.2777
ihdy	-13.2777
▁ntxhwb	-13.2777
▁nqaag	-13.2779
▁nun	-13.2782
▁mor	-13.2782
▁nio	-13.2786
▁lion	-13.2791
hooj	-13.2795
lawvlub	-13.2796
▁txausx	-13.2797
sin	-13.2801
lbs	-13.2802
▁broad	-13.2804
yo	-13.2806
▁tawkev	-13.2807
77	-13.2807
▁camps	-13.2807
70	-13.2807
▁zob	-13.2808
▁qhoob	-13.2811
laam	-13.2815
hob	-13.2816
uc	-13.2819
▁nawg	-13.2823
▁timtswv	-13.2833
▁xyog	-13.2834
▁tagzog	-13.2837
▁qwj	-13.2841
happy	-13.2842
▁bills	-13.2843
▁nqo	-13.2843
▁articles	-13.2846
former	-13.2847
email	-13.2848
▁din	-13.2854
▁txivtsev	-13.2865
qh	-13.2867
kig	-13.287
ru	-13.2871
cf	-13.2873
▁ntxhiv	-13.2874
vog	-13.2879
▁lojx	-13.2879
▁yer	-13.2881
▁xwbntag	-13.2883
txias	-13.2884
qg	-13.2888
peace	-13.289
noc	-13.2895
jl	-13.2897
▁hlov	-13.2903
▁loving	-13.2909
yr	-13.291
▁$600	-13.2914
kwm	-13.2917
word	-13.2919
▁niamlaus	-13.2925
▁tshia	-13.2928
▁bb	-13.293
▁thesis	-13.2935
ntshaw	-13.2944
cent	-13.2945
▁practic	-13.295
▁ain	-13.295
▁elect	-13.2954
▁21.	-13.2956
tsaus	-13.296
xais	-13.2961
▁tnb	-13.2961
mitted	-13.2964
▁hnya	-13.2964
lh	-13.2967
swv	-13.2967
▁suabhmoob	-13.2972
▁(30	-13.2973
▁char	-13.2975
two	-13.2982
report	-13.2983
▁tsispaub	-13.299
ver	-13.2994
17	-13.2996
▁heheh	-13.2997
07	-13.2997
txooj	-13.2998
believe	-13.2999
buffalo	-13.2999
however	-13.3
▁que	-13.3
international	-13.3001
ities	-13.3002
ible	-13.3003
these	-13.3003
0800	-13.3006
cause	-13.3006
▁dawbl	-13.3008
▁tssi	-13.3011
phas	-13.3012
capt	-13.3012
▁paubhaus	-13.302
face	-13.3025
ged	-13.303
▁flight	-13.3033
....(	-13.3033
▁signal	-13.3034
▁koomntsw	-13.3037
▁booth	-13.3037
▁accusation	-13.3039
▁suck	-13.3043
puv	-13.3044
▁sheep	-13.3044
▁establish	-13.3044
▁hoskuv	-13.3045
wn	-13.3046
▁punish	-13.3046
▁distinguish	-13.3047
▁beepimvaaj	-13.3047
▁guiana	-13.3047
▁asmeslivkas	-13.3047
▁loojkoov	-13.3047
▁krom	-13.3047
▁jehovah	-13.3047
▁yunan	-13.3047
▁counselor	-13.3047
▁flash	-13.3047
▁ntujceebtsheej	-13.3047
▁giv	-13.3047
▁tshuabqeej	-13.3048
▁disappeared	-13.3048
▁11:00	-13.3048
▁zzh	-13.3048
▁nyoojhoom	-13.3048
▁amount	-13.3048
▁downtown	-13.3048
▁fundamental	-13.3048
▁upper	-13.3049
▁fwjtxwv	-13.3049
▁mixed	-13.3049
▁murdered	-13.3049
▁discover	-13.3049
▁highest	-13.3049
▁resigned	-13.3049
▁koumisith	-13.3049
▁juice	-13.3049
▁tijuana	-13.3049
▁tswvxyas	-13.3049
▁qavkaws	-13.3049
▁agriculture	-13.3049
▁jony	-13.305
▁jhaw	-13.305
▁xavtias	-13.305
▁user	-13.305
▁organizers	-13.305
▁rheeb	-13.3051
earthlink	-13.3051
▁obligation	-13.3051
▁capable	-13.3051
▁jhav	-13.3051
▁cloud	-13.3051
▁soui	-13.3052
▁guav	-13.3052
▁qhanab	-13.3053
▁civilization	-13.3053
▁lacking	-13.3053
▁treated	-13.3053
▁pajtshiab	-13.3054
▁democrate	-13.3056
▁kablig	-13.3056
▁thxua	-13.3056
▁blessing	-13.3057
▁nkuag	-13.3057
▁entertainment	-13.3058
▁despite	-13.3058
peem	-13.3061
▁coc	-13.3061
▁tuableeg	-13.3061
▁ego	-13.3062
▁aside	-13.3062
▁30%	-13.3064
▁invent	-13.3066
▁yards	-13.3067
▁hauvntej	-13.3068
▁tshw	-13.3069
▁nqawm	-13.3069
ky	-13.3069
▁tshawg	-13.3071
gpib	-13.3072
▁fest	-13.3072
▁vammej	-13.3073
▁loves	-13.3075
▁15-16	-13.3077
▁ntujtawg	-13.3078
▁puabtais	-13.308
▁archives	-13.3086
kham	-13.3088
▁ntxho	-13.3089
▁behaviors	-13.3089
▁nrua	-13.3091
saum	-13.3096
▁conditions	-13.3097
▁meejtswv	-13.3098
dos	-13.31
▁yawmluj	-13.3103
▁oi	-13.3103
▁xabpha	-13.3103
▁kwb	-13.3104
▁vaum	-13.3105
▁pliv	-13.3108
▁px	-13.3116
case	-13.3117
▁tsiskam	-13.3117
▁disappear	-13.3121
regional	-13.3121
▁thub	-13.3122
▁rely	-13.3124
▁xad	-13.313
kawv	-13.313
▁ncoj	-13.3147
▁solomon	-13.3147
▁combine	-13.3147
▁siabnyiam	-13.3147
▁represents	-13.3148
▁tswx	-13.3148
vi	-13.315
▁hkm	-13.3151
▁hmongme	-13.3153
▁siabntev	-13.3162
▁naaj	-13.3163
▁plom	-13.3167
▁steps	-13.317
▁lajsiab	-13.3175
byb	-13.3178
▁twist	-13.3179
▁sabtwg	-13.3179
tha	-13.3179
▁muajntsis	-13.3181
ring	-13.3193
▁herlao	-13.3197
bye	-13.3199
▁nlog	-13.3202
▁thak	-13.3204
yd	-13.3214
300	-13.3221
▁1-3	-13.3224
▁xias	-13.3225
▁thang	-13.3232
-070	-13.3236
▁seco	-13.3241
▁dawbx	-13.3244
ble	-13.3245
tsaib	-13.3247
gx	-13.3251
)....	-13.3251
▁nork	-13.3259
▁74	-13.3266
cim	-13.3276
neng	-13.3277
pi	-13.3277
▁covkevcai	-13.3297
▁thaw	-13.3298
▁ear	-13.33
▁beevee	-13.3304
xij	-13.3308
▁voo	-13.3309
▁siabloj	-13.331
▁xyiv	-13.3312
zaug	-13.3312
▁tak	-13.3314
▁fau	-13.3317
ncaug	-13.3321
key	-13.3323
▁stream	-13.333
lix	-13.333
▁tsawgx	-13.3334
forum	-13.3344
ntxoog	-13.3351
operation	-13.3356
active	-13.3356
hmao	-13.3357
yem	-13.3358
▁suj	-13.3359
▁hc	-13.3361
▁forums	-13.3363
phd	-13.3366
▁dlaw	-13.337
")	-13.3371
kh	-13.3373
▁xaslas	-13.3373
chair	-13.3375
▁2500	-13.3378
hrs	-13.338
▁tomx	-13.338
▁ntawj	-13.3381
use	-13.3384
ant	-13.3386
▁ntxiaj	-13.3387
▁diaper	-13.3387
▁dialogue	-13.339
▁occasion	-13.3391
▁tsaas	-13.3391
76	-13.3394
▁liber	-13.3396
▁archive	-13.3397
caas	-13.3397
▁suppose	-13.3401
▁hmoong	-13.3402
▁sayasit	-13.3403
wk	-13.3403
▁nkausli	-13.3403
▁experiment	-13.3404
▁grocer	-13.3404
▁kasmeaung	-13.3404
▁motorcycle	-13.3404
▁vaubkib	-13.3404
▁ctj	-13.3404
▁potter	-13.3404
▁kuammemiab	-13.3404
▁nropg	-13.3405
▁brave	-13.3405
▁phonsavanh	-13.3405
▁profanity	-13.3405
▁translator	-13.3405
▁perception	-13.3405
▁$50.00	-13.3405
▁battalion	-13.3405
▁tuammom	-13.3405
▁taabfaab	-13.3405
▁lkm	-13.3405
▁description	-13.3405
▁agthiv	-13.3405
▁finished	-13.3406
▁nruabqaum	-13.3406
▁txijnkawm	-13.3406
▁peacefully	-13.3406
hahahhahaha	-13.3407
▁chimlajxeeb	-13.3407
▁prominent	-13.3407
▁revenge	-13.3407
▁maryland	-13.3407
▁richard	-13.3407
▁messenger	-13.3407
▁tsdis	-13.3407
▁kelly	-13.3407
▁somehow	-13.3407
▁requested	-13.3407
▁nujnqes	-13.3408
▁phubthawj	-13.3408
▁chaxwm	-13.3408
▁phuan	-13.3408
▁ntxaij	-13.3408
▁diplome	-13.3408
▁triangle	-13.3408
▁expertise	-13.3408
▁karma	-13.3408
▁wameng	-13.3408
▁trend	-13.3408
▁presentation	-13.3408
▁grill	-13.3409
▁nthiav	-13.3409
▁npawj	-13.3409
▁rwm	-13.3409
▁mercenaries	-13.341
▁dedication	-13.341
▁revolutionary	-13.341
▁childish	-13.341
▁paajnruag	-13.341
▁hzen	-13.341
▁moobloojceeb	-13.341
▁toy	-13.3411
▁dpt	-13.3411
▁phaij	-13.3411
▁funders	-13.3411
▁boyfriend	-13.3411
▁naiphone	-13.3411
▁commissioner	-13.3412
▁secondly	-13.3412
▁wao	-13.3412
▁ciamteb	-13.3413
▁rhode	-13.3413
start	-13.3413
▁6,000	-13.3414
▁veg	-13.3414
sev	-13.3414
nuj	-13.3414
▁kwmxeeb	-13.3415
▁niamntiav	-13.3416
▁acha	-13.3416
▁cuabtsav	-13.3417
▁racial	-13.3417
▁cf	-13.3418
▁crap	-13.3418
▁happening	-13.3418
▁materials	-13.3419
▁allegations	-13.3419
▁ntxaiv	-13.3419
▁spoken	-13.342
▁sahapha	-13.3421
▁tubntsuaghmong	-13.3422
▁povkhawv	-13.3423
▁nyuabx	-13.3423
▁khon	-13.3423
▁amazing	-13.3424
▁qhovcub	-13.3424
▁houang	-13.3424
▁zaud	-13.3426
▁consonants	-13.3427
▁minded	-13.3429
▁requires	-13.3431
▁hmongness	-13.3433
▁nasty	-13.3434
▁suavtawg	-13.3434
▁qin	-13.3434
▁cc	-13.3438
▁sibthooj	-13.344
▁lubntees	-13.3442
▁txawjteev	-13.3442
20,000	-13.3442
je	-13.3443
thi	-13.3444
▁nerve	-13.3447
▁businesses	-13.3451
pluag	-13.3452
uq	-13.3454
▁togtwg	-13.3458
▁txhuayaam	-13.3459
▁yuslub	-13.3466
kaysone	-13.3468
▁wwii	-13.3468
spot	-13.3469
cs	-13.347
fought	-13.3476
niv	-13.3483
▁nongkhais	-13.3487
wink	-13.3487
▁tec	-13.3488
▁dhaulawm	-13.3488
▁pobtsuas	-13.3491
▁concerns	-13.3495
dam	-13.3498
east	-13.3501
▁ibhom	-13.3502
58	-13.3506
him	-13.3506
▁advices	-13.3508
61	-13.3508
ntshais	-13.3516
kuvlub	-13.3518
▁nyon	-13.3521
nyav	-13.3525
xo	-13.3529
tbn	-13.3531
▁mars	-13.3533
xhob	-13.354
69	-13.3544
bf	-13.3548
▁tsodag	-13.355
▁choo	-13.3551
▁nojqab	-13.3552
▁organ	-13.3553
▁edit	-13.3554
▁siabphem	-13.3557
khov	-13.3559
▁taszog	-13.3568
cobfab	-13.3574
▁23.	-13.3576
dwf	-13.3584
/2011	-13.3585
▁talent	-13.3594
▁mhoo	-13.3594
▁noel	-13.3605
nuv	-13.3605
press	-13.3608
365	-13.362
97	-13.362
▁sta	-13.3624
▁qh	-13.3627
tsheb	-13.3643
other	-13.3644
▁nqab	-13.3649
lcb	-13.3649
▁$40	-13.3654
▁legs	-13.3657
▁bid	-13.3659
▁txuav	-13.3661
23	-13.3664
▁ac	-13.3668
▁2007.	-13.3674
vc	-13.3675
▁covntawv	-13.3676
▁tsoomhmoob	-13.368
▁nplee	-13.3691
pgo	-13.3692
73	-13.3692
pajhuam	-13.3693
zeem	-13.3703
▁dust	-13.3705
▁ceej	-13.3706
experience	-13.3706
▁juab	-13.3706
ntxwj	-13.3711
▁flu	-13.3713
hmongvillage	-13.3713
hmmmmm	-13.3716
lia	-13.3716
▁hah	-13.3717
▁rare	-13.3719
mk	-13.372
vision	-13.3723
du	-13.3723
ywg	-13.3724
chi	-13.3725
twincities	-13.3725
▁koomtsis	-13.3726
golden	-13.3727
fabkis	-13.3727
huabtais	-13.3727
▁sir	-13.3728
son	-13.3728
cnn	-13.373
rawv	-13.3734
▁71	-13.3736
dress	-13.3738
▁dh	-13.374
▁sins	-13.3741
_______________	-13.3742
▁$3,000	-13.3743
being	-13.3744
▁hehehhe	-13.3745
▁1954	-13.3752
▁disaster	-13.3758
▁tongue	-13.3758
▁permit	-13.3759
thaiv	-13.3759
▁expectation	-13.3759
▁psychiatrist	-13.376
▁investigator	-13.376
▁headquarter	-13.3764
▁usage	-13.3765
▁quit	-13.3765
▁applie	-13.3771
▁russian	-13.3772
▁maml	-13.3773
xawj	-13.3773
▁eekiv	-13.3774
▁excercise	-13.3774
rocketmail	-13.3774
▁lansing	-13.3774
▁nyujquslaug	-13.3774
▁counseling	-13.3775
▁dying	-13.3775
▁jva	-13.3775
▁taigkis	-13.3775
▁laophuan	-13.3775
▁nreeb	-13.3775
▁convention	-13.3775
▁kuatxob	-13.3775
▁sandiego	-13.3775
▁destination	-13.3775
▁easier	-13.3775
▁eventually	-13.3775
▁(1975)	-13.3775
▁distance	-13.3775
▁existence	-13.3775
▁football	-13.3775
▁hussein	-13.3775
▁txoovtuam	-13.3775
▁prevention	-13.3776
▁xoomxaim	-13.3776
▁consideration	-13.3776
▁threatening	-13.3776
▁aaskiv	-13.3776
▁singapore	-13.3776
▁began	-13.3776
▁accomplished	-13.3776
▁nhyav	-13.3777
▁possess	-13.3777
▁throat	-13.3777
▁kunming	-13.3777
▁tsunami	-13.3777
▁pkyn	-13.3777
▁sawvntsug	-13.3777
▁specifically	-13.3777
▁pabvav	-13.3777
▁opportunist	-13.3777
▁sawvdwas	-13.3778
▁putting	-13.3778
▁alcohol	-13.3779
▁hickory	-13.3779
▁flood	-13.3779
▁aibnoob	-13.3779
▁mount	-13.3779
▁daaj	-13.3779
articles	-13.3779
▁mnuaj	-13.378
rh	-13.378
▁interviewed	-13.378
▁bullshit	-13.378
▁beauty	-13.3781
▁heavy	-13.3781
▁buying	-13.3783
▁samneua	-13.3783
▁lubnpe	-13.3783
▁tsimnuj	-13.3784
▁lesbian	-13.3785
▁rush	-13.3785
▁tseemnyob	-13.3785
▁nyuabsab	-13.3786
▁hihihihihihihi	-13.3786
khw	-13.3786
▁realistic	-13.3786
▁450	-13.3786
uacas	-13.3787
▁tense	-13.3787
▁metro	-13.3787
▁released	-13.3788
▁ears	-13.3789
outre	-13.3789
▁walking	-13.379
▁walleyes	-13.3791
▁tshws	-13.3791
▁moung	-13.3791
▁hahahhahaha	-13.3792
▁zwb	-13.3793
▁solved	-13.3794
▁coglus	-13.3795
▁christains	-13.3796
▁tawmtsaam	-13.3797
▁hawmntawd	-13.3798
▁vajxab	-13.3801
▁nose	-13.3801
▁paig	-13.3805
▁chin	-13.3805
▁lovers	-13.3805
▁chaol	-13.3806
▁assuming	-13.3806
mhong	-13.381
iq	-13.3811
▁cws	-13.3811
▁nplhus	-13.3813
▁mivntxhais	-13.3815
▁nrus	-13.3819
▁ntx	-13.3823
▁pointed	-13.3824
▁dhuas	-13.3828
▁pointing	-13.3829
▁covxibfwb	-13.383
▁betray	-13.383
▁txhee	-13.3831
▁dlebx	-13.3835
ngu	-13.3837
▁lostuas	-13.3838
▁alot	-13.3838
der	-13.384
▁engineers	-13.3841
▁chimsab	-13.3842
kpian	-13.3842
run	-13.3842
▁indicate	-13.3844
▁ghais	-13.3846
▁nyu	-13.3848
▁1/	-13.3849
▁soom	-13.3852
=-	-13.3852
▁couples	-13.3857
▁moobntsuab	-13.3857
▁wide	-13.3862
refered	-13.3864
▁hauvtoj	-13.3864
kauj	-13.3865
▁7)	-13.3865
▁tyus	-13.3869
rc	-13.387
▁tang	-13.3872
daum	-13.3879
▁minorit	-13.388
▁heheheheheh	-13.3882
▁salt	-13.3886
▁chercho	-13.3889
▁$30	-13.3895
▁hlias	-13.3898
tong	-13.3899
uew	-13.3904
uz	-13.3907
▁listub	-13.3907
ehmong	-13.3912
▁274	-13.3914
▁ideal	-13.3915
▁noah	-13.3921
vas	-13.3922
pre	-13.3925
84	-13.3928
▁tsevkawm	-13.393
▁nyavnyua	-13.394
yias	-13.3942
▁"1	-13.3953
yaig	-13.3955
laud	-13.3955
48	-13.3956
▁tin	-13.3968
bc	-13.3968
▁par	-13.3974
qiv	-13.3975
khuj	-13.3977
nee	-13.3978
▁bag	-13.3979
shr	-13.398
55,	-13.3985
aug	-13.3985
▁alwm	-13.3985
pz	-13.3985
▁nqiv	-13.3988
armed	-13.3988
▁teams	-13.399
▁ibsab	-13.3991
qq	-13.3999
▁tshoo	-13.4007
cog	-13.4017
▁bub	-13.402
▁nyi	-13.4029
▁thou	-13.4031
▁quajx	-13.4032
▁bu	-13.4037
▁thor	-13.4038
5%	-13.4039
hp	-13.4046
xxxx	-13.4046
▁nphlu	-13.405
term	-13.4056
▁tshees	-13.4058
▁nq	-13.4062
=20	-13.4071
▁vo	-13.4074
▁vimlawv	-13.4079
dais	-13.4082
▁hlubhmong	-13.4083
▁411,	-13.4083
nu	-13.4084
▁zoonyob	-13.4088
ntsiv	-13.4095
bi	-13.4095
nrho	-13.4096
tsuv	-13.4096
evidence	-13.4097
week	-13.4098
praya	-13.41
▁qhuag	-13.4104
▁phle	-13.4107
online	-13.4109
water	-13.411
down	-13.4112
according	-13.4112
heaven	-13.4112
check	-13.4112
mojthem	-13.4112
funny	-13.4112
faith	-13.4112
phabej	-13.4112
give	-13.4114
xyuam	-13.412
cawm	-13.412
peg	-13.4121
nrov	-13.4124
dang	-13.4125
txis	-13.4129
leaders	-13.4131
▁zoodua	-13.4136
▁libya	-13.4142
▁attract	-13.4142
358	-13.4143
▁production	-13.4145
▁ethic	-13.4145
▁wall	-13.4146
▁legend	-13.4146
▁umbrella	-13.4147
▁tourist	-13.415
▁toilet	-13.4151
▁airplane	-13.4151
▁imagination	-13.4153
mother	-13.4153
▁collection	-13.4153
▁wam	-13.4156
▁accomplish	-13.4158
▁minesota	-13.4159
▁qujqees	-13.4159
▁osama	-13.4159
▁battery	-13.4159
▁puamchawj	-13.4159
▁$50,000	-13.4159
(763)	-13.4159
▁nqagkab	-13.4159
▁kwtij	-13.4159
▁dauslas	-13.416
▁motion	-13.416
▁tchang	-13.416
▁yangsta	-13.416
▁zebcub	-13.416
▁insist	-13.416
▁bliatou	-13.416
▁koohaum	-13.416
▁bamboo	-13.416
▁globe	-13.416
▁toyota	-13.416
▁nthxais	-13.416
▁consistent	-13.416
.16035457	-13.416
▁babies	-13.416
▁txaajmuag	-13.416
▁weather	-13.416
▁laajlim	-13.416
▁sapa	-13.4161
▁kausmom	-13.4161
▁phuvnyawm	-13.4161
▁steve	-13.4161
▁tshwjkab	-13.4161
▁presidential	-13.4161
▁ew	-13.4161
▁madamet	-13.4161
▁paimquav	-13.4162
▁courage	-13.4162
▁possibility	-13.4162
▁illinois	-13.4162
▁electrical	-13.4162
▁ysl	-13.4162
▁sexually	-13.4162
▁prayer	-13.4162
▁----------	-13.4162
▁dadej	-13.4162
▁nujyob	-13.4163
▁entertain	-13.4164
▁manipulate	-13.4164
▁satisfied	-13.4164
▁syang	-13.4164
▁originally	-13.4164
▁txujlom	-13.4164
▁hmonglish	-13.4165
▁mercy	-13.4165
▁txawjvag	-13.4165
▁cooperation	-13.4165
▁lojleeb	-13.4165
▁beijing	-13.4165
▁tobewitty	-13.4165
▁witnesses	-13.4166
▁coleman	-13.4166
▁fas	-13.4167
▁hmongonline	-13.4167
▁noobnyoog	-13.4168
▁broadcast	-13.4168
▁phauntawv	-13.4168
▁vise	-13.4169
▁nelson	-13.4169
▁kabke	-13.417
▁passion	-13.4171
▁tswyim	-13.4171
ory	-13.4172
▁simuang	-13.4172
hlawv	-13.4172
▁boxing	-13.4173
▁attacking	-13.4173
▁violated	-13.4173
▁guessing	-13.4174
▁46	-13.4176
▁tend	-13.4176
▁aunt	-13.4176
▁jays	-13.4176
▁notice	-13.4177
1/	-13.4177
▁=========	-13.4177
off	-13.4178
▁sample	-13.418
▁yajtshaj	-13.4181
▁bbc	-13.4182
▁hundreds	-13.4183
????????????????	-13.4184
▁vets	-13.4185
▁plhawv	-13.4186
▁tshoov	-13.4186
▁poglaus	-13.4186
tknow	-13.4187
▁wikileaks	-13.4188
▁naikhou	-13.4188
▁maug	-13.4188
▁chas	-13.4189
kk	-13.4191
nw	-13.4193
hg	-13.4193
▁niav	-13.4197
▁qaabteb	-13.4201
▁sisntsib	-13.4201
kl	-13.4201
bd	-13.4201
▁tricks	-13.4204
▁laotians	-13.4211
zov	-13.4211
oli	-13.4214
▁nojmov	-13.4219
yk	-13.4219
zl	-13.4221
▁sid	-13.4222
▁blocks	-13.4223
▁gut	-13.4224
▁qiab	-13.4225
▁41	-13.4225
▁cajces	-13.4236
congress	-13.4239
qy	-13.4239
▁baumli	-13.4243
haam	-13.4251
▁npaumtwg	-13.4253
▁tsheg	-13.4259
▁kx	-13.4265
1)	-13.4275
kuag	-13.4281
▁warn	-13.4296
▁continues	-13.4299
qo	-13.4302
▁____	-13.4305
▁24.	-13.4307
hahhahahaha	-13.4307
▁nyiajpov	-13.4311
doc	-13.4314
▁lessons	-13.4319
▁nojhaus	-13.4324
hb	-13.433
▁xcov	-13.4338
sav	-13.4338
▁ruamx	-13.4338
▁tsumkiag	-13.4338
xh	-13.4345
tob	-13.4347
▁covmenyuam	-13.4357
▁thajchaw	-13.4363
ui	-13.4368
▁exp	-13.437
▁wo	-13.4372
thib	-13.4373
rr	-13.4378
▁gmail	-13.438
▁ligl	-13.4382
zc	-13.4386
▁pujmoob	-13.4391
▁nqais	-13.4395
▁cave	-13.4399
ntseg	-13.44
▁ioc	-13.4406
nyog	-13.4408
form	-13.4409
caug	-13.4413
▁nqaib	-13.4417
fs	-13.4423
kaim	-13.4425
▁niajnhu	-13.443
▁ruaqhov	-13.4435
▁56	-13.4438
ref	-13.4438
▁jew	-13.444
=&	-13.4445
-----	-13.4445
tojsiab	-13.4452
▁qui	-13.4459
-17	-13.4464
xay	-13.4472
▁160	-13.4474
yom	-13.4479
▁mammuab	-13.4485
urir	-13.4491
point	-13.4493
colonel	-13.4494
book	-13.4495
movie	-13.4498
ace	-13.4499
tshajplaws	-13.4502
today	-13.4502
song	-13.4505
▁siam	-13.4505
yingb	-13.451
judge	-13.4512
honey	-13.4512
pliaj	-13.4513
ntxeev	-13.4514
nplogliab	-13.4514
phak	-13.4515
▁hill	-13.4522
▁nrio	-13.4524
▁crack	-13.4527
nyoos	-13.4528
zone	-13.4529
▁ton	-13.4532
khab	-13.4532
nkawm	-13.4533
!!!"	-13.4541
▁credential	-13.4543
▁foodstamp	-13.4543
▁dozen	-13.4545
▁amendment	-13.4545
▁1965	-13.4546
▁tunnel	-13.4548
▁ambition	-13.4548
▁acre	-13.4549
▁scope	-13.4549
hiav	-13.455
▁bong	-13.4553
sawm	-13.4556
vh	-13.4558
▁(((	-13.4558
▁moobvaaj	-13.4559
▁traffic	-13.4559
▁guitar	-13.4559
▁pouvez	-13.4559
▁scenario	-13.4559
▁volontaire	-13.4559
photostream	-13.4559
▁langxang	-13.4559
▁yoglentawd	-13.4559
▁discount	-13.4559
▁management	-13.4559
3610;	-13.4559
▁lengsavat	-13.4559
▁clothes	-13.4559
▁whitebass	-13.4559
▁meaningful	-13.4559
▁mooblajleeb	-13.4559
▁hujsim	-13.4559
▁1946	-13.456
▁approval	-13.456
▁safty	-13.456
▁confusion	-13.456
▁kuameiab	-13.456
▁deeper	-13.456
▁pobntoolaus	-13.456
▁mungkey	-13.456
▁$20,000.00	-13.456
▁stopped	-13.456
▁smarter	-13.456
▁supplies	-13.456
▁tsachijdawb	-13.456
▁pusliv	-13.4561
oog	-13.4561
▁1:00	-13.4561
▁peejxeem	-13.4561
▁$20.00	-13.4561
▁30-50	-13.4561
▁strange	-13.4561
▁linguistic	-13.4561
▁txomfav	-13.4561
▁sincere	-13.4561
▁button	-13.4562
▁underwear	-13.4562
▁morganton	-13.4562
▁biology	-13.4562
▁2:00	-13.4562
▁cobkheem	-13.4562
▁anytime	-13.4562
▁51%	-13.4563
▁suffered	-13.4563
▁yofg	-13.4563
▁pronounce	-13.4563
▁vaajmev	-13.4564
▁foreplay	-13.4564
▁bouager	-13.4564
▁krub	-13.4564
▁cheating	-13.4565
▁held	-13.4565
▁obviously	-13.4565
▁:-)	-13.4565
▁presented	-13.4565
▁donkey	-13.4565
▁lfi	-13.4565
▁weird	-13.4566
▁guizhou	-13.4566
▁observed	-13.4566
▁muah	-13.4567
▁ntlav	-13.4567
▁memiab	-13.4568
▁heut	-13.4568
▁xauvmas	-13.4568
▁bite	-13.4568
▁chijdawb	-13.4568
▁hollywood	-13.4569
▁contributed	-13.4569
▁gaug	-13.457
▁xuviaj	-13.457
▁appears	-13.4571
▁enjoyed	-13.4571
▁divided	-13.4572
▁adopted	-13.4573
▁------	-13.4573
▁vajkhaum	-13.4574
▁tight	-13.4574
▁ntsuv	-13.4574
▁accusations	-13.4575
▁cheers	-13.4575
▁allies	-13.4575
▁kwvnpawg	-13.4578
▁assumed	-13.4579
achanh	-13.458
▁limtiam	-13.4582
▁nyhavsiab	-13.4583
▁qibsiab	-13.4583
▁pole	-13.4584
▁numtswv	-13.4586
▁licence	-13.4587
▁suavtuam	-13.4588
▁25%	-13.4591
▁wood	-13.4591
▁vajtsab	-13.4592
▁dragon	-13.4593
▁tyk	-13.4594
gay	-13.4595
▁usaid	-13.4595
▁actual	-13.4595
rg	-13.4599
▁jus	-13.46
▁keeping	-13.46
kpg	-13.4603
▁priests	-13.4605
▁tejlub	-13.4605
▁ser	-13.4606
▁pieces	-13.4607
▁ncoqab	-13.4607
▁supported	-13.4607
▁kaib	-13.4608
▁generate	-13.461
▁kuc	-13.461
lly	-13.4611
▁ntshavsiab	-13.4611
▁responses	-13.4612
▁tpm	-13.4612
tp	-13.4612
▁dawbliab	-13.4614
west	-13.4617
▁tsaim	-13.4618
▁hush	-13.462
▁501	-13.4631
▁indonesia	-13.4634
nto	-13.4635
▁plhi	-13.4637
▁pobtws	-13.4637
▁hlaav	-13.4638
xas	-13.4639
▁lying	-13.464
▁saumntuj	-13.4643
uec	-13.4643
vong	-13.4645
▁ntxoos	-13.4646
▁includes	-13.465
▁xyau	-13.4651
▁dabneeb	-13.4652
▁ntshee	-13.4655
ht	-13.4662
▁solo	-13.4662
▁drpao	-13.4664
▁prey	-13.4667
loslawm	-13.4669
▁serves	-13.467
▁tsheem	-13.4671
▁guns	-13.4672
▁99.99	-13.4676
kuas	-13.468
▁phoojyw	-13.4685
▁restaurants	-13.4687
!!!!!!!!!!	-13.4689
▁spray	-13.4689
dabtsi	-13.4695
▁dies	-13.4709
▁deer	-13.4717
antizab	-13.472
▁sak	-13.4721
▁2003,	-13.4726
bu	-13.4731
▁lhe	-13.4731
▁missions	-13.4735
nv	-13.4737
▁soft	-13.4742
tsho	-13.4743
▁prof	-13.4761
▁ngai	-13.4763
ntxais	-13.4775
kus	-13.4781
▁faces	-13.4783
▁bucks	-13.4783
tsiab	-13.4783
dlua	-13.4785
▁navy	-13.479
qis	-13.479
ping	-13.4793
nais	-13.4799
▁rat	-13.48
ucj	-13.4805
57	-13.4812
▁lubsuab	-13.4812
▁wonderful	-13.4814
▁txojlug	-13.4817
ntes	-13.4817
ile	-13.4818
ix	-13.4821
▁mlee	-13.4823
▁sees	-13.4824
▁ntha	-13.4825
dim	-13.4833
fk	-13.4838
tum	-13.4843
▁load	-13.4843
xuv	-13.4845
▁scripture	-13.4847
▁ship	-13.4849
translated	-13.4849
full	-13.4852
awg	-13.4853
bn	-13.4859
hc	-13.4861
vec	-13.4864
▁constitutional	-13.4865
rp	-13.487
8-9	-13.4878
▁rue	-13.4879
▁aubyau	-13.4889
nz	-13.489
here	-13.489
▁========	-13.4892
▁dlabtsi	-13.49
▁feng	-13.4903
▁mentxhais	-13.4904
▁hihihihihi	-13.4904
style	-13.4909
college	-13.491
force	-13.4913
hk	-13.4913
wrong	-13.4914
gp	-13.4914
yexus	-13.4917
▁ntejlawm	-13.4927
practice	-13.4927
qaij	-13.4927
-40	-13.4927
txhim	-13.4928
worship	-13.4928
catholic	-13.4928
tamtseeb	-13.4929
food	-13.4929
kaoly	-13.4929
july	-13.4929
▁pres	-13.4931
young	-13.4932
▁bak	-13.4933
party	-13.4934
help	-13.4935
▁nste	-13.4939
ign	-13.4941
▁zip	-13.4941
hihihi	-13.4944
▁cajtw	-13.4946
▁suri	-13.4951
▁testament	-13.4957
qua	-13.4958
▁corporation	-13.4961
▁defendant	-13.4961
▁compatriot	-13.4961
▁object	-13.4961
????????	-13.4962
▁neu	-13.4962
▁preacher	-13.4962
hem	-13.4963
nraab	-13.4964
▁doctrine	-13.4964
▁client	-13.4965
▁bull	-13.4971
▁hnyoo	-13.4971
▁writer	-13.4972
ehors	-13.4974
luib	-13.4974
▁dancing	-13.4976
▁melbourne	-13.4976
▁resume	-13.4976
▁sociaty	-13.4976
▁jujplig	-13.4976
displayimage	-13.4976
▁hillary	-13.4976
▁orlean	-13.4976
▁disney	-13.4976
▁compassion	-13.4976
▁frustration	-13.4976
▁xaykao	-13.4976
▁puzzle	-13.4976
▁khamchong	-13.4976
▁tubcaghmoob	-13.4976
rlogo	-13.4976
▁argentina	-13.4976
▁disorder	-13.4976
▁motive	-13.4976
▁xasloos	-13.4976
▁kauslausnees	-13.4976
▁phavkheb	-13.4976
▁$100,000.00	-13.4976
▁dauvtawm	-13.4976
▁aimway	-13.4976
▁khaubzig	-13.4977
▁loobtswb	-13.4977
▁concentrate	-13.4977
▁garbage	-13.4977
▁meneejxaustas	-13.4977
▁ttmh	-13.4977
▁elevation	-13.4977
▁bottle	-13.4977
▁nntp	-13.4977
▁disability	-13.4977
▁txoojkuam	-13.4977
andpub	-13.4977
▁meslikas	-13.4977
▁nyajtxag	-13.4977
▁caavpem	-13.4978
▁1000%	-13.4978
▁granted	-13.4978
▁yep	-13.4978
▁pakao	-13.4978
▁nonsense	-13.4978
▁xeevkhuam	-13.4978
▁eeskiv	-13.4979
▁sugar	-13.4979
▁horny	-13.4979
▁puastsuaj	-13.4979
▁businessman	-13.4979
▁pity	-13.4979
▁nkaujfaa	-13.4979
▁correctly	-13.498
▁tshaabxu	-13.498
▁basis	-13.498
▁artist	-13.498
▁prisoners	-13.4981
▁possibly	-13.4981
▁distant	-13.4981
▁accordingly	-13.4981
▁muong	-13.4981
▁complicated	-13.4981
▁7:00	-13.4981
▁reserved	-13.4981
▁congressman	-13.4983
ger	-13.4983
▁shamanism	-13.4983
lay	-13.4983
▁kislas	-13.4983
▁twmtswb	-13.4983
▁visiting	-13.4983
▁morality	-13.4983
▁hmuag	-13.4984
▁gpa	-13.4984
▁jars	-13.4984
▁hluavtaws	-13.4984
▁zoovzuag	-13.4984
▁ngeun	-13.4985
▁samxeeb	-13.4985
▁denomination	-13.4985
▁specially	-13.4985
▁foreigners	-13.4985
▁attacked	-13.4986
▁fajlem	-13.4986
▁txoojtub	-13.4987
▁seeking	-13.4987
▁pejthuam	-13.4988
▁worthy	-13.4988
▁passing	-13.4988
▁tawgrog	-13.4989
▁crown	-13.499
▁maumdev	-13.4991
▁ntsiob	-13.4991
=0&	-13.4993
pus	-13.4993
▁honesty	-13.4994
▁mosmos	-13.4994
▁ntsuaj	-13.4994
▁blank	-13.4994
▁kbif	-13.4995
▁qubqaab	-13.4996
▁3,000	-13.4998
behmoob	-13.4998
▁rws	-13.4998
▁qhaws	-13.4998
▁paying	-13.4999
▁dawbliaj	-13.5
▁kluv	-13.5
▁chuan	-13.5001
▁tubcaj	-13.5004
▁khuaib	-13.5004
▁kasmoo	-13.5005
▁zoole	-13.5005
▁lwmleej	-13.5007
▁languages	-13.501
▁leejtub	-13.501
▁guests	-13.5011
▁bao	-13.5011
▁pluab	-13.5013
▁sibtxuas	-13.5013
▁cabinet	-13.5014
lca	-13.5016
▁muscle	-13.5018
▁deed	-13.5019
▁thaa	-13.5019
tube	-13.5023
▁tiger	-13.5024
▁belongs	-13.5025
▁ending	-13.503
▁110	-13.503
ning	-13.5032
▁counts	-13.5037
▁ntxhis	-13.5039
stone	-13.504
▁2006.	-13.5046
ooj	-13.5046
▁zaa	-13.5047
71	-13.5049
72	-13.5053
gst	-13.5055
▁meskasteb	-13.5062
83	-13.5065
▁balls	-13.5065
png	-13.507
▁nah	-13.5072
xwv	-13.5073
▁poem	-13.5074
lice	-13.5082
hawv	-13.5093
▁australian	-13.5098
br	-13.5103
fd	-13.5103
▁iblo	-13.5104
hang	-13.5105
▁npluaj	-13.5106
▁koomtshaa	-13.5109
...1	-13.5116
▁results	-13.5121
win	-13.5124
▁bow	-13.5125
▁sole	-13.5125
▁95	-13.5127
▁uatxhaum	-13.5128
das	-13.5132
▁format	-13.5135
▁eu	-13.5136
▁nhiaj	-13.5136
ntsia	-13.5147
▁dlaus	-13.5147
lwg	-13.515
bp	-13.5158
dqo	-13.5158
rag	-13.5159
ological	-13.5162
caam	-13.5163
than	-13.5165
dis	-13.5168
txhaum	-13.5169
kan	-13.5169
maam	-13.5172
▁youtub	-13.5174
▁pal	-13.5175
eve	-13.5181
▁1800	-13.5185
ploj	-13.519
▁$8	-13.5192
▁situations	-13.5192
van	-13.5197
nj	-13.5204
khaub	-13.521
▁hmoon	-13.5211
hihihihihihihihi	-13.5219
zq	-13.5223
body	-13.5226
▁ride	-13.5231
▁cham	-13.5232
tre	-13.5235
wq	-13.5242
yaub	-13.5251
▁funerals	-13.5255
nawm	-13.5255
▁lols	-13.5258
▁scan	-13.5258
part	-13.5262
▁plea	-13.5262
▁ber	-13.5263
▁lixwm	-13.5268
tod	-13.5271
sky	-13.5271
26	-13.5276
▁npla	-13.5277
87	-13.5286
nation	-13.529
zu	-13.529
lmi	-13.5298
▁bait	-13.5301
oun	-13.5303
dj	-13.5313
▁systems	-13.5316
lev	-13.5319
▁thaun	-13.5319
▁chis	-13.5322
uw	-13.5323
/9	-13.5328
han	-13.5331
▁cialawv	-13.5333
zps	-13.5336
america	-13.5346
computer	-13.5346
nyuaj	-13.5346
ethnic	-13.5347
bird	-13.5347
▁ve	-13.5354
aise	-13.5354
rhuav	-13.5355
swm	-13.5356
ncua	-13.5357
▁bno	-13.5361
zaag	-13.5361
field	-13.5363
central	-13.5363
leadership	-13.5363
txhij	-13.5363
middle	-13.5363
next	-13.5363
share	-13.5363
target	-13.5364
tshev	-13.5364
▁likes	-13.5364
zuaj	-13.5365
teen	-13.5365
sibtham	-13.5366
mung	-13.5368
▁cultures	-13.537
yaiv	-13.5372
▁xubke	-13.5373
major	-13.5373
tws	-13.5376
nceb	-13.5382
khees	-13.5383
qhuab	-13.5385
lostsuas	-13.5389
▁bio	-13.5391
gbm	-13.5392
noun	-13.5393
▁wan	-13.5395
zais	-13.5397
▁increase	-13.5398
▁shock	-13.5398
▁separatist	-13.54
-94	-13.5404
▁millionair	-13.5409
▁annual	-13.541
▁lengsavad	-13.541
▁rnog	-13.541
▁exciting	-13.541
▁longtien	-13.541
▁kazoua	-13.541
▁phraya	-13.541
▁phetchabun	-13.541
▁yathotou	-13.541
▁dispute	-13.541
▁kevinlee	-13.541
txhaj	-13.541
▁toufue	-13.5411
▁ownership	-13.5411
▁$5.00	-13.5411
▁$5,000.00	-13.5411
▁motor	-13.5411
▁glue	-13.5411
▁txwvtxoob	-13.5411
▁cheese	-13.5411
▁commandments	-13.5411
▁performance	-13.5411
▁boundary	-13.5412
▁assassination	-13.5412
▁congressmen	-13.5412
▁aussie	-13.5412
▁jackson	-13.5412
▁secondary	-13.5412
▁stronger	-13.5412
▁shadow	-13.5412
▁saigon	-13.5412
▁guilt	-13.5412
▁ncejpuab	-13.5413
▁feemcuam	-13.5413
den	-13.5413
vote	-13.5414
▁shong	-13.5414
▁sisouk	-13.5414
▁arab	-13.5415
▁yawmtxajdlis	-13.5415
▁yangsao	-13.5415
▁cjm	-13.5415
▁qawj	-13.5416
▁mirror	-13.5416
▁taubtawj	-13.5416
▁qawm	-13.5416
▁xibteg	-13.5416
▁copies	-13.5416
▁unka	-13.5416
▁rhib	-13.5416
▁crystal	-13.5416
▁lhawv	-13.5417
▁ntxus	-13.5417
▁ghev	-13.5417
▁dlawj	-13.5417
▁colleagues	-13.5418
▁returned	-13.5418
▁limitation	-13.5418
▁phra	-13.5418
▁fillet	-13.5419
▁nrij	-13.5419
▁developed	-13.5419
▁mongolia	-13.542
▁vwb	-13.542
▁legitimacy	-13.542
▁ntshiag	-13.542
▁winning	-13.542
ple	-13.542
▁npautawg	-13.5421
▁ualecaag	-13.5421
▁calculate	-13.5421
nli	-13.5421
▁tsimtsawv	-13.5421
▁encounter	-13.5422
▁vajvovvajpamusa	-13.5422
▁yeejtsiskoob	-13.5422
▁literally	-13.5422
▁buk	-13.5422
▁elements	-13.5423
▁dawbhuv	-13.5423
▁divorced	-13.5423
▁dovtaws	-13.5423
▁poobplig	-13.5424
64	-13.5424
▁four	-13.5424
hey	-13.5425
▁1978.	-13.5425
▁zajtshoob	-13.5425
▁eating	-13.5426
▁muastxwv	-13.5428
▁invisible	-13.5429
▁stocks	-13.5431
▁abused	-13.5431
▁truam	-13.5433
▁magnum	-13.5435
▁pussy	-13.5436
▁arena	-13.5436
▁tubsaab	-13.5436
▁hoping	-13.5437
▁niamno	-13.5437
▁:(	-13.5439
▁fed	-13.544
▁laswm	-13.5442
▁continued	-13.5443
▁farmers	-13.5444
▁mary	-13.5444
▁associates	-13.5444
▁boot	-13.5445
▁2-4	-13.5445
chue	-13.5446
▁zws	-13.5447
▁dj	-13.5449
▁taught	-13.5449
saw	-13.545
▁nkuas	-13.5451
▁testaw	-13.5454
▁clips	-13.5455
▁teen	-13.5456
kj	-13.546
oos	-13.5463
▁kilo	-13.5465
lk	-13.5469
▁jkom	-13.547
▁roots	-13.547
▁ulia	-13.5476
toog	-13.5478
▁plays	-13.548
cwa	-13.5482
keej	-13.5487
kib	-13.5488
▁cap	-13.5491
▁leung	-13.5493
▁fits	-13.5496
▁phana	-13.5497
dents	-13.5497
▁xue	-13.5498
ntu	-13.5499
licas	-13.55
▁thumb	-13.5504
poog	-13.5505
▁qubx	-13.5506
xv	-13.5506
▁hurts	-13.5508
roj	-13.551
ton	-13.5515
-12	-13.5515
▁shed	-13.5515
aid	-13.5516
▁isan	-13.5516
mav	-13.552
▁96	-13.5521
was	-13.5526
▁immune	-13.5527
▁nkaujxwb	-13.5528
▁lubtswvyim	-13.5532
▁purposes	-13.5532
nojtsiab	-13.5536
▁coov	-13.5537
dov	-13.5538
▁teebmee	-13.5541
▁att	-13.5541
▁64	-13.5543
tsaab	-13.5544
▁79	-13.5545
tention	-13.5556
txiav	-13.5556
▁7-	-13.5557
▁txivlawv	-13.5557
▁leads	-13.5566
ara	-13.5569
▁ncuag	-13.5569
vz	-13.5571
▁ntl	-13.5575
▁niamhluas	-13.5577
yeeg	-13.5583
▁hmoobntsuab	-13.5586
▁plate	-13.5594
▁phubia	-13.5601
▁?????	-13.5609
▁folk	-13.5615
▁realm	-13.5626
▁nrhee	-13.5626
▁cong	-13.5628
nyuas	-13.5628
ruamtuatsov	-13.563
hoob	-13.5632
ntsi	-13.5632
▁beu	-13.5634
▁hnubtwg	-13.564
rub	-13.5645
▁abthi	-13.5646
cdov	-13.5651
▁ot	-13.5655
nes	-13.566
▁1.5	-13.566
ture	-13.5664
ik	-13.5666
many	-13.5671
▁npi	-13.5672
gf	-13.5673
▁190	-13.5681
▁totau	-13.5691
▁tra	-13.5693
eth	-13.5695
nkaagsab	-13.5699
members	-13.5701
364	-13.5702
zsb	-13.5708
khej	-13.5713
▁tour	-13.5716
past	-13.5716
low	-13.5719
▁nthsa	-13.572
pav	-13.5721
▁93	-13.5733
fb	-13.5736
▁sapha	-13.5736
kwj	-13.5741
top	-13.5742
que	-13.5745
▁presidents	-13.5749
pauj	-13.5753
phij	-13.5753
lf	-13.5754
ntej	-13.5756
thus	-13.576
txhom	-13.5769
▁gao	-13.5778
49	-13.5779
▁ntxheeb	-13.5782
▁vee	-13.5784
proof	-13.5793
gdg	-13.5795
miskas	-13.5796
▁fran	-13.5797
puam	-13.5801
father	-13.5802
month	-13.5803
terrorist	-13.5804
lity	-13.5806
▁82	-13.581
debate	-13.5811
▁tavtoj	-13.5813
caubfab	-13.5814
▁grandma	-13.5814
chiyou	-13.5817
loog	-13.5817
serving	-13.5817
unknown	-13.5818
university	-13.5818
whatever	-13.5818
without	-13.5818
txivneejyawg	-13.5818
nyaab	-13.5828
▁laosk	-13.5831
▁pheb	-13.5833
▁appear	-13.5835
▁til	-13.5835
tusiab	-13.5836
▁5555	-13.5838
deja	-13.5839
▁harrass	-13.584
txam	-13.5843
96	-13.5843
xum	-13.5847
hv	-13.5849
either	-13.5851
▁negotiation	-13.5852
▁dice	-13.5852
▁syllable	-13.5855
▁lotto	-13.5858
▁foods	-13.5858
▁regulation	-13.5859
▁tuition	-13.5862
▁phonsavan	-13.5862
▁necessar	-13.5864
kuab	-13.5864
▁sanya	-13.5864
▁evolve	-13.5864
▁abusive	-13.5865
▁administrator	-13.5865
▁desecration	-13.5865
▁missouri	-13.5865
▁sayasone	-13.5865
▁missionaries	-13.5865
▁thirst	-13.5865
▁sananikone	-13.5865
▁metrodome	-13.5865
▁bouasone	-13.5865
▁keyboard	-13.5865
▁taugrigntev	-13.5865
▁comviab	-13.5865
▁centuries	-13.5865
▁siphandone	-13.5865
▁vichay	-13.5865
▁justify	-13.5865
▁custom	-13.5866
▁treasurer	-13.5866
▁ncojoov	-13.5866
▁1971-72	-13.5866
▁8:00	-13.5866
▁unify	-13.5866
▁dlovtawm	-13.5866
▁defeat	-13.5866
▁scientifically	-13.5866
▁studio	-13.5866
▁vongsavang	-13.5866
▁sayavong	-13.5866
▁anthem	-13.5867
▁menyuammus	-13.5867
▁inclusive	-13.5867
▁borrow	-13.5867
▁harsh	-13.5868
▁hwy	-13.5868
▁pobcaus	-13.5868
adieu	-13.5868
▁usdos	-13.5868
▁healing	-13.5868
▁acknowledge	-13.5868
▁conservative	-13.5868
▁sympathy	-13.5868
▁consultant	-13.5868
▁rapist	-13.5868
▁capitalism	-13.5868
▁promotion	-13.5868
▁latter	-13.5869
▁photong	-13.5869
▁mouasao	-13.5869
▁hubby	-13.5869
▁chuchu	-13.5869
▁esan	-13.5869
▁designed	-13.5869
▁npig	-13.587
▁lawjxeeb	-13.587
▁rtug	-13.587
▁slowly	-13.587
▁sovereignty	-13.5871
▁hobby	-13.5871
▁nyopb	-13.5871
▁added	-13.5871
▁7000	-13.5872
▁normally	-13.5872
▁lottery	-13.5873
▁kansas	-13.5873
▁edge	-13.5873
▁nkeej	-13.5873
▁freeman	-13.5874
▁zomlis	-13.5874
▁toupao	-13.5874
▁mevkas	-13.5874
▁mandarin	-13.5875
▁knock	-13.5878
▁slang	-13.5878
▁individually	-13.5879
▁bullets	-13.5879
-130	-13.5879
▁meemtxom	-13.5879
▁morris	-13.5879
▁watching	-13.5879
▁falling	-13.588
▁realized	-13.588
▁kubtwm	-13.5882
▁informed	-13.5882
▁naskos	-13.5883
▁nplias	-13.5883
tr	-13.5884
▁menyaum	-13.5884
▁timothy	-13.5884
▁nploojnts	-13.5884
▁bright	-13.5884
▁racism	-13.5885
▁mooscab	-13.5885
▁fabkisteb	-13.5885
▁pujkoob	-13.5885
▁neejyag	-13.5886
▁nkuab	-13.5887
▁opening	-13.5887
▁sibfaib	-13.5888
▁dating	-13.5888
▁wolf	-13.5889
▁npuv	-13.5889
▁pockets	-13.589
▁faum	-13.5892
▁lops	-13.5892
▁$250	-13.5892
▁deduct	-13.5895
▁5-	-13.5897
▁phawg	-13.5898
▁charged	-13.5898
▁begins	-13.5899
▁ghmoob	-13.5899
▁sung	-13.5899
▁sibcog	-13.5899
▁claiming	-13.5901
▁ntujtshiab	-13.5902
▁tibet	-13.5902
▁neighbors	-13.5903
▁lubntiajteb	-13.5904
▁6,26	-13.5904
▁dauj	-13.5904
vos	-13.5906
▁havdej	-13.5907
▁testing	-13.5907
▁sibtxhawb	-13.5908
▁speakers	-13.5909
▁360	-13.591
▁boil	-13.591
▁forest	-13.591
▁overthrow	-13.5912
▁325	-13.5912
▁lugtxaj	-13.5913
▁threats	-13.5915
▁remark	-13.592
▁txiam	-13.5924
▁dlaug	-13.5924
▁rim	-13.5924
▁rib	-13.5926
▁nye	-13.5927
▁hahhahah	-13.5931
chou	-13.5931
dee	-13.5931
▁beg	-13.5932
▁boys	-13.5937
▁cuba	-13.5937
sc	-13.5939
▁6-8	-13.5939
uneducated	-13.5939
mim	-13.5943
radom	-13.5944
▁blablabla	-13.5946
▁tublwj	-13.5946
thas	-13.5948
▁555	-13.5955
misc	-13.5955
▁fresh	-13.5962
▁qusx	-13.5963
▁spirits	-13.5963
800	-13.5971
▁races	-13.5971
▁nst	-13.5979
▁sablaug	-13.598
2004	-13.5988
▁opeb	-13.5988
▁kuataw	-13.5993
cum	-13.5996
fq	-13.5996
yy	-13.6
▁nkausx	-13.6001
aag	-13.601
mf	-13.6023
▁umm	-13.6023
▁rhwb	-13.6026
▁sabtes	-13.6031
ih	-13.6035
pias	-13.6037
▁nplhi	-13.6039
try	-13.6042
wl	-13.6046
khub	-13.6049
▁losxij	-13.605
!!..	-13.6052
▁txhus	-13.6053
46	-13.6055
▁dick	-13.606
▁txaisyuav	-13.6065
▁mien	-13.607
poor	-13.607
▁phai	-13.6076
kem	-13.6076
▁sishlub	-13.6076
!!!!!!!!!!!!	-13.6077
▁saii	-13.6079
▁tall	-13.608
khob	-13.6083
lz	-13.6087
▁lubsij	-13.6088
seng	-13.6088
98	-13.6092
night	-13.6095
fucking	-13.6105
▁mini	-13.6107
▁coast	-13.6109
mask	-13.6112
▁pumzoo	-13.6119
iob	-13.6122
ahn	-13.6122
▁ibhli	-13.6127
291	-13.6128
..(	-13.6133
▁abtsis	-13.6134
hmmmm	-13.6141
▁73	-13.6147
▁lubbe	-13.6153
dm	-13.6158
work	-13.6159
▁calls	-13.616
kheej	-13.6162
▁bib	-13.6167
▁qabno	-13.6171
▁pebhmoobr	-13.6173
/30	-13.6173
▁xos	-13.6174
▁bitch	-13.6176
▁dp	-13.6176
muj	-13.6178
khuv	-13.6184
yooj	-13.6184
▁ntooj	-13.6191
▁urge	-13.6192
14-16	-13.6192
bl	-13.6194
▁blam	-13.6198
▁joy	-13.62
0000	-13.6203
greater	-13.6204
tsob	-13.6205
▁suavdlaw	-13.6214
▁bullet	-13.6214
naus	-13.6225
▁vaas	-13.6232
▁nkhau	-13.6246
▁75,	-13.6249
sion	-13.6249
taam	-13.6255
▁cemx	-13.6257
▁2011.	-13.6257
▁gh	-13.6265
▁100$	-13.6267
profile	-13.6269
▁55555	-13.6274
yoojyim	-13.6276
▁luvb	-13.6278
source	-13.6278
lawyer	-13.628
belief	-13.628
both	-13.628
single	-13.6283
nyag	-13.6286
tradition	-13.6286
▁ntshuag	-13.6287
▁xaavzoo	-13.6287
houei	-13.6291
clean	-13.6292
grade	-13.6292
yellow	-13.6293
positive	-13.6294
writing	-13.6294
website	-13.6294
ntxuav	-13.6294
thornsp	-13.6294
quaspuj	-13.6294
kwvtxhiaj	-13.6294
cl	-13.6295
chance	-13.6295
retired	-13.6296
tibneeg	-13.6296
sexy	-13.6298
sexual	-13.6298
phub	-13.63
▁khan	-13.6302
▁tejntawd	-13.6303
intellectuals	-13.6305
male	-13.6306
▁qhovtsua	-13.6306
ntsev	-13.6308
stop	-13.6311
path	-13.6321
▁fri	-13.6322
??????????	-13.6322
▁hebrew	-13.6326
▁thx	-13.6326
▁infection	-13.6327
lmj	-13.6327
▁objective	-13.6327
▁element	-13.6329
ywm	-13.633
▁develope	-13.633
▁stranger	-13.6331
▁zioo	-13.6335
▁dirt	-13.6335
▁breath	-13.6337
▁decease	-13.6338
▁disappoint	-13.6339
▁vientian	-13.6339
▁complicate	-13.6339
▁grass	-13.6339
▁outsider	-13.634
▁hlao	-13.634
▁12-14	-13.6341
wqbwbswg	-13.6341
▁algebra	-13.6341
▁capacity	-13.6341
▁jordan	-13.6341
▁yialiher	-13.6341
▁picnic	-13.6341
▁defensive	-13.6341
▁italy	-13.6341
▁syracuse	-13.6341
▁bzness	-13.6341
▁mysteriousking	-13.6341
▁naokao	-13.6341
▁$1,200	-13.6341
apps	-13.6341
▁dropped	-13.6341
▁imply	-13.6341
▁tubbis	-13.6342
▁rental	-13.6342
▁lijxwm	-13.6342
▁planned	-13.6342
▁70-80	-13.6342
▁immediately	-13.6342
▁somebody	-13.6342
▁thoojtxhij	-13.6342
▁extremely	-13.6342
▁documentation	-13.6342
▁knife	-13.6342
▁cemetery	-13.6342
▁zealand	-13.6342
▁cobphum	-13.6342
▁xamana	-13.6343
▁hire	-13.6343
▁nakhang	-13.6343
▁60,000	-13.6343
▁saablaaj	-13.6343
youtu	-13.6343
▁cherry	-13.6343
▁$10.00	-13.6343
▁antony	-13.6343
▁kxf	-13.6344
▁deeply	-13.6344
▁djk	-13.6344
▁qaibqus	-13.6344
▁thernsp	-13.6344
fo	-13.6344
▁phwvnyam	-13.6345
▁tshaajlij	-13.6345
▁laptop	-13.6345
▁polygamy	-13.6345
▁trivia	-13.6345
▁conscience	-13.6345
▁jeep	-13.6345
▁improvement	-13.6345
▁havnyom	-13.6345
▁lacross	-13.6345
▁virginia	-13.6345
▁khuasab	-13.6345
▁wty	-13.6346
▁brutal	-13.6346
▁minyuag	-13.6346
▁farts	-13.6346
▁naikoo	-13.6346
▁yof	-13.6346
▁seminary	-13.6347
▁growth	-13.6347
▁silence	-13.6347
▁fantasize	-13.6347
▁frame	-13.6347
▁kheuang	-13.6347
▁htiab	-13.6347
▁kheevlam	-13.6348
▁supposed	-13.6348
▁grown	-13.6348
▁removed	-13.6349
▁lutheran	-13.6349
▁noogdlev	-13.6349
▁penh	-13.6349
▁conquer	-13.6349
▁99.9%	-13.6349
▁lfss	-13.635
▁vaab	-13.635
▁existed	-13.635
▁listening	-13.635
▁$1,000.00	-13.635
▁journalists	-13.6351
▁becoming	-13.6351
▁1930	-13.6352
▁gesture	-13.6352
▁mintsis	-13.6352
▁kaslas	-13.6352
▁tebleb	-13.6352
▁scheduled	-13.6353
▁stupidity	-13.6353
▁latest	-13.6354
▁opium	-13.6354
▁fliend	-13.6355
▁povhwm	-13.6355
▁lajfab	-13.6355
zis	-13.6356
▁ancestors	-13.6356
▁vuam	-13.6356
79	-13.6358
▁believers	-13.6358
▁neck	-13.6359
▁54	-13.6359
▁advanced	-13.636
▁gaus	-13.636
▁ntshoob	-13.636
▁roov	-13.636
▁phuj	-13.636
▁unit	-13.6361
▁kuamemab	-13.6361
▁fashion	-13.6361
▁historians	-13.6362
▁xeevlaus	-13.6362
▁beating	-13.6362
▁fox	-13.6363
▁opponents	-13.6365
kv	-13.6366
▁esxias	-13.6367
sioc	-13.6367
▁hauvpeg	-13.637
▁quavyeeb	-13.637
▁sabxis	-13.6372
▁gho	-13.6373
▁phemx	-13.6374
▁kinda	-13.6376
▁kwstshuaj	-13.6377
▁koomtshaj	-13.6377
▁=============	-13.6377
▁abyaj	-13.6377
zg	-13.6378
▁promoted	-13.638
▁huge	-13.6381
▁directions	-13.6381
▁alphabets	-13.6384
▁determination	-13.6385
▁nyiajlooj	-13.6385
▁txivqeej	-13.6385
lik	-13.6386
▁ntsooj	-13.6386
▁haibx	-13.6386
▁ntxob	-13.6387
tlx	-13.6387
▁nyes	-13.6388
▁sautoj	-13.6389
▁nqu	-13.6389
ywls	-13.6389
▁hawjlwm	-13.6392
▁mountains	-13.6393
▁txawjtsoob	-13.6393
▁kuvniam	-13.6394
▁zz	-13.6396
air	-13.6399
jt	-13.6399
▁qualifications	-13.64
▁tshwb	-13.6401
bin	-13.6402
▁weekends	-13.6403
▁figures	-13.6403
▁critics	-13.6403
▁qhis	-13.6404
▁suggestions	-13.6406
▁practical	-13.6407
yauv	-13.641
kuyv	-13.6411
▁attitudes	-13.6416
-50	-13.6418
▁sponsors	-13.642
▁linda	-13.6424
fiv	-13.6428
▁stab	-13.6431
tian	-13.6431
▁stations	-13.6434
yee	-13.6436
kaab	-13.6438
sz	-13.6438
[...]
