<unk>	0
<s>	0
</s>	0
.	-3.32323
,	-3.59315
▁yog	-4.1311
▁li	-4.138
▁ua	-4.29268
▁los	-4.32392
▁no	-4.36517
▁tsis	-4.4313
▁yuav	-4.44135
▁tau	-4.45924
▁lawm	-4.505
▁koj	-4.5104
▁kuv	-4.57001
▁cov	-4.587
▁thiab	-4.5906
▁hais	-4.66465
▁muaj	-4.69617
▁xwb	-4.7068
▁ces	-4.71837
▁rau	-4.74086
▁mus	-4.79234
▁ib	-4.83034
▁tus	-4.83565
▁mas	-4.85184
▁lub	-4.91437
▁peb	-4.92144
▁tias	-5.05682
▁zoo	-5.11019
▁yeej	-5.12486
▁nws	-5.13493
▁Hmoob	-5.17287
▁lawv	-5.22012
▁tsi	-5.22809
▁nyob	-5.29592
▁	-5.36291
▁kom	-5.40527
▁neeg	-5.4325
▁tuaj	-5.43349
▁kev	-5.45173
▁qhov	-5.47709
▁paub	-5.47912
▁tug	-5.52135
▁es	-5.54168
▁tseem	-5.55546
▁tej	-5.56852
▁ntawd	-5.57411
▁twb	-5.60355
▁xav	-5.61105
?	-5.62411
▁thiaj	-5.62877
...	-5.63623
▁muab	-5.64429
▁twg	-5.72308
▁txog	-5.74046
▁hmoob	-5.74956
▁yus	-5.81729
▁lus	-5.83177
▁nej	-5.8332
▁cas	-5.86059
▁siab	-5.86754
▁le	-5.87034
▁teb	-5.90788
▁luag	-5.93694
▁sib	-5.9404
▁Kuv	-5.99416
▁thaum	-6.02667
▁coj	-6.02901
▁uas	-6.03157
▁Yog	-6.04231
▁tas	-6.04651
▁pab	-6.05605
▁nawb	-6.09983
▁saib	-6.12606
▁hauv	-6.1266
▁kawg	-6.14211
▁txiv	-6.14495
▁vim	-6.14503
▁pom	-6.14948
▁tiag	-6.15137
▁tag	-6.173
▁me	-6.19986
▁puas	-6.21738
-	-6.21876
▁nrog	-6.22917
▁ntau	-6.26656
▁yam	-6.27857
▁ho	-6.28866
▁noj	-6.29372
▁kiag	-6.29834
▁ntawm	-6.30842
▁hab	-6.31776
▁yawg	-6.32285
▁"	-6.32372
▁niam	-6.33235
▁leej	-6.33792
▁sis	-6.33897
▁has	-6.36198
2	-6.40504
▁tub	-6.40998
▁the	-6.41313
▁txoj	-6.41903
▁qab	-6.43525
▁tom	-6.43528
▁rov	-6.44376
▁to	-6.44885
▁os	-6.44922
▁lwm	-6.46367
▁(	-6.48196
/	-6.49736
▁txhob	-6.51751
▁tim	-6.52396
▁kuj	-6.53831
▁lug	-6.54488
▁Koj	-6.54727
▁hnub	-6.55554
▁neej	-6.57001
"	-6.60202
▁tawm	-6.60382
▁tuag	-6.60504
▁tham	-6.61101
▁ntawv	-6.61125
▁dab	-6.6163
▁mam	-6.61986
▁tsev	-6.63039
s	-6.6459
▁rua	-6.65091
)	-6.66834
▁ob	-6.6742
▁tso	-6.67767
....	-6.68244
▁cia	-6.68246
▁txawm	-6.69464
▁tua	-6.71709
▁heev	-6.72587
▁sab	-6.74643
▁siv	-6.74752
▁moog	-6.74856
▁kawm	-6.74942
▁txawj	-6.76386
▁nyiaj	-6.7852
▁sawv	-6.80265
▁ntag	-6.80452
▁ntseeg	-6.81541
▁tsum	-6.82337
▁nuav	-6.835
▁lam	-6.84726
▁Moob	-6.87845
▁tab	-6.88893
▁qhia	-6.89323
▁tseeb	-6.89525
▁and	-6.90814
▁tsuas	-6.94319
▁ntuj	-6.94334
▁coob	-6.951
▁raug	-6.95875
▁xyoo	-6.95913
▁niag	-6.96131
▁muag	-6.97857
▁Ua	-6.98183
▁tshaj	-7.00403
▁kwv	-7.00951
▁tswv	-7.01296
!	-7.01364
▁hu	-7.01452
▁Cov	-7.02049
▁dua	-7.02324
▁nplog	-7.02473
▁laus	-7.02785
▁sau	-7.03192
▁daws	-7.03278
▁loj	-7.04832
▁of	-7.05313
▁txhua	-7.05516
▁tes	-7.06095
▁poj	-7.06608
▁kws	-7.07101
▁cai	-7.07301
▁pheej	-7.07633
▁nwg	-7.07902
▁zog	-7.08506
▁hlub	-7.0852
▁ne	-7.08927
▁sim	-7.09024
▁tib	-7.10376
▁hluas	-7.11624
▁zaum	-7.12189
▁yug	-7.12798
▁hos	-7.13755
▁tsam	-7.14257
▁Peb	-7.14641
:	-7.1568
▁tij	-7.1592
▁npe	-7.16132
▁ntxiv	-7.16446
▁hnov	-7.18107
▁tsim	-7.18756
▁you	-7.19508
▁npaum	-7.19938
▁phem	-7.20682
▁chaws	-7.20955
▁is	-7.21312
▁nkauj	-7.22067
▁Thaum	-7.22682
▁puab	-7.22971
'	-7.23091
▁ntej	-7.24821
▁thov	-7.25003
▁dhau	-7.25269
▁Nplog	-7.25824
▁ub	-7.27772
▁a	-7.27904
▁dag	-7.28941
▁koom	-7.29264
▁haiv	-7.29313
▁ntshai	-7.29699
▁nom	-7.31676
▁Qhov	-7.31692
▁ntse	-7.32432
▁raws	-7.33121
▁chaw	-7.34623
▁yim	-7.34819
▁yawm	-7.36015
▁ov	-7.361
▁ntev	-7.37002
▁txaus	-7.37193
▁nyiam	-7.37312
▁tseg	-7.37616
▁mob	-7.39011
▁xeem	-7.4071
▁suav	-7.40738
▁tabsis	-7.41155
▁Dr	-7.4205
v	-7.42092
▁seb	-7.42368
▁2	-7.42514
▁pob	-7.42708
.....	-7.42989
▁kam	-7.4313
▁in	-7.43262
▁thawj	-7.44749
--	-7.44977
▁ntsib	-7.45787
▁xaav	-7.46256
▁tos	-7.46618
▁Hmong	-7.46622
▁luaj	-7.46687
▁I	-7.48187
▁khiav	-7.48798
▁meej	-7.49093
......	-7.49518
▁nkaus	-7.50145
▁poob	-7.50297
▁tsaug	-7.50337
▁nyuam	-7.50363
▁qub	-7.504
▁ntxhais	-7.50852
▁nug	-7.51204
▁maj	-7.5243
▁ruam	-7.52967
▁daim	-7.53054
▁nyias	-7.54367
▁pub	-7.54661
▁naj	-7.55114
▁tu	-7.55391
▁pem	-7.55439
▁mej	-7.55904
▁leeg	-7.56276
▁na	-7.57727
▁nco	-7.59383
▁kho	-7.5982
▁txug	-7.60029
;	-7.60038
▁nrhiav	-7.60167
▁Yaj	-7.60336
▁dej	-7.60342
▁laug	-7.60781
▁Nej	-7.60868
b	-7.61631
▁-	-7.61924
▁Vaj	-7.62015
▁haus	-7.62359
▁ntshe	-7.62987
▁caij	-7.63624
com	-7.63694
▁caag	-7.6399
▁hlob	-7.64297
▁pojniam	-7.64362
▁lo	-7.65238
▁dawb	-7.65981
▁kav	-7.66861
▁Tej	-7.67013
▁kheej	-7.67283
m	-7.67699
▁pov	-7.67795
▁wb	-7.67856
▁cem	-7.68819
▁mloog	-7.68859
▁tiam	-7.68928
▁tsawg	-7.69957
▁txim	-7.7043
▁tog	-7.70499
▁nkawv	-7.70667
▁tebchaws	-7.70948
▁laiv	-7.7129
▁nyuag	-7.71752
▁meem	-7.72062
▁for	-7.72481
▁3	-7.72777
▁as	-7.72933
▁Tsis	-7.73998
▁Tus	-7.74541
▁txhaj	-7.74942
▁si	-7.75171
▁ze	-7.75315
g	-7.75709
▁Nws	-7.7578
▁neb	-7.76758
▁zaug	-7.77756
kuv	-7.78527
▁hov	-7.7909
▁that	-7.79266
▁ko	-7.79295
▁nas	-7.79509
yog	-7.8077
▁Thaib	-7.81083
▁teeb	-7.81426
▁niaj	-7.81508
▁txuj	-7.81888
▁haum	-7.82207
4	-7.82223
▁chim	-7.82314
▁quav	-7.82343
▁ncaj	-7.82435
▁rooj	-7.82647
▁taag	-7.82971
▁Born	-7.83289
▁tsa	-7.84156
▁VP	-7.84386
▁puav	-7.84695
▁huv	-7.84721
▁taub	-7.84773
.......	-7.85177
▁nram	-7.85367
://	-7.85386
▁rog	-7.86194
▁pib	-7.86523
▁nua	-7.86536
▁yuam	-7.86627
▁hom	-7.86966
▁kuas	-7.87329
▁nam	-7.87722
▁tabsi	-7.88237
▁liab	-7.88362
▁txawv	-7.89165
▁sawvdaws	-7.89351
▁kwvtij	-7.8975
▁xa	-7.9044
▁it	-7.90593
j	-7.90824
▁piav	-7.91198
▁saum	-7.91522
▁mog	-7.92219
▁hauj	-7.92252
▁hau	-7.92286
▁Suav	-7.92409
▁ntsis	-7.92694
▁6	-7.92809
▁ywg	-7.93059
▁zaj	-7.9348
▁txhais	-7.94669
▁pum	-7.94829
▁moob	-7.95054
▁deb	-7.95189
▁tshuav	-7.96234
▁kub	-7.96871
▁taug	-7.96933
t	-7.97093
▁nyaj	-7.98167
▁them	-7.98359
▁YTK	-7.9847
▁taw	-7.98668
▁1	-7.99131
▁tshiab	-7.99365
▁xwm	-8.00275
▁mos	-8.00338
▁ke	-8.00409
▁dabtsi	-8.00481
▁http	-8.02279
▁sij	-8.02337
▁tuav	-8.02532
▁Lawv	-8.02764
▁phoojywg	-8.02825
=	-8.02847
▁txom	-8.03148
▁be	-8.03368
▁zos	-8.04188
▁Lis	-8.04492
▁cev	-8.0506
▁qho	-8.05086
▁not	-8.05404
▁Txawm	-8.05924
www	-8.06052
▁mag	-8.06285
▁nyog	-8.06302
▁taus	-8.06366
▁pw	-8.06393
▁are	-8.06757
▁mov	-8.07496
▁cais	-8.07827
▁lis	-8.08017
▁hav	-8.08114
▁co	-8.08831
koj	-8.0923
▁or	-8.0928
▁ceeb	-8.10112
▁nim	-8.10894
▁laj	-8.10931
▁hawm	-8.11383
▁cav	-8.11558
▁nyeem	-8.11637
▁tuab	-8.11743
▁luas	-8.11774
▁he	-8.123
▁hloov	-8.13112
▁puag	-8.13289
▁Nyob	-8.1344
▁feem	-8.13849
▁cuab	-8.14169
▁phooj	-8.14196
▁av	-8.14912
d	-8.14934
▁Muaj	-8.15005
▁yau	-8.15352
▁ma	-8.16053
▁miv	-8.16713
▁ntiaj	-8.1751
▁neeb	-8.17635
▁lau	-8.17669
▁vaj	-8.17697
▁yav	-8.18451
▁Hais	-8.18545
▁qhuas	-8.18619
▁Vim	-8.19517
▁yaam	-8.19943
▁xyuas	-8.20052
▁txwm	-8.20246
▁lov	-8.21016
▁tam	-8.21727
▁ntsej	-8.21825
▁ned	-8.2183
▁leejtwg	-8.2227
▁HMOOB	-8.22305
▁your	-8.22411
▁suab	-8.22962
▁koob	-8.23663
▁thaib	-8.23747
▁menyuam	-8.23802
▁nov	-8.23855
▁xov	-8.23877
▁i	-8.23931
▁tawg	-8.24418
▁have	-8.24984
▁YOG	-8.25127
▁Lub	-8.256
▁liam	-8.25611
li	-8.25631
▁Yang	-8.26324
▁dev	-8.26328
▁SCH	-8.26386
▁nav	-8.27159
▁tsua	-8.27352
▁noog	-8.27574
▁Vajtswv	-8.2764
▁yeeb	-8.27799
▁las	-8.28144
▁lauj	-8.2816
▁nkag	-8.2846
▁xeeb	-8.28642
8	-8.28775
▁phom	-8.28845
▁30	-8.28966
▁pawg	-8.29331
▁Ib	-8.29343
▁cuag	-8.29683
▁nyuj	-8.30528
▁hlo	-8.30879
▁ncauj	-8.30921
▁nrho	-8.31075
▁paab	-8.31609
▁Pov	-8.3174
▁kab	-8.32389
▁quas	-8.32505
▁txais	-8.32653
▁num	-8.32671
▁noob	-8.32889
▁LI	-8.32983
▁Zoo	-8.32991
▁tais	-8.33158
▁txhaum	-8.33213
▁xub	-8.33223
▁aw	-8.33496
▁plaub	-8.335
▁nrug	-8.33721
▁qhuav	-8.33737
▁Pao	-8.33873
▁thaub	-8.33892
▁dlaab	-8.33923
▁4	-8.34317
▁GVP	-8.34481
▁haujlwm	-8.34777
▁tsoom	-8.35098
▁so	-8.36091
▁this	-8.36503
▁haj	-8.37057
▁nqa	-8.37236
▁txwv	-8.37299
ua	-8.37446
▁txheeb	-8.37466
6	-8.37471
▁by	-8.37633
▁puj	-8.38248
▁tig	-8.38478
▁Tub	-8.38614
▁xyov	-8.39012
▁ce	-8.39816
▁Yawg	-8.40536
▁Raws	-8.40677
▁nkawd	-8.40719
▁xam	-8.41098
▁zoov	-8.41137
▁do	-8.41176
).	-8.41282
▁ntaus	-8.41998
▁vp	-8.42066
▁xaiv	-8.42237
▁toj	-8.42276
▁sub	-8.42323
▁zag	-8.42324
▁on	-8.42325
▁txhia	-8.427
▁ntshaw	-8.42937
▁NO	-8.43235
▁tawv	-8.43486
▁Laura	-8.44078
▁thaj	-8.44097
▁hlwb	-8.44141
▁ntsoov	-8.44256
▁nqi	-8.44799
▁qaab	-8.44839
▁TseemYeej	-8.4511
▁hmo	-8.4567
▁nyem	-8.45742
▁hwv	-8.46008
▁10	-8.46251
▁KUV	-8.4633
▁ceg	-8.46704
▁with	-8.46734
x	-8.46943
▁Tabsis	-8.4699
▁Yuav	-8.47109
▁will	-8.47218
▁caum	-8.47738
▁meskas	-8.47823
▁npaj	-8.47901
▁roob	-8.47971
▁tshuaj	-8.48433
▁lees	-8.49022
▁nub	-8.49907
▁aws	-8.50056
▁Yawm	-8.50403
▁tsij	-8.5043
▁txij	-8.5076
▁Mhoob	-8.5077
1	-8.51035
▁txhawb	-8.51063
e	-8.51501
▁we	-8.51502
▁ciaj	-8.51832
▁laud	-8.52268
▁1.	-8.52337
▁nraug	-8.54174
▁ntug	-8.54283
▁LOS	-8.54705
▁teev	-8.54828
▁txeeb	-8.55073
▁qha	-8.55194
▁pej	-8.55822
▁MS	-8.56384
3	-8.56525
▁Luag	-8.56546
n	-8.56639
▁2.	-8.56654
▁plig	-8.56807
▁pog	-8.57024
▁nrov	-8.57191
▁B	-8.57271
▁plaws	-8.57397
▁blog	-8.57668
▁txiav	-8.57688
▁all	-8.5804
▁pauv	-8.58289
▁Meskas	-8.58322
▁npau	-8.58496
▁hli	-8.58562
▁&	-8.59007
▁ceev	-8.59058
▁Lao	-8.59364
▁teg	-8.59803
▁=	-8.60107
▁ham	-8.60322
▁nad	-8.60521
▁Phwvnyawm	-8.60617
▁zaub	-8.60781
▁dav	-8.61161
▁tswvyim	-8.61219
▁but	-8.61279
▁Yeej	-8.61294
▁my	-8.61302
▁teebmeem	-8.61573
▁HL	-8.6168
▁pes	-8.61961
▁Vang	-8.62219
▁khav	-8.62405
▁nab	-8.6266
▁Muas	-8.63311
▁muam	-8.63334
▁ntoo	-8.63508
▁Tab	-8.6351
▁kas	-8.64174
▁thuam	-8.64274
▁luj	-8.64501
▁what	-8.64551
▁tiav	-8.64559
▁nce	-8.64813
▁tshwm	-8.64828
▁nyab	-8.64962
0	-8.65042
▁Thov	-8.65409
▁tshoob	-8.65627
▁sijhawm	-8.6563
▁Txhob	-8.65681
▁5	-8.65704
▁luam	-8.65713
▁ntes	-8.65713
▁dub	-8.65899
........	-8.66189
▁vam	-8.66268
▁txaj	-8.66407
peb	-8.66562
▁tsav	-8.67354
▁ca	-8.68111
▁kua	-8.68123
▁tw	-8.68297
▁vwm	-8.68468
▁UA	-8.68856
▁xws	-8.69367
▁ntsia	-8.6937
▁rab	-8.69386
▁quaj	-8.69728
ing	-8.69919
▁khoom	-8.70828
▁tsov	-8.70883
▁qw	-8.70967
▁at	-8.71293
▁can	-8.71453
▁tiv	-8.71957
▁nyuaj	-8.72039
▁one	-8.72638
S	-8.72863
▁yooj	-8.7318
▁qaib	-8.73583
▁YUAV	-8.73816
▁from	-8.74186
▁Faj	-8.74585
5	-8.74964
."	-8.75062
▁nqaij	-8.75725
▁thoob	-8.75759
▁post	-8.7597
▁cua	-8.76011
▁ha	-8.76027
k	-8.76056
▁TAU	-8.76225
▁tsuav	-8.77775
▁Post	-8.78511
ed	-8.78646
▁moos	-8.79296
▁TSIS	-8.79316
youtube	-8.79475
▁18	-8.79475
▁yom	-8.79493
▁hmong	-8.79645
▁ris	-8.79815
watch	-8.79821
▁duab	-8.79902
▁cias	-8.79904
▁nev	-8.79974
los	-8.80167
▁Hos	-8.80735
▁ncaws	-8.80816
▁nyuas	-8.80847
▁Puas	-8.81124
▁people	-8.81145
▁thaam	-8.81271
▁sai	-8.81493
▁paj	-8.81717
▁zaus	-8.81868
▁khwv	-8.82002
▁peev	-8.82006
cov	-8.82061
▁khaws	-8.82389
▁Dawb	-8.82486
▁Thoj	-8.82815
▁sia	-8.82942
▁dhia	-8.82952
▁KOJ	-8.82992
▁Col	-8.83219
▁ploj	-8.84125
▁dlua	-8.84247
▁yaj	-8.84845
▁ci	-8.84932
▁kaw	-8.85203
▁tsheej	-8.85269
▁ntxim	-8.85474
▁ncig	-8.85548
▁UN	-8.85548
9	-8.85615
▁3.	-8.8578
▁swb	-8.85877
▁thab	-8.85972
▁church	-8.86022
▁Tsi	-8.86175
▁ntxias	-8.86292
▁qhua	-8.86759
▁txheej	-8.8678
▁tsheb	-8.86955
".	-8.87038
▁piv	-8.87042
▁kis	-8.87184
▁Kev	-8.8748
▁haivneeg	-8.87542
▁saub	-8.87574
▁MN	-8.87975
▁tooj	-8.88077
▁ntxub	-8.8824
▁Li	-8.88323
▁Xyooj	-8.88338
▁tijlaug	-8.88791
▁SIV	-8.88858
▁Paj	-8.88867
▁COV	-8.8925
▁lawd	-8.89455
▁kuam	-8.89507
▁zam	-8.89583
▁hlau	-8.89656
a	-8.89875
▁zus	-8.90058
o	-8.90156
▁they	-8.90375
▁npua	-8.9043
▁tis	-8.9103
▁ntaub	-8.91354
▁tsuj	-8.91901
▁khib	-8.92253
▁maam	-8.9226
▁Kwv	-8.92387
▁taws	-8.9283
▁Moobsib	-8.92895
_	-8.9303
▁maum	-8.93241
▁xyaum	-8.93615
▁ncees	-8.93633
▁ntxawm	-8.93884
▁kag	-8.93889
▁MUS	-8.93904
▁twm	-8.93952
▁nyoog	-8.94038
▁zuj	-8.94366
▁kaj	-8.94377
(	-8.94422
▁nruab	-8.94639
▁Cas	-8.94999
▁time	-8.95013
▁XWB	-8.9504
▁yeem	-8.95416
i	-8.95584
▁who	-8.95757
&	-8.95799
▁US	-8.95836
▁Nom	-8.95992
▁Los	-8.96257
▁THIAB	-8.96398
▁LAWM	-8.96748
▁nrauj	-8.96878
▁***	-8.96891
▁loo	-8.97159
▁nyam	-8.97207
▁tswj	-8.97261
▁faib	-8.97363
▁America	-8.97747
▁good	-8.97921
▁tsab	-8.98073
▁Tswv	-8.98243
▁txhawj	-8.9859
▁xij	-8.98935
▁ntsuab	-8.99373
▁licas	-8.99707
lawv	-8.99762
),	-9.00043
tsis	-9.00063
▁nkaum	-9.00258
es	-9.00559
▁sav	-9.0057
▁tav	-9.00596
vim	-9.00685
▁TSI	-9.00701
▁kos	-9.00747
▁ya	-9.00853
▁Leej	-9.0117
▁nqis	-9.01276
▁puv	-9.01316
▁txivneej	-9.01408
▁TUS	-9.01409
▁Es	-9.01412
▁about	-9.01693
▁cawm	-9.01712
▁tsiaj	-9.01808
▁xuas	-9.02028
▁nqe	-9.02041
▁zov	-9.02105
▁Lauj	-9.02124
Kuv	-9.02212
▁ntses	-9.03206
▁MUAJ	-9.0327
▁MAS	-9.03468
▁Cia	-9.03585
▁was	-9.03735
▁ti	-9.03872
▁Yus	-9.04032
▁Zab	-9.04218
▁siav	-9.04395
▁tsw	-9.04415
▁cog	-9.04704
▁U	-9.04754
▁lod	-9.04767
▁khov	-9.0514
▁IB	-9.05182
▁Hnub	-9.05186
▁pos	-9.05246
▁more	-9.05747
lub	-9.05808
▁LUB	-9.05968
▁ntshav	-9.06002
▁dim	-9.06251
▁xob	-9.0662
▁lwj	-9.06984
▁Tseem	-9.07117
▁xyoos	-9.07144
▁plab	-9.0735
▁USA	-9.07423
▁qhib	-9.07645
▁caj	-9.079
▁his	-9.0849
▁txiaj	-9.08549
▁txha	-9.08596
▁Charlie	-9.08786
▁tsuag	-9.08815
▁cawv	-9.09256
▁Laos	-9.09559
▁Fajkhaum	-9.10704
▁A	-9.10838
nws	-9.10971
▁tshua	-9.11122
▁The	-9.11215
▁haib	-9.11404
▁etc	-9.11587
▁qaum	-9.11737
beHmong	-9.11859
▁phiaj	-9.12345
▁tsawv	-9.12504
▁nuj	-9.12611
h	-9.12644
▁Fresno	-9.12719
ib	-9.1285
▁huab	-9.12942
▁kaus	-9.13107
▁Txiv	-9.13184
▁know	-9.13553
▁hastas	-9.13702
▁just	-9.13765
▁dr	-9.13914
▁tuam	-9.13987
▁twv	-9.14227
▁our	-9.14335
▁tshav	-9.14338
▁meb	-9.14385
▁pejxeem	-9.14449
▁lom	-9.14481
▁paus	-9.1457
▁Hawj	-9.14723
▁if	-9.15157
▁dig	-9.15164
▁thaiv	-9.15216
▁Tuam	-9.15304
▁pim	-9.15501
▁DD	-9.15602
▁twj	-9.1576
▁Txawj	-9.16204
▁cob	-9.16304
▁zhen	-9.16562
▁there	-9.16724
▁DYD	-9.1676
y	-9.1682
▁'	-9.16828
BH	-9.1694
▁yaim	-9.17025
▁laid	-9.1709
▁nti	-9.17317
▁2-3	-9.17495
▁fab	-9.17693
aw	-9.17888
▁cuav	-9.17971
▁ntseg	-9.18268
▁tuabneeg	-9.18342
▁haistias	-9.18389
▁caug	-9.1851
▁zeb	-9.18607
▁HAIS	-9.18639
▁tshum	-9.18742
r	-9.19159
▁tshaaj	-9.19295
▁LPDR	-9.19424
tus	-9.19948
▁mekas	-9.20073
▁am	-9.20265
▁cuam	-9.20702
▁ZOO	-9.20736
▁ywm	-9.20916
▁og	-9.21001
▁rhuav	-9.21091
▁iab	-9.21133
▁ab	-9.21266
▁tshawb	-9.21321
▁Zhen	-9.21434
▁ncuab	-9.21469
▁laam	-9.21502
▁npawg	-9.21678
7	-9.21739
▁xab	-9.22282
▁nrab	-9.22457
▁hlis	-9.22682
▁ntsiab	-9.22706
▁like	-9.2275
▁caw	-9.22829
▁sob	-9.22872
▁X	-9.23159
▁Nwg	-9.23386
▁...	-9.23589
▁Mej	-9.2365
▁case	-9.23869
▁lu	-9.24025
▁Tabsi	-9.2417
▁us	-9.2417
▁u	-9.24174
▁hnav	-9.24346
thaum	-9.24628
▁NWS	-9.24834
▁Vwj	-9.24891
▁CES	-9.25023
▁ntaag	-9.25125
▁lauv	-9.25127
▁dlawg	-9.25129
▁tsiv	-9.25344
▁--	-9.25407
▁nyiag	-9.25448
▁M	-9.25457
▁keeb	-9.25687
▁saab	-9.26053
▁Xiong	-9.2623
▁phau	-9.26333
▁nplooj	-9.26404
qhov	-9.26814
▁pas	-9.27077
▁nqq	-9.27083
▁right	-9.27267
▁Xav	-9.27347
▁quaspuj	-9.27523
▁nyablaj	-9.27589
▁make	-9.27672
▁ntu	-9.27828
▁muas	-9.27853
▁Tsab	-9.27959
▁only	-9.28164
▁cab	-9.28582
▁PY	-9.28712
▁cheem	-9.28771
▁up	-9.28851
▁qe	-9.28911
▁lossis	-9.28943
▁qee	-9.29365
▁Tsuas	-9.29608
▁txiag	-9.29639
▁other	-9.29655
▁hwm	-9.29732
▁pe	-9.29741
▁qau	-9.30352
▁Sib	-9.30369
▁their	-9.30437
▁khu	-9.30498
▁RAU	-9.30507
▁tawb	-9.30739
▁ms	-9.30994
▁Dej	-9.31039
▁Paul	-9.3108
▁very	-9.31136
▁Hahaha	-9.31191
▁lav	-9.31196
▁soj	-9.31412
u	-9.31502
!!!	-9.31585
▁ntsuag	-9.31644
▁vmged	-9.31788
▁Tiam	-9.3186
ces	-9.31865
▁Dao	-9.319
▁Tseemyeej	-9.32234
▁Ces	-9.32314
▁txuas	-9.32692
▁PEB	-9.3317
***	-9.33295
▁tsoob	-9.33325
▁don	-9.33509
▁Leeg	-9.33582
tsi	-9.33612
▁e	-9.33738
▁Moua	-9.33759
▁lag	-9.33792
▁ncu	-9.3388
▁roj	-9.33981
▁P	-9.34004
C	-9.34028
▁N	-9.3406
c	-9.34111
▁LAWV	-9.34241
▁yij	-9.34422
▁qaug	-9.34645
▁Siv	-9.34664
▁BLOG	-9.34687
▁qeej	-9.34709
▁rho	-9.34862
▁tsho	-9.34933
▁tsaam	-9.34974
▁yees	-9.35012
muaj	-9.35039
▁nos	-9.35083
▁Lee	-9.35561
Hmoob	-9.35569
▁Noogdlej	-9.35605
▁nai	-9.35678
▁need	-9.36026
▁Looj	-9.36211
▁yaweh	-9.36217
▁zais	-9.36229
▁kasmoos	-9.36416
▁Thanks	-9.36508
▁pam	-9.36556
▁faj	-9.36831
▁Xejthim	-9.36897
▁tsaus	-9.3712
▁Phooj	-9.37265
yuav	-9.3727
▁dlaag	-9.37379
haj	-9.37487
▁b	-9.37497
▁hmoov	-9.37631
▁text	-9.37846
▁KOM	-9.37922
▁Ntawm	-9.37989
▁ntxov	-9.38196
▁Yis	-9.38232
▁tid	-9.38261
▁THE	-9.38389
▁phaj	-9.38415
▁txias	-9.38595
▁nroog	-9.38621
▁You	-9.38665
▁Z	-9.38669
▁4.	-9.38853
lawm	-9.38884
▁tshab	-9.39011
▁zej	-9.39083
▁way	-9.39125
▁hlua	-9.39228
▁Bee	-9.39334
▁rub	-9.39362
▁Phoojywg	-9.39573
▁Tos	-9.39653
▁lig	-9.39668
M	-9.39823
▁YIS	-9.39929
▁Thaus	-9.39938
▁phwvnyawm	-9.40146
▁txia	-9.40213
▁Nyiaj	-9.4023
▁yaus	-9.40248
▁cam	-9.40362
▁tsob	-9.40403
▁nrhav	-9.40427
▁pluag	-9.40485
▁tiamsis	-9.40558
D	-9.40679
▁zug	-9.40863
▁xaus	-9.40894
▁out	-9.4101
▁Thiab	-9.41012
▁Liab	-9.41193
▁quoted	-9.41346
▁12	-9.41349
l	-9.41399
▁Twb	-9.41583
▁sov	-9.41848
▁TIAS	-9.41926
▁thooj	-9.41988
▁khawv	-9.42021
▁zeem	-9.42161
culture	-9.4231
▁tsoo	-9.42363
----------------	-9.42677
▁Tam	-9.42805
▁It	-9.42952
▁any	-9.42959
▁deev	-9.43016
▁Phwv	-9.43077
▁Tony	-9.43159
▁lab	-9.43196
▁Nkauj	-9.4327
▁email	-9.43533
▁22	-9.43536
▁see	-9.43606
▁foob	-9.43657
▁kwm	-9.43666
▁phim	-9.4374
▁foom	-9.43882
▁life	-9.44257
▁Pab	-9.44295
feature	-9.44457
▁Tooj	-9.44575
▁Ntuj	-9.44641
▁Saub	-9.44655
▁thib	-9.44699
▁8	-9.44907
▁Vaajtswv	-9.44979
▁riam	-9.45133
▁ntiav	-9.45137
▁ntxeev	-9.4515
▁tob	-9.45234
▁hla	-9.45416
▁lim	-9.45487
zoo	-9.45502
▁ntiajteb	-9.45656
▁thaus	-9.45965
▁txob	-9.46136
▁Muab	-9.46187
▁txhiab	-9.46319
▁pua	-9.46361
▁nrau	-9.46461
▁said	-9.46522
▁Ly	-9.46524
▁doctor	-9.46651
▁dlhau	-9.46701
▁Lwm	-9.46873
kom	-9.47046
tej	-9.47139
▁too	-9.47191
▁On	-9.47277
▁choj	-9.47916
▁nuv	-9.48025
ORG	-9.48076
▁xim	-9.4831
▁Zaum	-9.48325
▁xeev	-9.48374
▁plawv	-9.48767
▁luv	-9.48876
▁go	-9.48984
▁od	-9.49079
▁wrote	-9.49205
▁Ceeb	-9.49208
▁Fab	-9.49488
▁vaaj	-9.4956
▁nraim	-9.49606
▁aub	-9.49838
▁txhom	-9.49909
▁would	-9.49963
▁Vajncuab	-9.49983
▁xib	-9.50093
lgate	-9.50442
no	-9.50617
B	-9.50939
▁Victor	-9.51248
yahoo	-9.51366
Koj	-9.51631
▁nkawm	-9.51759
ly	-9.52035
▁support	-9.52111
▁nyag	-9.52113
▁nto	-9.52251
▁daj	-9.52285
▁think	-9.52442
▁9	-9.52528
▁khawb	-9.52696
▁mad	-9.52782
▁Miskas	-9.52823
▁paum	-9.5288
▁pliag	-9.52955
▁Tug	-9.53094
▁PAB	-9.53229
▁tia	-9.53366
▁Nyablaj	-9.53465
▁laib	-9.53566
▁hle	-9.53836
▁Tom	-9.53888
▁txav	-9.53966
▁take	-9.53996
▁dlej	-9.54
▁ntsuj	-9.54356
K	-9.54484
▁nyuab	-9.55069
▁NEEG	-9.55095
▁khaub	-9.55198
▁lawb	-9.55225
▁ntus	-9.55265
▁Niam	-9.55358
▁Teev	-9.555
hmoob	-9.55602
▁qhuab	-9.55604
▁ntees	-9.55676
▁kov	-9.55682
▁some	-9.55696
▁xaj	-9.55788
▁qhev	-9.56082
▁Tou	-9.56188
Yog	-9.56344
▁tod	-9.5651
▁Lostsuas	-9.56572
▁Phiaj	-9.5687
▁Thao	-9.56898
▁ntsiag	-9.57166
▁own	-9.57236
▁les	-9.57244
▁hlawv	-9.57416
▁St	-9.57443
▁dlawb	-9.57478
▁dlaim	-9.57491
▁Sub	-9.57751
▁Chao	-9.58051
▁huam	-9.58174
▁new	-9.58401
▁nees	-9.58522
moob	-9.58536
▁peg	-9.58553
▁nkagsiab	-9.58858
N	-9.58963
▁how	-9.59147
▁phaum	-9.59247
▁TABSIS	-9.5951
related	-9.59552
▁tibsi	-9.59565
▁Xeeb	-9.59625
▁fwv	-9.60121
hmong	-9.60161
▁nraum	-9.60175
.........	-9.60321
▁MT	-9.604
▁Neohmong	-9.60731
▁HAIV	-9.61255
▁vauv	-9.61273
▁hmoo	-9.61369
▁ntsim	-9.61372
▁nawj	-9.61776
▁Vam	-9.61888
▁Ntsuab	-9.61958
▁Zeb	-9.62058
▁YEEJ	-9.62122
▁sam	-9.62252
▁dog	-9.62456
▁mom	-9.62656
▁then	-9.62754
▁Ob	-9.62867
▁zem	-9.62947
X	-9.63096
▁fawm	-9.63531
hais	-9.63539
▁totaub	-9.63543
▁PAUB	-9.63543
▁T	-9.63745
▁TO	-9.63793
▁say	-9.63797
▁txhim	-9.64071
▁phav	-9.64196
▁pa	-9.64212
ha	-9.64278
p	-9.6451
▁tibneeg	-9.6457
▁laura	-9.64605
▁NeoHmong	-9.64607
▁kevcai	-9.64865
▁many	-9.65162
▁khi	-9.6535
▁kaum	-9.65363
▁fwm	-9.65423
▁teem	-9.65577
yawg	-9.65595
▁yig	-9.65709
▁txo	-9.65753
▁phoo	-9.65825
▁maag	-9.6588
▁Le	-9.65903
▁Vaaj	-9.65935
▁an	-9.65989
siab	-9.66024
yus	-9.66083
▁SIAB	-9.66459
▁peevxwm	-9.66694
▁human	-9.66725
▁He	-9.66864
▁man	-9.66956
luag	-9.66994
▁caiv	-9.66996
▁back	-9.67276
▁nag	-9.67449
▁information	-9.6767
▁XF	-9.67725
▁Haiv	-9.67808
mus	-9.6785
▁LOJ	-9.67894
▁qhabnab	-9.67895
▁kubxaj	-9.67904
th	-9.67936
as	-9.68017
▁Koob	-9.68099
▁pav	-9.68499
▁zaaj	-9.68546
▁awd	-9.68586
▁huabtais	-9.68648
▁Saib	-9.68752
▁issue	-9.68891
▁nthuav	-9.68923
▁yaig	-9.68941
▁s	-9.6933
▁work	-9.69617
▁tsau	-9.69633
▁when	-9.69776
▁tebchaw	-9.70055
▁tshem	-9.70081
▁RUAM	-9.70278
▁Me	-9.70298
▁20	-9.70367
▁H	-9.70465
▁rawv	-9.70482
▁hlais	-9.70543
T	-9.70849
▁7	-9.70883
▁Fabkis	-9.70917
▁xiam	-9.71021
▁tshaib	-9.71124
▁ruaj	-9.71294
▁ziag	-9.71404
▁o	-9.71425
▁ntiag	-9.71594
▁tshuam	-9.71595
▁diam	-9.71693
▁than	-9.71786
▁100	-9.7196
▁Has	-9.72199
▁law	-9.72248
▁nkuaj	-9.72368
▁pauj	-9.72473
▁him	-9.72477
▁yauv	-9.72758
I	-9.72828
▁uake	-9.72931
▁ceem	-9.7296
▁Txhua	-9.73025
▁NYOB	-9.73057
▁nais	-9.73074
▁TUAJ	-9.73153
▁kaam	-9.73341
▁t	-9.73573
▁TUG	-9.7364
▁havzoov	-9.73648
▁dai	-9.73754
▁noogdlej	-9.73837
▁Lo	-9.73908
▁ntxwv	-9.7395
▁tshuab	-9.74036
▁xyooj	-9.74067
▁Teb	-9.74154
▁get	-9.7418
▁Ho	-9.74263
▁tiaj	-9.74371
▁du	-9.74444
▁dlev	-9.74544
▁Thaub	-9.74544
▁AV	-9.74861
▁lino	-9.7521
▁phab	-9.75346
▁Xyoo	-9.75391
▁Mai	-9.75465
▁KEV	-9.75753
▁week	-9.75783
▁taab	-9.75824
q	-9.76145
▁Tshaj	-9.76255
A	-9.76495
▁Tsam	-9.76573
▁tswm	-9.76647
▁should	-9.76728
▁Yeeb	-9.7675
▁here	-9.76824
▁her	-9.76891
▁why	-9.76964
▁want	-9.77099
nej	-9.77219
▁nyav	-9.77503
▁thauj	-9.77647
▁movie	-9.77652
▁Xeem	-9.77672
▁tsib	-9.77746
▁mamli	-9.77858
▁because	-9.77881
▁txhij	-9.78076
▁xum	-9.78101
▁If	-9.78229
▁agree	-9.7842
▁ywj	-9.78551
▁NkaujNyiag	-9.78588
▁hnab	-9.78689
▁looj	-9.78817
Lao	-9.78827
▁Ntxawg	-9.78906
w	-9.79094
▁thau	-9.79271
213	-9.79366
▁100%	-9.79375
▁Kav	-9.79543
▁qib	-9.79844
▁hum	-9.79929
▁theem	-9.79959
▁cim	-9.80134
▁5.	-9.80185
▁Tsav	-9.80215
▁family	-9.80474
Y	-9.8051
▁point	-9.8052
▁moo	-9.80611
LOL	-9.80617
▁TWB	-9.80674
▁cag	-9.80729
▁rawm	-9.80818
▁Gen	-9.80834
▁Choj	-9.8089
▁vajtswv	-9.80947
▁born	-9.81012
txiv	-9.81039
▁person	-9.81065
▁Puab	-9.81102
▁TSEEM	-9.81111
▁tsom	-9.81137
▁1975	-9.81513
▁keej	-9.81645
▁txhiaj	-9.81691
▁huas	-9.81833
oo	-9.82181
▁Kwvtij	-9.82359
▁Cha	-9.82541
▁zoj	-9.82619
▁ciali	-9.82635
▁nyoo	-9.82655
▁seem	-9.82807
▁Blog	-9.82866
▁xauj	-9.82938
▁raus	-9.83117
au	-9.83664
▁Tijlaug	-9.83676
▁$	-9.83958
▁vaajmoob	-9.83988
▁share	-9.84089
▁Maiv	-9.84208
▁politic	-9.84244
▁tusiab	-9.84313
▁American	-9.84525
▁thim	-9.84673
▁those	-9.84896
▁Neohom	-9.85004
Moob	-9.85152
▁qis	-9.85157
thiab	-9.85335
▁hus	-9.85372
▁tagnrho	-9.85419
▁zooli	-9.85458
▁liaj	-9.85524
▁Pos	-9.8563
▁Xej	-9.85633
▁ntsug	-9.8566
▁ntua	-9.85717
▁nplua	-9.85812
▁party	-9.85888
▁nyhav	-9.86095
▁duas	-9.86192
▁DAG	-9.86341
▁txua	-9.8645
▁nus	-9.86547
▁CA	-9.86945
▁mab	-9.87311
▁ntsws	-9.87548
▁ev	-9.87762
▁thoj	-9.87828
▁CIA	-9.87833
▁nres	-9.8791
▁This	-9.87927
▁ntxoog	-9.88143
▁n	-9.88249
▁Mus	-9.88378
▁koos	-9.88491
E	-9.88555
▁tsaj	-9.88561
▁m	-9.88956
▁No	-9.88998
▁NEJ	-9.89054
▁su	-9.89359
▁Vaajmoob	-9.89412
▁Dhau	-9.89509
▁same	-9.89549
▁K	-9.89645
▁Tswb	-9.89754
▁QHOV	-9.89895
▁tamsim	-9.90098
▁qus	-9.90218
▁leader	-9.90298
▁nkim	-9.90321
▁nes	-9.90555
▁Tais	-9.90565
▁Thaibteb	-9.90687
▁puam	-9.90742
Hmong	-9.90828
▁nuas	-9.90839
▁even	-9.90904
V	-9.91007
▁VIM	-9.91059
!!	-9.91104
▁Nco	-9.91129
▁Npawg	-9.91252
▁tauj	-9.91262
▁mis	-9.9162
▁Ntshe	-9.91773
▁CAS	-9.918
▁Neeb	-9.92091
▁cub	-9.92223
▁amen	-9.92531
▁business	-9.92547
▁tse	-9.92696
▁Xab	-9.92779
▁ncaim	-9.92788
▁ntxhov	-9.92902
▁history	-9.9294
▁personal	-9.93057
▁Ab	-9.93081
▁tshev	-9.93317
▁Cwjmem	-9.93396
▁What	-9.93405
▁never	-9.93534
temsis	-9.93635
▁Txoj	-9.93649
▁YOU	-9.93759
▁hwj	-9.93761
▁thaij	-9.93762
▁xyuam	-9.93769
▁Vue	-9.93998
▁ntsuas	-9.94133
▁yoog	-9.94262
▁beer	-9.94264
▁kaav	-9.94324
▁khw	-9.94329
▁NOJ	-9.94386
▁MUAB	-9.94484
▁Tau	-9.94668
▁court	-9.94693
▁now	-9.94709
▁world	-9.94746
▁npas	-9.94803
▁ntiv	-9.9509
▁YUS	-9.95214
▁ntsuam	-9.95323
▁de	-9.95386
▁AND	-9.9547
▁nyom	-9.95598
▁C	-9.95636
▁xaam	-9.95701
▁So	-9.95844
▁Yexus	-9.96064
▁still	-9.96184
▁political	-9.96214
▁ntog	-9.96256
▁xyom	-9.96315
▁D	-9.96332
▁Kom	-9.96469
▁love	-9.96534
▁Nai	-9.96567
▁pwm	-9.96723
▁men	-9.96732
▁years	-9.9704
▁Txog	-9.97192
▁k	-9.97268
▁Vientiane	-9.97309
▁ncaaj	-9.9735
▁POM	-9.97573
▁Thai	-9.97585
▁qhab	-9.98333
LOLz	-9.98338
▁cwj	-9.98558
▁come	-9.98574
▁xyoob	-9.9862
▁TXHOB	-9.98687
▁Maj	-9.9871
▁day	-9.98732
▁OS	-9.98733
▁ntxuav	-9.98818
▁thing	-9.9882
▁caav	-9.98828
▁hniav	-9.98835
kev	-9.98931
▁YOB	-9.99076
▁Hlob	-9.99201
▁freedom	-9.99227
▁se	-9.99266
▁ciam	-9.99348
▁Yesxus	-9.99449
▁zab	-9.99465
▁XAV	-9.99583
▁over	-9.99904
▁Npis	-9.99969
yeej	-10.0002
▁lha	-10.0016
▁nriav	-10.0034
▁were	-10.0036
▁tejzaum	-10.0036
▁Dab	-10.0057
▁S	-10.0057
▁God	-10.0065
▁play	-10.0071
▁Tij	-10.0074
▁LUS	-10.0088
▁TEB	-10.0126
▁General	-10.014
▁Neej	-10.0141
▁ME	-10.0163
▁qua	-10.0167
▁We	-10.0188
▁hiam	-10.019
▁level	-10.0191
▁Neeg	-10.0193
▁theeb	-10.0196
▁had	-10.0225
▁group	-10.0225
▁Neb	-10.0233
▁religion	-10.0247
▁ntxhi	-10.0261
---	-10.0268
▁yaav	-10.0271
in	-10.028
▁question	-10.0292
▁p	-10.0318
▁weekend	-10.0321
▁khob	-10.0325
▁TXIV	-10.0364
▁true	-10.0365
▁vammeej	-10.0375
▁Tswvntuj	-10.0388
▁Ha	-10.0405
▁thiajli	-10.0415
ab	-10.0439
▁school	-10.0455
▁4-5	-10.0458
▁such	-10.0458
▁reason	-10.0463
▁xaa	-10.047
▁THIAJ	-10.0481
▁THAIB	-10.0508
▁Show	-10.0508
about	-10.0515
talk	-10.0535
▁TWG	-10.0535
▁hod	-10.0537
▁Yob	-10.0552
▁moj	-10.0566
▁ntsiv	-10.0569
▁news	-10.0589
▁story	-10.0594
ob	-10.0613
▁khaus	-10.0617
▁computer	-10.0618
▁Xaiv	-10.0626
▁Niag	-10.0634
▁kuab	-10.0638
▁wrong	-10.0645
▁TOM	-10.0652
▁/	-10.0652
▁must	-10.0664
▁hma	-10.0666
▁Pheej	-10.0674
▁chob	-10.0686
▁Mekas	-10.0687
▁may	-10.0689
▁these	-10.0694
nyob	-10.0696
▁nruj	-10.0714
▁respect	-10.073
▁power	-10.0732
▁temsis	-10.0739
▁....	-10.0753
▁nothing	-10.0759
▁HM	-10.0763
▁mev	-10.0765
▁tseemyeej	-10.0769
▁Kuam	-10.077
Peb	-10.079
▁kauv	-10.0812
▁tsiab	-10.0814
▁Fa	-10.0822
▁mivnyuas	-10.0824
▁Yam	-10.0824
▁Nplogliab	-10.084
▁State	-10.0853
▁zujzus	-10.0865
▁name	-10.0872
▁Laj	-10.0879
▁nqes	-10.0903
neeg	-10.0922
▁care	-10.0938
▁VWM	-10.095
▁every	-10.0958
▁believe	-10.0962
▁SIB	-10.0965
▁3-4	-10.0977
▁txhajle	-10.0981
▁ntim	-10.099
▁dleb	-10.0991
▁qheb	-10.0993
▁communist	-10.1002
▁did	-10.1007
▁npog	-10.1009
▁txi	-10.1011
▁caws	-10.1025
▁chij	-10.103
▁HMoob	-10.1036
▁community	-10.1049
▁mav	-10.1049
▁New	-10.1051
▁qauv	-10.1066
▁zom	-10.1066
▁yoojyim	-10.1078
the	-10.1085
os	-10.1087
▁Tamsim	-10.1091
▁yuavtsum	-10.1106
▁Nam	-10.1111
and	-10.1115
▁ntsw	-10.1115
▁ES	-10.1117
▁year	-10.1138
▁tabtom	-10.114
▁laub	-10.1142
▁via	-10.1142
▁been	-10.1148
▁sad	-10.1153
▁khawm	-10.1154
http	-10.1159
▁police	-10.1166
▁she	-10.1167
▁public	-10.1193
er	-10.1232
???	-10.1246
▁opinion	-10.1255
▁HEEV	-10.128
▁Human	-10.128
▁Huab	-10.128
▁tseemceeb	-10.1285
google	-10.129
Hide	-10.1292
▁video	-10.13
▁TUAG	-10.1306
▁Niaj	-10.1309
▁tsaws	-10.131
▁ntsi	-10.1338
▁topic	-10.1348
▁phauj	-10.1349
▁much	-10.1352
▁koomhaum	-10.1354
?"	-10.1355
▁qws	-10.1362
▁TUB	-10.1372
▁50	-10.1397
▁member	-10.1406
▁mo	-10.141
▁x	-10.143
▁cwjpwm	-10.144
▁plawg	-10.1457
▁Dony	-10.1457
▁Tham	-10.1458
▁All	-10.1461
▁rights	-10.1472
▁Kawg	-10.1472
▁Sawv	-10.1487
▁nyas	-10.149
▁Kaub	-10.15
▁khuam	-10.1503
▁hneev	-10.1515
▁July	-10.1516
▁example	-10.1519
us	-10.1526
▁nqaj	-10.1529
H	-10.1538
▁npab	-10.1563
▁ntswg	-10.1565
▁G	-10.1568
▁Yaaj	-10.1576
▁faus	-10.1576
▁TAS	-10.1576
▁saud	-10.1584
▁paug	-10.1592
▁dov	-10.1603
▁tsaa	-10.1615
▁MAG	-10.1618
Mai	-10.162
▁report	-10.1633
▁Teeb	-10.1636
▁tws	-10.1641
▁sibtham	-10.1645
▁pao	-10.1649
▁Nais	-10.1649
f	-10.165
▁Txij	-10.1652
▁Chaofa	-10.1661
av	-10.1662
▁ncua	-10.1663
▁txomnyem	-10.1666
▁aim	-10.1674
▁nqaim	-10.1681
▁txawb	-10.1697
▁mentsis	-10.1699
G	-10.1702
▁TXOG	-10.171
▁Nyaj	-10.1712
▁old	-10.1715
▁plam	-10.1742
▁Xyov	-10.1744
▁Kub	-10.1744
▁Piv	-10.1744
▁under	-10.1761
▁Minnesota	-10.1772
▁qaij	-10.1789
▁problem	-10.1789
▁qaub	-10.179
▁internet	-10.1803
▁mean	-10.1807
Cov	-10.1851
is	-10.1862
▁gvp	-10.1863
▁president	-10.1877
▁NIAM	-10.1881
▁first	-10.1881
▁kaws	-10.1883
▁general	-10.1894
▁OF	-10.1902
▁VAJ	-10.1918
▁long	-10.193
▁suavdlawg	-10.1942
▁txau	-10.1946
▁Sawvdaws	-10.1958
▁state	-10.1983
niam	-10.1991
▁phone	-10.2006
▁KIAG	-10.2008
▁nra	-10.2009
▁nro	-10.203
▁brother	-10.204
▁Ya	-10.2047
▁Yug	-10.2052
▁degree	-10.207
▁help	-10.2079
▁dhuav	-10.2083
▁Nyab	-10.2085
▁hua	-10.2113
▁free	-10.2125
▁qos	-10.2126
▁xwv	-10.2127
▁khuv	-10.2129
▁lomzem	-10.213
▁better	-10.213
▁COJ	-10.2146
▁high	-10.2159
▁csy	-10.216
▁Xavzoo	-10.2164
▁nyoos	-10.2166
mas	-10.2187
▁npam	-10.2195
▁raw	-10.2196
▁stupid	-10.2198
▁paubtab	-10.2202
▁aav	-10.2203
▁Poj	-10.2214
▁Tawm	-10.2226
▁debate	-10.2242
▁15	-10.2273
▁ntsuav	-10.2276
tseem	-10.2276
▁Serve	-10.2279
▁well	-10.2286
or	-10.2289
▁thawjcoj	-10.2293
▁xoom	-10.2296
▁c	-10.2308
▁vog	-10.2308
▁Nas	-10.2318
▁nrig	-10.2323
▁ntshais	-10.2333
tau	-10.2339
▁zaws	-10.2339
▁khub	-10.2368
▁nkeeg	-10.2371
▁SUAV	-10.2372
▁ntuas	-10.2376
▁Long	-10.2388
▁WI	-10.2392
▁duav	-10.2418
▁tsawb	-10.2424
J	-10.2438
▁Phoo	-10.2439
▁TEJ	-10.2444
▁ncej	-10.2449
▁Uncle	-10.2453
▁yos	-10.2459
▁Rau	-10.2461
▁Suabnoog	-10.2503
▁posted	-10.2508
▁tsuaj	-10.2519
▁zwm	-10.2534
▁npav	-10.2536
▁hawj	-10.2538
▁Phabej	-10.2552
▁TIAG	-10.2585
▁after	-10.2586
▁xuv	-10.2591
▁Lt	-10.2592
▁Amelikas	-10.2601
▁claim	-10.2604
▁into	-10.2618
lwm	-10.2637
▁nawd	-10.2638
▁real	-10.2649
P	-10.2656
▁ROV	-10.2667
txhob	-10.267
▁IS	-10.2674
▁xis	-10.2682
▁live	-10.2708
▁Huas	-10.2721
▁txheem	-10.2735
▁Hom	-10.2743
▁UAS	-10.2744
▁laws	-10.2747
▁research	-10.2751
▁l	-10.2753
▁Xwm	-10.2754
▁log	-10.2761
re	-10.2763
▁let	-10.2769
▁)	-10.2782
▁caubfab	-10.2786
▁tev	-10.2789
▁could	-10.2819
▁English	-10.2822
▁caub	-10.2824
▁niv	-10.2825
▁QAB	-10.2836
▁txag	-10.2858
▁Mr	-10.2863
▁zoosiab	-10.2864
▁Lees	-10.2889
▁KAWG	-10.2891
▁nquag	-10.2892
Thaum	-10.2892
▁hem	-10.2898
▁Mas	-10.2903
▁yang	-10.2912
group	-10.2945
▁most	-10.2947
▁qav	-10.296
▁hoob	-10.2963
▁Church	-10.2972
▁dabneeg	-10.2974
▁txib	-10.298
tabsi	-10.2995
▁40	-10.3009
▁President	-10.3013
▁sure	-10.3044
▁peem	-10.3046
▁Nplogteb	-10.3048
▁bad	-10.3062
▁down	-10.3079
▁where	-10.308
▁being	-10.3082
▁kauj	-10.3097
▁government	-10.3101
▁last	-10.3113
▁Soob	-10.3131
▁nraus	-10.3143
▁Her	-10.3146
▁qees	-10.3153
▁qias	-10.3153
▁ras	-10.3161
▁others	-10.3166
▁Thawj	-10.3167
am	-10.3175
▁npoj	-10.3182
▁NEEJ	-10.3184
▁Kuj	-10.3184
▁THAUM	-10.3202
▁LUAG	-10.3203
▁kim	-10.3209
▁Thailand	-10.3219
▁bawg	-10.3254
txawm	-10.3266
▁yas	-10.3281
twb	-10.3289
html	-10.3293
▁Lam	-10.3303
▁Foom	-10.3308
▁zaag	-10.3308
▁ualuaj	-10.3309
▁tseev	-10.3326
▁plag	-10.3326
▁cauj	-10.3343
▁mi	-10.3352
▁Family	-10.3361
▁pm	-10.3367
▁txojkev	-10.3378
▁XEEM	-10.338
▁E	-10.3386
▁ntsev	-10.3395
▁California	-10.3397
leej	-10.3411
▁tum	-10.3412
▁nhub	-10.3437
▁hmos	-10.3446
▁Yim	-10.3457
▁laaj	-10.3459
▁culture	-10.3464
▁caus	-10.3473
▁daig	-10.3476
▁thanks	-10.3494
▁ntws	-10.3509
▁two	-10.3517
▁tshe	-10.3523
▁Leejtwg	-10.3525
▁dlub	-10.3529
▁ok	-10.3538
▁company	-10.3541
▁kuamemiab	-10.3541
▁before	-10.3542
▁Cai	-10.3542
▁mind	-10.3547
▁ntsa	-10.3565
▁credit	-10.3565
▁tshoj	-10.357
▁qoob	-10.3576
▁plan	-10.3581
▁Doctor	-10.3585
▁uv	-10.3593
F	-10.3606
▁nqig	-10.3607
▁NYIAJ	-10.3616
L	-10.362
▁neohom	-10.3632
▁again	-10.3643
▁sch	-10.3645
▁Dlawb	-10.3652
kawg	-10.3654
▁chav	-10.3656
soc	-10.3661
▁Ntxoov	-10.3664
▁thas	-10.3673
▁tsem	-10.368
▁lao	-10.3684
▁nkaag	-10.3685
▁nruas	-10.369
▁zuag	-10.3691
▁Cob	-10.3691
▁always	-10.3707
▁NROG	-10.3708
▁zib	-10.3724
▁does	-10.373
ov	-10.3732
▁YAJ	-10.3745
▁nkaug	-10.3747
▁forum	-10.3756
..."	-10.3762
▁ntuag	-10.3772
▁qoos	-10.3782
▁zis	-10.3803
▁Australia	-10.3815
▁Aub	-10.3818
▁Yajtshajkoob	-10.382
▁TAG	-10.382
▁ncuav	-10.3822
▁txuam	-10.3827
▁Yav	-10.3828
▁HMONG	-10.3834
▁vote	-10.3844
▁TIM	-10.3857
▁cig	-10.3857
▁words	-10.3866
▁sa	-10.3877
▁Oh	-10.3879
▁which	-10.3879
▁god	-10.3885
▁best	-10.3898
▁give	-10.3899
▁NOT	-10.3901
▁fwj	-10.3929
▁loos	-10.3929
▁aib	-10.3931
▁NTAU	-10.395
................	-10.3951
▁tsuv	-10.3955
▁Zoov	-10.3978
▁Wb	-10.3995
▁Tejzaum	-10.4012
▁tiab	-10.4024
LI	-10.4038
18	-10.4048
▁NTUJ	-10.4049
▁tswb	-10.4051
▁zeej	-10.4052
▁dlha	-10.4054
lus	-10.4055
▁ki	-10.4064
▁position	-10.4074
▁khwb	-10.4076
le	-10.4078
▁retire	-10.4083
▁Anti	-10.4107
▁yaum	-10.4113
▁IN	-10.4115
▁lias	-10.412
▁kum	-10.4139
▁Lwj	-10.4143
▁mes	-10.4146
▁ntxa	-10.4159
▁11	-10.4161
▁different	-10.4163
▁against	-10.4163
▁chiv	-10.4165
▁txuag	-10.4172
▁txov	-10.4175
▁khau	-10.4176
gt	-10.4177
▁In	-10.4192
▁txawg	-10.4203
▁next	-10.4203
▁kaub	-10.4225
▁yoo	-10.4239
▁show	-10.4239
▁yov	-10.4243
▁experience	-10.4247
it	-10.4255
muab	-10.4259
▁TXOJ	-10.4261
▁another	-10.4262
▁:	-10.4268
▁hlab	-10.4274
▁lem	-10.4274
▁tsevneeg	-10.4279
▁21	-10.4279
▁things	-10.4281
▁Tuaj	-10.4285
▁message	-10.4288
▁system	-10.4291
================	-10.4292
▁DAB	-10.4296
▁baum	-10.4298
▁vibnais	-10.43
▁change	-10.4306
▁money	-10.4308
▁uantej	-10.4309
▁use	-10.4329
▁That	-10.436
▁keep	-10.4379
▁YAM	-10.4382
▁As	-10.4398
smiles	-10.4402
▁friend	-10.4406
16	-10.441
▁HAUV	-10.442
▁Jesus	-10.4421
▁seev	-10.4424
▁To	-10.4427
▁america	-10.4438
▁vaam	-10.4439
▁POV	-10.4441
▁Txoov	-10.4442
▁Moos	-10.4462
sab	-10.4472
▁University	-10.448
▁Muang	-10.4498
▁dejnum	-10.452
▁nraag	-10.454
▁xu	-10.4541
▁hahahahaha	-10.4544
▁theej	-10.4545
▁OB	-10.4575
..........	-10.4579
▁feeb	-10.4584
▁evidence	-10.4589
▁dablaug	-10.4589
▁1-2	-10.4615
▁xf	-10.4622
▁ntxawg	-10.4626
▁pro	-10.4633
▁homphiaj	-10.4641
▁Nyiag	-10.4642
▁DAWB	-10.4643
▁Yingb	-10.4644
▁HK	-10.4664
▁Phou	-10.4682
st	-10.4704
▁taj	-10.4707
▁NA	-10.4728
▁ntshaws	-10.474
Ua	-10.474
▁CAI	-10.474
▁please	-10.4743
▁members	-10.4754
▁vij	-10.4761
▁Good	-10.4765
▁xyaw	-10.4765
▁txig	-10.4772
▁kib	-10.4773
▁hno	-10.4777
▁ntov	-10.4779
hahaha	-10.4781
▁Paaj	-10.4784
▁txhum	-10.4787
▁dollars	-10.4788
▁education	-10.4789
▁qas	-10.4797
▁DR	-10.4815
▁hai	-10.4823
▁understand	-10.4845
▁6.	-10.4846
▁each	-10.4847
▁Mab	-10.4859
▁Tsoom	-10.4867
meem	-10.4878
etc	-10.4884
▁Qhia	-10.489
▁look	-10.4898
▁May	-10.4898
▁sais	-10.4906
▁nplaig	-10.491
▁nta	-10.491
▁nplej	-10.491
▁YingB	-10.4911
▁part	-10.493
▁Christian	-10.4943
▁Vees	-10.4951
▁nchuav	-10.4952
▁Naj	-10.4956
▁Yias	-10.4959
▁Ca	-10.4961
▁TSWV	-10.4974
▁side	-10.4983
able	-10.4983
▁cobfab	-10.4995
▁hahaha	-10.5013
▁sawm	-10.5019
▁qiv	-10.502
▁Dag	-10.5022
▁matter	-10.5022
cas	-10.5023
gmail	-10.5033
▁More	-10.5036
▁pluj	-10.5036
▁mauj	-10.5037
▁Noj	-10.5047
ntuj	-10.5054
▁kheev	-10.506
▁st	-10.506
▁Rights	-10.5061
beMhong	-10.5078
▁Txhiaj	-10.5096
▁vuag	-10.5101
fa	-10.5114
▁dlaabtsi	-10.5115
en	-10.5117
▁Kab	-10.5124
▁Av	-10.5124
▁got	-10.5129
▁tsaav	-10.5157
teb	-10.516
▁kod	-10.5178
▁7.	-10.518
▁sua	-10.518
▁Sis	-10.5193
▁taubhau	-10.5195
▁j	-10.5198
xav	-10.5206
▁laij	-10.5208
cia	-10.5214
▁Y	-10.5231
▁Cobfab	-10.525
▁qes	-10.5252
▁Nim	-10.5275
▁using	-10.5278
▁lw	-10.5286
▁Txooj	-10.5295
▁npaug	-10.5302
▁Vietnam	-10.5305
!!!!	-10.531
▁social	-10.5312
▁organization	-10.5325
U	-10.5327
▁TUA	-10.5336
▁hnyav	-10.5338
▁ytk	-10.5339
▁kk	-10.534
▁nkoj	-10.5343
▁ntab	-10.5343
▁secret	-10.5349
▁tshee	-10.5359
▁nkees	-10.536
▁Kis	-10.5362
▁poog	-10.5362
▁Chia	-10.5367
▁Neo	-10.537
▁tho	-10.5372
lao	-10.5374
▁khaav	-10.5379
▁Xeev	-10.5387
*	-10.5391
▁kuaj	-10.5395
▁Ntshai	-10.5395
▁ntxiab	-10.5405
▁without	-10.5405
▁Sam	-10.5407
ING	-10.5413
▁qeb	-10.542
▁million	-10.5437
▁Please	-10.5448
▁yws	-10.5448
▁kaab	-10.5457
▁My	-10.5465
▁hotel	-10.5481
noj	-10.5484
oj	-10.5491
▁TSEV	-10.5492
▁nceb	-10.5504
▁aka	-10.5507
puas	-10.5508
hos	-10.5513
▁yourself	-10.5514
▁toog	-10.5515
▁future	-10.5517
▁NAWB	-10.5536
z	-10.5539
▁NOM	-10.5542
▁word	-10.555
▁link	-10.555
▁XA	-10.556
▁country	-10.5581
▁really	-10.5604
▁But	-10.5604
▁khws	-10.5605
▁yaaj	-10.5605
▁ais	-10.5608
▁list	-10.5616
▁qauj	-10.5617
▁tshwj	-10.5626
▁lee	-10.5627
Cha	-10.5642
▁xauv	-10.5655
▁qualify	-10.5671
▁Mouatony	-10.5671
▁POJ	-10.5672
▁NTAWD	-10.5672
▁txhis	-10.5673
▁y	-10.5686
▁leg	-10.5688
▁khoo	-10.5702
▁hmab	-10.5703
▁sense	-10.5705
▁txhab	-10.5717
▁ntaj	-10.572
▁dib	-10.5721
▁going	-10.5722
▁also	-10.5739
▁Feem	-10.5741
▁Kwvtijhmoob	-10.5742
▁ntawg	-10.5742
▁nkhaus	-10.5762
▁talk	-10.5774
hotmail	-10.5784
▁Thornsp	-10.5787
▁feel	-10.5793
▁npuab	-10.581
▁Ruam	-10.5816
▁radio	-10.5823
▁nrawm	-10.5831
▁Loob	-10.5832
Tus	-10.5848
▁60	-10.5856
tuaj	-10.5861
▁made	-10.587
▁Mong	-10.5879
▁Tiamsis	-10.5881
▁Ham	-10.5888
▁Tog	-10.5906
▁ciav	-10.5914
▁khaum	-10.5923
▁kujxaj	-10.5925
▁wife	-10.5926
▁yuag	-10.5928
R	-10.5929
▁ntsig	-10.5929
▁vision	-10.5935
▁learn	-10.5943
▁Lus	-10.5977
▁King	-10.5986
▁nqeg	-10.5993
▁PHEM	-10.5993
▁especially	-10.6002
me	-10.6017
▁Koom	-10.6021
tsij	-10.6062
▁pus	-10.6069
▁xyeej	-10.6087
▁KUJ	-10.6088
▁Dub	-10.6089
▁13	-10.61
al	-10.6108
▁SAWV	-10.6133
▁tell	-10.6133
▁try	-10.6133
▁tsuam	-10.6137
▁yh	-10.6152
▁Ywg	-10.6156
▁nyaum	-10.6157
▁kind	-10.6176
▁haub	-10.6178
▁place	-10.6182
▁HO	-10.6191
▁kwj	-10.6194
▁hope	-10.6196
lug	-10.6198
▁hehehehehe	-10.6205
▁suabnoog	-10.6206
▁ntais	-10.6207
▁FBI	-10.6229
▁haav	-10.623
▁YD	-10.6231
▁nroj	-10.6235
▁tuas	-10.6238
▁tha	-10.6247
yam	-10.625
▁ta	-10.6256
▁sablaj	-10.6257
kiag	-10.6263
▁kem	-10.6264
▁nteg	-10.628
▁few	-10.6301
▁women	-10.6305
▁tubrog	-10.6305
▁Tsuj	-10.6312
▁nroos	-10.6312
▁check	-10.6323
▁PUB	-10.6326
▁Bawg	-10.6349
▁ntxhiab	-10.6351
▁ZOG	-10.6374
▁yeebncuab	-10.6374
▁xiong	-10.6378
▁tamsis	-10.64
▁qhas	-10.6404
▁qeeb	-10.6416
▁fuab	-10.642
▁rhiab	-10.6423
▁order	-10.6424
▁ses	-10.6428
▁IT	-10.6434
▁hahahaha	-10.6437
▁pdy	-10.6445
▁Message	-10.6445
▁r	-10.6447
▁LEEJ	-10.6448
▁Tu	-10.6451
▁city	-10.6451
▁saj	-10.6452
▁office	-10.6456
▁nis	-10.6457
▁call	-10.6461
▁J	-10.6468
▁For	-10.6468
▁war	-10.6468
▁twjywm	-10.647
dab	-10.648
smile	-10.6483
▁Zaj	-10.6496
▁ntsab	-10.6502
▁hehehehe	-10.6505
▁rhawv	-10.651
▁ntsai	-10.652
▁xyum	-10.652
▁Government	-10.6531
mail	-10.6539
▁laos	-10.6544
▁thwj	-10.6545
▁tseeg	-10.6545
org	-10.6551
▁including	-10.6551
▁Lor	-10.6557
▁Freedom	-10.657
▁mhoob	-10.6573
▁dawm	-10.6573
▁h	-10.658
▁keb	-10.6592
tub	-10.66
▁leaders	-10.6603
▁Thorn	-10.6606
▁Amen	-10.6622
▁yis	-10.665
▁defend	-10.6652
▁Year	-10.6654
▁lob	-10.6665
▁Tshajplaws	-10.6695
▁There	-10.6697
▁TSAM	-10.6698
▁hwjchim	-10.6718
▁Pojniam	-10.672
jpg	-10.6743
▁Jim	-10.6744
▁lij	-10.6744
▁2005	-10.6755
▁neejtsa	-10.676
▁PM	-10.6767
▁xibfwb	-10.6769
▁Tag	-10.6772
▁They	-10.6775
▁lawyer	-10.6782
▁Tshua	-10.6793
▁THOV	-10.6798
▁keebkwm	-10.6819
▁THAT	-10.6821
▁fact	-10.6833
▁fiv	-10.6851
on	-10.6853
▁yawgloj	-10.6854
▁proof	-10.6859
▁Asia	-10.6868
▁Pobzeb	-10.687
▁Huabtais	-10.6871
▁txwj	-10.6873
tom	-10.6878
▁uasi	-10.6897
▁kajsiab	-10.6898
▁title	-10.6899
▁dream	-10.6908
▁funeral	-10.6909
▁hoom	-10.6923
he	-10.6923
▁pev	-10.6925
▁laig	-10.6927
▁PUAS	-10.6948
▁paib	-10.6952
▁yua	-10.6964
▁hluav	-10.6968
▁Peace	-10.6972
▁npaaj	-10.6973
▁phov	-10.6974
▁mejkoob	-10.6976
▁self	-10.6979
▁Soua	-10.6983
▁TX	-10.6984
▁hiv	-10.699
ll	-10.6992
▁ej	-10.6999
tiam	-10.6999
▁Bible	-10.6999
▁Ph	-10.7
▁MC	-10.7007
▁done	-10.7008
▁npo	-10.7015
▁Nchai	-10.7018
▁Nyoog	-10.7024
▁dluab	-10.703
▁nraud	-10.7033
▁its	-10.7044
▁tsog	-10.7057
▁tov	-10.7058
▁Mev	-10.7069
▁weeks	-10.707
▁khab	-10.7072
▁NTSE	-10.7076
▁hard	-10.7078
▁OV	-10.708
▁ntsha	-10.7086
▁millions	-10.7093
▁SSI	-10.7103
▁TSEEB	-10.7103
▁Ntawv	-10.7105
▁Just	-10.7105
▁da	-10.7119
▁niamtxiv	-10.7121
▁txhoj	-10.7129
▁KAM	-10.7131
▁poom	-10.7132
▁Tsuav	-10.7132
▁txujci	-10.7134
▁nplogliab	-10.7134
sib	-10.7154
▁fabkis	-10.7155
cannot	-10.7161
▁Pom	-10.718
▁Why	-10.7183
213,	-10.7193
net	-10.7196
▁both	-10.7205
▁Luas	-10.7207
▁ntxuag	-10.7208
▁TSO	-10.721
▁democracy	-10.7211
tos	-10.7214
▁Kas	-10.7214
▁yuamkev	-10.7214
▁yob	-10.7214
▁prove	-10.7217
▁yuas	-10.7221
▁;	-10.7222
▁plhu	-10.7224
▁TXAWJ	-10.7234
▁npuas	-10.7236
▁ntxais	-10.7237
▁sex	-10.7247
tsam	-10.7253
▁35	-10.7256
▁fim	-10.726
▁khej	-10.726
tab	-10.7262
▁read	-10.728
▁Hnov	-10.7287
▁mong	-10.7305
ub	-10.7306
▁between	-10.7313
▁nyeg	-10.7313
▁National	-10.7315
▁nomtswv	-10.7317
▁seej	-10.7327
▁Colonel	-10.7328
▁around	-10.734
▁fwjchim	-10.734
▁tsig	-10.7349
▁ntub	-10.7361
▁24	-10.7364
▁issues	-10.7376
▁kiav	-10.7395
▁dlaav	-10.7396
Q	-10.7399
▁truth	-10.7401
▁kiv	-10.7404
▁bible	-10.7422
▁au	-10.7429
▁TSHAJ	-10.7437
▁Congress	-10.7448
▁MUAG	-10.7448
paub	-10.7456
▁Meo	-10.7459
be	-10.7471
▁txaij	-10.7503
▁Maina	-10.7516
▁zeemmuag	-10.7528
▁paim	-10.7531
▁txhav	-10.7532
to	-10.7543
▁chance	-10.7543
▁doctors	-10.7548
▁SAB	-10.7556
▁OK	-10.7559
▁Yes	-10.7562
▁200	-10.7566
▁2006	-10.7566
▁end	-10.7573
▁nplajteb	-10.7582
▁Nkaujnyiag	-10.7584
um	-10.7584
▁LWM	-10.7585
▁meeting	-10.7598
▁npaud	-10.7606
▁Nres	-10.7611
▁txooj	-10.7611
hnub	-10.7619
▁moov	-10.7625
▁opportunity	-10.7638
▁https	-10.7644
sis	-10.7647
▁ask	-10.7649
▁kob	-10.765
▁paaj	-10.7659
▁R	-10.7664
▁cwjmem	-10.7665
▁TAWM	-10.7667
▁npuav	-10.7678
▁F	-10.7683
▁hahahahahaha	-10.7687
▁nplaum	-10.7693
▁Fuab	-10.7693
▁ntaug	-10.7695
▁Wisconsin	-10.772
▁ntxag	-10.7727
▁put	-10.7741
▁Tsheej	-10.7748
▁Luang	-10.7767
▁Mam	-10.7782
pom	-10.7784
▁MAM	-10.7787
lam	-10.7792
thov	-10.7795
▁Cwj	-10.7804
▁control	-10.7805
▁hours	-10.7809
29	-10.7809
▁website	-10.7823
▁thaaj	-10.7833
▁something	-10.7833
▁idea	-10.7837
▁situation	-10.7847
▁txa	-10.7857
▁nplawm	-10.786
pab	-10.7861
▁ntoos	-10.7861
▁Pathet	-10.7861
▁25	-10.7866
▁big	-10.7866
▁DC	-10.7871
▁Thaiv	-10.7874
▁d	-10.7889
▁Nkawv	-10.7899
▁TSIM	-10.7904
▁cha	-10.7904
▁Let	-10.7906
▁nte	-10.7916
▁pay	-10.7916
▁kaaj	-10.7917
▁*	-10.7919
▁term	-10.7935
▁L	-10.7937
▁home	-10.7943
▁meejmom	-10.7945
▁SAIB	-10.7946
▁tshaav	-10.7946
▁KAWM	-10.7949
▁Hauv	-10.7952
▁nthe	-10.7963
▁Rebecca	-10.7973
▁tsawm	-10.7977
▁form	-10.7979
Phiaj	-10.7982
▁Kong	-10.7991
om	-10.7995
laus	-10.7998
▁else	-10.8002
▁NTAWM	-10.8003
▁Lyteck	-10.8003
▁pleev	-10.803
▁UNHCR	-10.8031
▁Txhais	-10.8031
▁board	-10.8047
▁Q	-10.805
▁taam	-10.8061
▁Pob	-10.8063
▁find	-10.8086
▁Tib	-10.8086
▁yuj	-10.8087
▁AM	-10.8087
▁PKH	-10.8088
▁nqus	-10.8089
▁fajkhaum	-10.8089
▁dhlau	-10.809
▁nthi	-10.8107
"...	-10.8109
▁uncle	-10.8111
▁HLUB	-10.8118
▁zeeg	-10.8122
▁txhuv	-10.8123
▁past	-10.8139
▁hniaj	-10.8148
▁CHIM	-10.8168
▁ntxhias	-10.8177
▁kawv	-10.8192
▁YEEB	-10.8205
KUV	-10.8207
txog	-10.8209
▁turn	-10.823
▁Peter	-10.8234
▁nroo	-10.8236
▁volunteer	-10.825
▁ntaiv	-10.8262
▁nqos	-10.8263
▁Phaj	-10.8265
▁United	-10.8267
▁phua	-10.8272
Tsis	-10.8275
▁non	-10.8287
▁speech	-10.829
▁anything	-10.8291
▁Your	-10.8297
▁paul	-10.8302
▁ruas	-10.8309
▁re	-10.8317
wb	-10.8319
▁Fwv	-10.8321
▁someone	-10.8321
▁NTAWV	-10.8321
▁YAWG	-10.8323
▁tabsim	-10.8336
▁least	-10.835
▁Avang	-10.8352
▁ai	-10.8356
▁Kuamemiab	-10.8381
▁DOS	-10.8385
▁toom	-10.8385
▁top	-10.8411
▁O	-10.8434
▁POB	-10.8434
lis	-10.8447
▁un	-10.8452
▁Amelicas	-10.8454
▁16	-10.8458
▁la	-10.8464
▁Kwm	-10.847
▁little	-10.8473
▁Minister	-10.8486
▁join	-10.8488
▁line	-10.8498
▁vaammeej	-10.8499
▁yuad	-10.8502
O	-10.8524
▁peace	-10.853
▁haas	-10.8535
▁team	-10.8548
▁Na	-10.8552
▁follow	-10.8556
▁pestsawg	-10.8559
▁npaws	-10.8562
an	-10.8577
▁zuaj	-10.8592
▁politics	-10.8592
▁Tsov	-10.8598
▁yab	-10.8599
▁kes	-10.8611
hehehe	-10.8613
▁idonotknow	-10.8623
▁ped	-10.8629
▁om	-10.8643
news	-10.8644
▁nias	-10.8655
ntxhais	-10.8659
52	-10.8662
▁answer	-10.8666
▁meaning	-10.8674
▁Lycee	-10.868
▁kuamem	-10.8681
▁TIA	-10.8693
▁zes	-10.8697
▁School	-10.8698
▁thai	-10.8705
htm	-10.871
▁tsoomfwv	-10.871
▁piam	-10.8712
▁khees	-10.8716
▁II	-10.873
▁Ntau	-10.873
▁Pha	-10.8739
▁14	-10.874
▁Ntxwg	-10.8741
▁Tsev	-10.8743
▁Zag	-10.8743
▁copy	-10.8744
▁ncaug	-10.8749
▁FOR	-10.8751
twg	-10.8756
id	-10.876
▁gaus	-10.8772
▁laim	-10.8774
▁daum	-10.8777
▁Laus	-10.8778
▁doing	-10.8793
▁CAUBFAB	-10.8803
▁zim	-10.8804
▁anyone	-10.8804
▁mua	-10.8808
▁Coj	-10.8809
▁ntsaws	-10.8813
▁project	-10.8823
▁mem	-10.8833
▁Tshoj	-10.8835
▁everyone	-10.8836
▁Caub	-10.8837
▁nruag	-10.8839
▁naw	-10.8851
▁Oz	-10.8871
▁qa	-10.8885
img	-10.8886
▁off	-10.8888
▁How	-10.889
▁age	-10.8895
Lq	-10.8896
▁Ziag	-10.8897
▁China	-10.8903
▁Tshuav	-10.8908
▁hnia	-10.8922
▁lajlim	-10.8928
▁Shoua	-10.8928
▁pluaj	-10.8929
▁diav	-10.8932
▁tsag	-10.8934
▁Tso	-10.8953
▁1000	-10.8953
▁already	-10.8959
▁8.	-10.8959
▁College	-10.8959
▁vob	-10.8959
▁DAWS	-10.8959
▁ntxoov	-10.8962
thiaj	-10.8971
▁professional	-10.8978
Yaj	-10.8988
▁Aib	-10.899
▁tshwmsim	-10.8991
▁ntso	-10.8992
▁ntshaav	-10.8993
▁nqeeb	-10.8993
▁ntuav	-10.9009
txwm	-10.9013
▁nqhis	-10.9023
▁taig	-10.9026
▁fwb	-10.903
▁hluag	-10.9039
▁Nrog	-10.9055
▁ARE	-10.9055
▁nyooj	-10.9065
▁cuaj	-10.9068
▁language	-10.9074
▁fawb	-10.9086
▁Hlub	-10.9091
▁qi	-10.9094
▁quasyawg	-10.9096
▁KK	-10.9102
▁Communist	-10.9107
▁LOL	-10.9109
▁laag	-10.9115
▁above	-10.9117
▁xovtooj	-10.9117
▁Tsujsua	-10.9119
▁52	-10.912
▁qhovtwg	-10.9128
▁far	-10.914
▁Laug	-10.9148
▁maub	-10.9153
▁Unko	-10.9154
▁npuaj	-10.9158
Cj	-10.9168
▁qhau	-10.917
▁Siab	-10.9185
▁rig	-10.9188
▁col	-10.9191
▁kuag	-10.9193
▁great	-10.9199
se	-10.92
▁lua	-10.9202
▁heart	-10.921
▁Faaj	-10.9213
▁leem	-10.9213
▁LFC	-10.9214
▁5-6	-10.9216
▁Yij	-10.9216
▁CEM	-10.9219
▁thaud	-10.9222
▁dais	-10.9225
▁nyo	-10.9227
ntshe	-10.923
▁stop	-10.9232
▁AS	-10.9245
▁TSEG	-10.9246
▁nrim	-10.9246
▁zaam	-10.9247
▁Txiab	-10.9247
▁RPA	-10.9248
rau	-10.9262
▁Kajntug	-10.9278
▁ROG	-10.9279
▁per	-10.9286
▁ntxhw	-10.9307
▁awb	-10.9307
▁NC	-10.9307
▁rhaub	-10.931
▁land	-10.9311
▁yet	-10.9311
▁fight	-10.9342
▁fair	-10.9343
20	-10.9345
▁hlaus	-10.9348
▁xaim	-10.935
▁tsoos	-10.9365
▁action	-10.9365
▁Moghlub	-10.9376
▁thought	-10.9378
▁Kao	-10.9381
▁dao	-10.9382
kav	-10.9401
▁San	-10.9402
▁DU	-10.9406
▁qog	-10.9409
▁lpdr	-10.941
xwb	-10.9424
Qhov	-10.9427
...........	-10.943
▁club	-10.9431
tsuas	-10.9433
▁Nov	-10.9443
tes	-10.9448
ng	-10.9454
Dr	-10.9465
saib	-10.9473
Yawg	-10.9493
▁TU	-10.9501
▁Samthong	-10.9508
▁kaug	-10.951
▁body	-10.9512
▁tsees	-10.9512
▁lais	-10.9513
▁Don	-10.9517
▁HNUB	-10.954
W	-10.9542
▁Miao	-10.9547
▁Hm	-10.9548
▁500	-10.9553
▁nplogteb	-10.9554
▁Thank	-10.9562
▁college	-10.9563
▁Ntseeg	-10.9576
▁happen	-10.9587
▁75	-10.9594
▁Noog	-10.9606
▁society	-10.9609
you	-10.9611
but	-10.9614
▁used	-10.9622
▁TSA	-10.9624
▁khuj	-10.9629
??	-10.964
kuj	-10.965
▁saw	-10.9659
▁!	-10.9662
▁second	-10.9663
▁sign	-10.9663
▁Roob	-10.9668
▁Bangkok	-10.9675
▁ntwg	-10.9677
▁phwv	-10.9678
▁2012	-10.9686
one	-10.9694
▁povtseg	-10.971
▁John	-10.9711
▁povthawj	-10.9712
▁Phiajzeb	-10.9714
▁pobzeb	-10.9719
▁uacas	-10.9728
▁night	-10.9733
▁txaaj	-10.9742
▁Mloog	-10.9743
ce	-10.9743
xeeb	-10.9747
▁practice	-10.9748
▁nkau	-10.9751
▁Tsim	-10.9755
▁Obama	-10.9777
▁ntxaws	-10.9777
ID	-10.9778
▁txoos	-10.9779
▁Do	-10.98
▁Ban	-10.9808
▁chwv	-10.9811
▁qhias	-10.9825
▁ntxi	-10.9826
▁benefit	-10.9832
▁qhovmuag	-10.984
▁VDO	-10.9845
▁Yawgnomdub	-10.9846
▁txhuas	-10.9848
▁Kawm	-10.9848
▁neohmong	-10.9849
▁Sim	-10.9851
▁ntxhai	-10.9856
▁zij	-10.9865
▁difference	-10.9866
Tab	-10.9867
Vaj	-10.9874
▁away	-10.9881
▁tshajplaws	-10.9883
▁VT	-10.9883
tag	-10.9885
▁LIS	-10.9887
▁dabtsis	-10.9887
▁SIM	-10.9892
$	-10.9896
suC	-10.99
Nws	-10.9901
▁number	-10.9902
▁2000	-10.9903
▁Tseeb	-10.9915
▁plis	-10.9916
▁chua	-10.9917
▁xyab	-10.9918
▁ncau	-10.9929
▁yaws	-10.9929
▁NTSEEG	-10.9948
▁TSUM	-10.9955
▁young	-10.9958
ruam	-10.9983
▁Caubfab	-10.9983
▁open	-10.9984
▁ntsujplig	-10.9984
▁KUBXAJ	-10.9984
▁Nploglab	-10.9985
▁ntsoog	-10.9987
Z	-10.999
▁until	-10.9999
▁zig	-11.0018
▁w	-11.0022
▁LAUS	-11.0022
▁tshauv	-11.0026
▁tshau	-11.0034
▁Sau	-11.0035
▁bomb	-11.0041
▁job	-11.0041
▁HIHRW	-11.0053
▁tibyam	-11.0064
▁goal	-11.0069
▁Nplooj	-11.007
▁choice	-11.0075
▁kiab	-11.0077
▁face	-11.0088
▁zawm	-11.0089
▁accept	-11.0089
▁yaub	-11.0109
▁Txiaj	-11.0123
▁through	-11.0123
tug	-11.013
▁NTR	-11.0132
▁tshais	-11.0136
▁program	-11.0141
▁Dev	-11.0141
▁sibhlub	-11.0145
▁yes	-11.015
▁Nab	-11.0151
▁lot	-11.0156
▁Sibtham	-11.016
▁vov	-11.0161
▁py	-11.0173
▁DUA	-11.0174
▁phlu	-11.0175
▁People	-11.0181
kawm	-11.019
▁NKAUJ	-11.0194
▁perfect	-11.0194
▁TIJLAUG	-11.0195
▁enjoy	-11.0195
▁Haum	-11.0196
▁Vimhlub	-11.0197
▁nrad	-11.0202
▁movies	-11.0205
groups	-11.0205
▁vag	-11.0206
Nej	-11.0218
▁Nkaw	-11.0218
tiag	-11.0227
▁FGVP	-11.0229
▁EV	-11.023
▁phev	-11.023
▁Uatsaug	-11.0231
▁thwm	-11.0231
▁cuj	-11.0231
▁came	-11.0232
▁thawb	-11.0232
▁yias	-11.0236
▁viv	-11.0238
▁naav	-11.0241
▁tejzag	-11.0246
▁LO	-11.0247
▁Koos	-11.0257
her	-11.0264
▁ntsub	-11.0267
▁Hu	-11.0268
▁THAWJ	-11.0268
Li	-11.0289
▁mission	-11.029
▁Tim	-11.0301
▁ruag	-11.0302
▁2010	-11.0305
▁Mais	-11.0311
poj	-11.0328
▁yaw	-11.0336
▁ywjpheej	-11.0337
▁plaab	-11.0337
▁huav	-11.0339
▁DHAU	-11.0341
▁po	-11.0367
xeem	-11.0369
▁together	-11.0373
▁plees	-11.0375
▁cases	-11.038
▁vang	-11.0384
▁TV	-11.0385
so	-11.039
im	-11.0392
Nplog	-11.0405
▁Bush	-11.041
▁Sacramento	-11.0411
▁times	-11.0412
▁Ntxiv	-11.0412
▁DUB	-11.0416
▁meo	-11.042
▁2)	-11.0424
▁DEB	-11.0427
ntau	-11.0431
▁judge	-11.0431
▁Neng	-11.0434
Vim	-11.0435
yawm	-11.0445
▁Ntawd	-11.0446
coj	-11.0446
tuag	-11.0456
tso	-11.0464
▁ago	-11.0466
▁te	-11.0466
mej	-11.0478
▁xeebceem	-11.0482
▁Radio	-11.0483
▁luck	-11.0483
▁run	-11.0487
▁Ntaj	-11.0488
▁LAM	-11.0492
▁special	-11.05
▁hajya	-11.0512
▁leadership	-11.0521
▁DEJ	-11.0521
▁private	-11.0523
▁SY	-11.0523
▁ever	-11.0536
▁NPLOG	-11.0556
▁Rwg	-11.0556
▁npausuav	-11.0557
▁pluas	-11.0562
▁txujkev	-11.0567
▁mu	-11.0582
▁ciab	-11.0585
▁vau	-11.0593
ntshai	-11.0606
▁pag	-11.0631
▁vwj	-11.0633
tim	-11.0644
▁huaj	-11.0646
Muaj	-11.0657
▁1)	-11.0659
▁address	-11.0664
▁Tiao	-11.0668
▁NEOHOME	-11.0669
▁tsham	-11.067
▁yag	-11.0671
▁Capt	-11.0672
▁xiv	-11.068
▁lesson	-11.0692
lo	-11.0701
ia	-11.0706
▁ready	-11.0706
▁Vwm	-11.0707
▁Xov	-11.0707
▁tomntej	-11.071
▁tshuas	-11.0721
Tej	-11.0732
▁peeb	-11.0732
▁enough	-11.0738
▁nplaj	-11.0741
▁Colorado	-11.0741
▁cuas	-11.0744
▁happy	-11.0744
▁MOOB	-11.0749
▁Rov	-11.0749
▁usa	-11.0754
▁solution	-11.0768
▁cause	-11.0771
▁hand	-11.0771
▁DIM	-11.0779
▁txis	-11.0779
▁NTAG	-11.0779
▁UTC	-11.0779
▁dulug	-11.0779
▁Kuamem	-11.078
▁tseemfwv	-11.0781
▁days	-11.0781
▁World	-11.0783
▁yuaj	-11.0786
sim	-11.0786
▁comment	-11.0805
▁mobsiab	-11.0805
pm	-11.0815
▁Txhim	-11.0817
▁avang	-11.0821
▁xuaj	-11.0821
▁minutes	-11.0822
raws	-11.0827
▁2007	-11.0848
▁thaab	-11.0857
▁nyeej	-11.0859
▁kaas	-11.0865
▁66	-11.0873
▁bank	-11.0879
▁Vinai	-11.088
▁means	-11.0891
▁George	-11.0893
▁quab	-11.0894
▁SAU	-11.0901
▁rovqab	-11.0906
▁stroke	-11.0918
▁tshai	-11.0918
▁khabnab	-11.093
▁dlig	-11.0933
▁Txos	-11.0934
▁feet	-11.0937
▁youtube	-11.094
▁fa	-11.0953
▁attack	-11.0954
▁TXIM	-11.097
▁retired	-11.0979
▁Chue	-11.0979
▁legal	-11.098
▁txaum	-11.098
▁friends	-11.0994
uas	-11.0999
▁txw	-11.1
▁VIBNAIS	-11.1006
▁tshajlij	-11.1008
▁International	-11.1009
▁dlaaj	-11.1011
▁Thaj	-11.1011
▁tsavneeg	-11.1012
▁lecaag	-11.1017
▁2004	-11.1017
▁posts	-11.1019
▁Npliaj	-11.1047
▁tsimnyog	-11.1047
▁khaw	-11.1063
▁american	-11.1072
▁Lu	-11.1082
▁Yong	-11.1084
▁nhov	-11.1085
MOOB	-11.1086
▁NYIAM	-11.1086
▁create	-11.1086
▁faaj	-11.1086
▁txhos	-11.1089
51	-11.1105
AM	-11.1124
▁Loojceeb	-11.1124
▁thawm	-11.1125
▁V	-11.1126
▁raj	-11.1126
▁heard	-11.1127
▁king	-11.1132
▁cib	-11.1136
▁Director	-11.1151
▁tax	-11.1162
▁Yig	-11.1164
▁Txuj	-11.1165
ve	-11.1168
▁GM	-11.1171
▁woman	-11.1171
▁neev	-11.1172
▁XYOO	-11.1174
▁QHIA	-11.1185
▁Thoob	-11.1186
▁THEM	-11.1188
laug	-11.119
kwv	-11.1192
▁!!!	-11.1198
▁20-30	-11.1199
▁NPE	-11.1201
▁quj	-11.1203
▁nceeg	-11.1204
▁ntxwg	-11.1204
▁Xub	-11.1205
▁nqaa	-11.1212
▁yoov	-11.1214
suav	-11.1237
▁Thamkrabok	-11.1242
▁Lino	-11.1244
▁taij	-11.1245
ne	-11.1245
▁ntxiag	-11.1246
▁khaib	-11.1247
at	-11.1249
▁bring	-11.1251
▁xua	-11.1264
▁tiamsi	-11.1268
▁dlau	-11.1273
▁Xaav	-11.1281
▁dlaws	-11.1282
▁ntxaug	-11.1283
50	-11.129
▁UB	-11.1292
▁vas	-11.1297
▁tsu	-11.132
pov	-11.1321
▁xaws	-11.1323
▁nplaim	-11.1323
▁toob	-11.1341
▁80	-11.1344
▁Seb	-11.1363
▁fresno	-11.1365
▁plog	-11.1366
IAG	-11.1369
▁txam	-11.1369
ers	-11.1372
▁NE	-11.1373
▁pis	-11.1378
▁khoob	-11.1385
▁tsaab	-11.1389
siv	-11.1394
▁HOM	-11.1395
▁cos	-11.1398
▁funny	-11.1404
▁whole	-11.1404
▁LIAB	-11.1407
▁yah	-11.1419
▁ntsaw	-11.1419
▁tou	-11.1422
▁nqua	-11.1429
▁apply	-11.1441
▁policy	-11.1442
▁saying	-11.1448
▁Yag	-11.1455
▁ST	-11.1457
▁official	-11.147
▁Pa	-11.147
▁xuab	-11.1472
Lawv	-11.1475
▁ntsejmuag	-11.1485
▁moobsib	-11.1488
▁pebcaug	-11.1491
▁meme	-11.1492
▁set	-11.1494
▁Hmo	-11.1496
▁continue	-11.1506
▁uali	-11.1509
thread	-11.1515
▁kwvluag	-11.152
▁khoos	-11.1521
▁SUB	-11.1522
▁xiab	-11.1524
▁Xf	-11.1526
▁puavleej	-11.153
tswv	-11.1534
▁maim	-11.1534
▁interest	-11.1546
▁gawv	-11.1562
▁2008	-11.1564
▁xwj	-11.1565
▁nyaab	-11.1567
▁called	-11.1567
▁rais	-11.1568
kub	-11.1576
▁generation	-11.159
▁Department	-11.1602
▁Santa	-11.1603
nub	-11.1604
▁pojntxoog	-11.1605
▁international	-11.1605
▁ALL	-11.1606
▁PK	-11.1608
▁nraab	-11.161
▁1980	-11.1612
▁MA	-11.1621
▁ny	-11.1625
▁hehehe	-11.1626
▁sauv	-11.1637
Dony	-11.1638
▁rawsli	-11.1641
▁Council	-11.1643
▁paag	-11.1648
▁saibseb	-11.1659
▁yaa	-11.166
▁cale	-11.1662
▁xau	-11.1666
▁sev	-11.167
▁kaag	-11.168
▁jeeg	-11.1687
tham	-11.1688
▁MOS	-11.1692
▁OR	-11.1702
▁late	-11.1708
▁vacation	-11.1713
em	-11.1714
▁tai	-11.1724
▁TXAUS	-11.1727
▁teej	-11.1727
▁High	-11.1729
▁yawd	-11.1729
▁Ntxawm	-11.1731
▁Daim	-11.1731
▁ntswj	-11.1737
▁move	-11.1739
▁Phab	-11.1744
▁bee	-11.1753
YOG	-11.1764
▁later	-11.1768
▁Canada	-11.1769
▁Moog	-11.1771
▁hiav	-11.1775
The	-11.178
▁rag	-11.1785
tam	-11.1788
▁DEV	-11.1789
ho	-11.1802
nkawv	-11.1806
not	-11.181
▁THIS	-11.181
▁chawj	-11.1814
▁phij	-11.1815
▁fun	-11.1818
▁lolus	-11.1821
▁lwv	-11.1823
▁BE	-11.1828
▁ed	-11.1832
▁death	-11.1842
▁ntaw	-11.1845
▁might	-11.1851
▁Cheng	-11.1852
▁century	-11.1852
▁pluav	-11.1854
▁9.	-11.1859
▁Kos	-11.1864
▁kwvtijhmoob	-11.1873
..?	-11.1874
▁Chong	-11.1895
▁PAJ	-11.1896
thawj	-11.19
▁17	-11.1913
cab	-11.192
▁YT	-11.1923
▁liag	-11.1927
▁nuvntses	-11.1936
▁xejthim	-11.1936
▁baj	-11.1937
▁Haam	-11.1937
▁national	-11.1943
▁ku	-11.1952
▁And	-11.1955
▁v	-11.1965
ai	-11.1966
▁limit	-11.1967
▁NTEJ	-11.1978
▁xamphaj	-11.1978
▁Caag	-11.1978
▁possible	-11.1979
▁Sao	-11.1981
▁yoj	-11.1981
▁ntuv	-11.1982
▁txhu	-11.1984
ntawd	-11.1987
▁khuav	-11.1988
▁fai	-11.2008
▁Israel	-11.2017
▁SEB	-11.2021
▁THAM	-11.2022
▁ntxeem	-11.2022
▁thiv	-11.2029
Lis	-11.2036
▁Major	-11.2043
▁challenge	-11.2053
▁Teng	-11.2065
▁unless	-11.2066
▁When	-11.2072
▁nrag	-11.2075
nd	-11.2088
▁individual	-11.2093
xyov	-11.2102
▁Prabang	-11.2106
▁LEES	-11.2111
▁YO	-11.2111
▁CO	-11.2112
zaum	-11.2112
▁g	-11.2135
▁director	-11.2137
▁Wat	-11.215
▁living	-11.2151
▁Fwm	-11.2151
▁dead	-11.2151
▁mejthaub	-11.2152
▁suv	-11.2154
▁xyua	-11.2166
ER	-11.2167
xyoo	-11.217
▁Commander	-11.2179
▁knowledge	-11.218
▁refugee	-11.2181
▁plau	-11.2182
ntawv	-11.2187
▁Nraug	-11.2191
▁CHAWS	-11.2193
▁Cib	-11.2197
▁Noob	-11.2197
▁tomqab	-11.2209
▁Yia	-11.2209
▁MOB	-11.2214
▁agent	-11.222
▁game	-11.2223
▁agenda	-11.2223
▁father	-11.2224
▁wish	-11.2225
▁pha	-11.2233
php	-11.2235
▁QAIB	-11.2237
▁noobneej	-11.2238
▁reality	-11.2238
▁Zos	-11.224
▁promote	-11.2241
▁nqai	-11.2245
▁naab	-11.225
▁dos	-11.2254
eb	-11.2257
profit	-11.2262
▁raab	-11.2279
▁ghov	-11.228
▁Kaim	-11.2281
▁taav	-11.2281
▁Nyuj	-11.2285
▁Have	-11.229
▁Toj	-11.2291
ment	-11.2301
▁KO	-11.2305
▁ZAUM	-11.2306
▁KM	-11.2312
▁ntshiab	-11.2325
▁caab	-11.2332
niag	-11.2338
▁lawj	-11.235
txhua	-11.235
▁christian	-11.2358
LOS	-11.2359
▁vaajmung	-11.2367
▁Mim	-11.2369
▁everything	-11.2369
▁Nyias	-11.2371
▁Paub	-11.2373
▁Ana	-11.2385
haus	-11.2395
▁xya	-11.2402
????	-11.2403
▁view	-11.2404
▁La	-11.2405
▁kaujruam	-11.2412
▁nyaav	-11.2412
▁while	-11.2414
▁roog	-11.2414
▁dlag	-11.2416
▁either	-11.2417
▁step	-11.2421
▁today	-11.2422
▁former	-11.2425
▁Loj	-11.2431
▁??	-11.2442
og	-11.2443
▁become	-11.2445
▁ncho	-11.2446
▁ntis	-11.2456
▁KHO	-11.2458
▁kavliam	-11.2459
▁zoox	-11.2463
pheej	-11.2482
dr	-11.2485
▁behind	-11.25
▁yingb	-11.2501
▁ceevfaj	-11.2501
▁suavdaws	-11.2502
▁lulug	-11.2503
▁security	-11.2503
▁talking	-11.2504
▁Catholic	-11.2504
▁Tiag	-11.2505
▁nplig	-11.2506
▁son	-11.2507
dej	-11.2511
tias	-11.2514
▁rule	-11.2534
▁DAIM	-11.2547
▁dheev	-11.2548
▁Yaweh	-11.2549
▁nyuav	-11.2551
▁record	-11.2554
ES	-11.2555
aub	-11.2557
24	-11.2561
behmong	-11.2561
▁Hin	-11.2561
▁dis	-11.2563
hlub	-11.2569
▁lead	-11.2579
▁q	-11.2579
▁LOLz	-11.258
▁Puj	-11.2583
▁Meliskas	-11.2591
tsev	-11.2592
▁tshooj	-11.2595
▁khua	-11.2601
▁di	-11.2617
▁xaab	-11.2629
▁txhuam	-11.2632
▁npaumli	-11.2636
▁nkig	-11.2639
▁3)	-11.264
▁military	-11.264
▁LIAM	-11.2643
▁mental	-11.2643
▁walk	-11.2652
▁das	-11.267
32	-11.2675
ws	-11.2677
Mong	-11.2679
▁nice	-11.2682
▁voos	-11.2683
▁PIAV	-11.2683
▁KUB	-11.2687
▁Nag	-11.2687
▁die	-11.2702
▁kill	-11.2714
▁within	-11.2716
▁pig	-11.2716
▁TY	-11.2718
tsua	-11.2719
▁tem	-11.2722
Lqy	-11.2725
▁yod	-11.2729
▁tiamsid	-11.2731
▁laajxeeb	-11.2732
▁nib	-11.2735
liab	-11.2743
awv	-11.2744
▁ncaus	-11.2745
loj	-11.2757
▁qhaj	-11.2772
dag	-11.2773
▁TIJ	-11.2774
▁France	-11.2774
▁positive	-11.2776
▁lostsuas	-11.2777
tas	-11.2784
▁xo	-11.2809
neej	-11.2811
▁head	-11.2812
▁event	-11.282
▁HNOV	-11.2821
▁dlov	-11.2821
▁rwg	-11.2823
▁YOUR	-11.2823
▁once	-11.2824
▁hwb	-11.2824
▁dabqhuas	-11.2828
▁tsuab	-11.2829
▁Cab	-11.2831
▁Cam	-11.2839
▁puaj	-11.2842
▁DO	-11.2852
▁citizen	-11.2854
Zhen	-11.2864
▁COOB	-11.2865
▁dlim	-11.2865
▁Lyfoung	-11.2866
▁stay	-11.2868
▁VajNcuab	-11.2869
▁xej	-11.287
▁Nub	-11.287
▁ntshis	-11.2871
▁dony	-11.2877
▁lej	-11.289
▁stand	-11.29
▁rest	-11.2903
▁NH	-11.2909
▁complain	-11.2909
▁questions	-11.291
▁CAN	-11.2912
▁maiv	-11.2914
40	-11.2919
▁health	-11.292
▁thinking	-11.2921
▁SO	-11.2932
▁rhu	-11.2952
▁5000	-11.2957
TseemYeej	-11.2958
▁YEEM	-11.2959
▁Mojthem	-11.2959
▁Blong	-11.296
▁Co	-11.296
▁instead	-11.296
▁Lig	-11.2962
▁qia	-11.2971
▁yuv	-11.2972
ag	-11.2973
▁camp	-11.2973
▁daw	-11.2975
▁lawg	-11.2982
▁Sov	-11.2982
▁7-8	-11.2983
▁txhaa	-11.2986
qab	-11.2988
▁qeeg	-11.2992
bh	-11.2993
▁nqug	-11.3007
▁Hauj	-11.3007
▁fuam	-11.3008
▁mung	-11.3012
▁plus	-11.3012
▁Ntxhais	-11.3014
▁Tas	-11.3026
▁short	-11.3033
▁statement	-11.304
▁phas	-11.3047
▁voj	-11.3051
▁Askiv	-11.3053
▁since	-11.3055
▁QW	-11.3066
▁fund	-11.3068
10	-11.307
▁vimhlub	-11.3076
▁clear	-11.3088
▁Phas	-11.31
▁Phu	-11.3101
▁caaj	-11.3102
▁50%	-11.3102
▁Xus	-11.3105
ED	-11.3106
▁By	-11.3106
▁hawv	-11.3108
▁guys	-11.3112
▁pwg	-11.3115
▁tseb	-11.3122
▁offer	-11.3125
▁WE	-11.313
▁regard	-11.3136
▁NPUA	-11.314
▁xus	-11.3145
▁lpd	-11.3147
▁nteeg	-11.315
▁Sunday	-11.315
▁interesting	-11.3153
▁HH	-11.3157
▁Kham	-11.3178
▁anti	-11.3179
tabsis	-11.3184
▁nod	-11.3185
muag	-11.3186
▁Milwaukee	-11.3196
▁Touby	-11.3197
▁vue	-11.3198
▁moslwj	-11.3199
▁fee	-11.3205
hahahaha	-11.3209
▁groups	-11.321
▁tuj	-11.3221
▁Is	-11.3225
ion	-11.3242
▁MEEJ	-11.3244
▁qoog	-11.3245
▁TSOV	-11.3245
▁phiam	-11.3246
▁Nyas	-11.3247
▁xev	-11.3248
▁Tamsis	-11.3252
▁TES	-11.3256
▁Re	-11.3256
▁BUT	-11.3275
▁marriage	-11.3281
▁child	-11.3293
▁Tseemfwv	-11.3293
▁lhub	-11.3293
▁Friday	-11.3293
▁Xeng	-11.3294
▁Yeeg	-11.3294
▁TXWV	-11.3295
▁ntsaum	-11.3295
▁Pog	-11.3298
▁Mes	-11.3304
▁ibtug	-11.3306
during	-11.3312
▁decision	-11.3328
▁yo	-11.3332
▁lake	-11.3333
▁Pham	-11.3333
▁hlaa	-11.3334
▁deal	-11.3337
▁AK	-11.3339
wg	-11.3339
iOC	-11.3341
▁children	-11.3342
▁YUG	-11.3342
▁yexus	-11.3345
▁Cawv	-11.3345
▁Maum	-11.3348
▁dam	-11.3351
▁khuaj	-11.3353
xwm	-11.3358
)...	-11.3366
▁iav	-11.3375
▁feeling	-11.3382
IG	-11.3386
▁park	-11.339
meC	-11.339
▁Khwb	-11.3391
▁Khab	-11.3392
▁told	-11.3392
▁Xob	-11.3395
▁ntsaj	-11.3399
▁tony	-11.3404
▁daus	-11.3406
▁ciasiab	-11.3408
▁ka	-11.341
aj	-11.3414
▁txum	-11.3416
▁traitor	-11.3432
hu	-11.3432
▁1960	-11.3434
▁Asmeskas	-11.3439
▁KWV	-11.344
▁1976	-11.344
▁ntiab	-11.3444
if	-11.3445
▁maybe	-11.3445
▁fuabtais	-11.3446
▁Moobleeg	-11.3446
kas	-11.3455
▁nrav	-11.3457
mam	-11.3468
▁guy	-11.3475
▁Well	-11.3488
▁Txus	-11.3489
▁CEG	-11.3489
▁Vib	-11.3489
▁CIAJ	-11.3492
▁article	-11.3497
▁luab	-11.3502
▁thi	-11.351
▁ntos	-11.3516
dawb	-11.352
▁act	-11.353
▁sibpab	-11.3534
▁NTEV	-11.3537
▁However	-11.3537
▁Vaam	-11.3538
geC	-11.3538
▁focus	-11.3539
▁nyug	-11.3541
▁ntseeb	-11.3546
▁Fue	-11.3546
▁tagkis	-11.3546
▁Here	-11.3546
ntse	-11.3547
▁70	-11.3548
▁namtxiv	-11.3556
▁knows	-11.3556
▁phuv	-11.3569
▁tshob	-11.3585
▁page	-11.3585
▁negative	-11.3588
▁She	-11.3589
▁iblub	-11.359
▁zias	-11.3593
law	-11.3596
Ib	-11.3598
ther	-11.3599
▁meeg	-11.3604
▁Xam	-11.3608
▁Kiab	-11.361
▁lwg	-11.3611
▁vs	-11.3614
▁Ntse	-11.3621
▁committee	-11.3625
▁science	-11.3627
▁book	-11.363
▁normal	-11.3636
▁LEM	-11.3639
▁white	-11.3642
LY	-11.366
tawm	-11.3664
zog	-11.3664
▁thev	-11.3677
▁naag	-11.3685
▁soon	-11.3685
▁PEM	-11.3688
▁txheev	-11.3689
▁loojceeb	-11.3689
▁pheev	-11.369
▁oh	-11.3693
▁tshis	-11.3695
▁khuab	-11.3698
▁losmas	-11.3701
▁ONE	-11.3704
▁simple	-11.3732
▁easy	-11.3739
▁Xws	-11.3739
▁PajTsab	-11.374
▁Nruas	-11.374
▁Chee	-11.3741
▁Tebchaws	-11.3742
▁claimed	-11.3743
▁thaibteb	-11.3744
▁xuam	-11.3747
▁start	-11.3756
▁xoo	-11.3759
▁Hahahaha	-11.3764
▁npluav	-11.3764
;&	-11.3765
▁KAV	-11.3767
▁test	-11.3771
▁belief	-11.378
▁npojyaig	-11.3788
▁CEEB	-11.3789
▁charlie	-11.3789
▁pawv	-11.3791
▁qeg	-11.3791
▁npuj	-11.3793
▁personally	-11.3793
▁qhauv	-11.38
▁phub	-11.3814
txawj	-11.3822
paul	-11.3824
▁plaw	-11.3824
▁advice	-11.3827
nyiaj	-11.383
▁nras	-11.3831
▁source	-11.3831
▁bojyaig	-11.3839
▁serious	-11.3839
▁Vajlugkub	-11.384
▁eyes	-11.3844
▁Chim	-11.3849
VP	-11.3849
US	-11.3852
▁...............	-11.3855
▁36	-11.3859
▁MR	-11.3862
▁CE	-11.3872
▁qai	-11.3877
▁quag	-11.3878
▁$1	-11.3881
▁qhe	-11.3887
▁QUAV	-11.3892
▁course	-11.3893
▁ntxuv	-11.3893
▁TXHUA	-11.3897
kab	-11.3897
▁AUB	-11.3897
▁HE	-11.39
▁Dong	-11.3906
▁nig	-11.3917
▁xwbfwb	-11.3917
▁IP	-11.3926
▁represent	-11.393
▁nyhiab	-11.3942
▁101%	-11.3942
▁qhwv	-11.3942
▁NCAJ	-11.3943
▁LAIB	-11.3946
▁Tong	-11.3946
▁goes	-11.395
▁charge	-11.3959
▁yu	-11.3961
tij	-11.3968
▁result	-11.398
▁Mee	-11.3984
thank	-11.3986
▁balance	-11.3992
▁WILL	-11.3993
▁important	-11.3993
▁Krabok	-11.3994
▁lubsiab	-11.3995
▁insurance	-11.3995
▁Nong	-11.3997
▁hias	-11.3997
▁vab	-11.3997
▁grade	-11.3998
txoj	-11.3999
▁pod	-11.4001
▁fall	-11.4002
▁ibyam	-11.4003
▁faab	-11.4007
▁Nkaj	-11.4014
▁HA	-11.4018
vaj	-11.4027
▁hub	-11.4031
▁Moj	-11.4043
▁guarantee	-11.4044
▁blame	-11.4046
▁ZAB	-11.4049
▁xyav	-11.4053
▁sawb	-11.4056
▁Hmoov	-11.407
▁POOB	-11.4074
▁yogli	-11.4088
▁Npe	-11.4091
▁HU	-11.4095
▁Teck	-11.4098
▁Phaya	-11.4098
▁master	-11.41
▁nchav	-11.4102
▁nyiav	-11.4103
▁cover	-11.4105
▁rovqaab	-11.4108
yim	-11.4113
out	-11.4117
▁luav	-11.4117
▁rovlos	-11.4124
=1	-11.4131
▁Dua	-11.4132
▁tsaub	-11.4134
haum	-11.4142
14	-11.4143
▁QUAJ	-11.4151
▁nqov	-11.4152
▁tugkheej	-11.4155
▁Suab	-11.4155
▁Khao	-11.4156
▁LAJ	-11.4156
▁dawj	-11.4156
▁Hmoobdawb	-11.4159
▁original	-11.416
hauv	-11.4161
Lub	-11.4163
▁Ntu	-11.4189
▁purpose	-11.4192
▁Zuag	-11.4194
_0	-11.4195
▁hliv	-11.4201
▁Community	-11.4204
▁CARP	-11.4204
▁Ncuab	-11.4206
▁Saturday	-11.4206
▁common	-11.4206
▁jail	-11.4207
▁qabhau	-11.4208
▁pliaj	-11.4211
▁victims	-11.4211
has	-11.4212
▁refugees	-11.4222
▁tsha	-11.4224
▁2013	-11.4229
▁ntsais	-11.4233
▁NCO	-11.4235
▁90	-11.4236
▁zo	-11.4246
▁f	-11.4247
▁pastor	-11.4252
▁TUBNTSUAG	-11.4255
▁ZE	-11.4256
▁welfare	-11.4258
▁txhib	-11.4261
▁Mob	-11.4264
▁theev	-11.4275
▁hear	-11.4291
▁iv	-11.4292
▁Mis	-11.4295
▁restaurant	-11.4297
▁blood	-11.4299
▁ntsoo	-11.4305
▁guess	-11.431
▁Washington	-11.4311
▁khuvxim	-11.4311
▁Wow	-11.4313
▁WHO	-11.4313
▁cooj	-11.4318
▁phlus	-11.4331
▁qwb	-11.4337
▁thank	-11.436
▁cujpwm	-11.4364
▁Heup	-11.4365
Tub	-11.4367
▁nplim	-11.4367
▁Rog	-11.4369
▁hmov	-11.4374
▁Xieng	-11.4374
▁ncoo	-11.4375
▁pheejxeeb	-11.4377
▁TOS	-11.4382
▁Lab	-11.4383
▁hehehehehehe	-11.4397
▁speak	-11.4404
▁medal	-11.4407
▁Vp	-11.4419
▁nrhab	-11.442
▁nwj	-11.4421
▁Yawglaus	-11.4425
▁fav	-11.4426
▁Beer	-11.4427
▁TAB	-11.443
▁W	-11.4431
▁Sab	-11.4436
Ly	-11.4444
%	-11.445
▁Lug	-11.4463
▁29	-11.4464
▁jungle	-11.4474
▁LAOS	-11.4476
▁nasthis	-11.4476
▁sivyis	-11.4477
▁doesn	-11.4485
▁soob	-11.4485
▁main	-11.4488
25	-11.4492
▁serve	-11.4493
for	-11.4503
▁Can	-11.4505
un	-11.4508
man	-11.4512
▁subject	-11.4513
▁nrauv	-11.4516
▁clan	-11.4517
11	-11.4517
▁brothers	-11.4517
sawv	-11.4521
▁dob	-11.4522
▁Asmesliskas	-11.4528
▁zehn	-11.4528
▁Ceev	-11.4528
▁Melikas	-11.4528
▁Best	-11.4529
▁cassette	-11.4532
▁cultural	-11.4533
▁limhiam	-11.4535
▁Coob	-11.4535
do	-11.4537
▁Tsum	-11.454
▁See	-11.4544
▁Kaus	-11.4579
▁certain	-11.4582
▁Wausau	-11.4583
▁Chang	-11.4583
▁Tseg	-11.4584
▁zuv	-11.4585
▁plhis	-11.4585
▁26	-11.4588
▁khiab	-11.4589
▁niab	-11.459
▁chais	-11.4604
▁Hab	-11.4605
Muas	-11.4606
hab	-11.4611
▁txojsia	-11.462
▁thao	-11.4624
▁Kho	-11.4627
wm	-11.4631
▁qev	-11.4636
▁WITH	-11.4637
▁NTXIV	-11.4638
▁dance	-11.464
▁election	-11.4641
▁North	-11.4641
▁rwj	-11.4641
▁phais	-11.4644
▁sorry	-11.4644
nco	-11.4645
▁Now	-11.4646
image	-11.4659
ntawm	-11.4667
▁ni	-11.4668
▁28	-11.4671
ca	-11.4671
ic	-11.4673
chim	-11.4679
tu	-11.4689
▁tajlaj	-11.4693
▁Nyeem	-11.4693
▁Tsaav	-11.4693
▁phaab	-11.4694
▁NKAUS	-11.4694
▁Brig	-11.4695
Zoo	-11.4695
▁VAM	-11.4696
▁trying	-11.4697
Tiam	-11.4702
▁ntaux	-11.4707
▁flop	-11.4716
ke	-11.4721
▁contract	-11.4734
▁conference	-11.4737
▁NKAUJSTPAUL	-11.4749
▁XYOOJ	-11.475
▁NYABLAJ	-11.475
▁Taab	-11.475
▁making	-11.4751
▁early	-11.4751
▁medical	-11.4752
▁kids	-11.4756
hluas	-11.4758
▁wonder	-11.4776
file	-11.4777
▁moua	-11.4784
▁TAW	-11.4793
▁role	-11.4796
▁black	-11.4804
we	-11.4805
▁simply	-11.4806
nom	-11.4806
▁SGU	-11.4807
▁qhawv	-11.4808
▁pug	-11.4809
▁tamsimno	-11.481
▁sunrise	-11.481
▁Tuag	-11.4811
Hahaha	-11.4813
▁Law	-11.4827
dev	-11.483
▁Num	-11.4838
▁pws	-11.4845
▁concern	-11.4846
▁NPAUM	-11.4847
▁principle	-11.4849
▁himself	-11.4862
▁Nruag	-11.4862
▁explain	-11.4862
▁remember	-11.4863
▁NUM	-11.4863
▁Happy	-11.4864
▁Npuag	-11.4865
▁evil	-11.4867
▁sw	-11.4867
▁class	-11.487
▁19	-11.4871
▁411	-11.4874
▁ts	-11.4875
▁sivzog	-11.4876
up	-11.4888
▁dluav	-11.4889
▁maaj	-11.4891
nrog	-11.4897
/0	-11.4903
koob	-11.4904
▁service	-11.4906
▁seems	-11.4913
▁consider	-11.4916
▁HDD	-11.4918
▁went	-11.492
▁WHAT	-11.492
▁Dok	-11.4921
▁PHD	-11.4922
▁Luj	-11.4925
bH	-11.4925
**	-11.4928
iv	-11.4928
"....	-11.4944
▁kus	-11.4949
▁interview	-11.4955
▁husband	-11.4965
she	-11.4965
▁HOTEL	-11.4974
▁solve	-11.4974
▁MOG	-11.4976
▁july	-11.4976
▁koomhum	-11.4977
▁NTSHAI	-11.4978
▁xovxwm	-11.4978
▁VaajMoob	-11.4981
▁refer	-11.4996
▁pass	-11.4997
pob	-11.5007
▁120	-11.5008
▁ncaw	-11.5019
▁version	-11.5022
▁2011	-11.5025
wv	-11.503
▁PEOPLE	-11.5032
▁contact	-11.5033
▁pejkum	-11.5033
▁npliag	-11.5034
▁ncav	-11.5034
▁earth	-11.5035
quav	-11.5035
▁Royal	-11.504
▁muj	-11.5049
nkauj	-11.505
▁Mos	-11.5051
▁Who	-11.5057
▁hlos	-11.5066
▁lubneej	-11.5069
mob	-11.5073
▁NEOHOM	-11.5091
▁process	-11.5091
▁POJNIAM	-11.5092
▁Ntxim	-11.5092
▁house	-11.5092
▁Pajyeeb	-11.5093
▁TSHIAB	-11.5093
▁jib	-11.5094
▁txhub	-11.5097
neb	-11.5113
▁sharing	-11.5129
▁th	-11.5143
▁though	-11.5145
xx	-11.5148
▁Tzexa	-11.515
▁Xang	-11.515
▁cancer	-11.515
▁dlejnum	-11.5151
▁NYUJ	-11.5151
▁RAUG	-11.5152
▁Vibnais	-11.5153
▁dlog	-11.5155
▁however	-11.5156
▁Jan	-11.5171
LAWM	-11.5183
▁tsus	-11.5188
▁food	-11.5207
▁Thornspear	-11.5208
▁tsos	-11.5208
▁YAWM	-11.5209
▁MAUM	-11.521
▁fire	-11.5211
▁kaasmoos	-11.5211
▁crazy	-11.5212
▁zas	-11.5217
▁npoo	-11.5218
▁coobx	-11.5219
▁HAVE	-11.522
neeb	-11.5222
that	-11.5224
▁ntxhib	-11.5229
▁txojcai	-11.5234
▁chao	-11.5235
▁thais	-11.5237
▁Thorns	-11.5238
▁repeat	-11.5253
▁leeb	-11.5263
▁Idonotknow	-11.5265
▁Cher	-11.5266
▁Michigan	-11.5267
▁nature	-11.5268
▁won	-11.5268
▁yawgnomdub	-11.5269
▁Yaam	-11.5269
▁Lue	-11.527
▁KOOM	-11.5271
▁among	-11.5273
▁Liaj	-11.5274
▁involve	-11.5274
▁created	-11.5274
KOM	-11.5291
▁At	-11.5293
oib	-11.5294
▁sibhaum	-11.5295
▁willing	-11.5301
co	-11.5324
▁haavzoov	-11.5326
▁txajmuag	-11.5327
rd	-11.5327
▁happened	-11.5328
▁Hehehe	-11.5328
▁SAUB	-11.5329
▁comes	-11.5329
seb	-11.533
▁LE	-11.5336
▁tagx	-11.5338
▁covlus	-11.5343
la	-11.5351
▁Them	-11.5353
▁Any	-11.5364
nov	-11.5366
▁MD	-11.5371
nwg	-11.5377
▁thia	-11.5377
LqZ	-11.5381
▁Phau	-11.5381
▁txiab	-11.5384
▁Tubcajceszoo	-11.5385
▁worry	-11.5386
▁PLIG	-11.5386
▁lagluam	-11.5386
▁Toog	-11.5387
▁ncaig	-11.5387
▁asked	-11.5388
▁fij	-11.5389
▁koog	-11.5396
▁Madison	-11.54
pa	-11.5402
"?	-11.5403
▁War	-11.5403
▁08	-11.5405
▁pau	-11.5423
▁professor	-11.5432
▁politician	-11.5434
▁Again	-11.5445
▁YajTshajKoob	-11.5446
▁Ambassador	-11.5447
▁clean	-11.5447
▁Naikong	-11.5447
▁Court	-11.5448
▁com	-11.5448
▁MESKAS	-11.5448
▁lives	-11.5451
▁yeeg	-11.5452
na	-11.5455
▁Hmoobsib	-11.5455
▁qhaub	-11.546
▁meet	-11.5462
▁NY	-11.547
▁thom	-11.5482
▁nwslub	-11.5489
▁300	-11.5497
▁paam	-11.5498
PM	-11.55
▁kha	-11.5501
▁States	-11.5502
▁SWB	-11.5505
▁TAIS	-11.5506
▁Buddha	-11.5507
▁TIB	-11.5507
▁Sunrise	-11.5508
▁Hmoobvajusa	-11.5508
▁PHOM	-11.5508
▁heaven	-11.5509
▁license	-11.551
▁Hahahahaha	-11.5524
NO	-11.553
▁dau	-11.5535
dua	-11.5546
▁BA	-11.5558
▁reasons	-11.5563
▁Merced	-11.5566
▁QUB	-11.5567
---------------	-11.5568
▁PhD	-11.557
▁From	-11.5571
▁Tubntsuag	-11.5573
▁xoob	-11.5574
▁dia	-11.558
-28	-11.5589
▁seconds	-11.559
▁Iab	-11.5592
▁Tshum	-11.5594
▁Chi	-11.5606
▁www	-11.5607
28	-11.561
▁nrhia	-11.5616
▁dollar	-11.5617
▁detail	-11.5619
▁leave	-11.562
▁RHIAB	-11.5626
▁TsoobNiam	-11.5626
▁ibleeg	-11.5627
▁Nkias	-11.5629
▁Education	-11.563
▁students	-11.5633
Suav	-11.5634
▁Vag	-11.5643
▁IF	-11.5663
oob	-11.5663
uj	-11.5682
▁needs	-11.5683
yeeb	-11.5685
▁Nyaablaaj	-11.5688
▁LAURA	-11.5689
▁HLOB	-11.569
▁phob	-11.5691
▁Keeb	-11.5691
▁Thiaj	-11.5692
▁MAJ	-11.5693
▁Tis	-11.5699
▁relationship	-11.5703
▁kawmntawv	-11.5709
▁ON	-11.571
tua	-11.5716
▁qhiav	-11.5716
▁One	-11.5724
▁SI	-11.573
▁qhob	-11.5732
▁moral	-11.574
▁joke	-11.5741
▁correct	-11.5744
▁expect	-11.5749
▁Nancy	-11.5751
▁hmantsuab	-11.5751
▁Las	-11.5752
▁THOJ	-11.5753
▁wisdom	-11.5754
▁6-7	-11.5757
laj	-11.5757
▁qig	-11.5758
▁Chinese	-11.5758
▁paiv	-11.5758
▁txwb	-11.5759
▁similar	-11.5759
▁CAV	-11.5766
▁NAS	-11.5784
▁nuam	-11.5785
▁1979	-11.5787
▁bo	-11.5789
-6	-11.5792
hnov	-11.5795
▁equal	-11.5799
▁return	-11.5803
▁hnug	-11.5813
▁npib	-11.5813
▁GOOD	-11.5813
▁madison	-11.5814
▁maab	-11.5816
▁chaofa	-11.5816
▁qabzib	-11.5819
▁Dluag	-11.582
▁left	-11.5821
▁yej	-11.5823
▁watch	-11.5824
Luag	-11.5827
▁khom	-11.5837
▁GO	-11.584
▁lwmtus	-11.5856
edit	-11.5866
de	-11.5871
▁Asian	-11.5872
index	-11.5874
▁Txawjvamyias	-11.5874
▁koomtsihaum	-11.5874
▁HAWM	-11.5875
▁enemy	-11.5875
▁busy	-11.5876
▁iabliam	-11.5876
▁rather	-11.5877
▁NTSHE	-11.5878
rov	-11.5881
▁based	-11.5881
▁xawb	-11.5884
▁Vas	-11.5884
▁loog	-11.5885
▁poor	-11.589
koom	-11.5896
▁miao	-11.5897
cias	-11.5901
nplog	-11.5911
▁03	-11.5916
▁intention	-11.592
▁bau	-11.5922
▁mai	-11.5924
▁txhias	-11.5928
▁due	-11.5929
▁center	-11.593
▁ZOS	-11.5937
▁forward	-11.5938
▁save	-11.5938
▁NUG	-11.5939
▁South	-11.5939
▁sas	-11.5939
.."	-11.5939
▁Nyuam	-11.5939
▁xwmtxheej	-11.594
LAWV	-11.594
▁nkawg	-11.594
▁full	-11.5942
cai	-11.5943
▁Tshiab	-11.5944
▁theory	-11.5944
pao	-11.5945
▁Khu	-11.5953
▁tswg	-11.5955
KOJ	-11.5956
▁ntsees	-11.5966
si	-11.5972
▁kooj	-11.5978
te	-11.5978
▁Hi	-11.5987
!"	-11.5993
▁ntxhuv	-11.6
▁present	-11.6001
▁plhuav	-11.6001
▁Naiphom	-11.6002
▁california	-11.6002
▁summer	-11.6002
▁natural	-11.6003
▁forget	-11.6003
▁LAUJ	-11.6003
▁Kuas	-11.6008
▁tsug	-11.601
▁deg	-11.601
▁HAUM	-11.6014
▁UNPO	-11.6033
▁buy	-11.6049
▁davhlau	-11.6052
▁tubsab	-11.6052
▁yauj	-11.6056
ee	-11.6061
▁Kheev	-11.6062
▁stabbing	-11.6064
▁Beach	-11.6064
▁pheem	-11.6065
▁Ywj	-11.6066
▁rhais	-11.6067
▁hmuv	-11.6068
▁Faiv	-11.6068
▁phiv	-11.6069
▁THEY	-11.6071
▁npis	-11.6074
hau	-11.6078
▁Dec	-11.6084
▁comments	-11.6088
▁45	-11.6097
▁nt	-11.6098
▁kuav	-11.6112
taws	-11.6113
▁affair	-11.6118
▁style	-11.6121
▁force	-11.6128
▁Thong	-11.613
▁pressure	-11.613
▁thuj	-11.6132
▁ideas	-11.6159
▁win	-11.617
dhau	-11.6173
▁smile	-11.6174
ation	-11.6175
▁Zam	-11.6175
▁ty	-11.6178
▁train	-11.6179
▁account	-11.6179
▁Chai	-11.618
▁ex	-11.6182
thaub	-11.6184
▁standard	-11.6187
▁nros	-11.6187
▁nee	-11.6188
▁Ying	-11.6188
ma	-11.619
▁attention	-11.6193
▁NRAM	-11.6193
▁tswjfwm	-11.6193
▁NTXHAIS	-11.6194
▁TXOM	-11.6194
▁Sawm	-11.6195
▁parents	-11.6196
▁ncab	-11.6197
▁Green	-11.6197
▁Hwm	-11.6197
▁naiphoo	-11.6198
▁tshaw	-11.6198
▁mojthem	-11.6199
▁HAV	-11.62
!!!!!	-11.6201
txwv	-11.6205
▁NTSIB	-11.6206
▁saam	-11.621
▁muskawm	-11.6213
▁KAB	-11.6213
%20	-11.6218
ze	-11.623
IB	-11.6231
uv	-11.6238
▁bye	-11.6246
▁ntswv	-11.625
▁MI	-11.625
90	-11.6256
▁pobntseg	-11.6259
▁Cobtsib	-11.6259
▁Kaj	-11.6261
▁thawv	-11.6261
▁xeb	-11.6262
▁maamle	-11.6262
▁vaajtswv	-11.6263
▁ntxia	-11.6265
this	-11.6265
▁Vajpov	-11.6266
▁yaiv	-11.6266
▁niajhnub	-11.6267
▁ntsaig	-11.627
posting	-11.6276
▁Meej	-11.6277
▁loob	-11.6283
hom	-11.6288
▁hahahahahahaha	-11.6289
▁major	-11.6289
▁Xa	-11.629
▁pre	-11.6292
seC	-11.6294
.............	-11.6305
▁thaumtwg	-11.6309
LUB	-11.6311
▁cousin	-11.6312
▁dlai	-11.6316
sa	-11.6316
▁build	-11.6322
ev	-11.6323
▁CSY	-11.6324
▁bias	-11.6325
▁December	-11.6327
▁City	-11.6327
▁majority	-11.6331
▁tuskheej	-11.6333
usp	-11.6337
nam	-11.6342
Hais	-11.6343
▁flip	-11.6343
▁xas	-11.6349
▁ph	-11.6353
▁Vieng	-11.6354
▁1972	-11.6355
▁Houa	-11.6355
my	-11.637
▁Right	-11.6377
▁Board	-11.6377
▁Npua	-11.6389
▁themselves	-11.6389
▁Be	-11.6389
▁TSAUG	-11.639
▁$100	-11.639
▁Inc	-11.6391
▁Paab	-11.6391
▁small	-11.6391
▁dhos	-11.6402
nyuj	-11.6411
▁dhla	-11.6421
tshuav	-11.6424
▁ntxhua	-11.6427
▁dlu	-11.6427
▁tibsis	-11.6442
▁couple	-11.6444
▁haislus	-11.6449
▁having	-11.645
▁tshos	-11.6451
▁taamsim	-11.6455
▁Army	-11.6456
▁SIJ	-11.6457
▁Sorry	-11.6458
▁miles	-11.646
▁yaug	-11.6464
▁Phia	-11.6467
lawd	-11.6467
▁East	-11.6468
▁Hav	-11.6469
what	-11.6474
▁Tswj	-11.6477
%3	-11.6479
▁ntw	-11.6479
iab	-11.6497
▁site	-11.6501
▁Dlha	-11.6506
▁oib	-11.6516
▁tuabyaam	-11.6523
▁mavtais	-11.6523
▁compromise	-11.6524
▁Xauv	-11.6525
▁snow	-11.6526
▁Phiab	-11.6527
amp	-11.6528
▁French	-11.6532
▁Youa	-11.6535
▁month	-11.6539
Txiv	-11.6542
▁yi	-11.655
▁niamyau	-11.6555
gOC	-11.6556
HOV	-11.656
▁swm	-11.6566
▁27	-11.6569
▁problems	-11.658
▁Liajdawb	-11.6589
▁Detroit	-11.6589
▁qov	-11.659
▁XAIV	-11.659
▁ntaubntawv	-11.6591
▁David	-11.6591
▁cheeb	-11.6591
▁meejpem	-11.6592
▁March	-11.6593
▁HLWB	-11.6593
▁ywv	-11.6594
▁cell	-11.6598
▁xais	-11.6607
▁economic	-11.6607
▁seen	-11.6609
mong	-11.6614
IA	-11.6621
▁1-	-11.6621
▁BS	-11.6633
▁nw	-11.6643
▁Sommer	-11.6644
▁Not	-11.6648
▁Toulia	-11.6653
tog	-11.6654
est	-11.6655
num	-11.6656
▁authority	-11.6656
▁nqhuab	-11.6656
▁Muastony	-11.6657
▁ceebtsheej	-11.6657
▁ZAUG	-11.6657
▁xyeem	-11.6659
▁cheej	-11.6659
▁Prime	-11.6659
▁didn	-11.6662
▁SYS	-11.6663
▁Koua	-11.6668
▁mn	-11.6681
▁thuv	-11.6694
............	-11.6699
▁update	-11.6721
▁Bill	-11.6723
Txawm	-11.6726
▁Police	-11.6726
▁ONLY	-11.6728
▁LUG	-11.673
▁txoob	-11.6733
▁looking	-11.6733
▁nkaub	-11.6737
▁Nus	-11.6738
▁tsiag	-11.6741
▁rev	-11.6749
▁info	-11.6751
▁tsoov	-11.676
▁Sua	-11.676
▁close	-11.6778
▁include	-11.6778
▁Pubthawj	-11.6793
▁protect	-11.6793
▁LosTsuas	-11.6793
▁TSAV	-11.6794
▁York	-11.6794
▁TXAWM	-11.6794
▁tshiaj	-11.6795
▁Tswvyim	-11.6796
▁Monday	-11.6796
▁KHIB	-11.6797
▁Haub	-11.6797
▁roos	-11.6798
▁Oib	-11.6798
▁except	-11.6807
▁TIAMSIS	-11.681
▁Noi	-11.6813
▁PH	-11.6818
hlob	-11.6828
browse	-11.6828
▁Meb	-11.6831
▁thauv	-11.6833
xws	-11.684
▁nqia	-11.6841
▁ticket	-11.6849
▁discussion	-11.685
hehehehe	-11.6855
▁card	-11.6856
▁KAVLIAM	-11.6862
▁market	-11.6862
▁Xibfwb	-11.6863
▁Vws	-11.6863
▁DKJ	-11.6863
▁10%	-11.6865
▁middle	-11.6867
▁PDR	-11.6868
▁TSUAS	-11.6869
▁nphoo	-11.6883
reC	-11.6883
▁civ	-11.6885
hl	-11.6886
▁Iha	-11.6888
dub	-11.6892
▁kig	-11.6892
▁laum	-11.6894
kho	-11.6912
▁dla	-11.6924
▁QEEJ	-11.6931
▁NUV	-11.6932
▁Diego	-11.6932
▁cheb	-11.6932
▁Hli	-11.694
▁kwvtxhiaj	-11.694
▁listen	-11.6942
▁key	-11.6943
ej	-11.6947
▁wants	-11.695
▁Toua	-11.6951
Yuav	-11.6954
▁vajmoob	-11.6954
UA	-11.6955
▁trau	-11.6957
▁ntoj	-11.6967
kwvtij	-11.6968
▁hurt	-11.6985
▁strong	-11.6992
▁MY	-11.6998
▁ntxo	-11.6999
▁super	-11.7001
▁koobhmoov	-11.7002
▁alone	-11.7003
▁write	-11.7004
▁yong	-11.7004
▁clarify	-11.7005
▁vav	-11.7007
▁MOV	-11.7022
sharing	-11.7024
91	-11.7046
▁cost	-11.7048
▁hlav	-11.706
▁officer	-11.7062
▁Embassy	-11.7072
▁txiavtxim	-11.7072
▁Jerry	-11.7073
▁Wayne	-11.7073
▁npub	-11.7075
▁November	-11.7076
▁NOOB	-11.7076
▁lawbdab	-11.7076
▁less	-11.7077
▁Vietnamese	-11.7077
▁txheebze	-11.7077
▁Cuab	-11.7078
▁nquam	-11.708
▁hluasnkauj	-11.7086
▁single	-11.7086
30	-11.7087
Hnub	-11.7096
ity	-11.7106
▁ple	-11.711
taw	-11.7116
▁10.	-11.7116
▁Ncu	-11.7122
▁Even	-11.7124
▁terrorist	-11.7135
▁Nceb	-11.7143
▁Rock	-11.7143
▁npug	-11.7144
▁npuag	-11.7145
▁CAWM	-11.7145
less	-11.7145
▁according	-11.7148
▁xh	-11.7149
▁OUR	-11.7149
▁90%	-11.715
▁base	-11.715
▁Kum	-11.7151
▁suam	-11.716
▁nrob	-11.7168
nt	-11.7182
aW	-11.7184
▁press	-11.7186
▁Saint	-11.7202
▁23	-11.7202
▁vib	-11.7205
▁taubhaus	-11.7208
▁Listhoj	-11.7215
▁nthab	-11.7216
▁xyomcuab	-11.7216
▁Chief	-11.7217
▁Nqq	-11.7217
▁Txivneej	-11.7217
▁water	-11.7223
▁phuaj	-11.7225
▁dawg	-11.7225
▁gain	-11.7234
▁safe	-11.7237
▁search	-11.7238
Nyob	-11.7239
▁bua	-11.7239
Yus	-11.7242
▁LT	-11.7252
▁nraub	-11.7262
▁Mi	-11.727
▁Phoos	-11.7274
▁Social	-11.7277
▁hold	-11.7285
▁bla	-11.7285
▁casino	-11.7286
▁exactly	-11.7286
▁Amekas	-11.7286
▁penny	-11.7288
▁LEEG	-11.7289
▁LUAJ	-11.7289
▁toward	-11.729
▁writing	-11.7292
▁blooj	-11.7311
▁dluag	-11.7314
▁auv	-11.7318
▁khoov	-11.7328
▁hleb	-11.7331
▁xw	-11.7333
▁pai	-11.7345
▁tsaib	-11.7346
▁compare	-11.7347
▁PLOJ	-11.7351
▁32	-11.7355
▁shall	-11.7358
▁TSUJ	-11.7358
▁Blogliab	-11.7359
ieC	-11.7359
▁4)	-11.7359
▁Yesus	-11.7359
▁Noogqejqawg	-11.736
▁TEEB	-11.736
▁QOS	-11.736
▁Hnubkaj	-11.7362
▁nyiab	-11.7363
▁Khej	-11.7363
▁Toom	-11.7364
▁paws	-11.7364
▁whatever	-11.7367
communist	-11.737
▁stated	-11.7372
▁Bis	-11.7383
▁lawyers	-11.7397
▁direct	-11.7408
▁npauv	-11.7419
▁yiag	-11.7424
rog	-11.7427
▁listhoj	-11.7429
▁RTG	-11.7431
▁Political	-11.7432
▁Dablaug	-11.7434
▁technology	-11.7435
▁written	-11.7435
▁qaus	-11.7436
▁wait	-11.7436
▁dirty	-11.7436
▁along	-11.7436
▁haumxeeb	-11.7441
▁dlav	-11.7441
...............	-11.7449
Txhob	-11.7458
Born	-11.7458
▁Bro	-11.746
▁TIAM	-11.7476
▁connection	-11.7491
▁Veteran	-11.7492
▁brain	-11.7495
74	-11.7501
▁propaganda	-11.7505
▁NYUAM	-11.7505
▁TSAWG	-11.7506
▁Bravo	-11.7506
▁HND	-11.7508
▁ZEB	-11.7509
▁PIV	-11.7509
▁HAB	-11.7509
▁Ntxwj	-11.7509
▁ntsag	-11.751
▁et	-11.7521
▁plua	-11.7525
▁took	-11.753
▁hands	-11.7531
▁saus	-11.7536
▁khauj	-11.7537
▁Tsu	-11.755
▁10,000	-11.7567
▁Qee	-11.7573
▁sawdaws	-11.7579
▁Anyway	-11.758
▁yesxus	-11.758
▁dkj	-11.7581
▁inside	-11.7581
▁TOOJ	-11.7581
▁zuav	-11.7581
▁thabham	-11.7582
▁5-10	-11.7583
▁cug	-11.7583
▁MEV	-11.7585
▁thiav	-11.7587
▁txeev	-11.7587
▁kham	-11.7591
Niam	-11.7603
ry	-11.7612
▁file	-11.7626
▁tshom	-11.7631
▁congress	-11.7633
▁label	-11.7638
▁fit	-11.7644
▁race	-11.7646
▁Koobmeej	-11.7654
▁screen	-11.7656
▁Minneapolis	-11.7656
▁Date	-11.7657
sau	-11.7658
▁HLUAS	-11.7658
▁trust	-11.766
▁SIS	-11.7662
▁ntsav	-11.7663
▁phaw	-11.7663
▁lack	-11.7663
▁educated	-11.7665
▁txoov	-11.7665
▁Nchaiv	-11.7671
▁tsheeb	-11.7671
▁txu	-11.7689
▁media	-11.7695
▁pheeb	-11.7699
▁%	-11.7715
19	-11.7716
00	-11.7719
▁expert	-11.772
▁poo	-11.7722
▁KHEEJ	-11.7729
▁Surithay	-11.7729
▁innocent	-11.773
▁strategy	-11.7731
▁Think	-11.7732
▁CEV	-11.7732
▁KHIAV	-11.7734
▁mother	-11.7736
▁Doua	-11.7742
▁kee	-11.7743
▁caam	-11.7754
puab	-11.7754
▁Leng	-11.7755
▁-"	-11.7756
qaib	-11.7761
▁Are	-11.7763
▁meant	-11.7766
▁Txiabneeb	-11.7767
▁ncha	-11.7787
▁bill	-11.7794
sitebuilder	-11.7804
▁koo	-11.7805
▁TXAWV	-11.7805
▁Xyas	-11.7806
▁mouth	-11.7806
▁myself	-11.7806
▁Sivyis	-11.7807
▁nrub	-11.7808
▁asthiv	-11.7808
▁nploj	-11.7808
▁txujsa	-11.7809
▁txhaub	-11.781
▁Tua	-11.7815
▁working	-11.7818
▁whe	-11.782
las	-11.7824
▁khauv	-11.7831
all	-11.7839
▁pham	-11.7841
▁ntaws	-11.7845
▁town	-11.7852
▁Cav	-11.786
▁qabteb	-11.7863
ko	-11.7867
▁thav	-11.7868
▁ways	-11.787
▁trip	-11.787
▁Nhia	-11.787
▁crime	-11.7871
▁Fuabtais	-11.7872
▁visit	-11.7879
▁Association	-11.7881
▁txhooj	-11.7881
▁Cambodia	-11.7882
▁lso	-11.7882
▁Lisfoom	-11.7882
▁ban	-11.7882
▁DAV	-11.7883
▁Souphanouvong	-11.7883
▁TIME	-11.7884
▁laab	-11.7886
▁ploog	-11.7887
▁declare	-11.7904
ug	-11.7906
just	-11.7911
▁tswvntuj	-11.7913
▁mig	-11.7917
▁Phabmab	-11.7917
meej	-11.7917
▁organizations	-11.7926
▁poobsiab	-11.7927
▁2009	-11.7932
▁table	-11.7943
▁11.	-11.7944
▁tshov	-11.7954
ovtshua	-11.7957
▁low	-11.7957
▁logic	-11.7958
▁directly	-11.7958
▁investigate	-11.796
▁carry	-11.7961
▁define	-11.7961
▁gab	-11.7961
▁txeej	-11.7961
▁religious	-11.7964
▁VajTswv	-11.7964
▁events	-11.7982
drive	-11.7985
55	-11.8
▁phoom	-11.8005
teg	-11.8012
▁ceslawv	-11.8013
-5,	-11.8019
▁intellectual	-11.8028
▁PW	-11.8028
zeb	-11.8033
▁break	-11.8035
▁further	-11.8035
▁LoojCeeb	-11.8037
▁study	-11.8037
▁Summer	-11.8038
▁county	-11.8038
▁sister	-11.8038
▁Christianity	-11.8039
▁Pej	-11.8039
eng	-11.8039
▁PIB	-11.804
▁minnesota	-11.804
▁nkaws	-11.8041
▁HUMAN	-11.8043
▁LAO	-11.8049
▁sibcav	-11.8051
▁eat	-11.8052
▁hate	-11.8064
ew	-11.8067
khiav	-11.8068
ny	-11.807
▁PRO	-11.8075
▁tiagx	-11.8084
▁add	-11.8089
▁dee	-11.8091
▁Uas	-11.8092
▁gay	-11.8107
▁advance	-11.811
▁bro	-11.8112
▁Tsoomfwv	-11.8113
▁Appleton	-11.8114
lOC	-11.8114
▁khavtheeb	-11.8115
▁humxeeb	-11.8115
▁vajhuam	-11.8115
▁dleev	-11.8115
▁Center	-11.8115
▁status	-11.8115
▁Twg	-11.8117
▁History	-11.8117
▁HAUS	-11.8123
▁nauj	-11.8125
▁mias	-11.8128
xob	-11.8131
▁abtsi	-11.8142
!...	-11.8149
puj	-11.8153
ti	-11.8156
phem	-11.8158
▁kw	-11.8165
▁provide	-11.8165
HMOOB	-11.8167
▁Boun	-11.817
▁Sob	-11.8172
con	-11.8173
▁Koo	-11.8188
▁Chuhu	-11.819
▁News	-11.819
▁Taumdub	-11.8192
▁Oshkosh	-11.8195
▁mentality	-11.8196
▁Keep	-11.8197
▁Pub	-11.8198
▁Nev	-11.82
▁Nations	-11.8201
▁LX	-11.8201
04	-11.8202
▁sibcam	-11.8205
▁pobtw	-11.8209
▁kawb	-11.8214
pojniam	-11.8225
qub	-11.8227
▁txos	-11.8229
▁sibtua	-11.8236
▁fo	-11.8239
▁1987	-11.8239
▁soc	-11.8255
▁mee	-11.8257
▁Phong	-11.8263
▁impact	-11.8271
▁room	-11.8272
▁activities	-11.8272
▁Txug	-11.8272
▁hot	-11.8272
▁Vej	-11.8272
▁countries	-11.8272
▁Xyum	-11.8273
▁Gary	-11.8273
▁Txais	-11.8273
▁Xaab	-11.8273
▁Yoojyim	-11.8274
▁ZAJ	-11.8274
▁girl	-11.8275
▁income	-11.8275
▁reading	-11.8276
▁June	-11.8277
▁nplos	-11.8278
▁ntxwj	-11.8279
▁doog	-11.828
▁Khang	-11.8281
▁tsej	-11.8282
▁roojteb	-11.8286
ci	-11.83
yug	-11.8306
photos	-11.8314
▁huh	-11.8319
▁honor	-11.8324
▁2003	-11.8327
oh	-11.8327
▁34	-11.8328
▁Doctors	-11.833
ta	-11.833
▁2-	-11.8336
▁choose	-11.8339
hi	-11.8341
▁Khai	-11.8343
▁cut	-11.835
chaw	-11.835
▁xuvtooj	-11.8352
▁mebthaub	-11.8353
▁October	-11.8353
▁Oct	-11.8354
▁Vuag	-11.8354
▁regardless	-11.8356
▁tsimtxom	-11.8357
▁Ma	-11.8363
▁Yah	-11.8368
ies	-11.8369
▁points	-11.837
▁abuse	-11.838
▁txaug	-11.8384
nyias	-11.8386
ness	-11.8394
▁drive	-11.8395
▁ntoob	-11.8397
tseg	-11.8403
▁vees	-11.8415
▁conclusion	-11.8419
ie	-11.842
▁37	-11.8423
Yeej	-11.8425
▁light	-11.8427
▁Nuav	-11.8433
▁ncajncees	-11.8433
▁mentioned	-11.8433
▁nriaj	-11.8434
▁laav	-11.8434
▁qualified	-11.8434
▁80%	-11.8435
▁mivnyuag	-11.8435
▁Haivneeg	-11.8436
▁welcome	-11.8436
▁Rooj	-11.8437
▁Quav	-11.8437
▁baby	-11.8437
▁skills	-11.8438
▁physical	-11.8438
▁yeev	-11.8439
▁txhaaj	-11.8441
▁TSAB	-11.8443
▁recruit	-11.8448
txhais	-11.8448
▁google	-11.8451
▁nr	-11.8456
▁rules	-11.8458
▁bombs	-11.8462
▁lubtebchaws	-11.8468
▁des	-11.8469
▁dont	-11.8483
▁RE	-11.8507
▁invest	-11.8513
▁Rua	-11.8514
▁pegsuab	-11.8514
▁tsuis	-11.8514
▁JUST	-11.8515
▁Michael	-11.8516
▁Ntev	-11.8516
▁learned	-11.8519
▁worker	-11.8519
go	-11.8525
▁wanted	-11.8528
▁:)	-11.8528
gu	-11.8532
▁khis	-11.8534
ceeb	-11.8536
▁deja	-11.8538
92	-11.8542
▁mim	-11.8544
▁obtug	-11.8544
▁Muam	-11.856
▁xyaws	-11.8569
MA	-11.857
ting	-11.8574
leeg	-11.8574
roob	-11.8584
▁rumor	-11.8586
▁reveal	-11.8594
▁Khouang	-11.8595
▁thojnam	-11.8596
▁txeem	-11.8597
▁YANG	-11.8598
▁VANG	-11.8598
▁coming	-11.8599
▁almost	-11.8599
▁married	-11.8599
▁wisconsin	-11.8601
▁boj	-11.8604
▁SCL	-11.8606
▁haab	-11.8608
▁Suavteb	-11.8609
▁Ah	-11.8614
▁Ej	-11.8624
▁Ger	-11.8626
▁known	-11.8628
▁Phak	-11.8637
Paul	-11.8642
▁final	-11.8647
▁kotaw	-11.8652
▁Mar	-11.8655
qaab	-11.8672
▁tradition	-11.8673
▁nation	-11.8674
▁NRHIAV	-11.8678
▁ROOJ	-11.8678
LuI	-11.8678
▁celebrate	-11.8678
▁pobtxha	-11.8679
▁HAU	-11.868
▁NYOG	-11.868
▁npaus	-11.8681
pawg	-11.8681
▁NEEB	-11.8681
▁travel	-11.8681
▁YUAM	-11.8681
▁DAJ	-11.8682
tais	-11.8682
▁Seng	-11.8683
▁NTSES	-11.8686
▁Lav	-11.8691
▁sources	-11.8699
▁LEE	-11.8699
▁hib	-11.8702
▁date	-11.8707
▁VN	-11.8714
ig	-11.8715
▁risk	-11.8722
▁5,000	-11.8735
▁Pro	-11.8738
hee	-11.8743
▁Cua	-11.8751
▁corruption	-11.8753
▁hnyiab	-11.8761
▁register	-11.8761
▁knew	-11.8762
▁Amelivka	-11.8762
▁treat	-11.8762
▁totally	-11.8763
▁Jews	-11.8763
▁lasvoos	-11.8763
▁ziab	-11.8763
▁Tsaab	-11.8764
▁teng	-11.8764
▁assume	-11.8765
▁YEES	-11.8765
▁1977	-11.8765
▁constitution	-11.8765
▁Yawgloj	-11.8765
▁April	-11.8766
▁pepsi	-11.8766
▁therefore	-11.8766
▁ntxhab	-11.8766
▁With	-11.8767
▁Tsa	-11.8768
▁dejdawb	-11.8771
▁nawv	-11.8788
▁ro	-11.8796
▁Tsua	-11.88
▁AW	-11.8807
▁Vajmoob	-11.8812
▁lws	-11.8816
▁spirit	-11.8833
▁Blia	-11.8834
▁definition	-11.8836
▁character	-11.8837
moog	-11.8838
▁profit	-11.8838
▁rank	-11.884
▁MENYUAM	-11.8843
▁ntlaj	-11.8845
▁TXHAWJ	-11.8845
▁pretty	-11.8845
▁MEEM	-11.8846
▁Plig	-11.8846
▁suggest	-11.8846
▁jump	-11.8846
▁Txaij	-11.8847
▁longer	-11.8848
▁HAUJ	-11.8848
▁thajyeeb	-11.8848
▁staff	-11.8849
▁smart	-11.8849
su	-11.8853
tsawg	-11.8853
▁sibceg	-11.8867
▁YY	-11.8872
▁Nao	-11.8877
lab	-11.8878
▁waste	-11.8878
▁MAN	-11.8883
▁ysu	-11.8896
▁sibtw	-11.8901
▁total	-11.8914
▁Committee	-11.8916
▁Pheng	-11.8917
▁wedding	-11.8919
15	-11.8921
▁rock	-11.8922
▁saws	-11.8923
)?	-11.8925
▁aus	-11.8925
wj	-11.8928
lu	-11.8929
▁tshaab	-11.893
▁SCHlers	-11.8932
▁Bay	-11.8932
▁PUAV	-11.8932
▁RAWS	-11.8932
▁nruam	-11.8933
▁LOD	-11.8933
▁NKAWV	-11.8934
▁TUAV	-11.8934
▁911	-11.8935
▁Latin	-11.8935
▁kuamuag	-11.8936
▁ssi	-11.894
▁(1)	-11.8941
▁Phauj	-11.8942
ntseeg	-11.8942
▁txhov	-11.8943
21	-11.8947
▁works	-11.896
▁mooj	-11.8965
▁sibkoom	-11.8966
yaj	-11.8966
▁Uacas	-11.8968
▁nyos	-11.8969
Thov	-11.8969
maj	-11.897
▁Or	-11.8985
▁con	-11.8986
zaj	-11.8989
KPiA	-11.8989
xam	-11.8997
▁tsujsua	-11.9
▁1978	-11.9001
▁hero	-11.9007
▁Ko	-11.9007
▁AG	-11.9011
▁Shan	-11.9011
▁release	-11.9014
▁found	-11.9016
▁dongdok	-11.9016
▁Fong	-11.9016
▁TAWG	-11.9016
▁txhai	-11.9017
▁PLAB	-11.9018
▁itself	-11.9018
▁txaav	-11.9018
▁phabej	-11.9018
▁RIGHT	-11.9019
▁PHEEJ	-11.9019
▁training	-11.9021
▁ones	-11.9022
▁quite	-11.9023
▁XWM	-11.9025
hahahahaha	-11.9027
▁vaub	-11.9028
▁txhaus	-11.9029
▁pleb	-11.9032
▁hlaub	-11.9032
▁girls	-11.9033
▁ntee	-11.9043
▁HAS	-11.9043
Xyoo	-11.9046
npe	-11.9048
▁Nyobzoo	-11.905
▁music	-11.9051
▁ia	-11.9053
AS	-11.9061
▁Miv	-11.9072
▁Hahahahahaha	-11.9072
images	-11.9075
▁veteran	-11.9089
▁station	-11.9089
▁caim	-11.9089
▁2014	-11.909
▁disagree	-11.9099
▁raise	-11.9099
Es	-11.9101
▁confuse	-11.9102
▁witness	-11.9102
flick	-11.9102
eg	-11.9102
▁VAJTSWV	-11.9102
LuJ	-11.9102
▁Pheeb	-11.9102
▁???	-11.9102
▁DAUM	-11.9102
▁mlom	-11.9102
liam	-11.9103
▁TXHAUM	-11.9103
lim	-11.9103
▁ahead	-11.9104
▁passed	-11.9104
▁NTXUB	-11.9104
▁vos	-11.9105
▁tseej	-11.9105
▁NAI	-11.9106
▁LEEJTWG	-11.9106
▁click	-11.9106
▁defense	-11.9107
▁August	-11.9109
▁meska	-11.9111
▁tuv	-11.9114
▁mub	-11.9115
▁npluas	-11.9116
▁$10	-11.9123
▁Deja	-11.9142
▁xaum	-11.9146
▁aiv	-11.9147
pw	-11.9149
▁Man	-11.915
▁Dav	-11.9151
▁India	-11.9153
nraug	-11.9158
da	-11.9159
▁lentawd	-11.916
▁nyia	-11.916
▁tsuasyog	-11.9169
▁passport	-11.9175
▁Senator	-11.9177
▁peej	-11.9185
▁lhoov	-11.9189
▁phluav	-11.919
▁CAIJ	-11.919
▁below	-11.9191
▁PUV	-11.9191
▁Hang	-11.9191
IR	-11.9192
▁TWM	-11.9193
▁Chaleun	-11.9194
▁yawmyij	-11.9194
213.	-11.9195
▁local	-11.9204
▁sibntsib	-11.9206
▁Va	-11.9209
▁song	-11.921
ntsuab	-11.9212
tsim	-11.9219
▁txivneeb	-11.9222
▁Hmob	-11.9233
maum	-11.925
▁qaabhau	-11.9252
heev	-11.9259
▁ntshua	-11.9259
▁02	-11.9262
▁price	-11.9266
▁nyaaj	-11.9274
▁Africa	-11.9275
▁referred	-11.9277
▁TAWV	-11.9277
▁boss	-11.9278
▁truly	-11.9278
▁KNOW	-11.9279
▁recognize	-11.9279
▁Some	-11.928
▁MUAS	-11.928
▁Txaus	-11.928
▁Xoom	-11.9281
▁Feb	-11.9281
▁nyiajtxiag	-11.9281
▁illegal	-11.9281
▁eh	-11.9281
▁lai	-11.9281
▁taas	-11.9283
▁signed	-11.9285
▁Joe	-11.9288
▁CHAW	-11.9297
▁---	-11.93
▁tuabsi	-11.9303
▁koov	-11.9303
▁$5	-11.9305
▁hlauv	-11.9314
shack	-11.9315
Pao	-11.9317
▁Iraq	-11.9317
feem	-11.9324
▁Boua	-11.9333
pe	-11.9334
▁Viet	-11.9342
suab	-11.9345
▁protest	-11.935
▁zau	-11.935
▁Meka	-11.9353
▁Brother	-11.9354
▁paper	-11.9355
▁confirm	-11.9364
▁Ntiaj	-11.9365
▁Lajleeb	-11.9365
▁cawmseej	-11.9365
▁nywj	-11.9365
▁Pany	-11.9365
▁CAUM	-11.9366
▁Denver	-11.9366
▁hmloog	-11.9366
▁January	-11.9366
▁NYIAS	-11.9366
▁Subject	-11.9366
▁ANTI	-11.9367
▁Neua	-11.9367
▁PAO	-11.9368
▁haujsam	-11.9368
▁current	-11.9369
▁99%	-11.9369
▁healthy	-11.937
Lqx	-11.9371
▁sexual	-11.9372
▁phaib	-11.9372
▁hour	-11.9374
▁xee	-11.9374
▁km	-11.9376
▁gone	-11.9377
▁paa	-11.938
▁SAUM	-11.9383
IC	-11.9387
▁Xoua	-11.9388
▁nroov	-11.9389
cm	-11.9403
▁Dai	-11.9404
▁send	-11.9409
▁xi	-11.9414
▁yawmtxiv	-11.9419
▁basic	-11.9419
▁plho	-11.9432
▁Txwj	-11.9436
▁criminal	-11.9441
▁candidate	-11.9441
▁1970	-11.9442
▁Master	-11.9443
▁gossip	-11.9445
▁Wang	-11.9448
▁gave	-11.9454
▁NYUAJ	-11.9454
LuA	-11.9455
ham	-11.9456
▁Yuam	-11.9456
▁integrity	-11.9456
▁responsibility	-11.9457
▁Very	-11.9457
▁author	-11.9457
▁lijchoj	-11.9457
▁three	-11.9458
▁THUAM	-11.9459
▁nyuv	-11.9459
▁va	-11.9474
▁visa	-11.9478
▁NQA	-11.9486
▁chimsiab	-11.9494
hiv	-11.9497
▁cej	-11.9497
....!	-11.9508
▁Kou	-11.9513
▁ntxas	-11.9514
▁nem	-11.9525
Hos	-11.9528
YW	-11.953
▁Ntxhoo	-11.9534
▁picture	-11.9536
▁hloob	-11.9536
...."	-11.9538
toj	-11.9538
▁phoos	-11.9543
▁nick	-11.9545
▁VWJ	-11.9545
▁phwj	-11.9545
▁nthav	-11.9546
▁ntsaag	-11.9548
▁150	-11.9548
▁involved	-11.9549
▁Quincy	-11.955
▁bother	-11.9555
▁jesus	-11.9556
▁152	-11.956
photo	-11.9575
▁AT	-11.9575
▁Ge	-11.9581
▁Si	-11.9582
Saub	-11.9592
npua	-11.9596
ias	-11.9614
▁Pia	-11.9615
ad	-11.9616
▁metub	-11.9619
▁Go	-11.9619
▁nces	-11.962
Thaib	-11.9622
▁ros	-11.9624
▁model	-11.9625
▁TZ	-11.9629
▁type	-11.963
▁SD	-11.9631
▁dogdig	-11.9636
▁mivntsiv	-11.9636
▁Ntxwv	-11.9637
▁ntaaj	-11.9637
▁LAV	-11.9638
▁specific	-11.9638
▁CUAB	-11.9641
▁KOOB	-11.9641
MN	-11.9643
▁hi	-11.9644
▁Txwv	-11.9644
▁likely	-11.9647
▁xom	-11.9652
▁npauj	-11.9652
▁ball	-11.9655
▁tawj	-11.9666
mn	-11.9677
LPRD	-11.968
▁Npau	-11.9681
IE	-11.9691
▁MTT	-11.97
even	-11.9706
▁truck	-11.9713
▁demand	-11.9714
▁proposal	-11.9715
!....	-11.9718
ung	-11.9719
▁Bruce	-11.9727
▁ROJ	-11.9727
▁CAIV	-11.973
▁Nyuag	-11.9731
▁traditional	-11.9731
▁8-9	-11.9732
▁TUM	-11.9733
▁SCHers	-11.9735
muam	-11.9735
▁ntxig	-11.9739
▁thij	-11.9742
ntev	-11.9746
▁1%	-11.9747
▁YAU	-11.9768
▁dlaa	-11.977
▁Christ	-11.9772
pog	-11.9776
▁cees	-11.9776
piv	-11.9777
rchan	-11.9782
nyaj	-11.9785
▁ol	-11.9787
▁25,	-11.9803
▁sound	-11.9809
▁space	-11.9814
▁plhaw	-11.9816
▁UW	-11.9817
▁enforce	-11.9818
▁Zaubntsuab	-11.982
▁Yooj	-11.9821
▁Geneva	-11.9822
▁indigenous	-11.9822
▁nraugnruag	-11.9822
▁east	-11.9822
▁yeebceeb	-11.9822
▁TOO	-11.9823
▁Nouka	-11.9824
▁Time	-11.9825
▁killed	-11.9826
▁phd	-11.9827
▁(2)	-11.9827
▁khaj	-11.9832
txij	-11.9836
▁tsub	-11.9836
ntej	-11.9837
▁Xib	-11.984
▁NOV	-11.9843
▁cis	-11.9853
tawg	-11.986
content	-11.9865
Lwm	-11.9867
▁related	-11.9868
▁zex	-11.9871
▁maslawv	-11.9874
▁vi	-11.9887
cem	-11.989
▁names	-11.989
▁box	-11.9898
▁colonel	-11.9902
▁owner	-11.9909
▁Npaj	-11.9911
▁Clinton	-11.9913
▁energy	-11.9913
▁respond	-11.9913
▁phwvyawm	-11.9914
▁Geu	-11.9914
ya	-11.9914
▁TIAV	-11.9915
▁ROOB	-11.9915
▁federal	-11.9916
▁thornsp	-11.9916
▁fuas	-11.9916
▁cuv	-11.9919
▁sibtxeeb	-11.992
▁Cim	-11.9921
▁Liag	-11.9921
▁fi	-11.9927
TSI	-11.993
▁Tiamsi	-11.993
▁yawmsib	-11.994
teC	-11.994
SE	-11.9942
▁cash	-11.9943
nab	-11.9949
▁Chiang	-11.9956
▁AB	-11.9957
Txiabneeb	-11.996
Raws	-11.9961
mos	-11.9963
luas	-11.9967
▁lho	-11.9972
▁messages	-11.9975
▁ntxoo	-11.9975
▁Hmoo	-11.9981
▁voice	-11.9994
▁advise	-11.9995
▁sponsor	-11.9998
▁donate	-12.0006
▁mention	-12.0006
▁xibhwb	-12.0008
▁Dear	-12.0008
▁Zaaj	-12.0008
▁hospital	-12.0008
▁zamtxim	-12.0009
▁qaws	-12.0009
▁NIAJ	-12.0009
▁YESUS	-12.0009
▁allow	-12.0009
▁nyhuv	-12.0009
▁educate	-12.001
▁double	-12.001
▁nabkaj	-12.0011
▁YIM	-12.0012
nkaus	-12.0014
..............	-12.0014
▁khao	-12.0015
▁txuv	-12.0015
tseeb	-12.0016
▁LWJ	-12.0016
▁Yawmsib	-12.0016
93	-12.0017
▁Pib	-12.0024
▁xwsli	-12.0026
▁DON	-12.0031
▁traitors	-12.0035
▁Hiv	-12.0036
0&	-12.0036
hav	-12.0043
coob	-12.0051
thaib	-12.006
awm	-12.0061
aib	-12.0063
qhia	-12.0071
▁naib	-12.0074
▁ntig	-12.008
▁document	-12.0088
▁mistake	-12.0088
▁xai	-12.0091
▁attitude	-12.0093
▁cij	-12.0097
▁vias	-12.0101
▁chia	-12.0102
▁express	-12.0103
▁phej	-12.0104
▁ground	-12.0106
▁Ministry	-12.0106
▁NUJ	-12.0107
▁HIS	-12.0107
▁campaign	-12.0107
▁NEW	-12.0107
▁YOM	-12.0109
▁alive	-12.0109
▁front	-12.011
▁daug	-12.0111
▁Neohome	-12.0116
▁ntshaa	-12.0119
▁nyov	-12.0121
▁txus	-12.0123
▁suaj	-12.0123
▁niamtij	-12.0136
▁Note	-12.0139
▁xaaj	-12.014
▁HOS	-12.0144
▁Tx	-12.0146
player	-12.0151
cha	-12.0152
▁tawmtsam	-12.0152
ra	-12.0154
▁stick	-12.0174
▁generals	-12.0183
there	-12.0184
peC	-12.0189
▁partner	-12.0189
rs	-12.019
▁NTS	-12.0196
▁LIKE	-12.0199
embedded	-12.0199
▁TUBNTSUAGRUAM	-12.0199
▁Pajtsab	-12.02
▁Saykao	-12.02
▁amekas	-12.0201
▁Day	-12.0201
▁Party	-12.0202
▁hnoob	-12.0202
▁Riam	-12.0202
▁Japan	-12.0204
▁rhiav	-12.0204
▁united	-12.0205
▁Tuab	-12.0207
▁khia	-12.0208
▁DIG	-12.021
▁txeeg	-12.0215
.....!	-12.0219
▁tz	-12.022
▁bis	-12.0221
nas	-12.0223
tib	-12.0226
ever	-12.0226
ang	-12.0233
▁noun	-12.0238
▁HmoobNplog	-12.0254
▁blind	-12.0257
▁bus	-12.0261
xab	-12.0275
▁Hua	-12.0275
▁ID	-12.0278
▁Qha	-12.0287
▁block	-12.0288
▁LA	-12.0291
▁legitimate	-12.0296
▁Marxfree	-12.0296
▁Christmas	-12.0296
▁Public	-12.0297
▁Tuesday	-12.0297
▁era	-12.0298
▁Paris	-12.0298
▁homphaj	-12.0298
▁zawv	-12.0299
▁Luam	-12.0299
▁ethical	-12.0302
▁nkaujnyiag	-12.0303
▁kheem	-12.0304
▁Lawm	-12.0304
▁Haus	-12.0305
▁XK	-12.0308
et	-12.0308
▁ZAM	-12.0309
▁profile	-12.0309
▁hell	-12.0311
▁tshaum	-12.0316
▁His	-12.032
▁coos	-12.0322
▁Sep	-12.0327
▁nimno	-12.0328
▁thej	-12.0328
▁nkaj	-12.033
▁maas	-12.0334
==	-12.0334
▁kau	-12.034
▁NP	-12.0343
▁tejyam	-12.0347
▁dle	-12.0348
IOC	-12.0355
loo	-12.0358
▁Bon	-12.0358
▁Love	-12.0361
SIAB	-12.0365
▁cheat	-12.0368
▁tasli	-12.0379
tshaj	-12.0381
▁65	-12.0382
▁foundation	-12.0384
▁conflict	-12.0384
▁Sheboygan	-12.0394
▁communities	-12.0394
tsuav	-12.0394
▁gauj	-12.0394
▁RAB	-12.0394
▁PUAG	-12.0395
▁stress	-12.0395
▁actually	-12.0395
▁beyond	-12.0396
▁circle	-12.0396
▁anyway	-12.0396
▁advocate	-12.0396
▁Hwb	-12.0396
▁ugly	-12.0397
▁NyabLaj	-12.0397
▁White	-12.0397
▁apartment	-12.0397
▁MoobSib	-12.0399
▁stories	-12.0399
▁LUAM	-12.04
▁nraav	-12.04
▁lugntsuag	-12.0401
▁sivyig	-12.0402
▁verb	-12.0403
▁txaws	-12.0404
▁vietnam	-12.0406
▁kug	-12.041
▁Qho	-12.0418
▁tomtxwv	-12.0418
▁1/10	-12.0422
▁Mov	-12.0427
▁havzoo	-12.0429
▁depend	-12.043
▁terms	-12.0439
▁kj	-12.0442
God	-12.0447
▁kan	-12.0458
▁haslug	-12.0467
▁$10,000	-12.0471
kam	-12.0473
ST	-12.0476
):	-12.0478
noob	-12.0484
▁lol	-12.0492
▁TXEEB	-12.0493
▁Vaajncuab	-12.0493
▁freezer	-12.0494
▁responsible	-12.0494
▁tshawbfawb	-12.0494
▁Npoos	-12.0495
▁Dejdawb	-12.0495
▁constructive	-12.0495
▁nplawg	-12.0495
▁Internet	-12.0496
▁NCAUJ	-12.0496
▁Governor	-12.0496
▁voog	-12.0496
▁NTSUAB	-12.0497
▁zooniamtsev	-12.0497
▁Sij	-12.0497
▁confused	-12.0498
▁Thuam	-12.0499
▁Hluas	-12.05
▁muang	-12.0501
▁ceevxwm	-12.0501
▁kavxwm	-12.0505
▁ncaujlus	-12.0506
▁plhws	-12.0506
▁nquab	-12.0507
▁AWS	-12.0507
▁changed	-12.0508
▁xees	-12.0512
===============	-12.0512
▁touch	-12.0515
▁niamtais	-12.0516
▁qhaus	-12.052
▁PE	-12.052
Paj	-12.0523
ty	-12.0527
▁fais	-12.0529
▁Ciaj	-12.053
▁txwg	-12.0532
Leej	-12.0543
▁nrhov	-12.0546
article	-12.0548
paj	-12.0552
raug	-12.0555
▁tusneeg	-12.0559
▁MLOOG	-12.0576
▁Nongkhai	-12.0579
▁quarter	-12.058
▁TOG	-12.0586
▁01	-12.0589
▁ethnic	-12.0591
▁npluanuj	-12.0593
▁quality	-12.0593
▁tried	-12.0593
▁Google	-12.0594
▁families	-12.0594
▁NQQ	-12.0594
▁happiness	-12.0595
▁GED	-12.0596
▁nciab	-12.0597
▁ra	-12.0598
▁Nug	-12.0598
▁XejThim	-12.0604
▁xiav	-12.0604
poob	-12.0611
▁ntsov	-12.0614
▁LIG	-12.0616
▁Chav	-12.0616
▁politicians	-12.0617
▁fool	-12.063
hiab	-12.0632
nyuag	-12.0651
▁Pe	-12.0654
txug	-12.0666
▁Lha	-12.0667
▁influence	-12.068
▁deserve	-12.0681
▁minister	-12.0686
▁bottom	-12.0688
▁NKAG	-12.0694
▁Tasseng	-12.0694
oeC	-12.0694
▁affect	-12.0694
▁Rhwbliag	-12.0695
▁Twm	-12.0695
IN	-12.0695
▁MPLS	-12.0695
▁membership	-12.0695
▁TSHUAV	-12.0696
▁proud	-12.0696
▁Wa	-12.0697
▁spy	-12.0697
▁victor	-12.0698
▁forgive	-12.0698
▁LOOJ	-12.0698
▁Democracy	-12.0699
▁posting	-12.0699
▁True	-12.0699
▁James	-12.0699
▁hws	-12.07
▁Herr	-12.07
▁plob	-12.0703
▁phib	-12.0703
▁xeej	-12.0704
▁Hope	-12.0707
hov	-12.0712
▁air	-12.0712
aws	-12.0713
▁active	-12.0715
ism	-12.072
▁Cais	-12.0726
▁kid	-12.0726
▁officials	-12.0727
▁Uab	-12.0728
▁rawg	-12.0731
▁klos	-12.0734
yab	-12.0737
nram	-12.0757
men	-12.0765
ts	-12.0772
▁Mouang	-12.0773
▁15,	-12.0782
▁39	-12.0784
▁nuad	-12.0786
▁pilot	-12.0786
▁value	-12.0789
▁GENERAL	-12.0795
▁Phajej	-12.0796
▁Minh	-12.0797
▁xeebntxwv	-12.0797
▁flexible	-12.0798
▁dabqhua	-12.0799
▁opposite	-12.0799
▁Tsawg	-12.0799
▁interested	-12.08
▁tostaub	-12.0802
▁Laaj	-12.0802
▁Operation	-12.0802
▁tubki	-12.0804
▁understanding	-12.0804
8&	-12.0805
▁chinese	-12.0811
▁nphau	-12.0814
THaum	-12.0815
▁pin	-12.0817
▁Zooniamtsev	-12.082
▁simneej	-12.0821
.00	-12.0821
▁naam	-12.083
▁star	-12.0837
io	-12.0849
Ab	-12.0858
▁jhai	-12.0863
taking	-12.0869
▁sus	-12.0869
▁ntsias	-12.0875
▁tx	-12.0877
pic	-12.088
▁thorn	-12.0883
▁Ms	-12.0885
▁stage	-12.0886
▁1990	-12.0887
▁engineer	-12.0889
▁fuck	-12.0891
▁worth	-12.0896
▁half	-12.0897
el	-12.0897
▁Lyfong	-12.0899
▁TXAJ	-12.0899
▁raag	-12.0899
▁NYAJ	-12.0899
▁plogliab	-12.0899
▁organize	-12.09
▁minyuam	-12.09
▁monitor	-12.09
▁Maab	-12.09
▁Mobsiab	-12.09
▁TSUV	-12.09
▁FROM	-12.0901
▁environment	-12.0901
▁HIAM	-12.0902
▁Reply	-12.0902
▁thread	-12.0902
▁guilty	-12.0903
▁okay	-12.0903
▁cajdab	-12.0904
▁pojnrauj	-12.0905
▁given	-12.0911
line	-12.0912
▁ntawb	-12.0913
▁Phuv	-12.0913
▁TSHUM	-12.0916
taub	-12.092
▁lc	-12.0922
▁Americans	-12.0923
of	-12.0936
▁Xaj	-12.0941
luaj	-12.0945
Ntuj	-12.0955
________________	-12.0962
▁mask	-12.0967
▁Tsiaj	-12.097
▁West	-12.0989
▁Organization	-12.0991
▁donation	-12.0994
▁xyw	-12.0994
▁minute	-12.0994
▁z	-12.0996
▁achieve	-12.0996
pem	-12.0997
▁XIONG	-12.1003
▁County	-12.1003
▁Japanese	-12.1004
▁nrees	-12.1004
▁NYEM	-12.1005
▁Many	-12.1005
▁vice	-12.1006
▁SUAB	-12.1006
▁Tomqab	-12.1007
▁txoog	-12.1008
▁weak	-12.1011
kaj	-12.1011
▁KAS	-12.1011
▁qhos	-12.1014
▁kkk	-12.1014
▁Air	-12.1014
▁ZOOV	-12.1014
ch	-12.1022
▁keev	-12.1023
▁bit	-12.1023
▁txhaab	-12.1023
ap	-12.103
ck	-12.1033
web	-12.1035
▁TB	-12.1036
▁3-	-12.1038
▁qhaib	-12.1044
ist	-12.1045
▁khas	-12.1055
ntoo	-12.1056
▁Chou	-12.1058
Tshum	-12.1062
▁NAM	-12.1062
▁Mo	-12.1065
▁chat	-12.1072
ter	-12.1073
▁tawd	-12.1073
lwj	-12.1082
▁soo	-12.1086
▁38	-12.1089
▁prefer	-12.1093
▁Os	-12.1094
▁funding	-12.11
AV	-12.1106
AL	-12.1107
▁jia	-12.1107
▁Zong	-12.1108
▁NCAWS	-12.1109
▁Florida	-12.1109
▁FABKIS	-12.1109
▁beginning	-12.1109
▁Tiaj	-12.1109
▁psychology	-12.111
▁capital	-12.111
▁moment	-12.1111
▁Fawm	-12.1112
▁After	-12.1113
▁nris	-12.1113
▁nkais	-12.1114
▁Houei	-12.1115
▁lady	-12.1116
▁Txam	-12.1117
▁target	-12.1118
NR	-12.1122
▁kej	-12.1122
▁green	-12.1126
▁china	-12.1129
▁HUAB	-12.1131
▁hloo	-12.1133
▁txho	-12.1143
land	-12.1144
12	-12.1149
sub	-12.1158
▁0	-12.116
wiki	-12.1165
No	-12.1167
yij	-12.1168
Zab	-12.117
luam	-12.117
▁nqag	-12.1183
▁destroy	-12.1185
noog	-12.1185
moos	-12.119
▁HMO	-12.1193
▁claims	-12.1194
▁1975,	-12.1199
▁suggestion	-12.1202
▁DVD	-12.1204
▁ntas	-12.1209
▁ceb	-12.121
▁discuss	-12.1211
▁CHOJ	-12.1215
▁department	-12.1215
▁Juab	-12.1215
▁txiajntsim	-12.1215
▁damage	-12.1215
▁soccer	-12.1217
▁Dongdok	-12.1217
▁Nyiam	-12.1217
▁nploos	-12.1218
▁Email	-12.1218
▁Aug	-12.1218
▁Plog	-12.1219
▁fake	-12.122
▁large	-12.122
▁qabrooj	-12.1227
▁nrooj	-12.1234
EN	-12.1236
▁spelling	-12.1238
▁Free	-12.1241
▁pais	-12.1244
▁agreed	-12.1245
▁BUS	-12.1245
▁NOW	-12.1266
▁TP	-12.1274
ah	-12.1275
fab	-12.1279
Nom	-12.129
di	-12.1292
▁muv	-12.1305
▁cent	-12.1306
yuam	-12.131
▁promise	-12.1311
▁txham	-12.1313
13	-12.1314
▁sd	-12.1316
▁animal	-12.1316
▁code	-12.1319
▁$20	-12.1319
▁dhua	-12.1322
▁Science	-12.1324
hOC	-12.1324
▁impossible	-12.1324
▁nyawm	-12.1324
▁CUAV	-12.1325
▁1995	-12.1326
▁Nyav	-12.1327
▁Yaiv	-12.1327
▁film	-12.1327
▁SIAV	-12.1329
▁paid	-12.1331
▁mr	-12.1333
▁Black	-12.1334
Me	-12.1335
▁Tseemy	-12.134
▁hlaab	-12.134
▁says	-12.1343
ncauj	-12.1346
▁services	-12.1351
▁car	-12.1354
▁citizens	-12.1357
▁encourage	-12.1358
▁RUA	-12.1359
▁Xay	-12.1371
Col	-12.1372
▁txawjntse	-12.1379
▁incident	-12.138
▁Kim	-12.1382
▁lev	-12.1384
especially	-12.1384
Faj	-12.1386
VIM	-12.1387
tiamsis	-12.1389
good	-12.139
USA	-12.1391
▁je	-12.14
▁Nqe	-12.1404
▁Ne	-12.1417
▁insult	-12.1418
▁Religion	-12.1422
▁Noom	-12.1422
▁letter	-12.1425
▁success	-12.1425
▁remind	-12.1431
▁spouse	-12.1431
▁Phalak	-12.1431
▁phwvxev	-12.1431
▁NPlog	-12.1431
▁saturday	-12.1432
▁failed	-12.1432
▁jim	-12.1433
▁adopt	-12.1433
▁deny	-12.1433
▁digmuag	-12.1434
▁pobtawb	-12.1434
▁QHUAS	-12.1434
▁zum	-12.1434
▁reply	-12.1434
▁txhawv	-12.1434
▁zejzog	-12.1434
▁RIS	-12.1434
▁PHAJ	-12.1435
▁30-40	-12.1435
tsum	-12.1435
▁forever	-12.1436
▁ri	-12.1437
▁LIM	-12.1437
▁zoonkauj	-12.1439
jeC	-12.144
▁Phub	-12.1441
▁XZ	-12.1442
▁timkhawv	-12.1442
▁majmam	-12.1443
▁proper	-12.1447
▁XAB	-12.1448
▁ntsawv	-12.1449
od	-12.145
▁Taj	-12.145
▁Tshuaj	-12.1451
▁chair	-12.1452
▁xuav	-12.1453
▁ect	-12.1454
▁nqee	-12.1455
ong	-12.1457
▁medals	-12.1457
lauj	-12.1458
xa	-12.1469
▁Da	-12.1469
▁ntsua	-12.1476
▁gettin	-12.1479
hlau	-12.148
▁TAUB	-12.1485
▁plhus	-12.1488
▁Case	-12.1493
Meskas	-12.1494
dy	-12.1497
▁meejx	-12.1501
▁txhi	-12.1504
▁lintawd	-12.1525
▁finger	-12.1528
▁propose	-12.153
▁north	-12.1538
▁THINK	-12.1541
▁DownUnder	-12.1541
▁SUNRISE	-12.1541
▁straight	-12.1541
▁Ywjpheej	-12.1541
▁doctawm	-12.1542
▁npias	-12.1542
75	-12.1543
▁Tojxeem	-12.1543
▁university	-12.1544
▁period	-12.1544
▁faith	-12.1553
▁pias	-12.1556
▁Mua	-12.1558
LqU	-12.1563
tiny	-12.1565
▁intellectuals	-12.157
PEB	-12.1573
▁agents	-12.1574
▁aud	-12.1587
▁kuvli	-12.1597
▁dlo	-12.1597
ka	-12.1597
▁KUA	-12.1598
▁dd	-12.1604
▁uatsaug	-12.1605
flop	-12.1607
▁huj	-12.162
▁lots	-12.1627
▁Of	-12.1629
▁ja	-12.1632
▁divorce	-12.1635
▁request	-12.1635
▁delegation	-12.1639
▁chai	-12.1639
▁field	-12.1651
34	-12.1652
▁contribute	-12.1652
▁NYEEM	-12.1652
▁NCUAB	-12.1652
▁Faabkis	-12.1653
▁hit	-12.1653
▁koomtsishaum	-12.1653
▁teach	-12.1654
▁TEEV	-12.1654
▁inches	-12.1654
▁western	-12.1654
▁KHAV	-12.1655
▁probably	-12.1656
▁CMA	-12.1656
▁amelikas	-12.1657
▁marry	-12.1657
gPiA	-12.1658
▁pick	-12.1658
▁Phone	-12.1659
▁copv	-12.166
▁nwm	-12.1661
▁GOD	-12.1663
phom	-12.1663
▁reported	-12.1663
hmo	-12.1665
▁SAI	-12.1669
by	-12.1669
▁LeejHmoob	-12.1673
dlaab	-12.1674
▁vaajtsw	-12.1676
▁dho	-12.1678
▁Thaumtwg	-12.1679
He	-12.1681
▁pabpawg	-12.1685
123	-12.1691
▁DE	-12.1707
▁UP	-12.1708
nyab	-12.1708
▁color	-12.1725
▁hoo	-12.1726
▁YA	-12.1735
▁nu	-12.1739
aol	-12.1742
ga	-12.1743
ay	-12.1744
▁txivtub	-12.1749
▁tree	-12.1756
▁LP	-12.1757
▁uaneej	-12.1761
▁survive	-12.1762
▁THAJ	-12.1764
▁noogqejqawg	-12.1765
▁Fwj	-12.1765
▁Dept	-12.1765
▁doubt	-12.1765
▁techaws	-12.1766
▁kasmias	-12.1766
▁HLOOV	-12.1767
▁THAUB	-12.1767
▁Thursday	-12.1768
▁nyua	-12.1768
▁FAB	-12.1768
▁wayne	-12.1768
▁YOOJ	-12.1769
▁ntxaag	-12.1769
▁nkoos	-12.177
▁tsovtom	-12.1772
▁Heev	-12.1772
▁Qab	-12.1772
▁relatives	-12.1773
▁nteev	-12.1773
nyiam	-12.1774
▁justice	-12.1774
▁thiag	-12.1776
▁YES	-12.1777
▁print	-12.1779
▁ZAUB	-12.1781
▁heem	-12.1781
▁POST	-12.1782
▁minority	-12.1783
blog	-12.1785
nyuamqhuav	-12.1795
jhe	-12.1799
ate	-12.18
▁NTOO	-12.1803
haiv	-12.1806
▁txai	-12.1824
Tam	-12.1835
22	-12.1853
54	-12.1856
▁celebration	-12.1864
▁pomzoo	-12.1865
▁Example	-12.1865
▁population	-12.1867
▁count	-12.1868
▁Bia	-12.1868
▁Quas	-12.1873
▁flien	-12.1875
▁favor	-12.1877
▁Txaijnrob	-12.1878
▁homework	-12.1878
▁available	-12.1878
▁1973	-12.1879
▁KGB	-12.1879
▁LOMTED	-12.1879
▁ruamqauj	-12.1879
▁qoj	-12.1879
▁method	-12.188
▁Medical	-12.188
▁ntxuaj	-12.1881
▁First	-12.1881
▁council	-12.1882
▁parking	-12.1882
▁Military	-12.1884
▁Zaab	-12.1884
▁txivntxawm	-12.1884
▁pobkws	-12.1885
▁design	-12.1886
▁deep	-12.1886
▁xaub	-12.1888
yes	-12.1889
rn	-12.1889
▁Daj	-12.1889
UN	-12.189
▁depends	-12.1893
eej	-12.1895
txim	-12.1901
47	-12.1906
▁nia	-12.1911
▁ntav	-12.1912
▁1).	-12.1914
▁BY	-12.1916
▁ruav	-12.192
niaj	-12.1921
▁south	-12.1932
▁1975.	-12.1932
?????	-12.1938
Lauj	-12.195
▁5)	-12.195
▁Ex	-12.1957
new	-12.1969
▁31	-12.1969
▁ler	-12.1979
miv	-12.1979
▁advisor	-12.1981
▁Souvanna	-12.1984
▁nrhuav	-12.1993
▁William	-12.1994
▁sunday	-12.1994
▁Sisavang	-12.1994
▁Attorney	-12.1995
▁Khejme	-12.1995
▁kip	-12.1995
▁FFC	-12.1996
LqB	-12.1996
▁Video	-12.1996
▁1/2	-12.1996
▁Nomdub	-12.1997
▁safety	-12.1998
▁Look	-12.1999
▁following	-12.1999
▁GET	-12.2
▁sawvcev	-12.2
▁Nis	-12.2003
▁Chiv	-12.2005
▁shoua	-12.2005
▁Bias	-12.2011
▁Lord	-12.2012
▁Hey	-12.2012
lee	-12.2014
ceg	-12.2017
▁xyuav	-12.2021
▁Raug	-12.2024
▁paas	-12.2025
▁Then	-12.2025
how	-12.2035
pub	-12.2035
▁none	-12.2035
uk	-12.2038
paum	-12.2039
puag	-12.204
▁politik	-12.2053
▁ass	-12.2055
▁naas	-12.206
Txawj	-12.2063
▁plooj	-12.2063
▁preach	-12.2066
▁HOV	-12.2078
ij	-12.2078
laws	-12.2082
▁maina	-12.2084
▁Xai	-12.2092
▁scholarship	-12.2097
Yawm	-12.2099
▁caslos	-12.2109
▁Tzianeng	-12.211
▁anymore	-12.211
▁POWER	-12.2111
▁Ntxheb	-12.2111
▁identity	-12.2111
▁npawv	-12.2111
▁1991	-12.2111
▁nephew	-12.2113
▁camera	-12.2113
▁Dang	-12.2114
▁foreign	-12.2114
▁20,000	-12.2114
▁ntsauv	-12.2115
▁necessary	-12.2115
yeem	-12.2117
▁rape	-12.2119
▁osxaum	-12.212
▁followers	-12.212
▁Laib	-12.212
▁ruab	-12.2123
▁hawb	-12.2126
▁zeg	-12.2129
iam	-12.2129
▁42	-12.2132
▁Xais	-12.2134
▁Tsib	-12.2139
xov	-12.2141
▁al	-12.2147
▁xoos	-12.2149
iav	-12.2157
nim	-12.2162
nuav	-12.2168
▁hmoog	-12.2176
gov	-12.2177
▁55	-12.2181
▁**	-12.2191
HOSE	-12.2196
▁1,000	-12.2202
▁Non	-12.2207
tsab	-12.2208
▁pure	-12.2209
▁statue	-12.2217
▁plhw	-12.2217
▁Qhua	-12.2217
▁response	-12.2217
▁killing	-12.2219
pb	-12.2221
▁kiss	-12.2223
▁compete	-12.2226
▁dear	-12.2227
▁percent	-12.2227
▁DHIA	-12.2227
▁nreeg	-12.2227
▁1974	-12.2227
▁attorney	-12.2228
▁stone	-12.2228
▁hunting	-12.2228
▁honest	-12.2228
▁Taam	-12.223
▁Report	-12.223
▁Adam	-12.223
▁DOCTOR	-12.223
▁THERE	-12.223
▁third	-12.223
qhua	-12.2231
▁Tav	-12.2231
▁Indochina	-12.2231
▁HOW	-12.2232
▁txhaws	-12.2232
▁XEEB	-12.2232
sOC	-12.2233
▁Phav	-12.2235
▁hauvpaus	-12.2235
▁Vauv	-12.2237
▁kwvyees	-12.2237
▁Tha	-12.2242
=0	-12.2243
▁spiritual	-12.2245
▁kabmob	-12.2252
▁phus	-12.2253
mo	-12.2255
▁yamli	-12.2256
ak	-12.2259
▁Leader	-12.2262
▁TW	-12.2268
...!	-12.2269
▁door	-12.2274
▁PHOO	-12.2281
▁boards	-12.2281
▁interpretation	-12.2281
ntsoov	-12.2294
▁phu	-12.2306
▁1985	-12.231
ge	-12.2311
▁yours	-12.2326
mov	-12.2329
▁Lawyer	-12.2333
▁saiv	-12.2335
▁qualification	-12.2335
▁behavior	-12.2336
▁representative	-12.2336
▁dialect	-12.2337
▁mine	-12.234
▁student	-12.2343
▁Cy	-12.2344
▁violate	-12.2344
▁recommend	-12.2344
▁21,	-12.2345
▁brgds	-12.2346
▁ABOUT	-12.2346
▁AGAIN	-12.2346
▁Watch	-12.2346
▁ZOV	-12.2346
▁retirement	-12.2347
▁Captain	-12.2347
▁limham	-12.2347
▁vuab	-12.2347
▁HIGH	-12.2347
▁exercise	-12.2347
▁PUAB	-12.2348
HUB	-12.2348
▁Sivyig	-12.2348
▁philosophy	-12.2349
▁river	-12.2349
▁quavntsej	-12.2349
▁Txheej	-12.235
▁xyob	-12.2351
phav	-12.2351
▁SU	-12.2351
▁npais	-12.2352
▁employees	-12.2353
▁Su	-12.2354
▁Nou	-12.2354
▁XAM	-12.2356
▁tibzoo	-12.2359
▁Phouma	-12.2364
▁pubthawj	-12.2365
caag	-12.2366
06	-12.2367
▁nyuajsiab	-12.2368
▁mail	-12.2369
▁koomtes	-12.2371
▁tsaw	-12.2372
▁ncas	-12.2375
▁12.	-12.2375
way	-12.2376
▁sit	-12.2376
day	-12.2377
▁haukev	-12.238
▁actions	-12.2394
▁Hej	-12.2395
▁formula	-12.2408
video	-12.2409
▁tseebx	-12.2409
▁qham	-12.2413
▁PAS	-12.2418
▁dad	-12.2439
▁Huam	-12.2442
▁web	-12.2442
nce	-12.2446
▁boy	-12.245
▁sibluag	-12.2451
Cia	-12.2451
▁nuag	-12.2452
▁figure	-12.2459
▁2002	-12.2461
▁Mem	-12.2463
▁dyd	-12.2467
▁NTSHAW	-12.2467
▁Nkaub	-12.2467
▁Daus	-12.2467
▁across	-12.2468
▁SCIENCE	-12.2468
▁HMOOV	-12.2468
▁seriously	-12.2468
▁waiting	-12.2469
▁ntxheb	-12.2471
▁September	-12.2471
▁saumtoj	-12.2471
▁moobleeg	-12.2472
▁criticize	-12.2472
▁AMEN	-12.2473
▁option	-12.2473
▁HlubHmoob	-12.2475
▁(3)	-12.2475
cuab	-12.2475
▁melikas	-12.2477
vp	-12.2477
▁ntsawj	-12.2478
▁zauv	-12.248
▁Apr	-12.2483
Nrhiav	-12.2486
▁thee	-12.2489
▁ANY	-12.2492
▁yuab	-12.2496
▁terrorists	-12.2496
NT	-12.2504
▁qhovrooj	-12.2505
,000.00	-12.2507
cuag	-12.2518
▁kv	-12.2524
▁17,	-12.2525
▁KE	-12.2531
▁facts	-12.2532
▁Thua	-12.2533
▁04	-12.2539
▁xyem	-12.254
kis	-12.2541
religion	-12.2541
Thoj	-12.2542
saub	-12.2542
▁nyub	-12.2542
state	-12.2547
story	-12.2551
▁vig	-12.2552
yang	-12.2556
vwm	-12.256
▁2).	-12.256
▁medicine	-12.2564
▁23,	-12.2575
▁org	-12.2577
▁criticism	-12.2578
▁trouble	-12.2578
▁Nation	-12.2579
ris	-12.2582
▁Laotian	-12.2583
IS	-12.2584
▁HLAU	-12.2587
▁teleport	-12.2588
▁Therefore	-12.2589
▁NTSOOV	-12.2589
▁rhab	-12.2589
▁Alien	-12.259
▁msu	-12.259
▁Business	-12.259
▁INTERNET	-12.259
▁Arkansas	-12.2591
▁folks	-12.2591
▁Koomhaum	-12.2591
▁WHY	-12.2591
▁Constitution	-12.2592
▁speaking	-12.2592
▁Naisphoo	-12.2593
▁Mao	-12.2593
▁elders	-12.2594
▁khaiv	-12.2594
Lqa	-12.2594
▁nkas	-12.2594
▁Teem	-12.2594
▁KAJ	-12.2594
▁Chij	-12.2596
▁tsaiv	-12.2597
▁ciov	-12.2598
▁bass	-12.2598
▁plev	-12.2599
▁Awb	-12.2599
gDQo	-12.2599
▁poov	-12.2599
NTSUAGHMOOBRUAM	-12.2601
Lqt	-12.2602
▁Mhong	-12.2602
▁improve	-12.2612
Those	-12.2613
▁Pas	-12.2614
ir	-12.2614
▁$200	-12.2615
tion	-12.2623
▁Last	-12.2629
▁:):):)	-12.2632
▁Kua	-12.2649
▁rai	-12.2651
▁LPRD	-12.2652
▁Tshuas	-12.2652
meo	-12.2657
▁takes	-12.2663
Phwvnyawm	-12.2665
▁Vong	-12.2665
▁experiences	-12.267
▁hahahahha	-12.268
▁WAS	-12.2681
▁haud	-12.2687
▁degrees	-12.269
▁chief	-12.2699
nb	-12.27
▁condition	-12.27
▁operation	-12.2706
▁14,	-12.271
▁appreciate	-12.2711
▁advantage	-12.2712
▁participate	-12.2712
▁NUAV	-12.2712
▁blej	-12.2712
▁plhaub	-12.2712
▁Maivnas	-12.2713
ntxiv	-12.2713
▁Khoom	-12.2713
▁huamnab	-12.2713
▁governing	-12.2713
▁ndlav	-12.2713
▁WRONG	-12.2714
▁nkawj	-12.2714
▁tivthaiv	-12.2715
▁upon	-12.2717
▁Dlaab	-12.2717
▁younger	-12.2718
▁nreg	-12.2718
▁Se	-12.2718
▁Yee	-12.2719
▁thuab	-12.272
▁pawj	-12.272
▁Phem	-12.2721
▁ntxws	-12.2722
▁bride	-12.2722
▁raising	-12.2723
▁reach	-12.2723
▁Chaws	-12.2724
▁ntxhuav	-12.2725
▁Ntsej	-12.2727
▁pho	-12.2733
▁haam	-12.2745
Former	-12.2745
▁seek	-12.2749
▁hmob	-12.2749
eeb	-12.2763
▁13.	-12.2774
tsa	-12.2786
▁Song	-12.2809
ok	-12.2811
▁24/7	-12.2821
▁tape	-12.2824
▁nujnqi	-12.2824
▁dhi	-12.2832
▁bless	-12.2835
▁croc	-12.2835
▁CAJ	-12.2836
▁PA	-12.2837
▁Kiabtoom	-12.2837
▁Hotel	-12.2837
▁NQAIJ	-12.2838
▁regret	-12.2839
▁peebzeej	-12.2839
▁outside	-12.2841
▁Ntsuag	-12.2842
▁FREE	-12.2842
▁feemcoob	-12.2843
▁scam	-12.2843
▁army	-12.2844
▁rebecca	-12.2844
▁Yajyuam	-12.2844
▁nyhos	-12.2846
▁Xyeej	-12.2847
▁tee	-12.2847
▁TAUG	-12.285
▁BEER	-12.2851
hai	-12.2851
▁Tsiab	-12.2861
▁OUT	-12.2864
▁ly	-12.2875
%2	-12.2878
▁$$$$	-12.2882
txheeb	-12.289
tawv	-12.2891
aa	-12.29
▁hoos	-12.29
time	-12.2905
▁oblub	-12.2907
lees	-12.2911
zhen	-12.2917
Tsam	-12.2918
ful	-12.2918
▁Every	-12.2918
▁Twin	-12.292
Dab	-12.2925
edu	-12.293
▁Dee	-12.2943
▁Taub	-12.2946
▁sibyuav	-12.2947
▁HEHEHE	-12.2951
▁Bachelor	-12.2953
▁adjective	-12.2954
▁rich	-12.2958
▁building	-12.2959
▁teacher	-12.2959
▁push	-12.2959
▁prevent	-12.2963
▁Flip	-12.2963
▁NUVNTSES	-12.2963
▁1968	-12.2964
▁dlhuav	-12.2964
▁nyaag	-12.2964
▁Europe	-12.2964
▁thws	-12.2964
▁Sombath	-12.2965
▁DOG	-12.2965
▁worst	-12.2965
▁FEEM	-12.2965
▁Plaub	-12.2965
aum	-12.2966
▁Germany	-12.2966
▁fooj	-12.2966
▁pamthawj	-12.2966
▁phlom	-12.2967
▁SCAM	-12.2968
▁fill	-12.297
▁qawg	-12.2971
▁Thovpab	-12.2971
▁Kam	-12.2972
LqH	-12.2972
▁HER	-12.2973
tuav	-12.2976
▁26,	-12.2976
▁Doc	-12.2978
▁gas	-12.2979
▁fbi	-12.2983
▁english	-12.2984
▁tshi	-12.2984
▁Ntaub	-12.2985
laos	-12.2992
▁sisters	-12.2993
▁ntxab	-12.2996
▁npoos	-12.2998
tshiab	-12.2999
pim	-12.3004
uLi	-12.3006
▁14.	-12.3025
search	-12.3044
Lajntxiag	-12.3044
▁tsws	-12.3044
CA	-12.3049
Los	-12.3058
deb	-12.306
twv	-12.3065
twm	-12.3071
piav	-12.3079
▁piece	-12.308
▁argument	-12.308
▁image	-12.3082
▁txawjx	-12.3082
▁governor	-12.3083
▁xavzoo	-12.3085
Pov	-12.3088
▁!!	-12.309
▁xia	-12.309
▁pen	-12.309
Cas	-12.3091
mm	-12.3091
▁translate	-12.3091
▁Xyeejtsawg	-12.3092
▁phaaj	-12.3092
▁NTUG	-12.3092
▁RUB	-12.3092
▁LPB	-12.3093
▁Deputy	-12.3093
▁txheejtxheem	-12.3093
▁Txaj	-12.3093
▁NEV	-12.3093
▁tshaam	-12.3094
▁privately	-12.3094
▁Central	-12.3094
▁PEJ	-12.3095
▁ntaim	-12.3095
▁effect	-12.3096
▁riag	-12.3096
▁Beeveev	-12.3096
▁bastard	-12.3098
94	-12.31
▁Puag	-12.31
▁handle	-12.3101
▁WOW	-12.3101
▁Jul	-12.3102
▁nor	-12.3103
▁TUAM	-12.3103
▁kablis	-12.3104
tsav	-12.3104
▁Caiv	-12.3105
▁Ntsia	-12.3108
▁critic	-12.3117
▁Dlua	-12.3122
nawb	-12.3129
▁met	-12.3133
▁thoughts	-12.3145
▁TSW	-12.3149
▁100%.	-12.3149
▁PC	-12.316
▁nki	-12.3163
▁miss	-12.3167
ling	-12.3172
Square	-12.3173
▁yawglaus	-12.3174
▁nka	-12.3174
Ruam	-12.3175
show	-12.3175
Moobsib	-12.3177
▁sao	-12.3178
txuj	-12.3187
miao	-12.3199
▁ntia	-12.32
▁REAL	-12.3203
▁draw	-12.3206
▁surrender	-12.3207
aGF	-12.321
Vang	-12.321
▁effort	-12.321
▁realize	-12.3219
▁chi	-12.322
▁Office	-12.322
▁property	-12.3222
▁KHWV	-12.3222
▁progress	-12.3224
▁Txob	-12.3225
▁haw	-12.3225
▁Indigenous	-12.3225
▁warning	-12.3225
▁Alaska	-12.3225
▁TWJ	-12.3225
▁Ntsib	-12.3226
▁nthwv	-12.3226
▁terrorism	-12.3226
▁YIG	-12.3227
▁MORE	-12.3228
▁Culture	-12.3229
▁VUE	-12.3229
▁Life	-12.3229
▁pemsuab	-12.3229
▁hnyos	-12.323
▁lhuas	-12.3234
fr	-12.3237
▁---------	-12.3242
mp	-12.3242
▁phuam	-12.3243
▁eye	-12.3245
43	-12.3249
▁dluas	-12.3251
▁MOOS	-12.3254
▁qhuabke	-12.3255
▁pees	-12.3263
▁swv	-12.327
▁benefits	-12.3271
▁$5,000	-12.3272
back	-12.3279
▁area	-12.3292
ar	-12.3292
cav	-12.3293
his	-12.3295
ine	-12.3306
Tseem	-12.3306
vmged	-12.3306
▁KOOS	-12.3308
yees	-12.3311
!!!!!!	-12.3315
▁xyo	-12.3325
▁nts	-12.3335
ZW	-12.3336
don	-12.3338
▁Soviet	-12.334
▁Phanya	-12.3341
▁customer	-12.3342
ance	-12.3342
▁approach	-12.3349
ki	-12.3351
▁DABTSI	-12.3352
▁Foundation	-12.3353
▁beautiful	-12.3353
▁nplag	-12.3353
▁nuclear	-12.3353
▁SNOW	-12.3353
▁Mivkas	-12.3353
▁protection	-12.3354
▁Tek	-12.3354
▁YAV	-12.3354
▁Tsimmuajcia	-12.3354
▁Charles	-12.3354
▁shake	-12.3354
03	-12.3354
hahahahahahahaha	-12.3354
▁ntsablug	-12.3354
▁Qav	-12.3356
▁nruabnrab	-12.3356
▁95%	-12.3356
▁AEON	-12.3357
▁NEB	-12.3359
▁Heaven	-12.3359
▁xyaav	-12.3359
▁qaumteb	-12.336
▁plas	-12.3361
▁ntxaa	-12.3361
▁NAB	-12.3362
▁npiab	-12.3362
▁Pam	-12.3369
▁dom	-12.3369
It	-12.3379
luj	-12.3383
▁needed	-12.3383
▁pojyawm	-12.3384
▁linov	-12.3391
set	-12.3394
▁NTI	-12.3402
muC	-12.3406
▁nyoob	-12.3411
▁ZK	-12.3412
▁EVEN	-12.3414
xaav	-12.3414
▁NYAB	-12.3414
url	-12.3422
Lt	-12.3432
leejtwg	-12.3441
▁evidences	-12.3442
▁sofa	-12.3444
▁oz	-12.3449
▁ye	-12.3455
OR	-12.3457
▁KL	-12.3461
view	-12.3463
▁dumb	-12.3467
▁opinions	-12.3471
auj	-12.3471
▁hlox	-12.3472
/07	-12.3473
▁sport	-12.3481
nug	-12.3481
▁Hai	-12.3482
▁drop	-12.3483
teeb	-12.3485
▁reflect	-12.3486
▁zwj	-12.3486
▁Security	-12.3486
▁ideology	-12.3486
▁discredit	-12.3486
▁Khwv	-12.3487
▁NPAJ	-12.3487
▁FAIB	-12.3487
▁rhav	-12.3487
▁ourselves	-12.3487
▁DNR	-12.3487
▁reputation	-12.3487
▁tshwjxeeb	-12.3488
▁convert	-12.3488
▁wausau	-12.3488
▁Dlej	-12.3488
▁Phoumi	-12.3488
▁XYOV	-12.3489
▁Txoos	-12.349
▁Ciab	-12.349
Lql	-12.349
Southeast	-12.3491
▁LAU	-12.3492
▁Lajhais	-12.3493
▁west	-12.3493
▁map	-12.3494
▁reference	-12.3494
▁Lisnom	-12.3494
▁commander	-12.3494
see	-12.3496
▁closed	-12.3496
▁sometimes	-12.3497
▁puavpheej	-12.3498
rry	-12.3499
▁options	-12.3501
▁HMong	-12.3503
▁bush	-12.3504
▁TSIV	-12.3505
53	-12.3507
▁sibhawm	-12.351
▁80'	-12.3511
▁sauntawv	-12.3514
▁Phus	-12.3526
▁kiagli	-12.353
▁pasdej	-12.3535
▁dlab	-12.3536
▁differences	-12.3537
▁Hmoog	-12.3555
▁dhiav	-12.3556
log	-12.3564
nag	-12.3564
▁nru	-12.3567
▁LOV	-12.3568
Zeb	-12.3575
docs	-12.3575
Meo	-12.3577
=3	-12.3581
▁qhi	-12.3588
IT	-12.359
▁SUPPORT	-12.3601
▁1982	-12.3604
kli	-12.3604
▁senator	-12.361
▁belong	-12.3611
▁billion	-12.3612
ION	-12.3613
▁Menyuam	-12.3621
▁qhav	-12.3621
▁ntshi	-12.3622
▁thaajyeeb	-12.3622
▁Vajluskub	-12.3622
▁parties	-12.3622
▁Rawsli	-12.3622
▁Laugtxawj	-12.3622
▁TAV	-12.3623
▁Havzoov	-12.3623
▁lobby	-12.3623
▁yopg	-12.3624
▁excuse	-12.3624
▁Qau	-12.3624
▁Where	-12.3624
▁zawg	-12.3624
▁MAV	-12.3625
▁pivtxwv	-12.3625
▁Nyawm	-12.3625
▁regular	-12.3625
▁budget	-12.3625
▁started	-12.3626
▁Nhubkaj	-12.3626
▁officially	-12.3626
▁hauvpaug	-12.3626
▁Ncauj	-12.3627
▁tomorrow	-12.3627
▁older	-12.3628
▁lucky	-12.3628
▁ntsaub	-12.3628
▁mostxwv	-12.3629
▁included	-12.3629
▁lisnom	-12.363
▁khes	-12.363
▁PLAM	-12.3632
▁LAUG	-12.3636
▁shit	-12.3639
▁qaj	-12.3641
▁Lag	-12.3641
some	-12.3641
pib	-12.3642
AB	-12.3642
▁Thab	-12.3646
▁Luv	-12.3646
hub	-12.3651
▁plaubhau	-12.366
▁Thaij	-12.3662
▁Hmmm	-12.3667
▁SE	-12.3671
Nam	-12.3671
range	-12.3671
ntsib	-12.3672
▁Sia	-12.3679
▁nci	-12.3685
▁BEE	-12.3687
nm	-12.3691
▁txhuatus	-12.3691
Tos	-12.3704
ship	-12.3705
08	-12.3718
▁haivhmoob	-12.3738
▁prepare	-12.3739
turning	-12.3739
ice	-12.3743
▁Most	-12.3746
fwm	-12.3747
▁collect	-12.3752
▁shot	-12.3753
▁videos	-12.3753
xaiv	-12.3753
▁Gau	-12.3755
▁NAJ	-12.3759
▁HELP	-12.3759
▁comprehend	-12.3759
▁Thaying	-12.3759
▁Sinwung	-12.3759
▁TXIAV	-12.3759
▁XXXXXXXXXXXXXX	-12.3759
▁POINT	-12.3759
▁verify	-12.376
▁Mormon	-12.376
▁iliki	-12.376
▁14-15	-12.376
▁phiajzeb	-12.3761
▁CHURCH	-12.3761
huab	-12.3761
▁fws	-12.3762
▁Remember	-12.3762
▁unko	-12.3762
▁Tawg	-12.3763
▁khawvkoob	-12.3764
▁Paum	-12.3764
▁MAB	-12.3766
sij	-12.3766
▁Kangaroo	-12.3767
▁Ameskas	-12.3771
▁Cheem	-12.3771
▁npuam	-12.3772
▁ability	-12.3773
▁Ken	-12.3773
▁POG	-12.3774
▁LEGAL	-12.3779
▁$1000	-12.3785
▁civil	-12.3788
ent	-12.3808
▁CD	-12.381
▁TAUS	-12.3819
ais	-12.383
ous	-12.383
khwv	-12.3835
▁Nos	-12.3844
▁cross	-12.3846
Nyiaj	-12.385
plaub	-12.385
qhuav	-12.3862
they	-12.3862
cy	-12.3864
haub	-12.3868
Yang	-12.3871
ao	-12.3873
▁txhuav	-12.3883
▁NQE	-12.3885
▁remain	-12.3885
▁threat	-12.3888
▁attend	-12.3888
▁Qaib	-12.3889
▁NROV	-12.389
▁ntsaa	-12.3894
▁Korea	-12.3896
▁mark	-12.3896
▁surprise	-12.3897
▁Aderholt	-12.3897
▁Vegas	-12.3897
▁Defense	-12.3898
▁beemouachaofa	-12.3898
▁CHEEM	-12.3898
▁Nraugnruag	-12.3898
▁Longcheng	-12.3898
▁republican	-12.3898
▁NYUAG	-12.3898
▁TxawjvamYias	-12.3898
▁memtoj	-12.3898
▁40-50	-12.3898
▁grow	-12.3899
▁Kue	-12.3899
▁missed	-12.3899
▁Theory	-12.39
▁Secretary	-12.39
▁txhawm	-12.3901
▁Zaag	-12.3902
▁racist	-12.3903
▁kiam	-12.3904
▁nplij	-12.3904
▁OZ	-12.3904
▁birthday	-12.3905
▁popular	-12.3906
▁false	-12.3906
--------------	-12.3909
▁asking	-12.3909
▁Phanyas	-12.3911
▁dlaig	-12.3912
mloog	-12.3912
▁CUA	-12.3914
▁MOUA	-12.3917
▁txaw	-12.392
▁Thau	-12.3922
2000	-12.3922
▁predict	-12.3925
▁53	-12.3928
▁loom	-12.3933
▁nraj	-12.3934
▁Special	-12.3937
tooj	-12.394
▁Thi	-12.394
▁bath	-12.3942
lav	-12.3948
meskas	-12.395
▁virus	-12.395
▁Ka	-12.3951
▁Lat	-12.3954
▁...........	-12.3963
▁states	-12.3966
cawv	-12.397
▁Min	-12.3986
free	-12.3991
true	-12.3992
!!!!!!!!!!!!!!!!	-12.3993
▁nya	-12.3994
▁peblub	-12.4002
▁koomsiab	-12.4003
▁zogli	-12.4005
are	-12.4006
▁xyu	-12.4006
▁$3	-12.4008
po	-12.4011
▁hm	-12.4012
▁SAM	-12.4016
▁yuavluag	-12.4017
ian	-12.4018
▁Bank	-12.4019
xxx	-12.402
nyeem	-12.4021
▁$$$	-12.4023
▁Degree	-12.4025
▁clue	-12.4025
▁cool	-12.4026
with	-12.4026
▁qu	-12.4026
▁fear	-12.4028
▁Judge	-12.4029
▁ritual	-12.403
▁yoglawv	-12.4031
▁clip	-12.4032
▁tank	-12.4032
▁vajtse	-12.4033
▁neutral	-12.4033
▁suffer	-12.4037
▁qhovchaw	-12.4037
▁Pho	-12.4038
▁SCHOOL	-12.4038
▁brought	-12.4038
▁Mesliskas	-12.4038
▁Nyawj	-12.4038
▁NTXIM	-12.4039
▁Kasmoos	-12.4039
▁NYIAG	-12.4039
▁BKK	-12.4039
▁BIAS	-12.4039
▁Nhub	-12.4039
▁Vow	-12.404
▁Xaivxwm	-12.404
▁xyeeb	-12.404
tsoob	-12.404
▁Brgds	-12.404
▁txomfaav	-12.404
▁Middle	-12.4043
▁fine	-12.4043
▁NIM	-12.4043
Lqh	-12.4043
▁THAB	-12.4043
▁11,	-12.4044
▁Tshoob	-12.4045
HHPC	-12.4045
▁LAW	-12.4046
▁Poob	-12.4047
▁haha	-12.4047
▁peaceful	-12.4048
▁FACT	-12.4049
guC	-12.405
▁Pastor	-12.4052
▁..............	-12.4053
▁nqas	-12.4055
▁hna	-12.4059
▁size	-12.4061
▁tomqaab	-12.4066
say	-12.4077
ba	-12.4082
aG	-12.4084
ted	-12.4108
lais	-12.4113
rooj	-12.4118
▁WAR	-12.412
▁qej	-12.4122
▁thu	-12.4125
ive	-12.4133
▁cu	-12.4135
)"	-12.4141
▁knowing	-12.4144
▁vaag	-12.4151
▁........	-12.4152
nh	-12.4157
▁naim	-12.4165
il	-12.4165
▁kais	-12.4169
▁movement	-12.4172
▁Park	-12.4172
▁Force	-12.4172
tshuaj	-12.4174
▁nre	-12.4175
▁appropriate	-12.4177
▁mobx	-12.4178
▁Hahahahahahaha	-12.4179
▁spell	-12.418
▁Phagna	-12.4181
▁comprehension	-12.4181
▁Xiengkhouang	-12.4181
▁Taamsim	-12.4181
▁lunch	-12.4182
▁morning	-12.4182
▁Medicine	-12.4183
▁paragraph	-12.4183
▁XUB	-12.4184
▁Npiab	-12.4184
▁background	-12.4184
▁Maybe	-12.4184
▁secretary	-12.4185
▁kajntug	-12.4185
▁YP	-12.4185
▁catholic	-12.4185
looj	-12.4185
▁often	-12.4187
▁higher	-12.4188
▁shame	-12.4189
Maiv	-12.4192
▁tswvcuab	-12.4192
▁..........	-12.4197
lem	-12.4199
rel	-12.42
4&	-12.4201
▁wa	-12.4202
▁nqaaj	-12.4204
▁Huv	-12.4207
▁estimate	-12.4208
came	-12.4209
▁months	-12.4209
▁1971	-12.421
▁ABC	-12.4211
ize	-12.4216
thab	-12.422
▁wow	-12.4222
▁path	-12.4232
▁round	-12.4242
nk	-12.4244
▁ru	-12.4244
▁ps	-12.4253
hli	-12.4261
Laos	-12.4261
ghia	-12.427
You	-12.427
▁develop	-12.4273
ni	-12.4276
Brandon	-12.4279
from	-12.4282
Tom	-12.4286
▁Take	-12.4288
khawv	-12.4289
▁COMMIE	-12.4295
ciaj	-12.4305
▁phaub	-12.4307
▁sacrifice	-12.4312
▁SEE	-12.4312
▁Naiphoo	-12.4313
▁suspect	-12.4314
▁certificate	-12.4314
▁NEED	-12.4325
lau	-12.4325
▁Chairman	-12.4326
▁Administration	-12.4327
▁dovcav	-12.4327
▁Thuj	-12.4327
▁otherwise	-12.4327
▁denied	-12.4328
▁complete	-12.4329
▁nqaum	-12.4329
▁February	-12.4329
▁thimxav	-12.433
▁ntsuabxwm	-12.433
▁Pebcaug	-12.433
▁pliab	-12.4331
▁Ntsum	-12.4331
▁nhria	-12.4331
▁zaab	-12.4333
▁ywjsiab	-12.4335
▁TOJ	-12.4336
▁nraa	-12.4336
▁thailand	-12.4338
▁ram	-12.434
▁Dlub	-12.4344
▁yaag	-12.4346
▁Tsog	-12.4346
▁honey	-12.4347
▁experienced	-12.4348
▁rep	-12.4352
▁caused	-12.4352
▁laugh	-12.4369
▁pu	-12.4371
▁pluam	-12.4375
bla	-12.4377
▁laudh	-12.4381
▁qhovncauj	-12.4383
▁WORK	-12.4385
uab	-12.4387
can	-12.4391
Kev	-12.4402
age	-12.4404
▁pain	-12.4409
Teb	-12.4418
▁pebMoob	-12.442
respect	-12.4426
Anti	-12.4427
Puas	-12.4428
Dag	-12.4429
▁avoid	-12.443
▁dhaus	-12.4449
▁PS	-12.4453
▁33	-12.4458
▁harm	-12.4459
lag	-12.4459
▁fellow	-12.446
▁baht	-12.446
▁Home	-12.446
▁trick	-12.446
▁machine	-12.4461
▁exist	-12.4462
▁follower	-12.4462
▁quote	-12.4465
▁yee	-12.4467
when	-12.4472
▁delete	-12.4473
▁pray	-12.4473
▁Ntxuam	-12.4473
36	-12.4473
▁AMELIVKA	-12.4473
▁RIAM	-12.4473
▁TSHEB	-12.4473
pdf	-12.4474
▁txhoov	-12.4474
▁missionary	-12.4474
▁Tsaam	-12.4475
▁Earth	-12.4475
▁ignore	-12.4475
▁OTHER	-12.4476
▁zawj	-12.4476
▁chapter	-12.4477
▁phajhauj	-12.4478
▁Nuj	-12.4478
▁danger	-12.4479
xaj	-12.4479
▁qhiv	-12.448
▁manager	-12.4481
▁ruj	-12.4481
▁npawm	-12.4481
▁unity	-12.4481
▁diplomatic	-12.4483
▁temptation	-12.4483
▁Cuag	-12.4484
▁Xim	-12.4485
UM	-12.4485
▁CAB	-12.4488
▁yawmsaub	-12.4489
▁nyaus	-12.4489
▁dawv	-12.4493
▁online	-12.4494
▁WAY	-12.4494
▁ntshuas	-12.4495
IV	-12.4498
▁Haib	-12.4507
▁kawgnkaus	-12.4507
▁principles	-12.4507
▁taken	-12.4508
cyB	-12.4508
▁NAV	-12.4516
▁huua	-12.4519
▁Kha	-12.4522
▁vajhmoob	-12.4524
78	-12.453
aab	-12.4534
▁oppose	-12.454
RE	-12.4551
▁PO	-12.4557
hawm	-12.4561
▁Vajhmoob	-12.4563
▁Nro	-12.4564
▁gun	-12.4564
▁Raw	-12.4568
Tswv	-12.4569
▁Xat	-12.457
wikipedia	-12.4572
▁Liv	-12.4575
freedom	-12.4575
including	-12.4576
▁TH	-12.4577
▁44	-12.4584
▁BIG	-12.4585
▁soul	-12.4587
▁suit	-12.4593
▁ntsau	-12.4594
▁murder	-12.4594
▁worship	-12.4599
95	-12.4602
LiB	-12.4604
▁72	-12.4607
▁Tig	-12.4612
▁Achan	-12.4613
rab	-12.4617
▁imagine	-12.462
▁BIBLE	-12.4623
▁NRAB	-12.4623
▁OTV	-12.4623
▁mesnyuam	-12.4623
▁Nquab	-12.4623
▁react	-12.4624
▁sacramento	-12.4624
▁NTSEJ	-12.4625
▁Teg	-12.4625
▁TXUJ	-12.4625
▁Pajkaub	-12.4626
▁NTSHAV	-12.4626
=1&	-12.4626
▁Assistant	-12.4626
▁Vice	-12.4627
▁Ty	-12.4627
▁vientiane	-12.4627
▁confirmed	-12.4628
▁nqhes	-12.4628
▁Welcome	-12.4628
▁nploog	-12.4628
▁Zaub	-12.4629
▁root	-12.4629
▁resign	-12.463
▁Po	-12.463
▁KWVTIJ	-12.4631
▁LAUD	-12.4631
▁Loom	-12.4631
▁ncawg	-12.4634
▁nyuabsiab	-12.4634
eem	-12.4634
▁coog	-12.4634
khoom	-12.4634
▁learning	-12.4637
▁TSIJ	-12.4638
▁tibleeg	-12.4638
▁hide	-12.4638
▁TIV	-12.4638
▁ibtxhia	-12.4641
▁nplhu	-12.4643
nyiag	-12.4644
▁1969	-12.4645
Lqb	-12.4647
▁plu	-12.4651
LS	-12.4652
▁details	-12.4655
▁npaab	-12.4659
▁.........	-12.4663
more	-12.4667
▁HS	-12.4668
▁NRHO	-12.467
▁asia	-12.467
hoom	-12.4671
▁drs	-12.4682
▁bab	-12.4689
▁Pw	-12.4691
rk	-12.4693
▁art	-12.4709
tshoob	-12.4711
kaus	-12.4716
taug	-12.4717
▁dabteb	-12.4717
▁victim	-12.4722
Ntsuab	-12.4726
political	-12.4726
Xeeb	-12.4727
flip	-12.4727
history	-12.4727
KEV	-12.4727
Thiab	-12.4728
▁123	-12.4729
▁npa	-12.4729
nyuam	-12.4732
tswj	-12.4734
post	-12.474
▁ntom	-12.4749
khaws	-12.4751
▁NTSUAG	-12.4761
▁ameska	-12.4761
▁millionaire	-12.4761
▁1984	-12.4765
▁Ki	-12.4766
▁zees	-12.4767
▁ntximli	-12.4772
▁COURT	-12.4774
▁Namphong	-12.4774
Limhiam	-12.4774
▁NKIM	-12.4774
▁FAJ	-12.4774
▁CHIJ	-12.4774
▁MOOG	-12.4774
▁Ntujkag	-12.4774
▁Western	-12.4774
▁testify	-12.4775
▁Lwg	-12.4775
▁sleep	-12.4776
▁thuav	-12.4776
▁internal	-12.4777
▁phmd	-12.4777
▁kingdom	-12.4778
▁TSIAJ	-12.4778
▁resistance	-12.4779
▁motel	-12.4779
▁sick	-12.478
▁tsaaj	-12.478
▁ETC	-12.4782
▁LOM	-12.4782
▁miskas	-12.4783
▁Camp	-12.4785
ily	-12.4785
▁nthos	-12.4786
▁Muag	-12.4787
▁ntseej	-12.4791
tLS	-12.4792
▁nij	-12.4804
▁rob	-12.4812
▁career	-12.4815
Lqn	-12.4816
▁ntxhia	-12.4817
▁Ci	-12.4817
▁gene	-12.4823
▁kevxaav	-12.4823
▁extra	-12.4826
▁24,	-12.4827
daws	-12.483
▁tojsiab	-12.483
LHUB	-12.4832
▁Tai	-12.4833
son	-12.4835
09	-12.4838
power	-12.4844
les	-12.4844
pas	-12.4854
▁sibzog	-12.4855
muas	-12.4858
▁13,	-12.4879
Zaum	-12.4881
hloov	-12.4882
▁qabntuj	-12.489
▁npaas	-12.4896
▁sin	-12.4897
blablabla	-12.4898
pum	-12.4899
=9	-12.4901
▁seeb	-12.4901
▁khai	-12.4906
Ces	-12.491
koos	-12.4914
cc	-12.4915
▁violation	-12.4916
▁virgin	-12.4917
▁chicken	-12.4918
...(	-12.492
zos	-12.4926
▁Coalition	-12.4928
▁Sayaboury	-12.4928
▁Hartwick	-12.4928
▁disease	-12.4928
▁PAWG	-12.4928
▁Beemoua	-12.4928
▁Veescam	-12.4928
▁LAIV	-12.4928
▁pretend	-12.4929
▁fault	-12.493
▁vom	-12.493
▁nkos	-12.493
▁askiv	-12.493
▁Niamntawv	-12.493
▁ENGLISH	-12.493
▁nkuj	-12.4931
▁ncag	-12.4931
▁vaajpov	-12.4931
▁subtuam	-12.4932
▁Sayasith	-12.4932
▁TAWB	-12.4932
▁Tobe	-12.4932
▁LAWB	-12.4933
▁teeg	-12.4934
▁rhe	-12.4934
▁san	-12.4935
▁Fang	-12.4936
▁resources	-12.4938
▁tsaig	-12.494
▁lhi	-12.494
long	-12.4941
▁soldiers	-12.4941
▁NTAUS	-12.4941
▁Meng	-12.4942
▁poos	-12.4945
▁hl	-12.4945
▁billions	-12.4946
KIAG	-12.4947
▁faim	-12.4951
radio	-12.4952
▁nations	-12.4952
▁Aw	-12.4952
▁5%	-12.4954
liv	-12.4955
▁rumors	-12.4955
▁ged	-12.4956
▁npeeb	-12.4957
xim	-12.4958
▁kuvlub	-12.496
▁muav	-12.496
tsuag	-12.4969
▁NTSIA	-12.4975
tis	-12.4982
quas	-12.4985
▁programs	-12.4985
▁khee	-12.4986
▁khij	-12.4991
LHI	-12.4992
▁hin	-12.4994
bee	-12.4996
OB	-12.4997
▁en	-12.5001
▁PAM	-12.5003
!!!!!!!!	-12.5004
RUAM	-12.5008
ntxawg	-12.5029
▁foot	-12.5032
fe	-12.5033
Nkauj	-12.5037
Twb	-12.5041
▁Sang	-12.5047
Noj	-12.5048
qus	-12.5056
▁Xou	-12.5069
▁application	-12.5071
WI	-12.5072
▁Lak	-12.5073
▁mais	-12.5077
▁khus	-12.5082
▁careful	-12.5083
▁PAJCAI	-12.5084
▁MONEY	-12.5084
▁xabdias	-12.5084
▁PHAB	-12.5085
▁TXWM	-12.5085
▁apology	-12.5085
▁Pivtxwv	-12.5085
▁ncaav	-12.5085
▁valentine	-12.5085
▁Federal	-12.5086
▁Sisili	-12.5086
▁phlis	-12.5086
▁PLAWV	-12.5086
▁nphob	-12.5086
▁xeevxwm	-12.5087
▁observation	-12.5087
▁thaag	-12.5087
▁nyablaaj	-12.5088
▁TSWJ	-12.5088
▁financial	-12.5088
▁NplogLiab	-12.5089
▁intelligence	-12.5089
▁trash	-12.5089
▁Tsavneeg	-12.509
▁wives	-12.509
iuC	-12.509
▁Pum	-12.5091
▁Village	-12.5094
bm	-12.5095
▁hlaws	-12.5095
mi	-12.5098
▁died	-12.51
per	-12.51
▁qubqab	-12.5103
▁reasoning	-12.5104
▁20,	-12.5107
▁Leejhmoob	-12.5108
▁candidates	-12.5108
rua	-12.5109
▁cher	-12.5113
▁yib	-12.5115
tshum	-12.5118
▁BG	-12.5121
▁ntsoos	-12.5124
??????	-12.5129
▁Men	-12.513
▁interests	-12.5135
▁Jon	-12.5135
ILL	-12.5143
-7	-12.515
▁arrest	-12.5158
nyas	-12.516
▁Blogteb	-12.5165
▁==	-12.5166
▁bar	-12.5173
yaam	-12.5173
▁versa	-12.5179
ei	-12.5179
▁Sen	-12.5183
vd	-12.5184
zaub	-12.5188
right	-12.5191
▁sue	-12.5194
Laura	-12.5196
Neohom	-12.5196
hwm	-12.5211
▁,,,	-12.5218
▁npli	-12.5218
▁meka	-12.5218
▁$500	-12.5223
▁MEJ	-12.5229
▁Officer	-12.5231
▁Group	-12.5233
fg	-12.5237
▁store	-12.5238
▁newspaper	-12.5239
WV	-12.5241
▁struggle	-12.5243
▁Hamilton	-12.5243
▁Uablag	-12.5243
▁VUAG	-12.5243
▁xubntiag	-12.5243
▁PLUAG	-12.5243
▁concept	-12.5244
▁pleeg	-12.5244
▁dedicate	-12.5244
▁broken	-12.5244
▁zomzaws	-12.5244
▁Yej	-12.5244
▁vajncuab	-12.5245
▁NPAM	-12.5245
▁Pejxeem	-12.5245
▁Wednesday	-12.5245
▁HERE	-12.5245
▁SOME	-12.5246
▁spread	-12.5246
▁BLOGLIAB	-12.5246
▁Sooblwj	-12.5246
Section	-12.5246
▁FREEDOM	-12.5246
▁TSHOOB	-12.5246
▁duali	-12.5246
quC	-12.5247
▁STD	-12.5247
▁Pacific	-12.5247
▁TswvYim	-12.5247
▁Hong	-12.5247
▁catch	-12.5248
▁20%	-12.5248
▁Services	-12.5249
▁txhawjxeeb	-12.5249
▁dlib	-12.525
▁npawb	-12.525
▁99	-12.5254
▁tagkhi	-12.5254
▁central	-12.5256
▁400	-12.5256
▁VM	-12.5257
▁cau	-12.5259
▁playing	-12.5264
▁LF	-12.5264
▁tiom	-12.5266
▁29,	-12.5269
▁officers	-12.5273
plig	-12.5274
ntug	-12.5279
▁yais	-12.5282
▁ntsho	-12.529
xub	-12.5293
38	-12.5299
thaj	-12.5299
▁Peoples	-12.5302
▁Nin	-12.5303
▁worse	-12.5303
▁48	-12.5307
▁red	-12.5315
ray	-12.5315
lig	-12.532
▁minor	-12.5321
Ha	-12.5323
thuam	-12.5332
hmoobruam	-12.5337
▁THAI	-12.534
▁ah	-12.5346
dig	-12.5347
▁Nod	-12.5347
▁np	-12.5348
nti	-12.5349
=6	-12.5349
▁_	-12.535
lawb	-12.5356
old	-12.5357
world	-12.5357
▁modern	-12.5358
Neb	-12.5361
▁fu	-12.5361
▁ntsiav	-12.5365
MUS	-12.5368
▁observe	-12.5375
▁HR	-12.5375
fi	-12.5376
▁Yau	-12.5377
▁nominate	-12.5378
ud	-12.5389
▁sawd	-12.5389
▁favorite	-12.539
▁LEADER	-12.539
▁expression	-12.539
▁Chaw	-12.5392
cam	-12.5393
▁approve	-12.5401
▁introduce	-12.5404
▁Shur	-12.5404
▁nyaablaaj	-12.5404
▁Xaivnceb	-12.5404
▁memory	-12.5404
▁moospheeb	-12.5404
▁CEEV	-12.5404
▁YWG	-12.5404
▁zoosab	-12.5405
▁NRAUG	-12.5406
▁economy	-12.5407
▁sensitive	-12.5407
▁therapy	-12.5407
▁ceevfaaj	-12.5407
▁LES	-12.5408
▁category	-12.5408
▁caijnyoog	-12.5408
▁Health	-12.5408
▁vuas	-12.5408
▁counter	-12.5408
▁Twv	-12.5409
▁Forum	-12.5409
▁cavpem	-12.5409
▁prejudice	-12.5409
▁8-10	-12.541
▁dictionary	-12.5411
▁phaav	-12.5411
▁Like	-12.5412
▁FIRST	-12.5412
▁plias	-12.5413
▁600	-12.5414
▁usually	-12.5415
▁Kuab	-12.5416
▁phi	-12.5416
▁Am	-12.5418
▁kutaw	-12.5419
▁WB	-12.5421
▁tshawv	-12.5421
▁nploojsiab	-12.5421
uaj	-12.5422
▁lbs	-12.5422
naj	-12.5428
-30	-12.5429
▁qabnab	-12.5432
▁duj	-12.5445
god	-12.5449
sob	-12.5461
▁txhuayam	-12.5461
tw	-12.5461
▁fes	-12.5462
kws	-12.5463
▁Eau	-12.5464
▁npluag	-12.5468
tsoom	-12.5474
mem	-12.5475
▁Xyoob	-12.5489
▁smiles	-12.5499
▁Ntoo	-12.5504
▁1996	-12.5509
▁kick	-12.5514
self	-12.5515
▁leejtxiv	-12.5515
▁duaj	-12.5518
PAUL	-12.552
▁der	-12.5521
tejzaum	-12.5524
ou	-12.5526
op	-12.5528
eeg	-12.5532
▁Ze	-12.5537
ct	-12.5539
Gen	-12.5544
aka	-12.5546
▁assumption	-12.5555
▁Ameska	-12.5555
▁nurse	-12.5556
▁Tank	-12.5556
▁thum	-12.5564
▁CWHP	-12.5568
▁DejNtshiab	-12.5568
▁Khamtay	-12.5568
▁glad	-12.5568
▁surithay	-12.5568
▁NTIAJ	-12.5568
▁ordinary	-12.5568
▁NKAUM	-12.5568
▁rally	-12.5568
▁Tsaug	-12.5569
▁ntxee	-12.5569
▁Interesting	-12.5569
▁taiscaus	-12.5569
▁Carolina	-12.5569
▁conclude	-12.5569
▁Chuck	-12.5569
▁TSHEEJ	-12.557
▁Tsawb	-12.557
▁reunion	-12.5572
tOC	-12.5572
▁commit	-12.5573
▁pemsij	-12.5574
▁HAJ	-12.5575
▁Xwb	-12.5575
▁tshiav	-12.5575
▁plav	-12.5576
▁groom	-12.5576
▁tunoob	-12.5577
▁blogliab	-12.5577
▁fruit	-12.5577
▁MoobLeeg	-12.5577
▁yub	-12.5578
txaus	-12.558
▁zero	-12.558
▁TIG	-12.5581
▁Pawg	-12.5582
▁isn	-12.5583
▁SIA	-12.5589
mon	-12.5593
▁tshawj	-12.5595
▁thus	-12.5596
▁lamkoom	-12.5596
▁Xia	-12.5603
▁kong	-12.5611
tebchaws	-12.5612
▁yum	-12.5614
▁Moo	-12.5615
▁tsislam	-12.5615
uY	-12.5616
▁Too	-12.5616
▁zai	-12.5616
▁individuals	-12.5618
▁heevx	-12.5621
▁ikuv	-12.5627
▁Taag	-12.5627
▁res	-12.563
tsw	-12.563
▁Maij	-12.563
▁aid	-12.5642
huam	-12.5644
ble	-12.5649
▁LOVE	-12.565
over	-12.565
▁txivneeg	-12.5657
▁naws	-12.5658
▁books	-12.5658
▁hlib	-12.5668
ns	-12.5669
▁beat	-12.567
haha	-12.567
▁sides	-12.5671
UG	-12.568
TXIV	-12.5687
▁origin	-12.5687
why	-12.5688
▁Rhaw	-12.5693
ea	-12.5693
▁Ta	-12.5693
gd	-12.5698
▁xaib	-12.5698
vang	-12.5701
80	-12.5708
▁Py	-12.5712
▁grand	-12.5714
▁Nimno	-12.572
-10	-12.5721
▁drink	-12.5721
leC	-12.5722
▁street	-12.5724
hohoho	-12.5724
ary	-12.5725
▁kablia	-12.5726
▁Politic	-12.5729
▁LOMZEM	-12.5735
▁Smith	-12.5735
▁Texas	-12.5735
▁ZERO	-12.5735
▁relate	-12.5735
▁TSHAIB	-12.5735
▁kidding	-12.5735
▁CAWV	-12.5736
▁txavtxim	-12.5736
▁access	-12.5736
▁milwaukee	-12.5736
▁spend	-12.5736
▁zujzug	-12.5736
▁depression	-12.5737
▁tittle	-12.5737
▁1999	-12.5737
▁particular	-12.5737
▁hatred	-12.5738
▁nruav	-12.5738
▁tsimtxiaj	-12.5739
▁forgot	-12.5739
▁XOV	-12.5739
▁pride	-12.5739
▁PLAWS	-12.5739
▁wishes	-12.5739
▁Ntshaw	-12.574
▁nchaav	-12.574
▁acres	-12.574
▁recognized	-12.574
▁ntsaug	-12.5741
▁Puav	-12.5741
▁productive	-12.5741
TO	-12.5743
▁Qeej	-12.5743
classified	-12.5744
▁fish	-12.5745
▁nrawv	-12.5745
▁pajlug	-12.5745
▁ntxaib	-12.5746
▁talked	-12.5746
▁diaj	-12.5747
▁Secret	-12.5747
▁npeeg	-12.575
▁1997	-12.5751
▁customers	-12.5754
▁Phd	-12.5754
▁THEN	-12.5756
▁values	-12.5756
▁scholars	-12.576
▁ND	-12.5763
▁rav	-12.5765
▁LONG	-12.5771
▁ibzaug	-12.5775
liaj	-12.5777
▁pwv	-12.5777
▁txhau	-12.578
▁interpret	-12.5782
▁RS	-12.5783
▁hee	-12.5791
▁txws	-12.5793
Tau	-12.5816
▁tsaag	-12.5816
▁phum	-12.5819
▁kao	-12.5823
eev	-12.5824
VERY	-12.5824
▁tubntxhais	-12.5827
▁daib	-12.5827
▁SAY	-12.583
kevcai	-12.5839
very	-12.5839
▁TL	-12.5849
nhub	-12.585
kpnp	-12.5856
Niag	-12.5858
GVP	-12.5858
Dej	-12.5865
▁Sa	-12.5874
puav	-12.5877
37	-12.5878
▁ncee	-12.5887
▁topics	-12.5888
▁vimkuv	-12.5897
▁ntxhoo	-12.59
▁location	-12.59
▁complaint	-12.5903
▁1983	-12.5904
hotobucket	-12.5904
▁priority	-12.5904
▁1988	-12.5904
▁Mouanoutoua	-12.5904
▁VISA	-12.5904
▁TAKE	-12.5904
▁Alliance	-12.5904
▁Nyablaaj	-12.5904
▁Quaspuj	-12.5904
▁Cities	-12.5904
▁Vaag	-12.5905
▁18-25	-12.5905
▁Nraj	-12.5905
▁ZAIS	-12.5905
▁Pojnom	-12.5905
▁universe	-12.5905
▁qhuabqhia	-12.5905
▁dangerous	-12.5905
▁Suavdlawg	-12.5906
▁thru	-12.5906
▁tabmeeg	-12.5906
▁Txawjxab	-12.5906
▁regime	-12.5906
▁MAKE	-12.5906
▁cibnyeej	-12.5907
▁YWM	-12.5908
▁HWM	-12.5908
▁thoov	-12.5909
▁STUPID	-12.5909
▁YAIM	-12.5909
▁tojroob	-12.5909
▁naikhu	-12.591
▁Ntsuabxwm	-12.591
▁Khuam	-12.591
▁txhog	-12.5911
▁xabmaim	-12.5912
▁LIFE	-12.5912
▁hiavtxwv	-12.5913
▁blue	-12.5913
▁Licas	-12.5915
kua	-12.5916
▁rice	-12.5916
▁ntho	-12.5919
▁plain	-12.592
▁Ncai	-12.592
▁ntaa	-12.5921
▁Meem	-12.5921
▁gate	-12.5922
MS	-12.5923
,,,,	-12.5927
▁mix	-12.593
▁slow	-12.5931
▁yem	-12.5932
▁yawb	-12.5935
then	-12.5935
▁Son	-12.5949
▁tnv	-12.5951
▁views	-12.5954
▁Will	-12.5956
awb	-12.5957
▁mobsab	-12.5957
Vam	-12.596
Lqq	-12.5962
lwg	-12.5964
tsov	-12.5964
▁ncov	-12.5965
▁hlas	-12.597
va	-12.5975
▁Sai	-12.5985
▁tejno	-12.5989
▁Oo	-12.599
▁txhas	-12.5995
zag	-12.6004
▁hehe	-12.6004
aus	-12.6009
ally	-12.6013
▁credits	-12.6026
▁Leem	-12.6027
Farmer	-12.6028
IHR	-12.6031
tnv	-12.6031
Xav	-12.6036
ntsej	-12.6039
▁nkua	-12.604
1600.	-12.604
▁ntxha	-12.6046
▁Ra	-12.6046
aim	-12.6049
Mus	-12.6054
lino	-12.6054
▁$2	-12.6059
▁CARE	-12.6062
▁festival	-12.6062
▁turkey	-12.6062
NCj	-12.6063
▁daughter	-12.6063
▁Meska	-12.6064
▁priest	-12.6064
let	-12.6065
▁speaker	-12.6065
▁perspective	-12.6065
▁cook	-12.6065
▁input	-12.6065
▁12,	-12.6068
▁scholar	-12.6069
▁adult	-12.6069
▁ncus	-12.607
▁FRESNO	-12.6077
▁WOULD	-12.6077
▁Conference	-12.6077
▁iraq	-12.6077
▁MHoob	-12.6077
▁Chupheng	-12.6077
▁Chiangmai	-12.6077
▁Claire	-12.6077
▁planning	-12.6077
▁pajpaws	-12.6077
▁Xyaum	-12.6077
▁Asmelikas	-12.6077
▁HSP	-12.6077
▁PHOOJ	-12.6077
▁giving	-12.6077
▁gang	-12.6078
▁npaav	-12.6078
▁cwjsoquav	-12.6078
▁CAUS	-12.6078
▁firm	-12.6078
▁clinic	-12.6079
▁LEVEL	-12.6079
▁nplaub	-12.6079
▁nkaujstpaul	-12.6079
▁NPEEG	-12.608
siav	-12.608
▁Txawv	-12.608
▁nplaws	-12.608
▁promised	-12.6081
▁zaubmov	-12.6081
▁cwb	-12.6082
▁AKA	-12.6082
▁freely	-12.6085
▁nkab	-12.6085
▁female	-12.6085
▁Mayor	-12.6086
▁nraws	-12.6087
▁kwg	-12.6088
▁4-	-12.6089
▁contradict	-12.6091
▁tsooj	-12.6092
qha	-12.6093
▁gift	-12.6093
▁qaim	-12.6094
▁27,	-12.6096
▁2001	-12.6104
Haiv	-12.6109
▁10-20	-12.6111
▁mia	-12.6115
▁thias	-12.6117
▁Zoosiab	-12.6123
▁!!!!	-12.6124
▁Con	-12.6129
▁plov	-12.613
hahahhaha	-12.613
▁mogx	-12.6131
▁De	-12.6139
02	-12.6142
▁pooj	-12.6147
▁.............	-12.615
pheng	-12.6152
ple	-12.6153
▁thaumkuv	-12.6157
▁txhiam	-12.616
cob	-12.6162
nqa	-12.6162
▁Lim	-12.6164
▁hahahhaha	-12.6172
▁khosiab	-12.6173
its	-12.6173
rg	-12.6175
hot	-12.6182
khib	-12.6184
▁ntob	-12.6187
OS	-12.6187
rely	-12.6195
▁ntxhe	-12.6199
lexi	-12.6202
Charlie	-12.6205
▁300,000	-12.6207
KM	-12.6208
▁250	-12.6213
▁$100,000	-12.6216
ntshavpim	-12.6224
▁offend	-12.6229
▁neighbor	-12.6239
▁osh	-12.6242
▁Uali	-12.6243
▁HAM	-12.6243
▁Sou	-12.6243
▁apple	-12.6244
Ho	-12.6244
▁relative	-12.6244
▁Hloov	-12.6246
OK	-12.6251
▁1:	-12.6251
▁TXHEEB	-12.6252
▁afraid	-12.6252
▁Development	-12.6252
▁England	-12.6252
▁mainstream	-12.6252
▁PHIAJ	-12.6252
▁coojpwm	-12.6252
▁Phajhauj	-12.6252
▁Anouvong	-12.6252
▁NEVER	-12.6253
▁twmzeej	-12.6253
▁thoobtsib	-12.6253
▁LPX	-12.6253
▁EARTH	-12.6253
▁NTXIAS	-12.6253
▁Dibiab	-12.6253
▁ndlag	-12.6253
▁Lwv	-12.6253
▁review	-12.6254
albums	-12.6254
▁intent	-12.6254
▁CobFab	-12.6254
▁1950	-12.6254
▁Khib	-12.6255
▁Tias	-12.6255
▁Ncaimtseemnco	-12.6255
▁FOOM	-12.6255
▁beeveev	-12.6255
▁plws	-12.6255
▁qhatxug	-12.6255
LqX	-12.6256
▁Phwvyawm	-12.6256
▁communication	-12.6257
▁considered	-12.6257
▁boring	-12.6257
caij	-12.6257
▁nthawv	-12.6257
▁Theeb	-12.6258
▁whom	-12.626
▁AN	-12.626
▁Nees	-12.6264
▁28,	-12.6265
▁proven	-12.6265
▁OLD	-12.6266
▁deeg	-12.6266
▁nrhw	-12.6266
▁twbywm	-12.6267
▁development	-12.6268
▁3000	-12.6275
TUS	-12.6277
▁note	-12.6278
▁Tsom	-12.6279
Do	-12.6284
▁kad	-12.6284
▁tournament	-12.6288
▁neg	-12.6292
take	-12.6293
▁yoob	-12.6294
pam	-12.6296
cuz	-12.6296
LCB	-12.6301
fwb	-12.6303
▁records	-12.6303
▁nchos	-12.6304
▁000	-12.6304
▁chimx	-12.6305
▁TS	-12.6305
▁Taug	-12.631
▁TI	-12.6311
▁............	-12.6312
▁Npab	-12.6314
▁Nqi	-12.6314
▁ntswb	-12.6319
!.....	-12.6327
▁mammus	-12.6331
gb	-12.6333
▁kevntseeg	-12.6345
▁lived	-12.6345
31	-12.6345
▁Hma	-12.6346
▁SC	-12.6352
2005	-12.6356
▁Khav	-12.6358
35	-12.6367
▁qaa	-12.6371
▁hamtsi	-12.6372
▁positions	-12.6378
▁HLI	-12.6381
▁addition	-12.6382
Victor	-12.6384
LPDR	-12.6384
opinion	-12.6384
▁oy	-12.6386
daim	-12.6388
Hawj	-12.6395
sex	-12.6397
▁180	-12.6398
▁examples	-12.6408
luv	-12.6416
▁Union	-12.6417
files	-12.6418
▁Nav	-12.6419
▁direction	-12.642
▁uniform	-12.642
▁decide	-12.6428
▁evolution	-12.6428
▁religions	-12.6429
▁Funeral	-12.6431
▁Smalley	-12.6431
▁nowadays	-12.6431
▁telephone	-12.6431
▁Kajliag	-12.6431
▁Vaajlugkub	-12.6431
▁treatment	-12.6431
▁nyaij	-12.6431
▁caivplawv	-12.6431
▁Daum	-12.6432
▁Vaugh	-12.6432
▁Region	-12.6432
▁Kingdom	-12.6432
▁WHITE	-12.6433
▁TSHUAJ	-12.6433
▁MUAM	-12.6434
▁harmony	-12.6434
▁TRUE	-12.6434
▁LAKE	-12.6434
▁Thomas	-12.6434
▁floor	-12.6435
▁unite	-12.6435
▁Foung	-12.6435
▁obama	-12.6436
▁jis	-12.6437
xaum	-12.6437
▁whoever	-12.6437
▁Thim	-12.6437
▁NCE	-12.6439
▁Keo	-12.6439
personal	-12.644
tabsim	-12.6441
▁Mekong	-12.6441
▁consequences	-12.6441
▁Khong	-12.6441
▁appointed	-12.6442
▁Daws	-12.6443
▁nplais	-12.6446
▁naisphoo	-12.6446
▁puasyog	-12.6448
▁helping	-12.645
real	-12.645
▁nyoj	-12.6452
▁Tes	-12.6456
▁stars	-12.6457
▁pojkoob	-12.6458
▁txivxaiv	-12.6459
▁plawm	-12.6459
▁1994	-12.6459
▁rate	-12.646
▁ET	-12.6461
kg	-12.6462
life	-12.6465
▁Say	-12.6468
NTR	-12.6471
faab	-12.6471
▁cuabyeej	-12.6472
▁hn	-12.6487
▁AR	-12.6491
▁tejlaus	-12.6493
▁Accord	-12.6497
=5	-12.6498
▁accident	-12.6498
▁nrhau	-12.651
▁yaud	-12.651
sing	-12.6513
▁:):)	-12.6513
uang	-12.6515
kaum	-12.6516
zoov	-12.6526
khaum	-12.653
▁talks	-12.6534
sia	-12.6544
▁COMPUTER	-12.655
General	-12.6551
Christian	-12.6551
If	-12.6553
nees	-12.6565
Madison	-12.6565
nrhiav	-12.6566
tejzag	-12.6566
One	-12.6567
TSIS	-12.6568
▁ntsu	-12.6575
Pab	-12.6583
ku	-12.6584
menyuam	-12.6586
AN	-12.6587
▁ncuv	-12.6596
▁ten	-12.6597
▁tactic	-12.6601
▁NGO	-12.6601
kim	-12.6601
▁KIS	-12.6604
ntxim	-12.6605
▁schools	-12.6607
▁channel	-12.661
cua	-12.661
▁argue	-12.6611
▁finish	-12.6611
▁NOOG	-12.6612
▁ibtxhis	-12.6612
▁satisfy	-12.6612
▁NYHAV	-12.6612
▁THIM	-12.6613
▁Rhwv	-12.6613
▁Zuagpaj	-12.6613
▁DEEV	-12.6613
▁Justice	-12.6613
▁DejDawb	-12.6613
▁kabxev	-12.6613
▁Republican	-12.6613
▁nhav	-12.6614
▁khabmeem	-12.6614
▁qhub	-12.6615
▁pizza	-12.6615
▁DAO	-12.6615
▁Hawm	-12.6615
▁clearly	-12.6615
▁kitchen	-12.6615
mag	-12.6616
▁KEEJ	-12.6616
▁Kaws	-12.6617
▁PKM	-12.6617
▁75%	-12.6617
▁Uabnyuab	-12.6617
▁npleg	-12.6617
▁POLITIC	-12.6617
▁tegnum	-12.6617
▁NTES	-12.6618
▁nkuav	-12.6619
▁compound	-12.662
▁LAB	-12.662
▁MEKAS	-12.6621
HMONG	-12.6621
▁Tsoob	-12.6622
▁limited	-12.6622
ton	-12.6623
▁KAUB	-12.6625
▁track	-12.6627
▁calling	-12.6627
npaj	-12.6627
▁sent	-12.6628
▁Pajcai	-12.6628
frm	-12.6629
TSEEM	-12.663
▁Yaim	-12.663
proposed	-12.6634
▁Kevin	-12.6638
▁yawj	-12.664
▁lubsijhawm	-12.6643
bSB	-12.6646
▁ntshab	-12.6648
▁ill	-12.6649
▁BAD	-12.6649
▁txhaav	-12.6652
▁determine	-12.6654
ncu	-12.6659
=2	-12.6663
Neeg	-12.6664
▁lwb	-12.6665
them	-12.6668
hum	-12.6672
▁Brandon	-12.6672
▁dus	-12.6676
Txivplig	-12.6683
mis	-12.6692
▁Hmooblees	-12.6696
▁twglos	-12.6696
▁$3000	-12.67
▁Ok	-12.671
sy	-12.6722
xecutive	-12.6723
txha	-12.6729
▁mid	-12.6737
mog	-12.6738
▁australia	-12.6749
Vwj	-12.6752
list	-12.6752
oog	-12.6754
tiv	-12.6757
▁nrha	-12.6767
▁tshuag	-12.6768
▁QH	-12.6776
cev	-12.6783
▁contribution	-12.6784
▁Point	-12.6787
vauv	-12.679
▁500,000	-12.6791
klos	-12.6792
▁sibhais	-12.6794
▁cojdab	-12.6796
▁1967	-12.6797
▁john	-12.6797
▁SECRET	-12.6798
▁credibility	-12.6798
▁KASXIM	-12.6798
▁HAVZOOV	-12.6798
▁Thaksin	-12.6798
▁cuamtshuam	-12.6798
▁nkhawb	-12.6798
▁Dara	-12.6798
▁yrs	-12.6798
▁Thajying	-12.6799
▁Kaisone	-12.6799
▁Ntiajteb	-12.68
▁fix	-12.68
▁Bokeo	-12.68
▁Wahoua	-12.68
▁emotional	-12.68
▁apart	-12.68
▁KWS	-12.6801
▁Yaag	-12.6802
▁PAUV	-12.6802
Lqw	-12.6802
▁Nqaij	-12.6803
▁Liscuab	-12.6803
▁Tejzag	-12.6803
▁lholi	-12.6803
▁TXAIS	-12.6803
▁Hlwb	-12.6804
▁Did	-12.6804
▁PUJ	-12.6804
▁permanent	-12.6804
▁Our	-12.6804
▁legally	-12.6805
▁COG	-12.6806
▁Huaj	-12.6806
▁Npoj	-12.6807
▁Qub	-12.6808
▁pr	-12.681
▁MONG	-12.6813
▁txhuax	-12.6815
▁sports	-12.6816
▁Nang	-12.6817
▁JD	-12.6819
▁COME	-12.6819
▁square	-12.6821
!!!!!!!	-12.6826
▁near	-12.6826
▁hrs	-12.6827
▁qhaab	-12.6833
ntag	-12.6834
▁demonstrate	-12.6843
▁tasluaj	-12.6843
sua	-12.685
ane	-12.6854
▁casab	-12.6854
▁gets	-12.6856
▁thaumkawg	-12.6857
rt	-12.6857
oz	-12.686
▁Sala	-12.6863
▁155	-12.6864
▁mws	-12.6864
▁QAU	-12.6864
▁Rhia	-12.6874
▁Xas	-12.6876
end	-12.6881
!!!!!!!!!	-12.6887
LqN	-12.6889
:"	-12.6889
▁dreams	-12.6893
pauv	-12.6894
▁oil	-12.6895
lhob	-12.6899
pro	-12.6899
plaws	-12.6904
laib	-12.6909
ier	-12.6909
ntxub	-12.6911
▁Pua	-12.6914
▁dhaw	-12.6915
▁Npla	-12.6923
▁Rep	-12.6924
American	-12.6926
▁sy	-12.6929
byB	-12.6929
▁mees	-12.6932
our	-12.6933
▁Leaders	-12.6935
30,000	-12.6935
education	-12.6939
stabber	-12.6939
TIAMSIS	-12.6939
sawvdaws	-12.694
pobzeb	-12.694
Muab	-12.6941
99	-12.6943
▁Vu	-12.6946
SCH	-12.695
love	-12.6955
AIS	-12.6958
taag	-12.6959
▁Van	-12.6963
01	-12.6972
▁Refugee	-12.6973
▁holiday	-12.6975
▁mormon	-12.6976
▁Haha	-12.6978
huv	-12.6981
▁produce	-12.6985
▁rescue	-12.6986
▁Luther	-12.6986
▁Instead	-12.6986
▁NRAUJ	-12.6987
▁THaib	-12.6987
▁nkhib	-12.6987
▁xuvxwm	-12.6988
▁COUNTRY	-12.6988
▁LisFoom	-12.6988
▁TXHAIS	-12.6988
▁accused	-12.6989
▁nrawj	-12.6989
▁Txajdlis	-12.6989
Lu	-12.6989
▁npaim	-12.6989
▁FAMILY	-12.699
▁MASTER	-12.6991
▁PAUM	-12.6991
▁nrwb	-12.6991
▁lamw	-12.6992
▁lajkam	-12.6992
▁section	-12.6992
▁Thorps	-12.6993
▁HAIB	-12.6995
▁driver	-12.6995
▁Rab	-12.6995
▁civilized	-12.6996
▁haaj	-12.6997
▁faav	-12.6997
▁Yawgnom	-12.6998
▁OVER	-12.6998
▁txujcai	-12.6998
▁Tiv	-12.6999
▁LFF	-12.7
▁yia	-12.7001
▁data	-12.7001
▁phlws	-12.7002
▁Tsaib	-12.7002
▁Tho	-12.7003
▁nthua	-12.7003
▁reporter	-12.7008
pp	-12.7009
▁Phom	-12.7012
▁nruabsiab	-12.7014
▁khuas	-12.7018
▁Plawv	-12.7023
▁TXIJ	-12.7024
▁OD	-12.7024
▁haa	-12.7024
▁Al	-12.7029
▁AU	-12.7032
▁ncoom	-12.7037
like	-12.7039
▁taugkev	-12.704
▁bat	-12.704
▁qais	-12.7042
▁ntshia	-12.7045
▁thjia	-12.7045
asp	-12.7046
▁fuaj	-12.7047
▁plaus	-12.7047
▁nrhu	-12.7053
▁Yo	-12.7053
▁goals	-12.7057
▁dem	-12.7057
ur	-12.7058
▁LET	-12.706
▁pull	-12.7062
▁Un	-12.7071
WM	-12.7075
17	-12.7077
▁huag	-12.7079
▁8,	-12.708
hahhahaha	-12.7084
▁WW	-12.7088
▁yd	-12.709
tuab	-12.7092
TH	-12.7092
ized	-12.7095
▁thos	-12.7104
▁tsamno	-12.7108
▁DID	-12.7109
kos	-12.7113
▁sun	-12.7113
To	-12.7114
khawm	-12.7117
▁nyho	-12.712
seem	-12.7124
▁thob	-12.7125
▁Hnia	-12.7125
think	-12.7134
▁chu	-12.7139
xiv	-12.7139
▁lum	-12.7142
▁Mrs	-12.7142
pes	-12.7145
dlej	-12.7146
UV	-12.7147
▁shoot	-12.7149
▁THAN	-12.7159
▁desire	-12.7162
ro	-12.7162
ps	-12.7162
▁publish	-12.7163
▁conversation	-12.7165
iaj	-12.7166
▁sentence	-12.7166
▁require	-12.7167
▁Sun	-12.7171
▁Russia	-12.7175
king	-12.7177
▁CHARGE	-12.7179
▁Federation	-12.7179
▁chupheng	-12.7179
▁goverment	-12.7179
▁software	-12.7179
▁shopping	-12.7179
▁Unless	-12.7179
▁Since	-12.7179
▁VUB	-12.7179
▁Abraham	-12.7179
▁TXIAJ	-12.7179
▁lfc	-12.7179
turned	-12.7179
▁Nyaus	-12.7179
▁Csy	-12.7179
▁Qhaub	-12.7179
▁Tseev	-12.718
▁THAIV	-12.718
▁laujkaub	-12.718
▁09	-12.718
▁survey	-12.7181
▁Xibhwb	-12.7181
▁khev	-12.7181
▁schedule	-12.7182
▁weakness	-12.7182
▁txhimkho	-12.7183
▁Generals	-12.7183
▁Mok	-12.7183
▁pehawm	-12.7183
▁KASMOOS	-12.7184
▁zaim	-12.7184
▁buffalo	-12.7184
▁Ntshav	-12.7185
▁personality	-12.7185
▁NEES	-12.7185
▁JESUS	-12.7185
▁trial	-12.7187
32,	-12.7187
▁plhom	-12.7189
▁qhaim	-12.7192
▁---------------	-12.7195
▁thiam	-12.7196
ja	-12.7196
▁Club	-12.7198
...24/7....	-12.7198
▁dauv	-12.7199
▁ncaujlug	-12.7199
▁yai	-12.7199
▁khawg	-12.7201
▁ntsoj	-12.7202
▁math	-12.7205
▁kaim	-12.7208
▁critical	-12.7209
▁covdab	-12.7212
05	-12.7214
▁ntevx	-12.7214
ac	-12.7216
▁believed	-12.7219
-3	-12.7221
▁ntseem	-12.7221
▁nroglawv	-12.7224
▁zu	-12.7224
▁thw	-12.7224
▁fail	-12.7228
ant	-12.7229
▁statements	-12.7232
▁Hlau	-12.7232
▁han	-12.724
▁Chu	-12.7243
▁christians	-12.7244
THE	-12.7244
▁caas	-12.7246
mab	-12.725
▁Indian	-12.7253
▁practices	-12.7254
▁MIS	-12.7254
▁neejtsaa	-12.7255
▁dha	-12.7258
▁nplo	-12.726
=7	-12.7261
▁sort	-12.7263
▁mho	-12.727
▁pop	-12.7271
▁vis	-12.7275
lb	-12.7275
▁Hoob	-12.7278
daj	-12.7284
▁dejsiab	-12.7286
▁heat	-12.7288
COV	-12.7288
nai	-12.729
TY	-12.7295
▁ted	-12.7296
qau	-12.73
▁TSHO	-12.73
▁15.	-12.7303
▁sem	-12.7307
doctor	-12.7315
▁Mon	-12.7316
▁Jun	-12.7318
▁metal	-12.732
because	-12.7328
tswb	-12.733
▁govern	-12.7335
▁Lia	-12.7336
▁saibx	-12.7339
Kav	-12.7339
▁hahahha	-12.7345
▁valid	-12.735
pv	-12.7351
ned	-12.7357
pr	-12.7361
▁audience	-12.7361
▁dvd	-12.7365
▁translation	-12.7365
▁reward	-12.7367
▁Vaajm	-12.7368
▁exchange	-12.7372
▁divide	-12.7372
▁Chertoua	-12.7375
▁Ilean	-12.7375
▁Project	-12.7375
▁LOOJCEEB	-12.7375
▁Sisavangvong	-12.7375
▁Beemouachaofa	-12.7375
▁nplaam	-12.7375
▁RHUAV	-12.7375
▁plastic	-12.7375
▁Larry	-12.7375
▁golf	-12.7375
▁fuabfwm	-12.7375
▁xyuamxim	-12.7375
▁Enjoy	-12.7375
▁separate	-12.7375
▁duty	-12.7376
▁vwg	-12.7376
▁Because	-12.7376
▁TWV	-12.7376
▁WANT	-12.7377
lnk	-12.7377
▁enemies	-12.7377
▁friday	-12.7377
▁Great	-12.7377
▁jurors	-12.7377
▁npleem	-12.7377
▁zimtxwv	-12.7378
▁engineering	-12.7378
▁moobdlawb	-12.7378
▁daab	-12.7378
▁Hmooob	-12.7378
▁Tev	-12.7379
▁humble	-12.7379
▁fantasy	-12.7379
LqK	-12.7379
▁npws	-12.738
▁chong	-12.738
▁khiv	-12.738
Liy	-12.738
▁Tiamsid	-12.7381
▁iob	-12.7385
moo	-12.7385
▁served	-12.7385
▁Ave	-12.7387
▁thousands	-12.7387
▁difficult	-12.7389
▁telling	-12.7389
▁nyajlaj	-12.7389
main	-12.739
▁Taws	-12.7391
▁nrhiab	-12.7391
▁Khamtai	-12.7392
▁Thajkhu	-12.7393
▁vajpov	-12.7393
▁khomob	-12.7393
▁representatives	-12.7396
▁sexy	-12.7399
▁rhuv	-12.74
AUM	-12.7401
NWS	-12.7405
Wb	-12.7409
▁xat	-12.7415
▁ring	-12.7416
▁xwbx	-12.7423
▁Phan	-12.7424
▁stabber	-12.7424
▁pictures	-12.7431
HA	-12.7434
▁beliefs	-12.7435
▁ntswm	-12.7445
MAS	-12.7449
▁asian	-12.7455
▁pi	-12.746
▁Drs	-12.7464
▁KAW	-12.7464
hehehehehe	-12.7465
lias	-12.7465
▁nhia	-12.7466
▁tsauj	-12.7466
▁Ntaus	-12.7466
OV	-12.7477
km	-12.748
▁Pacha	-12.7487
city	-12.7495
red	-12.7496
We	-12.7496
gc	-12.7497
▁lubtsev	-12.75
▁Zen	-12.7504
ON	-12.7505
▁Yogli	-12.7507
▁tubntsuag	-12.7525
except	-12.7528
such	-12.7528
▁Pim	-12.753
Maj	-12.7532
▁plaj	-12.7533
Kom	-12.7534
zej	-12.754
hauj	-12.7546
▁vinai	-12.7561
▁thousand	-12.7562
▁sea	-12.7563
chaws	-12.7564
▁killer	-12.7565
▁qoovsua	-12.7568
▁ndlwg	-12.7575
▁BETTER	-12.7575
▁$20,000	-12.7575
▁BACK	-12.7575
▁qaabzib	-12.7575
▁HIM	-12.7576
▁CUAM	-12.7576
▁analysis	-12.7576
▁Thanksgiving	-12.7576
▁thaying	-12.7576
▁tswjhwm	-12.7576
▁$10,000.00	-12.7576
▁monkey	-12.7577
▁Keej	-12.7577
▁Would	-12.7577
▁kheb	-12.7577
▁kauslim	-12.7577
▁Clan	-12.7577
▁YTT	-12.7578
▁judgement	-12.7578
mfu	-12.7578
▁hnyuv	-12.7578
▁kungfu	-12.7578
▁nrawg	-12.7579
▁openly	-12.7579
▁scientific	-12.7579
▁potential	-12.7579
▁Nkag	-12.7579
▁NOTHING	-12.758
▁Xuas	-12.758
▁BANK	-12.7581
▁ntujkag	-12.7581
▁Ntxiag	-12.7581
▁changing	-12.7581
▁yajceeb	-12.7582
▁Ascas	-12.7582
▁AIM	-12.7582
▁mistress	-12.7582
▁Khaum	-12.7583
▁embassy	-12.7584
▁dlawm	-12.7584
▁aware	-12.7585
▁ntaab	-12.7585
▁division	-12.7589
▁kavhlau	-12.759
▁17.	-12.7591
▁1998	-12.7591
▁mostly	-12.7592
▁unknown	-12.7593
▁nwb	-12.7593
▁vajtsev	-12.7596
▁pawglug	-12.7596
▁Cuam	-12.7599
▁wise	-12.7601
▁Qhab	-12.7602
ff	-12.761
sam	-12.7611
ol	-12.7614
▁Vajlug	-12.7617
NA	-12.7617
▁tamsi	-12.7618
▁nrw	-12.762
▁npu	-12.7622
▁phlw	-12.7622
kuam	-12.7624
...!!!	-12.7635
▁nquas	-12.7638
▁$100.00	-12.764
thai	-12.7641
▁Directors	-12.7642
▁Xis	-12.7643
▁Lajntxiag	-12.765
ncuab	-12.7651
▁cat	-12.7653
▁Eve	-12.7657
▁Lej	-12.7658
▁player	-12.7668
▁31,	-12.7668
▁Hla	-12.7676
fu	-12.7676
cker	-12.7679
44	-12.7689
▁huvsi	-12.7691
▁TK	-12.7691
▁tiagtiag	-12.7697
▁command	-12.7702
▁nak	-12.7704
ue	-12.7706
▁Nan	-12.7708
▁LHO	-12.7727
Tony	-12.7728
lawj	-12.7729
forms	-12.773
66	-12.773
Vaaj	-12.7731
Zooniamtsev	-12.7732
woman	-12.7732
Nkawv	-12.7732
Kwv	-12.7735
▁Xum	-12.7738
Tsab	-12.7738
▁blaj	-12.7743
nyablaj	-12.7748
▁yoom	-12.775
▁Fund	-12.7753
born	-12.7756
▁213	-12.7758
▁Txojkev	-12.7759
politics	-12.7759
thoj	-12.7759
oui	-12.776
Nas	-12.7764
▁HTT	-12.7767
▁battle	-12.7768
▁commie	-12.777
▁Xyuam	-12.7774
▁accurate	-12.7776
▁chose	-12.7777
▁NT	-12.7778
▁cyber	-12.7779
▁Assembly	-12.7779
▁McCain	-12.7779
▁PHOOJYWG	-12.7779
▁PhoojYwg	-12.7779
▁SHOULD	-12.7779
▁Yessus	-12.7779
▁liberty	-12.7779
▁surgery	-12.7779
▁demonstration	-12.7779
▁michigan	-12.7779
▁WELL	-12.7779
▁invitation	-12.7779
▁QHUAV	-12.7779
▁disappointed	-12.7779
▁previous	-12.7779
▁9:00	-12.7779
▁Team	-12.778
▁NCEB	-12.778
▁Thaam	-12.778
Sib	-12.778
▁instinct	-12.778
▁earned	-12.778
▁average	-12.7781
▁GAIN	-12.7781
▁investment	-12.7782
▁nqog	-12.7782
▁Txawjxoom	-12.7782
▁Nothing	-12.7782
▁Mejkoob	-12.7782
▁Xaivkaub	-12.7782
▁friendship	-12.7783
▁explanation	-12.7783
▁sweet	-12.7783
%26	-12.7784
▁tujlub	-12.7784
▁Hello	-12.7784
▁evaluate	-12.7785
▁perhaps	-12.7785
▁dark	-12.7785
▁mnus	-12.7786
▁WORLD	-12.7786
▁KHUAJ	-12.7786
▁discrimination	-12.7787
▁Txuas	-12.7788
▁earn	-12.7788
▁PLEASE	-12.7788
▁LUV	-12.7789
▁CAUG	-12.779
lib	-12.7791
▁associate	-12.7791
▁fighting	-12.7793
▁analyze	-12.7795
▁haujsim	-12.7799
▁MEO	-12.7802
yav	-12.7803
▁politically	-12.7803
▁fingers	-12.7803
▁npliaj	-12.7805
▁diab	-12.7807
▁txiabneeb	-12.7808
▁ntsawg	-12.781
aaj	-12.781
▁ml	-12.7816
ide	-12.7822
▁kin	-12.7826
▁ur	-12.7827
▁Npuas	-12.7828
cv	-12.783
▁regards	-12.7835
▁Haj	-12.7844
▁independent	-12.7856
▁nawm	-12.7862
▁projects	-12.7866
dWF	-12.7869
▁content	-12.787
pl	-12.7874
foom	-12.7874
▁ntxhas	-12.7876
uag	-12.7879
▁doc	-12.7882
▁Pre	-12.7884
▁meat	-12.7887
▁16.	-12.7896
▁22,	-12.7898
page	-12.7902
ntsuag	-12.7904
efore	-12.7905
▁looks	-12.7909
▁ad	-12.7913
▁lubsab	-12.7915
▁phlaw	-12.7916
▁mentsi	-12.7917
▁LY	-12.7926
▁haug	-12.7937
Form	-12.7938
women	-12.794
which	-12.794
Xejthim	-12.794
YTK	-12.794
Vajtswv	-12.7941
▁region	-12.7941
Tsav	-12.7942
txivneej	-12.7943
▁TSHUA	-12.7944
nna	-12.7946
IEN	-12.7947
▁Th	-12.7954
St	-12.7958
▁nkaw	-12.7959
▁bog	-12.7962
▁19,	-12.7967
▁exception	-12.7973
▁$50	-12.7973
▁employee	-12.7974
▁Vision	-12.7975
▁communists	-12.7976
▁Thum	-12.7977
▁context	-12.7977
▁bylaw	-12.7984
▁77	-12.7987
▁River	-12.7987
▁identif	-12.7987
▁MEMTOJ	-12.7987
▁Valentine	-12.7987
▁kaosiabhlub	-12.7987
▁tsuvtum	-12.7987
▁agencies	-12.7987
▁laagluam	-12.7987
▁ALASKA	-12.7988
▁NCEJ	-12.7988
▁somewhere	-12.7988
▁(33)	-12.7988
▁CUAG	-12.7988
▁nthoob	-12.7988
▁Nyajlaj	-12.7988
▁CIM	-12.7988
▁QAUM	-12.7988
▁eliminate	-12.7989
▁dynasty	-12.7989
▁vajlugkub	-12.7989
▁Kws	-12.799
▁hungry	-12.799
▁Nyag	-12.799
ntaus	-12.799
▁saaj	-12.799
▁birth	-12.7991
▁ntxuam	-12.7991
▁dws	-12.7991
▁refuse	-12.7991
▁hnuv	-12.7991
▁completed	-12.7992
▁viagra	-12.7992
▁VOTE	-12.7993
▁bail	-12.7993
▁ceeg	-12.7994
▁virtual	-12.7995
▁Does	-12.7995
▁ntshij	-12.7995
tai	-12.7996
▁expenses	-12.7996
▁Kubxaj	-12.7996
▁TURN	-12.7997
▁1986	-12.7997
dlawb	-12.7998
care	-12.7999
▁txh	-12.7999
▁Yajceeb	-12.8
▁Keng	-12.8001
▁tshu	-12.8001
▁LIAJ	-12.8001
▁raised	-12.8002
▁Politics	-12.8003
▁hnag	-12.8004
▁nahas	-12.8008
▁Yao	-12.8009
▁Lom	-12.801
ical	-12.801
ZS	-12.8015
▁qij	-12.8016
▁ntsog	-12.8016
▁keem	-12.8018
▁spot	-12.8019
▁Qhovntawd	-12.802
▁tees	-12.8022
▁plos	-12.8022
hlwb	-12.8022
OJ	-12.8024
▁cum	-12.8027
NG	-12.803
dlaag	-12.8033
▁YOO	-12.8034
usa	-12.8037
▁phlo	-12.8038
▁1500	-12.8039
▁throw	-12.8058
▁HMT	-12.8061
▁78	-12.8062
xis	-12.8067
▁tuabzoo	-12.8073
nother	-12.8077
Lee	-12.8079
▁PAY	-12.8081
▁areas	-12.8082
ish	-12.8083
Dawb	-12.8087
▁tasx	-12.8087
▁hnyo	-12.8092
▁ncia	-12.8095
AAB	-12.8095
▁caa	-12.8096
▁69	-12.8098
hm	-12.8105
yau	-12.8106
HM	-12.8107
Tsi	-12.8111
HL	-12.8113
za	-12.8115
yas	-12.8121
▁kij	-12.8124
45	-12.8131
qaum	-12.8132
txiag	-12.8133
▁gives	-12.8134
▁2:	-12.8134
73	-12.8141
xiong	-12.8151
teev	-12.8151
Pheej	-12.8153
hahhaha	-12.8154
Xyooj	-12.8156
▁qwv	-12.8164
▁ntshoo	-12.8167
-4	-12.8169
70	-12.817
tuam	-12.8174
xyooj	-12.8178
pha	-12.8178
=4	-12.818
▁begin	-12.8185
▁structure	-12.8186
▁agreement	-12.8189
▁phrase	-12.8193
▁idiot	-12.8195
▁1961	-12.8197
▁ZHEN	-12.82
▁Otherwise	-12.82
▁easily	-12.82
▁agency	-12.82
▁RELIGION	-12.82
▁NTXOOG	-12.82
▁legacy	-12.82
▁elaborate	-12.82
▁recently	-12.82
▁70%	-12.82
msn	-12.8201
▁COMMUNIST	-12.8201
▁Islam	-12.8201
▁prison	-12.8201
▁completely	-12.8201
▁committed	-12.8201
▁pujntxoog	-12.8201
▁permission	-12.8201
▁nriag	-12.8202
▁prime	-12.8202
▁muaslwj	-12.8202
▁Txheevcom	-12.8202
▁KHOOM	-12.8202
▁taagnrho	-12.8202
▁Ntxhw	-12.8202
▁twice	-12.8202
▁kept	-12.8203
▁IRS	-12.8203
▁ntivtes	-12.8203
▁humanright	-12.8203
▁pronoun	-12.8203
▁BORN	-12.8203
▁coffee	-12.8203
▁Yeah	-12.8203
▁pawm	-12.8205
ach	-12.8205
▁CI	-12.8205
▁kasxim	-12.8206
▁PAG	-12.8206
▁Rag	-12.8206
▁xyaab	-12.8206
▁novqaab	-12.8207
▁Burma	-12.8208
▁nreb	-12.8208
▁Nru	-12.8208
uam	-12.8209
▁ntxooj	-12.8209
▁Mother	-12.821
▁publicly	-12.8211
▁temporary	-12.8213
▁twmxeeb	-12.8213
IF	-12.8214
▁fully	-12.8216
▁bav	-12.8219
▁yuglos	-12.822
▁lajfai	-12.8223
▁lak	-12.8224
yaim	-12.8224
▁hunt	-12.8231
▁COMMUNISM	-12.8233
hawj	-12.8235
▁lawn	-12.8237
▁qablos	-12.824
▁powerful	-12.824
▁Yum	-12.8241
▁Dov	-12.8243
▁IbMoob	-12.8249
Tso	-12.825
▁Kaum	-12.8252
▁zaumno	-12.8253
ZSB	-12.8253
ME	-12.8254
▁maib	-12.8257
▁OO	-12.8259
OUT	-12.826
▁directors	-12.8265
▁formal	-12.8265
eh	-12.8266
hack	-12.8271
▁ntxhee	-12.8274
▁multi	-12.8276
▁ice	-12.8277
▁numbers	-12.8281
▁happens	-12.8284
ees	-12.8287
▁Vis	-12.829
▁niamtsev	-12.8292
▁1600	-12.8293
hlo	-12.8295
sai	-12.8297
▁yaas	-12.8298
▁blua	-12.8298
▁hahahahah	-12.8302
▁phuas	-12.8302
Tooj	-12.8303
nkag	-12.8304
▁dogs	-12.8304
▁vimtias	-12.8304
uav	-12.8305
txom	-12.8316
▁Tshaaj	-12.8318
AND	-12.8318
non	-12.8323
laig	-12.8328
▁host	-12.8329
▁rid	-12.8331
▁TSUA	-12.8346
af	-12.8348
▁hahahah	-12.835
veral	-12.8352
▁Mu	-12.8352
leader	-12.8357
ncaj	-12.8357
ow	-12.8363
hh	-12.8367
▁neo	-12.8369
▁ba	-12.837
tting	-12.8372
Piv	-12.8372
music	-12.8373
▁TAM	-12.8378
Ntshai	-12.8378
▁Jack	-12.8386
live	-12.8395
nkaum	-12.8395
▁200,000	-12.8397
▁kees	-12.8397
▁competition	-12.8403
▁activist	-12.8404
▁executive	-12.8404
▁reaction	-12.8408
▁An	-12.8408
▁MOST	-12.841
nqi	-12.841
▁automatic	-12.8413
▁leng	-12.8413
▁reserve	-12.8414
user	-12.8416
bo	-12.8416
ial	-12.8417
▁Chanthalangsy	-12.8417
▁VIETNAM	-12.8417
▁plenty	-12.8417
▁NAJKHAV	-12.8417
▁Staff	-12.8417
▁pyramid	-12.8417
▁vivncaus	-12.8417
▁WHEN	-12.8417
▁ncaajnceeg	-12.8417
▁Mavtais	-12.8417
▁earlier	-12.8417
▁caabsaab	-12.8417
▁$200.00	-12.8417
▁Taiwan	-12.8417
▁sojntsuam	-12.8417
▁NCEES	-12.8417
▁companies	-12.8418
▁ZUAJ	-12.8418
▁Asmeliskas	-12.8418
▁elected	-12.8418
▁india	-12.8418
▁ATF	-12.8418
▁xijpeem	-12.8418
▁Lair	-12.8418
▁cobqha	-12.8419
▁TXIAG	-12.8419
▁Foreign	-12.8419
▁psychologist	-12.8419
▁Fwb	-12.8419
▁Crosse	-12.8419
▁published	-12.8419
▁corner	-12.842
▁Hawaii	-12.842
▁MLM	-12.842
▁password	-12.842
▁Stop	-12.842
▁authorities	-12.8421
▁Everyone	-12.8421
▁HAWJ	-12.8421
▁Kujxaj	-12.8421
▁ncaimtseemnco	-12.8422
▁match	-12.8422
▁appreciated	-12.8422
▁qoov	-12.8423
▁NAIS	-12.8423
▁PIM	-12.8425
▁marketing	-12.8425
▁HIV	-12.8427
▁nplawv	-12.8427
▁YUAG	-12.8427
▁lhwb	-12.8427
▁bridge	-12.8428
▁Peg	-12.8429
▁oops	-12.843
▁converters	-12.8431
▁xwmkab	-12.8432
▁Father	-12.8433
▁liabqab	-12.8435
▁KING	-12.8437
▁rus	-12.8437
▁province	-12.8437
▁Tuav	-12.8441
▁tseebtsim	-12.8443
▁cus	-12.8445
▁maker	-12.8446
nav	-12.8447
▁xoj	-12.8448
tic	-12.8451
▁tsotseg	-12.8452
▁twin	-12.8452
▁Txiav	-12.8455
▁yawv	-12.846
▁cousins	-12.8461
▁davhlaus	-12.8463
▁WIS	-12.8464
▁maus	-12.8465
▁$2000	-12.8465
▁xes	-12.8465
tsheej	-12.8467
▁76	-12.8468
▁txauj	-12.8471
yb	-12.8475
Oh	-12.8486
ey	-12.8486
nc	-12.8488
▁BI	-12.8492
▁obpeb	-12.8493
▁educational	-12.8495
Chao	-12.8495
ement	-12.8496
▁hehehehehehehe	-12.8499
▁sibtog	-12.8504
▁rug	-12.8511
read	-12.8512
diB	-12.8516
xaab	-12.8519
▁19.	-12.8521
ning	-12.8527
▁LC	-12.8527
▁initial	-12.8531
▁zi	-12.8532
▁saix	-12.8537
▁7,	-12.8537
▁sum	-12.8539
Ph	-12.854
▁ncuj	-12.8542
▁$300	-12.8545
▁NOS	-12.8553
▁referr	-12.8559
Tuaj	-12.8563
▁kawgli	-12.857
txheej	-12.8582
your	-12.8587
▁leev	-12.859
health	-12.8591
people	-12.8593
QHOV	-12.8593
phauj	-12.8594
side	-12.8594
Tug	-12.8598
▁Bouam	-12.8598
▁ntxw	-12.8603
▁__	-12.8604
zam	-12.8606
KAWG	-12.861
hwv	-12.8611
ef	-12.8613
nev	-12.8618
▁Phim	-12.8625
▁attempt	-12.8626
▁scientist	-12.8626
▁consequence	-12.8626
▁weapon	-12.8628
▁guest	-12.8632
/2010	-12.8633
▁village	-12.8635
▁Lytec	-12.8638
▁Issara	-12.8639
▁koobmoov	-12.8639
▁Oklahoma	-12.8639
▁garage	-12.8639
▁Jewish	-12.864
▁illness	-12.864
▁Tuamtshoj	-12.864
▁AGREE	-12.864
▁NTOG	-12.864
▁13-14	-12.864
▁zemzuag	-12.864
▁Newsgroups	-12.864
▁involvement	-12.864
▁downline	-12.864
▁ZKY	-12.864
▁prediction	-12.864
▁koomtxoos	-12.8641
▁Sem	-12.8641
▁Npawv	-12.8641
▁Sijhawm	-12.8641
▁applied	-12.8641
▁finally	-12.8641
▁condemn	-12.8642
▁2015	-12.8642
▁gag	-12.8643
▁wild	-12.8643
▁professionalism	-12.8643
▁Mabdawb	-12.8643
▁chemical	-12.8644
▁yajyeeb	-12.8645
▁pliav	-12.8645
▁sibfoob	-12.8645
▁library	-12.8645
▁arrested	-12.8645
▁Cev	-12.8647
▁Muslim	-12.8648
▁chaav	-12.8648
▁PUBLIC	-12.8649
▁Heem	-12.8649
▁Txawjxav	-12.8651
▁5$	-12.8651
▁BC	-12.8651
▁Korean	-12.8651
▁successful	-12.8652
▁Tees	-12.8653
▁Taw	-12.8653
▁ordered	-12.8654
▁tuabneej	-12.8654
▁-------------	-12.8654
▁NGOs	-12.8655
▁tshajli	-12.8656
****************	-12.8656
▁ntsus	-12.8656
▁quick	-12.8657
▁ntxees	-12.8658
play	-12.8658
▁npoog	-12.8662
▁TSE	-12.8662
▁QE	-12.8665
nus	-12.8666
▁mug	-12.8667
▁dagzog	-12.867
strongly	-12.8671
▁Seem	-12.8671
▁hliav	-12.8672
▁mistakes	-12.8672
▁lasmas	-12.8676
▁sounds	-12.8678
▁sale	-12.868
▁tone	-12.8681
▁named	-12.8687
▁phaws	-12.8689
rb	-12.8689
▁Hue	-12.869
▁800	-12.8693
where	-12.8694
▁speaks	-12.8694
qw	-12.8694
▁coin	-12.8695
▁Sac	-12.8695
zug	-12.8697
64	-12.8701
big	-12.8703
▁TE	-12.872
dlub	-12.8721
npau	-12.8722
▁saving	-12.8723
?".	-12.8724
TSUM	-12.8724
▁ntsos	-12.8734
▁Vs	-12.8734
▁Nruab	-12.8734
iag	-12.8739
▁zaugli	-12.8743
▁nong	-12.8745
khu	-12.8747
wd	-12.8752
▁taslos	-12.8761
▁kinds	-12.8764
xay	-12.8767
HAIV	-12.877
57	-12.8774
girl	-12.8776
▁lwmyam	-12.8782
▁NAME	-12.8784
▁DAM	-12.8788
EJ	-12.8793
Dev	-12.8801
▁nkaujfa	-12.8802
txawv	-12.8812
ver	-12.8812
▁reduce	-12.8813
vu	-12.8819
spelling	-12.8819
United	-12.882
▁CAM	-12.8822
Moua	-12.8823
BS	-12.8827
khav	-12.8827
link	-12.8832
▁ran	-12.8838
84	-12.8841
▁zia	-12.8841
tsiaj	-12.8851
▁hlai	-12.8852
▁resolution	-12.8853
▁skill	-12.8854
▁technique	-12.8854
▁discipline	-12.8855
▁soldier	-12.8855
▁Professor	-12.8857
▁faiv	-12.8858
▁$2,000	-12.8859
▁sometime	-12.8861
PAUB	-12.8863
▁appoint	-12.8865
▁remove	-12.8866
▁bangkok	-12.8866
▁Lynhiavu	-12.8866
▁Arlington	-12.8867
▁Thanouxay	-12.8867
▁Tuamlijkoob	-12.8867
▁Vatthana	-12.8867
▁Reagan	-12.8867
▁Misliskas	-12.8867
▁reliable	-12.8867
▁Faajkum	-12.8867
▁dawwgy	-12.8867
▁running	-12.8867
▁xuajmoos	-12.8867
▁Lytek	-12.8867
▁raaj	-12.8867
▁nruabnraab	-12.8867
▁YawgLaus	-12.8867
▁12:00	-12.8868
▁offense	-12.8868
▁Foob	-12.8868
nuC	-12.8868
▁dovtawm	-12.8869
▁txaag	-12.8869
▁SLY	-12.8869
▁equally	-12.8869
▁PhwvNyawm	-12.8869
▁received	-12.887
▁vuj	-12.887
▁nreej	-12.887
▁fuabtai	-12.8871
▁LVTLTYM	-12.8871
▁Lieutenant	-12.8871
▁complex	-12.8871
▁felt	-12.8871
▁HEM	-12.8871
▁Luangprabang	-12.8871
▁RIGHTS	-12.8871
▁chom	-12.8871
▁nhiav	-12.8871
▁labeled	-12.8871
▁calendar	-12.8872
▁tsovrog	-12.8872
▁mivmiv	-12.8872
▁leemcai	-12.8873
▁Next	-12.8873
▁concerned	-12.8873
▁cities	-12.8873
▁invite	-12.8874
▁Teebmeem	-12.8874
▁Than	-12.8874
▁offered	-12.8874
▁Idonotknown	-12.8874
▁Yawghlob	-12.8874
▁dhawv	-12.8874
▁NTAUB	-12.8876
▁KIM	-12.8877
▁tawvdawb	-12.8877
bc	-12.8879
▁Cuaj	-12.8882
▁CIAM	-12.8884
SA	-12.8885
▁transfer	-12.8888
nraim	-12.889
▁$25,000	-12.8893
▁liar	-12.8897
pua	-12.8898
=_	-12.8899
▁cold	-12.8903
▁tablaj	-12.8905
WJ	-12.8906
que	-12.8909
▁khais	-12.891
▁tickets	-12.891
▁nteb	-12.8913
▁maav	-12.8917
UNITED	-12.8929
▁16,	-12.8933
▁daiv	-12.8934
oy	-12.8939
▁SHE	-12.8939
YiB	-12.894
▁gu	-12.8944
▁proclaim	-12.8949
oi	-12.8952
▁choices	-12.8953
ec	-12.8954
▁heheheh	-12.8956
eme	-12.8959
▁Hmonglao	-12.896
▁Xh	-12.8964
DAB	-12.8965
▁resist	-12.8967
phone	-12.8971
heheheh	-12.8974
▁meetings	-12.8977
OM	-12.8984
TS	-12.8989
lom	-12.8991
▁paste	-12.8995
▁47	-12.9007
yig	-12.9014
▁award	-12.9015
monthly	-12.9016
▁inform	-12.9017
duab	-12.9017
▁Ai	-12.902
▁Nok	-12.9025
ible	-12.9025
▁spoke	-12.9025
▁Pak	-12.9025
/2011	-12.9025
hd	-12.9026
▁minds	-12.9032
ft	-12.9037
year	-12.9039
dG	-12.9039
▁submit	-12.904
Liab	-12.9042
▁$4	-12.9043
▁tseemx	-12.9049
facebook	-12.9051
charter	-12.9052
Miao	-12.9052
Phwv	-12.9053
Xeem	-12.9053
topic	-12.9057
AR	-12.9071
▁Bus	-12.9072
▁sawvkev	-12.9072
xoom	-12.9073
▁paubqab	-12.9075
▁05	-12.9075
will	-12.9079
▁tsoog	-12.908
▁PLAY	-12.9083
▁Individual	-12.9084
▁mountain	-12.9086
▁receive	-12.9087
▁ncuas	-12.909
caub	-12.9093
2-3	-12.9095
▁deliver	-12.9097
▁singer	-12.9099
▁SMELT	-12.9099
▁flirt	-12.9099
▁ocean	-12.9099
▁Muatony	-12.9099
▁XYAUM	-12.9099
▁monday	-12.9099
▁Ceevfaj	-12.9099
▁TRAS	-12.9099
▁meaung	-12.9099
▁TSUAG	-12.91
▁Jay	-12.91
▁PHUV	-12.91
▁Yeebncuab	-12.91
▁PXM	-12.91
▁10-15	-12.91
▁PLAUB	-12.91
▁joe	-12.91
▁chery	-12.9101
▁curious	-12.9101
▁admit	-12.9101
▁flow	-12.9101
▁Kauj	-12.9101
▁fuabcua	-12.9102
▁nriam	-12.9102
▁TSAWV	-12.9102
▁humanitarian	-12.9102
▁sibhaumxeeb	-12.9102
▁blah	-12.9103
▁famous	-12.9103
▁Hmub	-12.9103
▁1981	-12.9103
▁Nyaab	-12.9103
▁GROUP	-12.9104
▁fulfill	-12.9104
▁Standard	-12.9104
▁TSWB	-12.9105
▁TXHIAB	-12.9105
▁Language	-12.9105
▁WHERE	-12.9105
▁Nuv	-12.9106
▁tshij	-12.9106
▁NEWS	-12.9106
▁9-10	-12.9106
▁Johny	-12.9107
▁receipt	-12.9107
▁acting	-12.9107
▁Cem	-12.9107
▁LAG	-12.9108
▁enter	-12.9109
▁Sue	-12.9109
▁accepted	-12.911
▁yy	-12.911
▁guide	-12.911
▁HmoobVajUSA	-12.9111
▁Moobdlawb	-12.9111
▁Moobseem	-12.9112
▁Big	-12.9112
▁locha	-12.9114
thao	-12.9115
▁tr	-12.9116
,000	-12.9118
▁sibnrauj	-12.912
▁VaajM	-12.9121
▁nwv	-12.9122
▁shut	-12.9123
▁replace	-12.9125
▁OH	-12.9125
▁advisors	-12.9126
lr	-12.9126
▁Noogdej	-12.9129
yg	-12.913
▁xem	-12.9131
▁Khuv	-12.9131
▁symbol	-12.9134
▁hw	-12.9138
▁trade	-12.9139
▁lor	-12.9143
▁workers	-12.915
▁taste	-12.9151
ntaub	-12.9152
▁reform	-12.9153
▁IQ	-12.9159
phiaj	-12.9162
▁Sher	-12.917
▁DAI	-12.9171
nyoog	-12.9172
▁ntoog	-12.918
oos	-12.9183
ET	-12.9187
Tuam	-12.9195
▁1966	-12.9201
▁net	-12.9201
▁farm	-12.9204
ect	-12.9204
▁TXHA	-12.9206
ought	-12.9208
HAIS	-12.9209
▁LOO	-12.9211
▁forth	-12.9213
Ob	-12.9216
EZ	-12.9223
▁dias	-12.9227
__	-12.9229
POM	-12.9232
light	-12.9233
ceev	-12.9234
lc	-12.9234
KPg	-12.9235
▁81	-12.924
ABLE	-12.9242
▁Pes	-12.9243
Mr	-12.9244
XA	-12.9246
▁parts	-12.9247
ization	-12.9255
▁Thoos	-12.9259
CES	-12.9263
▁CH	-12.9266
▁wear	-12.9271
tt	-12.9275
▁cure	-12.9277
hj	-12.9279
PA	-12.9281
mode	-12.9285
▁vaug	-12.9285
aiv	-12.9287
Txoov	-12.929
▁tea	-12.9293
▁helps	-12.9296
▁Som	-12.9301
▁Dam	-12.9304
▁PHIM	-12.9305
▁ZN	-12.9306
paab	-12.9308
UB	-12.931
▁qoo	-12.9312
▁TUBNTSUAGHMOOB	-12.9313
OG	-12.9313
▁LEG	-12.9317
Yes	-12.9319
▁farmer	-12.9325
▁road	-12.9328
bG	-12.9328
▁Representative	-12.9329
▁mayor	-12.933
▁beside	-12.9331
▁mile	-12.9333
▁product	-12.9333
▁session	-12.9334
▁sibkho	-12.9334
▁(3	-12.9336
▁Find	-12.9336
▁UNCLE	-12.9336
▁connect	-12.9337
▁Doyle	-12.9337
▁HUABTAIS	-12.9337
▁TXHEEVCOM	-12.9337
▁allergy	-12.9337
▁TXUJCI	-12.9337
▁ladies	-12.9337
▁FYI	-12.9337
▁6,500	-12.9337
▁Pevtxwv	-12.9337
▁Lastees	-12.9337
▁Isreal	-12.9338
▁Khamkeuth	-12.9338
▁faabkis	-12.9338
▁Qhabmeem	-12.9338
▁newhom	-12.9338
▁muastony	-12.9338
▁CAUJ	-12.9338
▁Khaab	-12.9338
▁NYAS	-12.9338
▁TSOOM	-12.9338
▁PLIS	-12.9338
▁behalf	-12.9338
LiZ	-12.9338
▁PXX	-12.9338
▁devil	-12.9339
▁narrow	-12.9339
▁nplab	-12.9339
▁TSHWM	-12.9339
▁concrete	-12.9339
▁Kongmeng	-12.9339
▁TA	-12.9339
▁txwjnkawm	-12.9339
▁criteria	-12.9339
▁VIm	-12.9339
▁thuaj	-12.934
▁described	-12.934
▁NQEEB	-12.934
▁delegates	-12.934
▁NTIAV	-12.934
▁sake	-12.934
▁Yajdaus	-12.9341
▁yajyuam	-12.9341
▁Vias	-12.9341
▁FWJ	-12.9342
▁(4)	-12.9342
▁npwg	-12.9342
▁surprised	-12.9342
▁yeebcuab	-12.9342
▁hlwv	-12.9343
▁pamlem	-12.9343
▁naturally	-12.9343
▁KHAIB	-12.9344
▁NROOG	-12.9344
▁asmeskas	-12.9345
▁cycle	-12.9346
▁friendly	-12.9346
▁Tawv	-12.9348
▁COB	-12.9349
▁vaim	-12.935
▁Back	-12.935
▁Zabdag	-12.935
thanks	-12.9351
hib	-12.9351
▁khiag	-12.9352
▁nrws	-12.9353
▁ntsheeg	-12.9354
▁Xiam	-12.9356
900	-12.9356
▁rituals	-12.936
▁cares	-12.9362
▁loan	-12.9362
▁thawjx	-12.9364
▁tsaugzog	-12.9364
choj	-12.9366
▁documents	-12.937
▁Gov	-12.9373
▁daily	-12.9377
txais	-12.9382
▁luasmas	-12.9383
▁Pav	-12.9388
▁$$	-12.9389
sov	-12.9392
CAS	-12.9394
▁Paoze	-12.9395
▁BV	-12.9396
▁democratic	-12.9397
▁CAUB	-12.9397
▁hauvlub	-12.9414
▁loose	-12.9416
▁churches	-12.9416
▁unto	-12.9417
▁settle	-12.9418
police	-12.9419
▁khos	-12.942
▁uaneeb	-12.942
▁Vinais	-12.942
▁Ce	-12.9421
rm	-12.9422
▁Com	-12.9424
▁bear	-12.9435
▁Communists	-12.9437
▁xyaa	-12.9439
Koob	-12.944
▁xubx	-12.9447
▁ntawn	-12.9449
▁mib	-12.9455
▁Khou	-12.9459
tawb	-12.9463
▁heheheheh	-12.9465
▁101	-12.947
▁thawjthiab	-12.947
▁kia	-12.9483
hahahahahaha	-12.9486
Poj	-12.9491
ancient	-12.9492
▁guard	-12.9494
▁phou	-12.9496
ngu	-12.9498
▁PUA	-12.9501
tsaam	-12.9505
▁__________	-12.9509
▁inter	-12.9514
worker	-12.9518
▁====	-12.9521
▁Tshe	-12.9523
ek	-12.9523
mercenary	-12.9534
original	-12.9534
wife	-12.9534
Xyov	-12.9534
What	-12.9534
ziag	-12.9535
vajtswv	-12.9536
NOJ	-12.9537
Tsuas	-12.9537
lauv	-12.9538
ntxias	-12.9538
Hiv	-12.9539
DAG	-12.9544
pi	-12.9546
house	-12.9546
awd	-12.9548
,,,,,	-12.955
MUAJ	-12.9552
▁moved	-12.9555
▁1992	-12.956
▁pebhmoob	-12.956
▁Vibnai	-12.9563
may	-12.9564
▁skin	-12.9567
▁hamburger	-12.9568
SB	-12.9568
▁educator	-12.9568
▁grant	-12.9572
▁lecture	-12.9574
▁HmongLao	-12.9578
well	-12.958
▁entire	-12.958
▁zone	-12.9581
▁trace	-12.9581
▁OWN	-12.9581
▁Dekfangkhong	-12.9581
▁built	-12.9581
▁minneapolis	-12.9581
▁spring	-12.9581
▁hidden	-12.9581
▁Sincerely	-12.9581
▁classify	-12.9581
▁TSHAWB	-12.9581
▁Ecole	-12.9581
▁DULUG	-12.9581
▁LyFoung	-12.9581
▁enomy	-12.9581
▁Nyavdub	-12.9581
▁Town	-12.9582
▁House	-12.9582
▁manner	-12.9582
▁Yangdao	-12.9582
▁Plogteb	-12.9582
▁MAIV	-12.9582
▁Nquag	-12.9582
▁SAME	-12.9582
▁Yijlaug	-12.9582
▁12-16	-12.9583
▁npwb	-12.9583
▁mluas	-12.9583
▁mikas	-12.9583
▁suicide	-12.9583
▁Casino	-12.9583
▁khaab	-12.9583
▁acceptable	-12.9583
▁Forward	-12.9583
▁absolutely	-12.9583
▁failure	-12.9583
▁(1	-12.9583
▁drug	-12.9584
▁confidential	-12.9584
▁Pajnplaimcua	-12.9584
▁salary	-12.9584
▁investigation	-12.9584
▁empty	-12.9584
▁invited	-12.9585
▁PobZeb	-12.9585
▁1962	-12.9585
▁QHEV	-12.9585
▁TXHIAJ	-12.9586
▁KHAWS	-12.9586
▁TEEM	-12.9586
▁Khiav	-12.9586
▁Thaud	-12.9586
▁Khoueng	-12.9587
▁signature	-12.9587
▁poison	-12.9587
▁Today	-12.9587
▁approved	-12.9587
▁Hwj	-12.9588
▁txoom	-12.9589
▁Nyuaj	-12.9589
▁ntxheev	-12.9589
▁nhro	-12.9589
▁DUAB	-12.959
▁CHINA	-12.959
▁missing	-12.9591
▁zaig	-12.9591
▁flag	-12.9592
▁NYOO	-12.9592
▁50,000	-12.9593
▁KUAM	-12.9593
▁tisbe	-12.9594
▁Kheb	-12.9594
ez	-12.9595
▁techniques	-12.9595
58	-12.9598
▁nyha	-12.9598
faj	-12.9599
▁porn	-12.9599
GAB	-12.9599
ise	-12.9602
▁phawv	-12.9602
▁fus	-12.9603
▁Women	-12.9607
▁network	-12.9607
▁Cheeb	-12.9609
▁kips	-12.961
Av	-12.961
▁sibtxawv	-12.961
▁Fu	-12.9612
......!	-12.9612
▁nkagsab	-12.9613
▁heej	-12.9613
▁paav	-12.9614
▁KOS	-12.9614
▁Naikhu	-12.9615
76	-12.9617
▁Lake	-12.9618
▁IAB	-12.9619
▁ntshaj	-12.962
▁Caj	-12.9627
▁mt	-12.9628
▁Ti	-12.963
WS	-12.9633
▁muslawm	-12.9634
▁klawm	-12.9634
yaig	-12.9635
▁haulwm	-12.9636
▁FO	-12.9637
Tswb	-12.9638
In	-12.9648
Hu	-12.965
▁klawv	-12.9653
87	-12.9655
▁NK	-12.9659
100	-12.9659
tsaug	-12.9659
▁male	-12.9665
▁Yab	-12.9665
▁hnee	-12.9668
xi	-12.9669
▁nyamx	-12.9685
LOJ	-12.9688
▁qhovtseeb	-12.9692
pre	-12.9692
▁GOT	-12.9694
▁Friend	-12.9695
▁Shi	-12.9703
▁Kia	-12.9704
▁Maim	-12.9709
▁ncw	-12.9714
taus	-12.9717
▁places	-12.9719
hahahha	-12.972
IAB	-12.9726
▁Km	-12.9734
ZOO	-12.9738
ONG	-12.9738
ri	-12.9738
▁Maslis	-12.9739
CH	-12.9739
MT	-12.9742
▁555555	-12.9744
txhiaj	-12.9745
▁ntai	-12.9748
▁Au	-12.9749
▁lostsua	-12.9752
▁1/	-12.9756
Ya	-12.9758
ntxwv	-12.9759
▁9,	-12.9761
npas	-12.9762
▁Max	-12.9763
▁fast	-12.9766
npab	-12.9769
▁COL	-12.9772
Xaiv	-12.9773
▁bet	-12.9776
laaj	-12.9777
▁lawvle	-12.978
make	-12.9781
human	-12.9783
Yob	-12.9784
example	-12.9784
china	-12.9784
Phiajzeb	-12.9785
Nyab	-12.9786
same	-12.9788
41	-12.9795
▁TABTO	-12.9797
vam	-12.9798
▁op	-12.9803
most	-12.9805
▁bas	-12.9806
▁mivx	-12.9808
cover	-12.9811
▁hajtsi	-12.9813
▁pound	-12.9816
▁Program	-12.9817
▁stuff	-12.9818
▁temple	-12.9818
▁Wrong	-12.9818
▁Other	-12.9819
loos	-12.9819
▁blow	-12.9824
▁fighter	-12.9824
▁Kip	-12.9824
▁thabhaa	-12.9826
▁kevhlub	-12.9826
▁sibpaub	-12.9828
PL	-12.9829
▁THING	-12.983
▁effective	-12.983
▁Easter	-12.9831
▁50/50	-12.9831
▁buffet	-12.9831
▁Portland	-12.9831
▁emotion	-12.9831
▁Yaajtshajkoob	-12.9831
▁northern	-12.9831
▁thornspear	-12.9831
▁SHOW	-12.9831
▁NTXOV	-12.9831
▁KMxiong	-12.9831
▁khauvxim	-12.9831
▁Tsoobkuj	-12.9832
▁brand	-12.9832
▁Danai	-12.9832
▁Chimeng	-12.9832
aag	-12.9832
▁fivyeem	-12.9832
▁khaaj	-12.9832
▁Zajlaug	-12.9832
Merritt	-12.9832
▁QAV	-12.9832
▁gaum	-12.9832
▁Market	-12.9833
zeej	-12.9833
▁thwjtim	-12.9833
▁ndlaj	-12.9833
▁Yajtk	-12.9833
▁crisis	-12.9833
▁UNDER	-12.9833
▁sooner	-12.9833
▁40%	-12.9833
▁SAID	-12.9834
▁Pem	-12.9834
▁boycott	-12.9834
▁clarification	-12.9834
▁Palestine	-12.9834
▁Ntxhiavnyuj	-12.9834
▁Npam	-12.9834
▁ZAG	-12.9835
▁boat	-12.9835
▁required	-12.9835
▁vais	-12.9835
▁Mexico	-12.9836
▁Npliam	-12.9836
▁tubnkeeg	-12.9836
▁independence	-12.9836
LqI	-12.9836
npaum	-12.9836
▁Zeej	-12.9836
▁NMR	-12.9836
▁Leadership	-12.9837
▁Buddhism	-12.9838
▁nplob	-12.9838
▁tshuv	-12.9839
Lqr	-12.984
▁Kang	-12.984
▁ntshaus	-12.984
▁pheejyig	-12.9841
▁tshim	-12.9841
▁XUM	-12.9841
▁jury	-12.9842
▁Young	-12.9842
▁yeah	-12.9843
▁fired	-12.9844
▁Moobthaibteb	-12.9845
Ao	-12.9846
▁lease	-12.9848
▁700	-12.9849
▁lhua	-12.985
▁carp	-12.9851
▁ntwb	-12.9851
▁ntsiaj	-12.9853
▁Vi	-12.9854
who	-12.9856
▁nujnqis	-12.9858
▁feej	-12.9858
▁nploglab	-12.9858
▁BUFFALO	-12.9858
▁tshauj	-12.9859
▁Kevcai	-12.9859
MD	-12.986
▁dealer	-12.9861
▁plia	-12.9863
▁POS	-12.9865
▁animals	-12.9866
▁pobthawj	-12.9867
▁SEX	-12.9871
▁pojnom	-12.9875
▁songs	-12.9875
▁experts	-12.9875
▁Yoo	-12.9877
rr	-12.9881
AAG	-12.9883
▁txab	-12.9886
▁fat	-12.9887
▁Caij	-12.9888
▁haws	-12.9889
▁hlaw	-12.989
-1	-12.9891
▁ntsee	-12.9891
69	-12.9894
▁Mib	-12.9895
▁khovkho	-12.9896
▁-----	-12.9901
▁ibqho	-12.9901
HAUM	-12.9908
klawv	-12.9912
NY	-12.9915
▁za	-12.9915
▁pages	-12.9915
ntsis	-12.9916
▁6)	-12.9917
gx	-12.9917
▁nrom	-12.992
07	-12.9923
▁quam	-12.9924
▁62	-12.9925
▁txauv	-12.9931
▁hauvsiab	-12.9935
▁Fav	-12.995
TE	-12.996
▁3-5	-12.9963
mes	-12.9973
-12	-12.9975
too	-12.9976
1/	-12.9982
plawv	-12.9988
tauj	-12.999
ntses	-12.9994
▁Cat	-12.9995
▁Mad	-12.9995
▁bon	-12.9996
ence	-12.9997
▁Act	-13.0005
np	-13.0008
▁multipl	-13.0009
▁solid	-13.0012
▁photo	-13.0013
gT	-13.002
▁Bin	-13.0025
▁mess	-13.0035
idnk	-13.0037
Free	-13.0038
title	-13.0038
pos	-13.0039
NEEG	-13.004
Vietnam	-13.0041
democracy	-13.0041
BLOG	-13.0041
nkawd	-13.0041
Txij	-13.0041
Mhoob	-13.0041
vaaj	-13.0042
Thaub	-13.0042
qua	-13.0044
▁nqib	-13.0045
Saib	-13.0045
Fu	-13.0045
▁qhaa	-13.0046
Kub	-13.0048
nee	-13.0051
▁Qw	-13.0053
town	-13.0053
▁Les	-13.0057
▁ICE	-13.0058
khaus	-13.0061
▁lock	-13.0062
▁kawgkiag	-13.0063
▁recommendation	-13.0074
=8	-13.0077
dhia	-13.0078
▁africa	-13.0082
▁alphabet	-13.0082
▁57	-13.0083
▁backward	-13.0083
▁advertise	-13.0084
▁apologize	-13.0085
▁convince	-13.0085
OO	-13.0085
▁PERSON	-13.0086
▁DLAAB	-13.0088
▁Noodlej	-13.0088
▁Omaha	-13.0088
▁Should	-13.0088
▁Sihanouk	-13.0088
▁Tousavang	-13.0088
▁anthony	-13.0088
▁documentary	-13.0088
▁Ntsujplig	-13.0088
▁comfortable	-13.0088
▁Martin	-13.0088
▁ZEEM	-13.0088
▁Phwvxev	-13.0088
▁REPEAT	-13.0088
▁PDY	-13.0088
▁PEEV	-13.0088
▁Mike	-13.0088
▁Nyaaj	-13.0088
▁TWO	-13.0088
▁DAIG	-13.0088
▁Youtube	-13.0088
▁succeed	-13.0088
▁zhenged	-13.0088
LuN	-13.0089
▁kavtheej	-13.0089
▁relax	-13.0089
▁bread	-13.0089
▁Tuabneeg	-13.0089
▁khaublig	-13.0089
▁Luaj	-13.0089
▁NTSIAB	-13.0089
▁WHPC	-13.009
▁summary	-13.009
▁airport	-13.009
▁Tshab	-13.009
aspx	-13.0091
▁Try	-13.0091
▁indeed	-13.0091
▁ntxug	-13.0091
▁$1.00	-13.0091
▁Txwm	-13.0092
▁candy	-13.0092
▁VTE	-13.0092
▁roobris	-13.0092
▁Press	-13.0092
▁psychological	-13.0092
▁equality	-13.0093
▁immigration	-13.0093
▁thugs	-13.0093
▁Care	-13.0093
▁Nasxus	-13.0093
▁PHAV	-13.0093
▁beemoua	-13.0094
96	-13.0094
▁NKEEG	-13.0095
▁kamoos	-13.0095
▁kheeg	-13.0095
▁German	-13.0095
▁pawgntseeg	-13.0095
▁reverse	-13.0096
▁qawv	-13.0097
▁mentally	-13.0097
phaj	-13.0098
▁unique	-13.0098
▁score	-13.0099
363	-13.0099
port	-13.0099
▁Tshu	-13.0099
▁Npas	-13.01
▁Civ	-13.01
▁bor	-13.0101
▁guards	-13.0102
▁plej	-13.0102
▁Blue	-13.0102
▁lajkab	-13.0103
▁KHOV	-13.0103
▁zajnkauj	-13.0104
▁kay	-13.0104
▁Never	-13.0104
▁Mog	-13.0105
▁tactics	-13.0106
▁petition	-13.0107
▁looked	-13.0107
▁Cuav	-13.0107
▁Vaajhmoob	-13.0108
▁cheng	-13.0108
▁tyv	-13.0112
▁band	-13.0112
▁HAI	-13.0113
xeev	-13.0115
▁ntxiav	-13.0115
▁ntsaus	-13.0117
23	-13.0118
▁MSP	-13.0118
lt	-13.0119
tel	-13.012
md	-13.0123
!!,	-13.0123
▁nrogkuv	-13.0124
▁pobkub	-13.0126
▁hlu	-13.013
▁Vab	-13.0141
dog	-13.0141
▁charter	-13.0142
▁anger	-13.0142
▁qhaum	-13.0145
dlua	-13.0149
▁chab	-13.0151
▁tech	-13.0152
▁????	-13.0154
▁Ku	-13.016
kham	-13.0163
▁Same	-13.0165
ot	-13.0166
-47	-13.0166
71	-13.0167
mu	-13.0167
▁Hehehehe	-13.0167
▁Laws	-13.0171
▁Bac	-13.0177
kaw	-13.0177
▁damn	-13.0177
▁thaug	-13.0179
▁Sent	-13.0182
▁900	-13.0184
sp	-13.0185
▁Bang	-13.0185
▁NTSA	-13.0192
▁hole	-13.0195
▁LPD	-13.0198
▁loov	-13.0199
▁Hinh	-13.0202
▁ip	-13.0204
▁pebhmoobruam	-13.0207
▁TR	-13.0214
any	-13.0218
qeej	-13.022
▁owe	-13.0222
▁SAV	-13.023
hahhahah	-13.0232
▁nca	-13.0234
▁ibsij	-13.0236
▁TSOB	-13.0239
▁Christians	-13.0257
tig	-13.026
gQ	-13.0274
▁hauvkev	-13.0282
▁hauvqhua	-13.0287
▁mw	-13.0292
▁Read	-13.0292
▁ohy	-13.0293
nyam	-13.0301
nqaij	-13.0302
public	-13.0304
Ntaj	-13.0304
future	-13.0304
tijlaug	-13.0305
use	-13.0306
Nco	-13.0308
▁fly	-13.031
Tabsis	-13.031
▁59	-13.0312
▁Come	-13.0314
33	-13.0316
HR	-13.0317
yob	-13.0318
tsawv	-13.0319
▁nobody	-13.032
▁auto	-13.0325
cag	-13.0327
THOV	-13.0331
▁Caug	-13.0333
▁pocket	-13.0338
ities	-13.0343
Oz	-13.0343
▁ntsiagto	-13.0343
▁adverb	-13.0345
▁grave	-13.0347
aug	-13.0347
dW	-13.0347
▁resolve	-13.0348
▁QHUA	-13.0348
▁Cross	-13.0349
01085/	-13.0351
▁Capital	-13.0351
▁afford	-13.0351
▁bachelor	-13.0351
▁communism	-13.0351
▁flea	-13.0351
▁superior	-13.0351
▁Institute	-13.0351
▁Studies	-13.0351
▁CHIANGMAI	-13.0351
▁Missionary	-13.0351
▁Yahshua	-13.0351
▁ceremony	-13.0351
▁SAWVDAWS	-13.0351
▁Samphong	-13.0351
▁Asmeslikas	-13.0351
▁NVision	-13.0351
▁Country	-13.0351
▁Maabdlawb	-13.0351
▁backyard	-13.0351
▁1959	-13.0351
▁TXAIJ	-13.0351
▁Tswjhwm	-13.0351
▁saykao	-13.0351
▁50-60	-13.0351
▁nrhaab	-13.0352
▁jhav	-13.0352
▁ceebtoom	-13.0352
▁Fakis	-13.0352
▁wake	-13.0352
LuB	-13.0352
▁pajkaub	-13.0352
▁txhwj	-13.0352
▁Khabmeem	-13.0352
▁solar	-13.0352
▁LAS	-13.0353
▁participants	-13.0353
▁200-300	-13.0353
▁PRESIDENT	-13.0353
▁Khoos	-13.0353
▁oneself	-13.0353
▁Cwjmeem	-13.0354
▁2,000	-13.0354
▁QES	-13.0354
▁mouatony	-13.0354
▁recognition	-13.0354
EB	-13.0354
▁caught	-13.0355
▁decided	-13.0355
▁Nengshia	-13.0355
▁ntiagtug	-13.0355
▁nationalism	-13.0356
▁intelligent	-13.0356
▁PathetLao	-13.0356
▁Laim	-13.0356
▁maintain	-13.0357
▁Thaiteb	-13.0357
▁nancy	-13.0357
▁adultery	-13.0358
▁Ntxoog	-13.0358
know	-13.0359
▁ntsauj	-13.0359
▁district	-13.0359
▁joov	-13.0359
▁qug	-13.036
RY	-13.036
▁nrhaiv	-13.036
▁orange	-13.036
▁Ncaim	-13.0361
▁differently	-13.0361
▁speed	-13.0362
▁physically	-13.0363
▁syphd	-13.0363
▁ruv	-13.0363
▁strategies	-13.0363
▁thaws	-13.0364
▁Pebhmoobruam	-13.0364
▁ended	-13.0366
▁jack	-13.0367
▁NR	-13.0367
▁lhau	-13.0367
▁Boum	-13.0368
tsho	-13.0368
▁nwgnuav	-13.037
▁Member	-13.0371
▁players	-13.0371
fair	-13.0376
nyoobhoom	-13.038
▁proved	-13.038
▁mivtub	-13.0382
▁maa	-13.0382
qe	-13.0385
AG	-13.0389
▁xeebleej	-13.0389
BE	-13.039
----	-13.0391
▁global	-13.0394
dee	-13.0396
▁hastxug	-13.0397
▁Ter	-13.0398
▁qag	-13.0399
kauj	-13.0401
▁nge	-13.0403
qb	-13.0407
▁mij	-13.0408
Lit	-13.0411
46	-13.0412
▁NPLUA	-13.0415
▁DI	-13.0416
▁hlaug	-13.0417
▁thovpab	-13.0419
▁shared	-13.0422
▁PAUL	-13.0428
15,000	-13.0429
▁becomes	-13.043
▁tud	-13.0431
▁KN	-13.0432
▁cojlos	-13.0432
▁pk	-13.0437
YUAV	-13.0438
tawj	-13.0438
▁nqha	-13.0438
KPiB	-13.0439
erry	-13.044
▁peoples	-13.044
▁61	-13.0441
▁fau	-13.0447
mom	-13.0452
▁$800	-13.0452
ied	-13.0453
▁foo	-13.0454
ii	-13.0454
By	-13.0455
79	-13.0463
▁Pan	-13.0465
ner	-13.0473
▁lun	-13.0474
caug	-13.0475
▁hauvtsev	-13.0482
▁pij	-13.0484
▁Lau	-13.0486
▁Us	-13.0487
▁khim	-13.0491
▁norm	-13.0491
▁TSOM	-13.0492
▁generalize	-13.0496
ward	-13.0498
▁kh	-13.0502
▁tae	-13.0502
▁visions	-13.0502
▁nowhere	-13.0504
▁NTXA	-13.0507
362	-13.0508
zi	-13.051
LIS	-13.0515
▁khaug	-13.0515
asia	-13.0516
IHN	-13.0522
under	-13.0524
KO	-13.0529
Eg	-13.0535
vo	-13.0545
zaus	-13.0546
About	-13.0548
ntsws	-13.0552
sav	-13.0556
xawm	-13.0563
▁emails	-13.0564
▁QHO	-13.0564
▁min	-13.0566
▁khum	-13.0569
Npis	-13.0572
China	-13.0574
nothing	-13.0575
Vaajmoob	-13.0575
▁HWJ	-13.0576
tan	-13.0576
Tham	-13.0578
local	-13.0578
press	-13.0578
▁1964	-13.0579
▁txojlus	-13.0582
▁shaman	-13.0587
▁moon	-13.0588
Phou	-13.059
▁kli	-13.0591
▁Hum	-13.0592
▁FIGHT	-13.0598
▁phuab	-13.06
▁Np	-13.0603
▁hmmm	-13.0608
▁outcome	-13.0608
▁$1,000	-13.0611
lz	-13.0614
▁consult	-13.0617
plan	-13.0619
▁Egypt	-13.0619
▁ISSUE	-13.0619
▁DOV	-13.0619
▁extend	-13.062
ermanent	-13.062
▁NATION	-13.062
▁qhovntawd	-13.062
▁manage	-13.062
▁EXPERT	-13.0621
▁Ntsimtxhe	-13.0621
▁activity	-13.0621
▁huvtuabsi	-13.0621
▁popcorn	-13.0621
▁Print	-13.0621
▁Support	-13.0621
▁Saddam	-13.0621
▁assistance	-13.0621
▁Phawvnyawm	-13.0621
▁Txheeb	-13.0621
▁Yuepheng	-13.0621
▁Especially	-13.0621
▁mankind	-13.0621
▁NRES	-13.0621
▁Phasnyas	-13.0621
▁FAWM	-13.0621
▁Kauslim	-13.0621
▁NRUJ	-13.0622
▁CWJ	-13.0622
▁ZAUS	-13.0622
ul	-13.0622
▁vdo	-13.0622
▁yaajceeb	-13.0622
▁12-13	-13.0622
▁NTUAS	-13.0622
▁kablaum	-13.0622
▁Phwvnyawj	-13.0622
▁Kaav	-13.0622
▁rheev	-13.0623
▁border	-13.0623
▁txwjlaug	-13.0623
▁Labor	-13.0623
▁offensive	-13.0623
▁NTSIS	-13.0623
▁supply	-13.0623
▁calm	-13.0623
▁ntswvsiab	-13.0624
26	-13.0624
▁bark	-13.0624
▁Yaig	-13.0624
▁Hospital	-13.0624
▁YOUTUBE	-13.0624
▁EXAMPLE	-13.0624
▁confidence	-13.0624
▁Txia	-13.0624
▁dwb	-13.0625
Lo	-13.0625
▁kaig	-13.0625
▁SOOB	-13.0625
▁anywhere	-13.0625
▁conduct	-13.0625
▁txaam	-13.0626
▁ntxawj	-13.0626
▁revealed	-13.0626
▁Qaum	-13.0626
▁Tao	-13.0627
▁TABSI	-13.0627
▁reasonable	-13.0627
▁DongDok	-13.0627
▁STROKE	-13.0627
▁yesterday	-13.0628
LqC	-13.0629
▁povfwm	-13.063
▁ntxeeb	-13.0631
▁destruction	-13.0631
▁nruaj	-13.0631
▁tsausntuj	-13.0632
▁--------------	-13.0633
▁nkib	-13.0633
▁6000	-13.0633
▁Awd	-13.0634
▁nrhaw	-13.0634
▁forced	-13.0634
▁Nram	-13.0635
▁gold	-13.0635
▁Ntxoo	-13.0636
qho	-13.0636
pt	-13.0637
▁tojxeem	-13.0638
-18	-13.0639
▁txub	-13.0641
▁makers	-13.0641
▁XIM	-13.0641
▁ray	-13.0643
▁bed	-13.0643
▁chem	-13.0644
dav	-13.0646
▁Him	-13.0646
▁zajlaug	-13.0646
▁yiv	-13.0647
▁rhi	-13.0648
▁tsee	-13.0648
tre	-13.0648
▁ntshuav	-13.0648
▁efforts	-13.0649
▁xyos	-13.0649
▁yeebyam	-13.0649
▁Lawyers	-13.0651
▁rhau	-13.0652
▁pilots	-13.0656
ls	-13.0657
DR	-13.0659
▁correction	-13.0661
86	-13.0663
▁dialects	-13.0664
▁Tsob	-13.0666
▁wash	-13.0669
Ug	-13.0669
▁engage	-13.0669
▁ntshu	-13.0671
cial	-13.0671
▁veterans	-13.0672
▁costs	-13.0673
mev	-13.0673
zus	-13.0674
▁xuj	-13.0684
laam	-13.0685
▁id	-13.0685
plab	-13.0686
▁kor	-13.0687
▁PT	-13.0688
-16	-13.0689
asian	-13.0702
▁Somsava	-13.0704
HEHEHE	-13.0705
meb	-13.0712
nua	-13.0714
98	-13.0714
▁solutions	-13.0717
BUT	-13.072
▁SAN	-13.0723
oov	-13.0732
hahahah	-13.0736
ual	-13.0736
nia	-13.0738
haib	-13.0741
77	-13.0762
▁labor	-13.0763
Tou	-13.0764
taum	-13.0772
▁Vav	-13.0776
▁Nplua	-13.0776
▁Como	-13.0778
▁MOO	-13.078
khawb	-13.078
▁magic	-13.078
▁links	-13.0783
▁nyau	-13.0784
▁paint	-13.0786
▁leak	-13.079
ph	-13.079
lol	-13.079
▁matters	-13.0792
peem	-13.0795
59	-13.0795
▁Jane	-13.0804
▁changes	-13.0805
▁pomkev	-13.0815
txaj	-13.082
CC	-13.0826
name	-13.0826
▁NPAU	-13.0829
hw	-13.0836
pj	-13.0845
tsuj	-13.0846
Ntxawg	-13.0849
Xiong	-13.0852
brother	-13.0852
English	-13.0852
This	-13.0853
Ntxhais	-13.0854
ncaws	-13.0854
beer	-13.0858
▁ceskawg	-13.0859
▁tobhau	-13.086
▁nyobzoo	-13.086
ncej	-13.0861
rai	-13.0865
▁85	-13.0866
▁100,000	-13.0868
▁plo	-13.0868
cr	-13.087
▁CHA	-13.0877
▁Du	-13.0883
mhoob	-13.0883
▁Pilot	-13.0886
▁function	-13.0886
▁opponent	-13.0886
▁secrete	-13.0889
▁corrupt	-13.0891
Bee	-13.0892
▁cuagli	-13.0895
Tu	-13.0896
▁che	-13.0896
▁broke	-13.0896
▁HI	-13.0897
▁TRAITOR	-13.0897
IHdy	-13.0898
▁1945	-13.0898
▁recent	-13.0898
▁yard	-13.0899
JvdGU	-13.0899
▁profession	-13.0899
▁Hitler	-13.0899
▁Liaison	-13.0899
▁Perhaps	-13.0899
▁QUALIFY	-13.0899
▁UNDERSTAND	-13.0899
▁crocodile	-13.0899
▁MUCH	-13.0899
▁SHARE	-13.0899
▁Suprem	-13.0899
▁Centurion	-13.0899
▁Phetsarath	-13.0899
biggest	-13.0899
▁HAUJLWM	-13.0899
▁ASMESKAS	-13.0899
▁bi	-13.0899
▁cheap	-13.0899
▁praise	-13.0899
▁bigger	-13.0899
▁VOM	-13.0899
▁Also	-13.0899
▁bunch	-13.0899
▁1993	-13.0899
comcast	-13.0899
▁Hinheup	-13.0899
▁Toojkhwb	-13.0899
▁plaig	-13.09
▁Phouthen	-13.09
▁samthong	-13.09
▁Hiem	-13.09
▁Ngum	-13.09
▁XAAV	-13.09
▁YEARS	-13.09
▁XWS	-13.09
▁ristsho	-13.09
▁carefully	-13.0901
▁Asmekas	-13.0901
▁10:00	-13.0901
▁intended	-13.0901
▁cajpas	-13.0901
▁xovtoojcua	-13.0901
▁Vammeej	-13.0901
thong	-13.0902
▁trap	-13.0902
▁ntxaum	-13.0902
▁Ntxub	-13.0902
▁vej	-13.0902
▁Moobtwmzeej	-13.0902
▁colorado	-13.0902
▁typical	-13.0902
▁teevhawm	-13.0903
▁NeoHom	-13.0903
▁Tojsiab	-13.0903
▁hlubx	-13.0903
▁shop	-13.0903
▁CALL	-13.0904
▁introduced	-13.0904
▁Tsavlis	-13.0904
▁QEB	-13.0904
▁Puv	-13.0904
▁violence	-13.0905
▁destructive	-13.0905
▁nplam	-13.0905
▁creator	-13.0905
▁opposition	-13.0905
▁Switzerland	-13.0906
▁adin	-13.0906
▁TSAJ	-13.0907
▁Qus	-13.0907
▁1989	-13.0908
▁LAWYER	-13.0908
▁STATE	-13.0908
▁Moses	-13.0909
▁koobmeej	-13.0909
▁NTXHW	-13.0909
▁trained	-13.0909
▁ntshiv	-13.0912
▁CLAN	-13.0912
ouC	-13.0913
▁mabdawb	-13.0913
▁hnoos	-13.0914
▁educators	-13.0914
▁txhiv	-13.0915
▁soua	-13.0915
▁classes	-13.0915
▁finding	-13.0915
▁tavsu	-13.0918
QU	-13.0918
/11	-13.0918
▁$5000	-13.0919
▁quavdev	-13.0919
oun	-13.092
▁ntxeevsiab	-13.0923
media	-13.0924
▁NRO	-13.0925
▁Jr	-13.0925
▁Kongphan	-13.0927
▁hmooob	-13.0929
tor	-13.093
▁feed	-13.0931
liag	-13.0931
ys	-13.0933
▁played	-13.0933
-------------	-13.0934
▁lojhlob	-13.0935
▁Dan	-13.0935
▁plauv	-13.0939
▁Dais	-13.0942
▁oom	-13.0944
▁worked	-13.0945
CIA	-13.0945
▁leegtwg	-13.0947
▁xajn	-13.0949
▁Yaw	-13.0949
npawg	-13.095
▁TXO	-13.0952
▁MEM	-13.0953
▁poster	-13.0954
▁npl	-13.0954
▁npom	-13.0956
▁nyhoo	-13.0959
▁ntshw	-13.0966
▁HATE	-13.0967
Ig	-13.0967
▁TOB	-13.0971
▁ncuaj	-13.0974
▁feelings	-13.0975
61	-13.0976
▁BM	-13.0976
▁bang	-13.0976
▁stands	-13.0978
cais	-13.0988
ghais	-13.099
▁ambassador	-13.099
▁Fact	-13.099
▁Kj	-13.0991
gPiB	-13.0996
▁ualicas	-13.0999
xyuas	-13.1007
zab	-13.1007
▁sibxws	-13.1008
▁51	-13.1011
▁===	-13.1012
▁==============	-13.1012
option	-13.1013
▁hearts	-13.1014
ler	-13.1016
48	-13.1022
ara	-13.1025
▁lwmtug	-13.1033
▁covkwvtij	-13.1034
khi	-13.1034
▁yw	-13.1034
Ban	-13.1035
▁$25	-13.1038
▁Tejno	-13.1048
▁Cias	-13.105
▁125	-13.1051
AJ	-13.1055
702	-13.106
LUS	-13.1061
▁timub	-13.1061
▁cup	-13.1062
▁yad	-13.1066
GM	-13.107
▁core	-13.1081
▁nqho	-13.1088
saab	-13.1088
▁Khas	-13.1098
▁----	-13.1099
nder	-13.111
CK	-13.111
▁nan	-13.1113
49	-13.1115
▁Dlai	-13.1118
deev	-13.1121
je	-13.1125
▁lay	-13.1127
tha	-13.1134
Dub	-13.1135
global	-13.1137
minority	-13.1137
TSHUM	-13.1137
French	-13.1137
Fresno	-13.1138
KAWM	-13.1145
▁roll	-13.1145
txias	-13.1146
Sawv	-13.1148
tshuab	-13.115
▁ntxua	-13.1155
/10	-13.1156
▁pla	-13.1156
open	-13.1158
LIAB	-13.116
▁Sex	-13.116
phim	-13.1164
-17	-13.1164
▁Kai	-13.1165
▁hlw	-13.1165
▁shift	-13.1171
▁elder	-13.1172
Dg	-13.1174
72	-13.1175
▁hundred	-13.1179
ital	-13.118
lai	-13.1181
▁torture	-13.1182
▁accuse	-13.1182
▁Wed	-13.1183
▁obvious	-13.1184
▁quiet	-13.1184
▁Luck	-13.1184
caum	-13.1184
▁AMERICA	-13.1184
▁engine	-13.1184
▁Tubcajces	-13.1184
▁TALK	-13.1184
▁Georgia	-13.1185
▁Shiiyi	-13.1185
▁Stockton	-13.1185
▁BECAUSE	-13.1185
▁BOSS	-13.1185
▁NRUAB	-13.1185
▁SYSTEM	-13.1185
▁Province	-13.1185
▁survival	-13.1185
▁gambling	-13.1185
▁levels	-13.1185
▁Asmiskas	-13.1185
▁Croc	-13.1185
▁prize	-13.1185
▁chivkeeb	-13.1185
▁usual	-13.1185
▁winter	-13.1185
▁Neegtojsiab	-13.1185
▁Hanoi	-13.1185
BMh	-13.1185
▁Laonork	-13.1185
▁loojmem	-13.1186
▁Maivkaus	-13.1186
▁tamsino	-13.1186
▁tuabyaamnkaus	-13.1186
▁RAS	-13.1186
▁KEEP	-13.1186
▁Bloglab	-13.1186
▁Kavliam	-13.1186
▁ASEAN	-13.1187
▁Nplob	-13.1187
▁60%	-13.1187
▁kabtsib	-13.1187
▁behave	-13.1187
▁fishing	-13.1188
▁horse	-13.1188
▁tubcajceszoo	-13.1188
▁fundraising	-13.1188
▁Keebkwm	-13.1188
▁communicate	-13.1188
▁Txhawb	-13.1188
▁kung	-13.1188
▁Veescas	-13.1188
▁gathering	-13.1189
▁PHONE	-13.119
▁Grand	-13.119
▁namyau	-13.119
▁Khaws	-13.119
▁Peacock	-13.1191
▁minorities	-13.1191
▁Kaoly	-13.1191
▁phiab	-13.1192
▁ghost	-13.1192
▁ThaibTeb	-13.1193
▁6:00	-13.1193
▁rhees	-13.1194
▁Yor	-13.1194
▁Island	-13.1195
▁NTSEG	-13.1195
▁leading	-13.1195
▁teaching	-13.1197
▁Land	-13.1197
▁Being	-13.1197
▁Xaam	-13.1197
▁Amkha	-13.1197
60	-13.1198
▁hmongmen	-13.1198
▁Satan	-13.1198
▁Old	-13.1198
▁grammar	-13.1198
▁nploojsab	-13.1198
▁raped	-13.1199
▁nyabxeeb	-13.12
▁products	-13.12
ocities	-13.1201
▁mongkey	-13.1201
▁faa	-13.1201
▁Nrau	-13.1203
▁Hmoobleejtub	-13.1204
▁vimlicas	-13.1205
▁subgroup	-13.1208
339.	-13.121
▁xwg	-13.1212
▁TAUJ	-13.1213
paubkuv	-13.1214
KPiAN	-13.1218
▁Chair	-13.1218
▁sell	-13.1224
▁Ro	-13.1227
▁MOVIE	-13.123
▁Veterans	-13.1236
bGF	-13.1237
HE	-13.1237
▁xang	-13.1238
▁Tsuv	-13.1241
▁hang	-13.1241
▁AWB	-13.1241
ntshav	-13.1242
▁khaim	-13.1242
▁facebook	-13.1244
▁affairs	-13.1244
hob	-13.1244
▁dress	-13.1247
▁Yiv	-13.1248
▁zoglawm	-13.1248
▁Chor	-13.1253
hiav	-13.1254
▁sws	-13.1256
▁pastors	-13.1257
▁Loas	-13.126
bin	-13.126
▁cow	-13.1267
▁suavteb	-13.1268
▁twh	-13.1272
phan	-13.1279
▁speculation	-13.1282
▁yawgnom	-13.1284
ND	-13.1286
LUAG	-13.1289
▁vaus	-13.1289
▁Bo	-13.1296
INTO	-13.13
aav	-13.1303
▁Tsus	-13.1306
▁causes	-13.1306
▁lubcaij	-13.1307
▁MEAN	-13.1317
▁pwb	-13.1319
cG	-13.132
xy	-13.1333
ative	-13.1334
▁TAI	-13.1337
tsawb	-13.1352
quot	-13.1356
khuam	-13.1357
▁lujx	-13.1357
Re	-13.1361
tx	-13.1363
him	-13.1371
▁thinks	-13.1372
get	-13.1376
▁logical	-13.1378
Neeb	-13.1378
nruag	-13.1382
nrauj	-13.1388
CIALI	-13.1389
39	-13.139
▁ou	-13.1391
▁Power	-13.1391
politic	-13.1392
▁Daw	-13.1394
▁Roman	-13.1396
XF	-13.1396
txeeg	-13.1398
xij	-13.1401
▁TT	-13.1401
97	-13.1402
New	-13.1403
▁Fo	-13.1409
▁cw	-13.1409
Thai	-13.1422
Aub	-13.1424
▁dhaum	-13.1425
mitted	-13.1431
english	-13.1432
please	-13.1432
those	-13.1432
social	-13.1432
cg	-13.1433
secret	-13.1434
▁tusiav	-13.1435
Txhua	-13.1435
dis	-13.1435
▁lines	-13.1436
▁gov	-13.1437
▁van	-13.1439
legal	-13.1441
PAB	-13.1444
▁Aud	-13.1447
!!!!!!!!!!	-13.1448
Sub	-13.1452
▁critique	-13.1456
IL	-13.1456
lov	-13.1456
▁believes	-13.1457
800	-13.1458
▁FE	-13.1462
▁material	-13.1462
▁patient	-13.1465
dlev	-13.1466
▁taabsi	-13.1468
▁Congratulation	-13.1469
▁royal	-13.1471
▁Cambodian	-13.1472
AY	-13.1474
▁nchaa	-13.1476
▁Lai	-13.1477
▁Phon	-13.1477
zeeg	-13.1478
▁abandon	-13.1478
ld	-13.1478
bn	-13.1479
▁Thorsp	-13.1479
▁Najvej	-13.1479
▁Phwnyawm	-13.1479
▁SIJHAWM	-13.1479
▁Txoovkavtiab	-13.1479
▁Yunnan	-13.1479
▁comparison	-13.1479
▁pennies	-13.1479
▁HISTORY	-13.1479
▁domestic	-13.1479
▁Somphone	-13.1479
▁FRANCE	-13.1479
▁Touyer	-13.1479
▁junk	-13.1479
▁Christopher	-13.1479
▁persue	-13.1479
LmA	-13.1479
▁strike	-13.1479
▁Nosavanh	-13.1479
▁navthwm	-13.1479
▁PAUS	-13.1479
▁founder	-13.1479
▁underage	-13.148
▁PAIB	-13.148
▁phabmab	-13.148
▁Zoua	-13.148
▁NCIG	-13.148
▁Original	-13.148
▁Xaus	-13.148
▁Maam	-13.148
▁qob	-13.1481
▁TSHAV	-13.1481
▁commitment	-13.1481
▁AMERICAN	-13.1481
viv	-13.1481
▁timxyeej	-13.1482
gU	-13.1482
▁nyaib	-13.1482
▁hahahahhaha	-13.1482
▁Computer	-13.1482
▁KABLIAM	-13.1482
▁FOOB	-13.1482
▁KUv	-13.1483
▁sawvntxov	-13.1483
▁ntxawv	-13.1483
▁Txim	-13.1483
▁Tsabmim	-13.1483
▁nplu	-13.1483
▁cimxeeb	-13.1484
▁dictatorship	-13.1484
▁shoes	-13.1484
▁Banning	-13.1484
▁Naphi	-13.1484
▁Local	-13.1484
▁vum	-13.1484
▁npluj	-13.1486
▁txhem	-13.1487
▁corrupted	-13.1487
▁Covphoojywg	-13.1487
▁Cum	-13.1487
▁organized	-13.1487
▁nplhis	-13.1487
▁Kin	-13.1487
▁tshwv	-13.1488
haam	-13.1488
▁registered	-13.1488
▁Regards	-13.1488
▁credible	-13.1488
▁MHOOB	-13.1488
▁Tshav	-13.1489
▁hunters	-13.1489
▁Top	-13.149
▁invention	-13.149
▁chib	-13.1491
67	-13.1491
▁thoos	-13.1491
▁Baccalaureate	-13.1492
▁dlob	-13.1493
King	-13.1493
▁broad	-13.1493
▁txawjxoom	-13.1494
▁sistxuas	-13.1494
▁piaj	-13.1494
▁49	-13.1494
▁neeeg	-13.1495
▁herself	-13.1495
▁Yin	-13.1495
▁thaas	-13.1496
▁scientists	-13.1496
▁loud	-13.1496
▁tubse	-13.1497
▁mekong	-13.1497
Lqe	-13.1499
ric	-13.15
▁hmmmm	-13.15
SU	-13.1501
▁mloo	-13.1502
▁Tsuag	-13.1503
▁TJ	-13.1503
▁Lispov	-13.1503
▁inch	-13.1504
Thawj	-13.1505
▁blogteb	-13.1505
▁lajxeeb	-13.1506
▁Tusiab	-13.1507
▁heal	-13.1509
▁nimnov	-13.1512
▁86	-13.1512
▁Moon	-13.1516
▁cents	-13.1517
UAG	-13.1522
▁leejniam	-13.1522
▁gossips	-13.1522
▁pleg	-13.1523
▁characters	-13.1525
TUB	-13.1526
▁xwbhwb	-13.153
san	-13.1532
▁HUV	-13.1532
khw	-13.1533
▁ceevx	-13.1533
▁Mag	-13.1534
▁rent	-13.1535
YOU	-13.1538
▁standards	-13.1539
mental	-13.1543
▁kl	-13.1545
vt	-13.1546
▁ntias	-13.1547
▁46	-13.1549
▁LOOK	-13.1552
▁bid	-13.1555
XX	-13.1558
ated	-13.1558
620	-13.1563
LL	-13.1567
txh	-13.1568
▁games	-13.1569
▁TOD	-13.1572
▁generations	-13.1575
▁****	-13.1596
▁Part	-13.1598
lm	-13.1599
▁lubcev	-13.1599
▁Caw	-13.1599
BA	-13.1601
▁ref	-13.1603
▁answers	-13.1608
▁2005.	-13.1608
nis	-13.1608
1)	-13.162
▁Kv	-13.1621
tsib	-13.1629
ncaug	-13.1638
tbn	-13.164
-8	-13.164
ile	-13.1642
▁ves	-13.1645
▁phia	-13.1649
xu	-13.165
▁YWJ	-13.1651
..!	-13.1656
ory	-13.166
▁cable	-13.1664
83	-13.1666
▁LS	-13.1668
300	-13.1681
gh	-13.1684
sin	-13.1684
CE	-13.1686
UJ	-13.1686
ygo	-13.169
family	-13.1704
▁YU	-13.1709
txia	-13.171
IM	-13.1713
million	-13.1717
▁Hmmob	-13.1717
mai	-13.1718
▁nrhai	-13.1718
key	-13.172
maim	-13.1721
bel	-13.1723
▁adapt	-13.1724
Laus	-13.1727
▁Ev	-13.1729
form	-13.1729
LESS	-13.173
Leeg	-13.1731
caj	-13.1732
▁Red	-13.1734
similar	-13.1735
white	-13.1735
idonotknow	-13.1735
Fajkhaum	-13.1735
order	-13.1735
Kawg	-13.1735
research	-13.1735
stupid	-13.1736
work	-13.1736
general	-13.1736
DUB	-13.1736
TEB	-13.1737
Maum	-13.1737
NCg	-13.1737
nawd	-13.1738
anti	-13.1742
Yam	-13.175
xib	-13.1753
▁xavkom	-13.1754
▁ibpliag	-13.1757
ds	-13.1757
cn	-13.1763
ATION	-13.1765
eu	-13.1767
ut	-13.1771
MR	-13.1774
▁technical	-13.1774
WAY	-13.1776
dam	-13.1779
▁escape	-13.1779
▁jhaw	-13.178
▁PROBLEM	-13.178
▁cooperate	-13.1781
lor	-13.1781
▁Author	-13.1782
▁implement	-13.1782
▁CONTACT	-13.1782
▁Academy	-13.1782
▁Angola	-13.1782
▁Daniel	-13.1782
▁Festival	-13.1782
▁McCoy	-13.1782
▁Mutual	-13.1782
▁Street	-13.1782
▁Vietiane	-13.1782
▁Which	-13.1782
▁Francisco	-13.1782
▁classmate	-13.1782
▁versus	-13.1782
▁Temsis	-13.1782
▁admitted	-13.1782
▁hotdog	-13.1782
▁intend	-13.1782
▁NtsuabRwg	-13.1782
▁sorties	-13.1782
▁slavery	-13.1782
▁winner	-13.1782
▁Beginanew	-13.1782
▁Learn	-13.1782
▁Angeles	-13.1782
▁minimum	-13.1782
▁Tagkis	-13.1782
▁15-20	-13.1782
▁bausuav	-13.1782
▁Still	-13.1783
▁Ruamuag	-13.1783
▁xyeejtsawg	-13.1783
▁TMC	-13.1783
▁riov	-13.1783
▁caubmoos	-13.1783
▁accountable	-13.1783
every	-13.1783
▁TLK	-13.1783
▁5:00	-13.1783
▁cry	-13.1783
▁describe	-13.1784
▁dump	-13.1784
▁TSWM	-13.1784
▁BEST	-13.1784
▁dismiss	-13.1784
▁Welfare	-13.1784
▁dawbpaug	-13.1784
▁Tshajpl	-13.1784
▁txhwv	-13.1784
▁Unknown	-13.1784
▁currently	-13.1784
▁TSHIAJ	-13.1785
▁3:00	-13.1785
▁dinner	-13.1785
▁Keem	-13.1786
▁FajKhaum	-13.1786
▁Eev	-13.1786
▁attached	-13.1786
▁TYY	-13.1786
▁liberate	-13.1786
▁58	-13.1786
▁YAG	-13.1787
▁ignorance	-13.1787
▁violent	-13.1787
▁TCMD	-13.1787
▁decades	-13.1787
▁suggested	-13.1787
▁burger	-13.1787
▁weight	-13.1787
▁vaugh	-13.1788
▁extreme	-13.1788
▁CEO	-13.1788
▁commercial	-13.1789
▁dlhos	-13.1789
▁kiaj	-13.1789
▁tribal	-13.179
▁Thooj	-13.179
▁download	-13.179
▁FWM	-13.179
▁DNA	-13.1791
kum	-13.1791
▁lycee	-13.1791
tax	-13.1791
▁phoj	-13.1792
▁taxes	-13.1792
▁pamtuag	-13.1793
▁SKS	-13.1793
▁bone	-13.1793
▁audio	-13.1793
▁Yeem	-13.1794
▁rhuab	-13.1795
▁nkoo	-13.1796
▁ceeblaj	-13.1797
▁chang	-13.1798
▁formed	-13.1799
▁provided	-13.1799
▁tuias	-13.18
▁phee	-13.1801
msg	-13.1805
▁npooj	-13.1805
▁dreaming	-13.1806
▁ntsaab	-13.1806
▁ntxog	-13.1807
▁nkaujmuam	-13.1807
▁8,000	-13.1808
▁Pev	-13.1808
ks	-13.1812
▁measure	-13.1812
▁cojnoj	-13.1814
▁txhaistes	-13.1816
▁MX	-13.1816
wn	-13.1816
▁Lawb	-13.1816
▁DA	-13.1819
▁Kib	-13.1821
▁Deng	-13.1822
▁RAW	-13.1825
▁SN	-13.1827
▁mon	-13.1827
▁ntugkev	-13.183
My	-13.183
▁sibtshum	-13.1834
cl	-13.1839
TI	-13.1841
▁plane	-13.1845
▁mock	-13.1845
huas	-13.1846
▁OG	-13.1848
▁Cag	-13.1849
ooj	-13.1851
▁npajsiab	-13.1853
▁persons	-13.1853
das	-13.1854
▁tibtug	-13.1855
▁taxi	-13.1857
▁wouldn	-13.1858
▁txoh	-13.1861
▁thian	-13.1862
UAJ	-13.1865
▁Sat	-13.1869
▁213,	-13.1869
▁Ntses	-13.187
uc	-13.1875
▁2002,	-13.1882
gn	-13.1892
▁qh	-13.1894
▁jobs	-13.1898
zs	-13.1898
▁sibsau	-13.1899
▁clubs	-13.1905
vi	-13.1909
SIB	-13.191
▁professionals	-13.1911
MENT	-13.1911
keep	-13.1911
▁pack	-13.1912
▁turns	-13.192
▁txhualeej	-13.1932
▁naus	-13.1935
!!!"	-13.1938
ym	-13.1939
▁mature	-13.1939
▁Sad	-13.1942
yo	-13.1943
▁tawmsis	-13.1945
▁phan	-13.195
sion	-13.1951
oc	-13.1958
▁HC	-13.1961
hiaj	-13.1966
fbi	-13.1974
▁kai	-13.1975
LA	-13.1976
Pha	-13.1977
▁hoskuv	-13.1982
▁toov	-13.1983
toog	-13.1985
▁LAI	-13.1989
paus	-13.2002
hy	-13.2004
nawm	-13.2006
Fa	-13.2009
xas	-13.2011
TER	-13.2011
▁VajHmoob	-13.2012
▁qhovquav	-13.2017
▁chawv	-13.2019
▁Uaib	-13.2022
▁SEA	-13.2026
▁Tw	-13.2026
ncig	-13.203
▁STOP	-13.2031
hn	-13.2032
kauv	-13.2034
▁Both	-13.2035
ster	-13.2035
kuvli	-13.2036
▁tseen	-13.2037
▁Fai	-13.2042
artial	-13.2043
zuag	-13.2043
Royal	-13.2047
Noogdlej	-13.2047
first	-13.2047
pejxeem	-13.2047
down	-13.2048
dablaug	-13.2049
Kao	-13.205
nyog	-13.2052
thoob	-13.2054
▁revolution	-13.2054
roj	-13.2055
▁Tamsisno	-13.2056
dd	-13.2066
TA	-13.207
Tiag	-13.2073
▁nyee	-13.2079
▁consonant	-13.2081
▁vin	-13.2082
Ro	-13.2083
▁factor	-13.2085
▁expense	-13.2085
vong	-13.2088
▁window	-13.2089
▁Kais	-13.209
ZyB	-13.209
▁LIVE	-13.2091
▁desperate	-13.2091
▁mor	-13.2092
▁Movie	-13.2092
▁script	-13.2093
▁Actually	-13.2094
▁Canberra	-13.2094
▁GENERATION	-13.2094
▁recipe	-13.2094
▁sacrify	-13.2094
▁distinguish	-13.2094
▁joking	-13.2094
▁privacy	-13.2094
▁NPLAIG	-13.2094
▁TXHIAJLIS	-13.2094
▁Khekme	-13.2094
▁LongCheng	-13.2094
▁PERFECT	-13.2094
▁JAIL	-13.2094
▁loyalty	-13.2094
▁resource	-13.2094
▁NTXHOV	-13.2094
▁WHOLE	-13.2094
▁Maabqus	-13.2094
▁RFA	-13.2094
▁doens	-13.2094
▁citizenship	-13.2095
▁RENO	-13.2095
▁Phonesavanh	-13.2095
▁100-200	-13.2095
▁Abuse	-13.2095
▁Sadam	-13.2095
▁Najkhoom	-13.2095
▁livxwm	-13.2095
▁zuam	-13.2095
▁noodlej	-13.2095
▁nyawb	-13.2095
▁Mikas	-13.2095
uOC	-13.2095
▁PROTEST	-13.2095
▁Realistor	-13.2095
▁strength	-13.2095
▁DEMOCRACY	-13.2095
▁Bien	-13.2095
▁curse	-13.2095
▁Dien	-13.2095
▁TXAV	-13.2095
▁tseeem	-13.2095
▁TAJ	-13.2095
▁CAAG	-13.2095
▁teejtug	-13.2096
▁Txawjvam	-13.2096
▁Ntiv	-13.2096
▁phabnab	-13.2096
▁silent	-13.2097
▁tolerate	-13.2097
int	-13.2097
▁repent	-13.2097
▁Vimlicas	-13.2097
▁paajlug	-13.2097
▁Iran	-13.2097
▁Ntxhi	-13.2097
▁Check	-13.2097
loob	-13.2098
▁HAND	-13.2098
▁negotiate	-13.2098
▁bodies	-13.2098
▁CREDIT	-13.2098
▁dominate	-13.2098
▁Huay	-13.2098
▁ntlag	-13.2098
▁discussed	-13.2099
▁TIS	-13.2099
▁Qos	-13.2099
LqV	-13.2099
▁risky	-13.2099
▁seminar	-13.21
▁Khmu	-13.21
▁significant	-13.21
hr	-13.21
phab	-13.21
▁10-12	-13.2101
▁piab	-13.2101
▁prepared	-13.2101
▁chov	-13.2101
▁wheel	-13.2101
▁tubqaug	-13.2101
eW	-13.2101
gS	-13.2102
AWM	-13.2102
▁nkawb	-13.2103
▁1,500	-13.2103
▁dlaabqhuas	-13.2103
▁saav	-13.2104
▁nciav	-13.2104
▁mobile	-13.2105
▁tsawj	-13.2105
▁verbal	-13.2106
▁ciajvaj	-13.2107
▁thoojsab	-13.2107
▁kaajsab	-13.2107
▁zauj	-13.2108
▁TXHOM	-13.2108
▁yeb	-13.2108
▁qaav	-13.2109
ear	-13.2109
▁KHAWB	-13.211
▁PERSECUTE	-13.2111
▁nruabsab	-13.2115
IH	-13.2115
▁pabcuam	-13.2115
▁stamp	-13.2116
▁bond	-13.2117
▁barbaric	-13.2118
▁SUA	-13.2118
!..	-13.2119
▁KwvtijHmoob	-13.212
▁thaublaus	-13.2121
▁LEADERS	-13.2122
▁nk	-13.2127
▁adam	-13.2128
358	-13.2129
▁Loos	-13.213
▁(19	-13.2132
▁hluasnraug	-13.2133
▁lwjsiab	-13.2135
▁teachers	-13.2136
▁BZ	-13.2137
▁letters	-13.214
▁Tel	-13.2141
▁ntxib	-13.2141
▁NOG	-13.2142
▁sibdig	-13.2147
yej	-13.2147
ped	-13.2151
high	-13.2155
▁Souk	-13.2155
▁hnu	-13.2156
▁mercenary	-13.2156
off	-13.216
loskuv	-13.2161
YSB	-13.2164
▁seat	-13.2166
▁zoozoo	-13.2166
▁professors	-13.2169
kan	-13.217
AT	-13.2171
▁HAHAHA	-13.2176
▁rise	-13.218
▁GA	-13.218
thi	-13.2184
/30	-13.2185
▁Ther	-13.2188
▁Wis	-13.2189
▁rovlawm	-13.2191
ATE	-13.2197
▁Hummm	-13.2197
pg	-13.2203
txhiab	-13.2203
▁joint	-13.2203
▁UV	-13.2205
sh	-13.2208
eker	-13.2208
puv	-13.2218
▁khooj	-13.2221
/6	-13.2222
▁MOM	-13.2225
tI	-13.2226
▁tough	-13.2227
▁Yas	-13.223
tsaus	-13.2232
▁Nt	-13.2233
▁KH	-13.2237
maly	-13.2239
xais	-13.2241
sign	-13.2244
▁HMOO	-13.2251
ip	-13.2253
▁herb	-13.2256
niv	-13.2257
▁npos	-13.2258
▁plhe	-13.2258
)))	-13.2263
▁$30	-13.2263
nroog	-13.2265
▁Tse	-13.2266
lang	-13.2267
ik	-13.2272
-40	-13.2273
▁mauv	-13.2277
▁dare	-13.228
▁OFF	-13.2283
ick	-13.2284
▁arm	-13.2284
▁ED	-13.2285
▁chue	-13.2287
▁LIST	-13.2288
▁nd	-13.2288
▁Late	-13.229
▁nchu	-13.2291
-***	-13.2292
▁THA	-13.2295
".....	-13.2295
▁npho	-13.2298
▁ac	-13.2298
▁qhoo	-13.2301
phooj	-13.2304
leem	-13.2309
spot	-13.231
▁yoos	-13.2312
TRE	-13.2319
qabntxhiab	-13.2323
▁thaw	-13.2323
▁plans	-13.2324
▁Txaw	-13.2326
▁PARK	-13.2328
Qo	-13.2331
RAWM	-13.2331
NS	-13.2334
▁SP	-13.2335
[...]
